{"<unk>":0,"<s>":1,"</s>":2,"[PAD]":3,"[MASK]":4,"\t":5,"\n":6,"\"":7,"#":8,"$":9,"%":10,"&":11,"'":12,"(":13,")":14,"*":15,"+":16,",":17,"-":18,".":19,"/":20,"0":21,"1":22,"2":23,"3":24,"4":25,"5":26,"6":27,"7":28,"8":29,"9":30,":":31,";":32,"<":33,"=":34,">":35,"?":36,"@":37,"A":38,"B":39,"C":40,"D":41,"E":42,"F":43,"G":44,"H":45,"I":46,"J":47,"K":48,"L":49,"M":50,"N":51,"O":52,"P":53,"Q":54,"R":55,"S":56,"T":57,"U":58,"V":59,"W":60,"X":61,"Y":62,"Z":63,"[":64,"\\":65,"]":66,"_":67,"a":68,"b":69,"c":70,"d":71,"e":72,"f":73,"g":74,"h":75,"i":76,"j":77,"k":78,"l":79,"m":80,"n":81,"o":82,"p":83,"q":84,"r":85,"s":86,"t":87,"u":88,"v":89,"w":90,"x":91,"y":92,"z":93,"{":94,"}":95,"~":96,"α":97,"’":98,"▁":99,"in":100,"▁a":101,"▁t":102,"re":103,"on":104,"ti":105,"he":106,"al":107,"en":108,"te":109,"▁o":110,"▁s":111,"▁in":112,"▁c":113,"es":114,"nd":115,"▁p":116,"▁the":117,"ar":118,"▁m":119,"▁d":120,"▁of":121,"or":122,".\n":123,"is":124,"▁w":125,"er":126,"▁and":127,"as":128,"tion":129,"▁f":130,"it":131,"ro":132,"an":133,"ing":134,"ic":135,"ed":136,"ec":137,"▁re":138,"at":139,"▁b":140,"▁to":141,"us":142,"ve":143,"ia":144,"▁h":145,"om":146,"le":147,"id":148,"▁e":149,"ate":150,"ent":151,"os":152,"ation":153,"▁(":154,"ac":155,"ly":156,"▁th":157,"lo":158,"▁v":159,"ur":160,"im":161,"ce":162,"ul":163,"th":164,"od":165,"▁n":166,"il":167,"ith":168,"▁P":169,"ted":170,"▁A":171,"▁with":172,"▁we":173,"aria":174,"▁for":175,"▁st":176,"ir":177,"ig":178,"▁C":179,"▁T":180,"um":181,"ter":182,"▁g":183,"ity":184,"ts":185,"qu":186,"un":187,"▁as":188,"ion":189,"fec":190,"tic":191,"alaria":192,"el":193,"▁an":194,"▁con":195,"ol":196,"em":197,"ut":198,"et":199,"▁pro":200,"▁malaria":201,"ver":202,"ra":203,"▁l":204,"ud":205,"if":206,"ri":207,"▁that":208,"▁de":209,"▁S":210,"▁com":211,"▁res":212,"▁is":213,"▁pre":214,"uc":215,"ue":216,"▁I":217,"am":218,"ge":219,"tive":220,"▁on":221,"▁2":222,"▁were":223,"op":224,"s.\n":225,"und":226,"▁M":227,"st":228,"▁1":229,"oc":230,"ren":231,"eng":232,"ot":233,"ow":234,"▁was":235,"▁The":236,"▁D":237,"▁us":238,"ran":239,"rom":240,"ence":241,"ys":242,"ated":243,"ine":244,"ment":245,"▁im":246,"▁infec":247,"ess":248,"▁dis":249,"engue":250,"▁inc":251,"ab":252,"▁ch":253,"▁ex":254,"ical":255,"ip":256,"▁be":257,"res":258,"iv":259,"ies":260,"▁ac":261,"▁W":262,"▁from":263,"▁R":264,"por":265,"ite":266,"▁stud":267,"sion":268,"ad":269,"s,":270,"eas":271,"▁par":272,"igh":273,"▁are":274,"▁by":275,"0.":276,"her":277,"▁ass":278,"pec":279,"red":280,"▁co":281,"ting":282,"▁he":283,"se":284,"▁comp":285,"ain":286,"rans":287,"▁r":288,"ant":289,"▁dengue":290,"▁cont":291,"ub":292,"▁al":293,"tor":294,"▁mos":295,"▁H":296,"ug":297,"▁ne":298,"ance":299,"▁infection":300,"▁trans":301,"▁se":302,"▁B":303,"▁gen":304,"ous":305,"las":306,"enti":307,"▁mod":308,"mis":309,"yp":310,"alth":311,"irus":312,"00":313,"ific":314,"up":315,"▁P.":316,"ven":317,"ati":318,"val":319,"▁at":320,"duc":321,"▁lo":322,"ore":323,"iti":324,"▁study":325,"and":326,"iz":327,"▁dat":328,"ist":329,"▁wh":330,"▁20":331,"▁ad":332,"ong":333,"▁model":334,"▁ef":335,"▁cl":336,"ure":337,"▁per":338,"pl":339,"ill":340,"quit":341,"tim":342,"▁We":343,"ay":344,"rol":345,"log":346,"quito":347,"▁cas":348,"pro":349,"▁In":350,"ign":351,"▁or":352,"▁health":353,"mission":354,"▁inter":355,").\n":356,"▁mosquito":357,"▁E":358,"▁ind":359,"ear":360,"ens":361,"ak":362,"),":363,"19":364,"asite":365,"ric":366,"ulation":367,"olog":368,"ik":369,"▁high":370,"▁data":371,"▁diseas":372,"▁le":373,"▁reg":374,"▁this":375,"▁sh":376,"eth":377,"ary":378,"▁3":379,"cip":380,"▁O":381,"ch":382,"▁F":383,"▁ha":384,"ros":385,"es.\n":386,"▁out":387,"▁parasite":388,"▁N":389,"ased":390,"▁ca":391,"tions":392,"ents":393,"vel":394,"▁transmission":395,"etw":396,"▁anal":397,"▁virus":398,"fe":399,"ial":400,"orm":401,"ph":402,"end":403,"ell":404,"og":405,"per":406,"ocia":407,"est":408,"▁control":409,"lasm":410,"ual":411,"▁k":412,"ide":413,"▁ap":414,"ults":415,"5%":416,"ag":417,"enc":418,"tec":419,"age":420,"ers":421,"feren":422,"ium":423,"▁associa":424,"ethod":425,"▁und":426,"idence":427,"fic":428,"ID":429,"alcip":430,"arum":431,"alciparum":432,"isk":433,"ild":434,"emic":435,"▁y":436,"▁L":437,"mun":438,"es,":439,"pid":440,"ther":441,"ost":442,"▁effec":443,"▁fac":444,"▁falciparum":445,"OV":446,"odium":447,"▁sp":448,"lasmodium":449,"een":450,"ib":451,"▁ser":452,"▁using":453,"etween":454,"ax":455,"vi":456,"▁dif":457,"OVID":458,"ever":459,"ector":460,"▁0.":461,"▁between":462,"ome":463,"▁under":464,"▁Plasmodium":465,"ple":466,"▁analys":467,"gn":468,"ath":469,"▁es":470,"▁ra":471,"▁sign":472,"▁rec":473,"form":474,"▁spec":475,"ied":476,"▁disease":477,"ross":478,"ative":479,"ase":480,"able":481,"les":482,"▁str":483,"ally":484,"-s":485,"▁un":486,"▁sur":487,"ich":488,"opulation":489,"\\n":490,"▁tre":491,"▁incre":492,"ose":493,"LI":494,"all":495,"▁risk":496,"▁ar":497,"▁cell":498,"▁id":499,"port":500,"▁pati":501,"▁have":502,"ound":503,"▁it":504,"ind":505,"▁not":506,"NV":507,"▁cases":508,"pt":509,"▁population":510,"▁low":511,"▁identi":512,"-b":513,"ility":514,"▁9":515,"lop":516,"▁which":517,"ach":518,"ates":519,"ved":520,"acc":521,"velop":522,"▁COVID":523,"▁am":524,"tem":525,"▁anti":526,"▁differen":527,"▁rel":528,"ations":529,"▁G":530,"ating":531,"▁exp":532,"ive":533,"now":534,"▁child":535,"▁vector":536,"tal":537,"▁ag":538,"ared":539,"▁hum":540,"▁U":541,"ENV":542,"unt":543,"lic":544,"ack":545,"▁used":546,"▁show":547,"▁dur":548,"lud":549,"ugh":550,"ificant":551,"▁sam":552,"▁sub":553,"▁int":554,"atic":555,"▁Z":556,"act":557,"▁Th":558,"old":559,"di":560,"low":561,"▁estim":562,"bo":563,"▁4":564,"▁blo":565,"▁vacc":566,"▁develop":567,"▁viv":568,"▁year":569,"ew":570,"▁af":571,"▁whe":572,"▁can":573,"rib":574,"▁ins":575,"vention":576,"▁significant":577,"▁tim":578,"▁mon":579,"▁identif":580,"▁human":581,"pon":582,"idual":583,"ll":584,"our":585,"-19":586,"rim":587,"▁more":588,"▁includ":589,"▁level":590,"▁children":591,"▁en":592,"▁surve":593,"▁inv":594,"▁know":595,"ast":596,"ination":597,"▁hig":598,"uld":599,"▁detec":600,"ological":601,"▁vivax":602,"▁Af":603,"▁associated":604,"inical":605,"▁gro":606,"ethods":607,"ap":608,"▁has":609,"▁region":610,"▁qu":611,"lus":612,"-2":613,"▁analysis":614,"▁during":615,"valence":616,"▁acc":617,"eg":618,"▁resist":619,"▁sc":620,"▁but":621,"▁compared":622,"ork":623,"yn":624,"tein":625,"vity":626,"▁man":627,"ities":628,"▁blood":629,"▁these":630,"round":631,"iagn":632,"▁epid":633,"▁imp":634,"▁202":635,"▁patients":636,"▁over":637,"▁ob":638,"▁treat":639,"tional":640,"ential":641,"ian":642,"▁ev":643,"ystem":644,"▁count":645,"▁prov":646,"▁5":647,"▁Afric":648,"▁pred":649,"e.\n":650,"▁He":651,"iagnos":652,"ard":653,"▁among":654,"0%":655,"ber":656,"▁respon":657,"▁DENV":658,"ividual":659,"▁An":660,"inding":661,"ail":662,"▁COVID-19":663,"ym":664,"▁their":665,"▁clinical":666,"reak":667,"▁treatment":668,"-1":669,"urren":670,"▁Con":671,"ular":672,"otyp":673,"▁6":674,"▁caus":675,"▁resistance":676,"ulti":677,"▁assess":678,"▁protein":679,"ital":680,"lusion":681,"hold":682,"▁tes":683,"▁dist":684,"▁studies":685,"▁individual":686,"▁factor":687,"break":688,"ep":689,"▁pos":690,"▁dr":691,"▁than":692,"▁pub":693,"▁201":694,"wo":695,"vere":696,"▁pres":697,"▁repor":698,"▁results":699,"▁loc":700,"▁This":701,"NA":702,"▁incidence":703,"ult":704,"▁found":705,"▁no":706,"▁Res":707,"iver":708,"▁predic":709,"▁mor":710,"▁reduc":711,"▁outbreak":712,"▁appro":713,"▁po":714,"▁use":715,"▁gene":716,"so":717,"▁diagnos":718,"led":719,"▁system":720,"clusion":721,"ression":722,"▁higher":723,"a,":724,"▁across":725,"▁bo":726,"term":727,"quenc":728,"ute":729,"ateg":730,"ile":731,"arge":732,"▁had":733,"-t":734,"▁two":735,"▁num":736,"▁most":737,"ser":738,"▁set":739,"uth":740,"acter":741,"ight":742,"▁also":743,"▁partic":744,"-d":745,"lec":746,"▁multi":747,"▁varia":748,"▁non":749,"▁prevalence":750,"▁drug":751,"The":752,"ree":753,"▁suc":754,"▁severe":755,"gen":756,"▁7":757,"▁dec":758,"▁sampl":759,".1":760,"▁dem":761,"raph":762,"▁been":763,"ined":764,"▁other":765,"ptom":766,"mer":767,"ized":768,"-p":769,"▁time":770,"▁pot":771,"ator":772,"ograph":773,"▁ro":774,"osp":775,"thro":776,"▁CI":777,"▁insec":778,"iral":779,"ays":780,"ground":781,"ld":782,"▁different":783,"ackground":784,"▁public":785,"▁K":786,"▁age":787,"econ":788,"▁hous":789,"ress":790,"indings":791,"▁inf":792,"ants":793,"-c":794,"are":795,"▁impact":796,"▁infections":797,"munity":798,"▁its":799,"ures":800,"▁all":801,"plic":802,"urrent":803,"▁Background":804,"OR":805,"▁meas":806,"▁des":807,"ale":808,"ire":809,"LIN":810,"ural":811,"str":812,"rial":813,"▁Methods":814,"▁import":815,".\\n":816,"tain":817,"ution":818,"▁sug":819,"tively":820,"▁impro":821,"ike":822,"▁mic":823,"▁fever":824,"▁cons":825,"▁species":826,"-based":827,"▁Zik":828,"ymptom":829,"ospital":830,"ehold":831,"▁V":832,"ization":833,"-S":834,"▁8":835,"▁up":836,"anti":837,"▁death":838,"illance":839,"tical":840,"ology":841,"out":842,"ord":843,"irst":844,"▁years":845,"▁group":846,"▁col":847,"ature":848,"▁new":849,".\\n\\n":850,"ble":851,"io":852,"ang":853,"▁areas":854,"▁again":855,"▁month":856,"▁factors":857,"▁prim":858,"▁rem":859,"000":860,"▁strateg":861,"▁both":862,"=0.":863,"omic":864,"ational":865,"▁perform":866,"▁setting":867,"aracter":868,"▁against":869,"▁models":870,"▁obser":871,"▁such":872,"rel":873,"▁pl":874,"▁met":875,"▁comple":876,"ct":877,"lob":878,"yte":879,"ater":880,"▁var":881,"▁sugg":882,"com":883,"rough":884,"stand":885,"▁Results":886,"%)":887,"-in":888,"itive":889,"ung":890,"▁parasites":891,"▁Conclusion":892,"AR":893,"rac":894,"arg":895,"▁med":896,"▁fol":897,"▁first":898,"▁comb":899,"▁1.":900,"ef":901,"han":902,"read":903,"uct":904,"owever":905,"▁need":906,"view":907,"▁surveillance":908,"ram":909,"▁after":910,"▁tra":911,"▁cor":912,"▁conduc":913,"▁including":914,"▁number":915,"virus":916,"valu":917,"▁indic":918,"▁household":919,"▁sup":920,"edes":921,"▁bi":922,"▁As":923,"▁insectic":924,"▁tem":925,"quine":926,"▁95%":927,"▁ph":928,"▁one":929,"▁could":930,"▁vaccine":931,"▁-":932,"hen":933,"▁there":934,"tern":935,"-m":936,"▁sim":937,"▁path":938,"acy":939,"▁countri":940,"▁follow":941,"ex":942,"▁may":943,"▁well":944,"▁mosquitoes":945,"▁Zika":946,"bod":947,"den":948,"▁epidemic":949,".4":950,"fore":951,"▁within":952,"▁rate":953,"01":954,"▁three":955,"▁character":956,"onstr":957,"▁gener":958,"ypti":959,"▁increased":960,"▁identified":961,"egypti":962,"ne":963,"▁collec":964,"cc":965,"ces":966,"tig":967,"▁evalu":968,"▁through":969,"%,":970,"ean":971,"s)":972,"▁aegypti":973,"ark":974,"istic":975,"▁determ":976,"▁reported":977,"▁(9":978,"▁(P":979,"▁Aedes":980,"▁sever":981,"▁Our":982,"CR":983,"ry":984,"arial":985,"▁levels":986,"▁potential":987,"owever,":988,"a.\n":989,"ron":990,"emi":991,"▁long":992,"▁pe":993,"urden":994,"▁gam":995,"unc":996,"▁dep":997,"▁=":998,"▁end":999,"alarial":1000,"ability":1001,"▁effic":1002,"tality":1003,"▁provid":1004,"-C":1005,"KV":1006,"▁total":1007,"itivity":1008,"-spec":1009,"▁demonstr":1010,"zo":1011,"ality":1012,"▁(D":1013,"▁case":1014,"IKV":1015,"▁those":1016,"▁Ch":1017,"▁conc":1018,"▁mortality":1019,"▁viral":1020,"▁infected":1021,"▁significantly":1022,"jec":1023,"estig":1024,"▁respec":1025,"▁intervention":1026,"▁trial":1027,"▁sel":1028,"_LI":1029,"ix":1030,"ited":1031,"ness":1032,"▁sens":1033,"▁identify":1034,"▁evidence":1035,"▁current":1036,"rop":1037,"▁hospital":1038,"▁who":1039,"▁antibod":1040,"▁into":1041,"ynam":1042,"▁conducted":1043,"-f":1044,"lu":1045,"ving":1046,"hes":1047,"▁burden":1048,"ly,":1049,"▁val":1050,"▁prog":1051,"▁Dengue":1052,"eason":1053,"vail":1054,"ass":1055,"▁findings":1056,".6":1057,"We":1058,"e,":1059,"{m":1060,"▁care":1061,"lis":1062,"orld":1063,"▁ext":1064,"▁exper":1065,"▁our":1066,"irc":1067,"▁investig":1068,"ynamic":1069,"▁inform":1070,"ised":1071,"umm":1072,"▁understand":1073,"▁development":1074,"▁cross":1075,"ort":1076,"▁acti":1077,"▁local":1078,"▁samples":1079,"-specific":1080,"ox":1081,"vious":1082,"▁specific":1083,"▁arbo":1084,"atory":1085,"aj":1086,"▁ab":1087,"iron":1088,"bia":1089,"▁will":1090,"▁el":1091,"▁where":1092,"▁important":1093,"▁observed":1094,"▁tool":1095,"▁protec":1096,"mon":1097,"▁conf":1098,"▁like":1099,"▁Malaria":1100,"ogen":1101,"▁respectively":1102,".8":1103,"cess":1104,"▁immun":1105,"ible":1106,"▁detection":1107,"▁particip":1108,"▁temper":1109,"ould":1110,"ration":1111,"▁ur":1112,"▁fre":1113,"▁(1":1114,"▁remain":1115,"ajor":1116,"cri":1117,"ek":1118,"hed":1119,"▁op":1120,"▁occ":1121,"imate":1122,"uthor":1123,"▁work":1124,"▁rep":1125,"▁Pf":1126,"▁when":1127,"-l":1128,"ral":1129,"▁avail":1130,"▁major":1131,"▁dynamic":1132,"verage":1133,"ographic":1134,".3":1135,"▁ge":1136,"▁glob":1137,"▁affec":1138,"▁strategies":1139,"arget":1140,"hib":1141,"ines":1142,"▁host":1143,"▁cells":1144,"▁symptom":1145,"▁season":1146,"▁cy":1147,"▁struct":1148,"▁lower":1149,"DT":1150,"▁St":1151,"duction":1152,".7":1153,"raz":1154,"▁showed":1155,"ning":1156,"▁However,":1157,"▁genetic":1158,"econd":1159,"ummary":1160,"ban":1161,"iod":1162,"▁target":1163,"ery":1164,"▁fe":1165,"▁requ":1166,"dition":1167,"▁Health":1168,"▁response":1169,"cop":1170,"ough":1171,"▁[":1172,"hem":1173,"▁review":1174,"ation,":1175,"urther":1176,"ient":1177,"over":1178,"ves":1179,"▁ran":1180,"▁func":1181,"uce":1182,"viron":1183,"▁red":1184,"ocyte":1185,"▁clus":1186,"▁(95%":1187,"razil":1188,".2":1189,"ood":1190,"▁J":1191,"▁soc":1192,"▁pri":1193,"emia":1194,"rain":1195,"▁Brazil":1196,"ventions":1197,"▁diseases":1198,"▁spread":1199,"ivers":1200,"vironment":1201,"▁(2":1202,"ensity":1203,"▁LLIN":1204,"▁increase":1205,"▁multiple":1206,"med":1207,"▁only":1208,"ophe":1209,"▁outcom":1210,"▁cluster":1211,".9":1212,"mit":1213,"▁do":1214,"▁community":1215,"▁individuals":1216,"▁diagnostic":1217,"ms":1218,"uny":1219,"▁abo":1220,"ndom":1221,"ust":1222,"▁previous":1223,"ozo":1224,"ingle":1225,"▁each":1226,"lass":1227,"▁complex":1228,"one":1229,"▁CH":1230,"▁interventions":1231,"▁Here":1232,"▁approach":1233,"▁aim":1234,"▁test":1235,"▁main":1236,"▁period":1237,"ikung":1238,"ages":1239,"▁related":1240,"otype":1241,"ikunguny":1242,"0,":1243,"▁These":1244,"▁highly":1245,"lesi":1246,"ledge":1247,"art":1248,"▁Ig":1249,"▁sequenc":1250,"earch":1251,"▁estimated":1252,"▁environment":1253,"▁knowlesi":1254,"▁positive":1255,"▁selec":1256,"MC":1257,"tiven":1258,"orne":1259,"▁lim":1260,"▁common":1261,"▁nets":1262,"iqu":1263,"rin":1264,"▁second":1265,"▁method":1266,"anc":1267,"ement":1268,"▁while":1269,"▁rapid":1270,"▁epidemi":1271,"ienc":1272,"ured":1273,"▁p=0.":1274,"▁(A":1275,"▁(C":1276,"▁antim":1277,"▁analy":1278,"▁effect":1279,"ribution":1280,"▁many":1281,"merg":1282,"▁sensitivity":1283,"ten":1284,"▁(p":1285,"▁effects":1286,"▁respons":1287,"▁present":1288,"yre":1289,"arly":1290,"▁due":1291,"▁imple":1292,"▁acute":1293,"ize":1294,"▁facil":1295,"ARS":1296,"▁arbovirus":1297,"ily":1298,"▁single":1299,"idity":1300,"atis":1301,"▁association":1302,"▁correl":1303,"fer":1304,"son":1305,"veal":1306,"▁expos":1307,"▁quanti":1308,"▁countries":1309,"of":1310,"▁based":1311,"▁(S":1312,"▁increas":1313,"-borne":1314,"▁knowledge":1315,"▁CI:":1316,"▁collected":1317,"ozoite":1318,"IV":1319,"icro":1320,"eding":1321,"▁reveal":1322,"rap":1323,"▁interac":1324,"▁recent":1325,"▁primary":1326,"▁temperature":1327,"tiveness":1328,"ah":1329,"▁ill":1330,"▁typ":1331,"▁circ":1332,"▁There":1333,"▁sugges":1334,"▁participants":1335,"▁available":1336,"▁global":1337,"▁about":1338,"s.":1339,"ining":1340,"▁tr":1341,"▁chall":1342,"▁efficacy":1343,"ey":1344,"hip":1345,"ition":1346,"▁prevention":1347,"▁random":1348,"▁non-":1349,"-Co":1350,"▁urban":1351,"lp":1352,"tit":1353,"▁mo":1354,"emb":1355,"ople":1356,"ments":1357,"▁effective":1358,"▁grow":1359,"▁variab":1360,"▁influ":1361,"▁improve":1362,"▁vari":1363,"▁people":1364,"▁sus":1365,"itor":1366,"rogen":1367,"▁To":1368,"▁large":1369,"andemic":1370,"▁patient":1371,"▁regions":1372,"▁occur":1373,"RNA":1374,"gan":1375,"ented":1376,"▁inte":1377,"▁cri":1378,"▁del":1379,"▁hyp":1380,"▁(n":1381,"▁Conclusions":1382,"opheles":1383,"CT":1384,"MI":1385,"min":1386,"▁car":1387,"▁emerg":1388,"▁pregn":1389,"ame":1390,"▁climate":1391,"etwork":1392,"▁detected":1393,"▁endemic":1394,"ok":1395,"▁rece":1396,"▁estimate":1397,"▁deaths":1398,"▁elim":1399,"▁dynamics":1400,"▁antimalarial":1401,"ARS-Co":1402,".5":1403,"2,":1404,"V-2":1405,"av":1406,"sing":1407,"yd":1408,"reen":1409,"temis":1410,"ation.\n":1411,"▁(I":1412,"▁disc":1413,"▁assay":1414,"▁genome":1415,"▁app":1416,"▁spati":1417,"▁included":1418,"▁novel":1419,"1,":1420,"ling":1421,"▁inhib":1422,"▁pandemic":1423,"▁mark":1424,"ived":1425,"▁cause":1426,"▁role":1427,"irect":1428,"▁frequenc":1429,"-st":1430,"aquine":1431,"▁post":1432,"ision":1433,"omen":1434,"ts.\n":1435,"▁malaria.\n":1436,"essential":1437,"▁exam":1438,"▁ZIKV":1439,"▁provide":1440,"▁Africa":1441,"▁analyz":1442,"ARS-CoV-2":1443,"temisin":1444,"▁world":1445,"▁fem":1446,"▁Ind":1447,"▁survey":1448,"▁testing":1449,"▁program":1450,"temisinin":1451,"aemia":1452,"wide":1453,"aran":1454,"atal":1455,"opre":1456,"abor":1457,"▁chan":1458,"illion":1459,"▁developed":1460,"<0.":1461,"▁essential":1462,"▁gre":1463,"-infec":1464,"▁likely":1465,"til":1466,"▁did":1467,"ectional":1468,"ace":1469,"▁rates":1470,"▁regression":1471,"▁accur":1472,"▁prior":1473,"af":1474,"ired":1475,"tious":1476,"loy":1477,"▁network":1478,"eld":1479,"olic":1480,"▁12":1481,"▁compar":1482,"▁distribution":1483,"▁reduction":1484,"throid":1485,"-Sah":1486,"▁insecticide":1487,"ha":1488,"arch":1489,"▁four":1490,"▁Pro":1491,"▁statis":1492,"▁propor":1493,"▁contrib":1494,"▁Anopheles":1495,"▁understanding":1496,"yrethroid":1497,"-Saharan":1498,"come":1499,"ful":1500,"vent":1501,"▁oval":1502,"▁sch":1503,"▁NS":1504,"▁viruses":1505,"crip":1506,"-re":1507,"3,":1508,"ield":1509,"line":1510,"outh":1511,"atus":1512,"▁(R":1513,"▁form":1514,"quent":1515,"▁COVID19":1516,"▁known":1517,"▁assessed":1518,"▁distric":1519,"▁diagnosis":1520,"▁exposure":1521,"-L":1522,"CI":1523,"dle":1524,"▁site":1525,"▁class":1526,"▁therap":1527,"iting":1528,"▁how":1529,"▁(a":1530,"▁prof":1531,"▁chikunguny":1532,"roscop":1533,"agement":1534,"▁screen":1535,"iversity":1536,"▁growth":1537,"oor":1538,"ty":1539,"▁they":1540,"▁million":1541,"iddle":1542,"▁em":1543,"▁vs.":1544,"▁line":1545,"ablis":1546,"▁RNA":1547,"endent":1548,"▁insecticid":1549,"▁following":1550,"{micro":1551,"{micro}":1552,"02":1553,"PCR":1554,"ner":1555,"▁sm":1556,"▁pa":1557,"▁pat":1558,"▁dose":1559,"ts,":1560,"ditional":1561,"▁outbreaks":1562,"▁variation":1563,"▁gambia":1564,"=1":1565,"inal":1566,"▁targe":1567,"▁mean":1568,"▁SARS-CoV-2":1569,"▁design":1570,"-3":1571,"4,":1572,"vant":1573,"▁methods":1574,"▁foc":1575,"its":1576,"▁Com":1577,"▁highl":1578,"establis":1579,"-sectional":1580,"▁several":1581,"▁outcomes":1582,"pite":1583,"ia.\n":1584,"▁Am":1585,"▁effectiveness":1586,"▁invol":1587,"▁reduce":1588,"1)":1589,"ward":1590,"ing,":1591,"▁strain":1592,"▁Co":1593,"▁lead":1594,"▁expression":1595,"▁estimates":1596,"economic":1597,"▁suggest":1598,"havi":1599,"PD":1600,"▁pyrethroid":1601,"ising":1602,"▁Ad":1603,"olec":1604,"▁labor":1605,"ade":1606,"▁For":1607,"▁severity":1608,"▁long-":1609,"▁elimination":1610,"PT":1611,"care":1612,"ince":1613,"tes":1614,"▁syn":1615,"▁women":1616,"loc":1617,"▁prop":1618,"▁research":1619,"▁15":1620,"own":1621,"▁key":1622,"▁relative":1623,"▁months":1624,"▁antibodies":1625,"3%":1626,"Th":1627,"bidity":1628,"cle":1629,"▁ent":1630,"▁mat":1631,"▁mut":1632,"▁vis":1633,"imum":1634,"▁infectious":1635,"▁being":1636,"▁behavi":1637,"▁hete":1638,"▁contin":1639,"▁performed":1640,"▁settings":1641,"▁activ":1642,"▁confir":1643,"erythro":1644,"▁pattern":1645,"go":1646,"y.\n":1647,"hest":1648,"▁rele":1649,"▁prevent":1650,"▁contain":1651,"▁neg":1652,"▁att":1653,"▁vaccination":1654,"▁access":1655,"▁households":1656,"▁respectively.\n":1657,"NS":1658,"eous":1659,"xt":1660,"▁cost":1661,"ism":1662,"echan":1663,"level":1664,"verse":1665,"oph":1666,"▁infection.\n":1667,"▁genes":1668,"▁add":1669,"▁recom":1670,"▁remains":1671,"▁illness":1672,"bility":1673,"▁mechan":1674,"▁further":1675,"atures":1676,"▁Al":1677,"olution":1678,"▁less":1679,"▁10":1680,"▁HIV":1681,"istent":1682,"▁country":1683,"▁African":1684,"▁cross-sectional":1685,"▁frequency":1686,"▁change":1687,"olecular":1688,".0":1689,"ST":1690,"▁su":1691,"▁dri":1692,"asis":1693,"anz":1694,"ia,":1695,"▁(L":1696,"▁rural":1697,"▁sequ":1698,"ropical":1699,"▁implement":1700,"▁ovale":1701,"erythroc":1702,"MP":1703,"crib":1704,"for":1705,"hyd":1706,"▁establis":1707,"ink":1708,"▁some":1709,"▁bec":1710,"osts":1711,"▁(m":1712,"▁Ap":1713,"▁process":1714,"ified":1715,"▁18":1716,"▁19":1717,"▁immunity":1718,"▁healthcare":1719,"ficient":1720,"▁management":1721,"▁tested":1722,"▁measure":1723,"tained":1724,"▁IgG":1725,"▁proportion":1726,"This":1727,"hn":1728,"tro":1729,"y,":1730,"ying":1731,"▁u":1732,"▁ed":1733,"▁bir":1734,"osom":1735,"ilar":1736,"ters":1737,"▁Mal":1738,"▁14":1739,"ically":1740,"▁high-":1741,"▁haem":1742,"▁transmission.\n":1743,"ially":1744,"ended":1745,"ference":1746,"fication":1747,"▁sub-Saharan":1748,"▁highest":1749,"▁caused":1750,"▁tests":1751,"▁pool":1752,"▁increasing":1753,"▁focus":1754,"O_LI":1755,"lor":1756,"yl":1757,"▁days":1758,"ise":1759,"▁Ae.\n":1760,"▁state":1761,"▁C_LI":1762,"▁malaria,":1763,"ake":1764,"▁should":1765,"▁explo":1766,"▁characteristic":1767,"▁demonstrate":1768,"▁(DENV":1769,"mitted":1770,"▁responses":1771,"▁laboratory":1772,"alys":1773,"tered":1774,"▁mix":1775,"echn":1776,"▁early":1777,"▁gu":1778,"▁16":1779,"▁chang":1780,"▁before":1781,"duced":1782,"▁rati":1783,"ource":1784,"▁decre":1785,"plication":1786,"▁microscop":1787,"▁metab":1788,"▁determine":1789,"▁information":1790,"▁(aOR":1791,"AT":1792,"▁Y":1793,"reat":1794,"ene":1795,"▁direct":1796,"▁five":1797,"ing.\n":1798,"cep":1799,"▁week":1800,"▁alle":1801,"▁proteins":1802,"▁morbidity":1803,"▁particular":1804,"▁support":1805,"▁pathogen":1806,"▁antibody":1807,"▁previously":1808,"▁environmental":1809,"-0.":1810,".5%":1811,"tid":1812,"▁prac":1813,"arm":1814,"▁ep":1815,"▁(3":1816,"ety":1817,"▁commun":1818,"▁neut":1819,"▁populations":1820,"▁concent":1821,"▁geograph":1822,"-4":1823,"50":1824,"vic":1825,"▁techn":1826,"arning":1827,"▁me":1828,"ata":1829,"ider":1830,"ental":1831,"▁stand":1832,"▁prob":1833,"▁South":1834,"iving":1835,"poral":1836,"ights":1837,"▁cap":1838,"▁Un":1839,"▁same":1840,"▁poss":1841,"▁systematic":1842,"▁MethodsWe":1843,".\\n\\nA":1844,"▁integ":1845,"▁molecular":1846,"▁density":1847,"ases":1848,"omological":1849,"▁without":1850,"▁part":1851,"▁Africa.\n":1852,"▁measures":1853,"ymptomatic":1854,"▁combined":1855,"▁activity":1856,"▁range":1857,"▁critical":1858,"▁gambiae":1859,"-level":1860,"05":1861,"6PD":1862,"jus":1863,"int":1864,"▁cal":1865,"▁would":1866,"ed,":1867,"▁(OR":1868,"ulated":1869,"▁Summary":1870,"▁1,":1871,"▁Wh":1872,"▁strong":1873,"▁invas":1874,"▁combination":1875,"▁revealed":1876,"▁heterogen":1877,"way":1878,"▁phen":1879,"▁min":1880,"▁day":1881,"ern":1882,"ulating":1883,"▁lif":1884,"ally,":1885,"ationship":1886,"▁similar":1887,"▁variables":1888,"▁NS1":1889,"alysis":1890,"BC":1891,"II":1892,"SA":1893,"TN":1894,"eny":1895,"▁summary":1896,"▁memb":1897,"▁dot":1898,"ed.\n":1899,"though":1900,"▁condi":1901,"▁Im":1902,"iper":1903,"▁RDT":1904,"pecially":1905,"▁infection,":1906,"izing":1907,"▁Findings":1908,"▁Using":1909,"otypes":1910,"ependent":1911,"▁performance":1912,"▁provides":1913,"▁demonstrated":1914,"▁protection":1915,"▁immune":1916,"▁epidemiological":1917,"-stage":1918,"▁conditions":1919,"5,":1920,"aus":1921,"▁dos":1922,"ors":1923,"▁repro":1924,"▁(M":1925,"▁status":1926,"▁dengue,":1927,"▁2019":1928,"▁apic":1929,"▁relationship":1930,"▁quality":1931,"▁gamet":1932,"{middle":1933,"▁symptoms":1934,"▁socio":1935,"▁birth":1936,"▁dot}":1937,"7,":1938,"SP":1939,"ie":1940,"land":1941,"o-":1942,"▁them":1943,"▁fit":1944,"▁any":1945,"stanti":1946,"▁Reg":1947,"▁coverage":1948,"▁pers":1949,"▁spp":1950,"▁differenti":1951,"▁intro":1952,"▁2020":1953,"▁cyt":1954,"FR":1955,"br":1956,"oquine":1957,"▁initi":1958,"▁male":1959,"▁fore":1960,"▁toward":1961,"omin":1962,"▁(H":1963,"▁nat":1964,"▁100":1965,"lasting":1966,"▁admin":1967,"▁especially":1968,"▁describ":1969,"▁groups":1970,"▁median":1971,"▁limited":1972,"▁challeng":1973,"▁small":1974,"bach":1975,"▁diversity":1976,"▁Author":1977,"▁Tanz":1978,"olbach":1979,"▁coh":1980,"▁least":1981,"▁differences":1982,"▁substanti":1983,"▁(n=":1984,"▁spatial":1985,"▁educ":1986,"▁standard":1987,".\\n\\nAuthor":1988,"▁Tanzan":1989,"AS":1990,"hood":1991,"oly":1992,"viral":1993,"▁average":1994,"▁then":1995,"cept":1996,"▁ann":1997,"utri":1998,"amm":1999,"aximum":2000,"▁vectors":2001,"▁reduced":2002,"▁approac":2003,"▁improved":2004,"related":2005,"▁investigate":2006,"▁sequencing":2007,"PTp":2008,"▁negative":2009,"TS":2010,"ues":2011,"▁>":2012,"erg":2013,"▁CD":2014,"▁asymptomatic":2015,"utine":2016,"▁def":2017,"▁isol":2018,"reshold":2019,"iven":2020,"▁Wolbach":2021,"▁parame":2022,"▁analyses":2023,"▁acco":2024,"▁routine":2025,".4%":2026,"▁LLINs":2027,"rincip":2028,"▁female":2029,"▁patterns":2030,"▁address":2031,"▁plasm":2032,"▁national":2033,"oplas":2034,"▁11":2035,"▁co-infec":2036,"▁addition":2037,"▁effor":2038,"▁Keny":2039,"▁meta":2040,"▁general":2041,"▁function":2042,"▁secondary":2043,"▁pregnanc":2044,"oprevalence":2045,"▁changes":2046,"-6":2047,"ave":2048,"ds":2049,"par":2050,"pati":2051,"typ":2052,"vid":2053,"▁ter":2054,"reg":2055,"enge":2056,"▁few":2057,"ither":2058,"▁equ":2059,"▁(5":2060,"imen":2061,"▁Pre":2062,"▁ques":2063,"meric":2064,"▁specificity":2065,"▁repres":2066,"▁structure":2067,"▁aimed":2068,"▁greater":2069,"▁entomological":2070,"▁Wolbachia":2071,"%),":2072,"11":2073,"AP":2074,"cent":2075,"lav":2076,"risk":2077,"▁if":2078,"▁cr":2079,"▁chem":2080,"▁di":2081,"isting":2082,"▁reac":2083,"iate":2084,"idate":2085,"▁(N":2086,"▁threshold":2087,"ulf":2088,"▁Cam":2089,"▁conte":2090,"▁lack":2091,"▁200":2092,"▁17":2093,"▁expl":2094,"▁study,":2095,"▁adults":2096,"▁2021":2097,"▁demographic":2098,"▁micro":2099,"▁plan":2100,"▁chikungunya":2101,"laviv":2102,"-related":2103,"In":2104,"der":2105,"ytic":2106,"▁aut":2107,"tivity":2108,"erate":2109,"osph":2110,"▁(0.":2111,"uture":2112,"▁link":2113,"▁having":2114,"endemic":2115,"▁detect":2116,"▁poor":2117,"effec":2118,"hens":2119,"▁evaluated":2120,"▁seasonal":2121,"▁facilities":2122,"▁interaction":2123,"▁suggesting":2124,"titud":2125,"▁worldwide":2126,"▁insecticidal":2127,"▁targeted":2128,"▁long-lasting":2129,"BS":2130,"RP":2131,"g/":2132,"ience":2133,"me":2134,"tative":2135,"varia":2136,"we":2137,"wi":2138,"xy":2139,"▁old":2140,"ero":2141,"icip":2142,"▁ret":2143,"▁(6":2144,"unicip":2145,"ock":2146,"▁Re":2147,"pected":2148,"▁transcrip":2149,"▁record":2150,"▁vaccines":2151,"▁presence":2152,"▁followed":2153,"▁carri":2154,"▁confirmed":2155,"▁recomm":2156,"▁ratio":2157,"12":2158,"EP":2159,"H5":2160,"IR":2161,"RI":2162,"▁ens":2163,"infec":2164,"▁sound":2165,"▁find":2166,"ick":2167,"▁assays":2168,"▁organ":2169,"▁Further":2170,"ormal":2171,"▁rain":2172,"▁whether":2173,"▁overall":2174,"▁systems":2175,"▁experim":2176,"▁affected":2177,"▁rang":2178,"▁Here,":2179,"▁util":2180,"▁integr":2181,"-M":2182,"-h":2183,"-an":2184,"DH":2185,"Dengue":2186,"HO":2187,"ck":2188,"ove":2189,"oid":2190,"ots":2191,"pre":2192,"year":2193,"tis":2194,"ison":2195,"▁bet":2196,"osis":2197,"urve":2198,"iger":2199,"ported":2200,"▁allow":2201,"▁mosquito-borne":2202,"▁controlled":2203,"atical":2204,"ework":2205,"▁2023":2206,"▁predict":2207,"▁upt":2208,"ramework":2209,"▁evaluate":2210,"▁trials":2211,"hematical":2212,"▁CHW":2213,"ique":2214,"▁arboviruses":2215,"hydro":2216,"▁particularly":2217,"rincipal":2218,"▁better":2219,"34":2220,"BO":2221,"nal":2222,"ool":2223,"▁around":2224,"ales":2225,"▁real":2226,"▁his":2227,"lym":2228,"▁Par":2229,"ether":2230,"▁IPTp":2231,"▁area":2232,"▁adult":2233,"▁Ghan":2234,"▁G6PD":2235,"▁monitor":2236,"▁reducing":2237,"-trans":2238,"jective":2239,"▁optim":2240,"▁various":2241,"▁analyzed":2242,"▁emp":2243,"troduction":2244,"▁neutral":2245,"▁invasion":2246,"▁gametocyte":2247,"oplast":2248,"-res":2249,"-endemic":2250,"8%":2251,"99":2252,"ced":2253,"gand":2254,"iter":2255,"▁<":2256,"heast":2257,"▁six":2258,"▁cult":2259,"▁framework":2260,"▁net":2261,"▁Ar":2262,"▁stage":2263,"▁given":2264,"▁projec":2265,"▁resul":2266,"▁preven":2267,"▁It":2268,"ificance":2269,"istration":2270,"▁disease.\n":2271,"▁artemisinin":2272,"▁antigen":2273,"▁aged":2274,"▁Ugand":2275,"▁measured":2276,"▁monthly":2277,"▁deploy":2278,"▁functional":2279,"▁apicoplast":2280,"▁forec":2281,"▁annual":2282,"▁approaches":2283,"06":2284,"4%":2285,"set":2286,"wn":2287,"▁Q":2288,"▁z":2289,"▁field":2290,"itud":2291,"▁via":2292,"▁A.":2293,"▁produc":2294,"ification":2295,"▁Niger":2296,"ficial":2297,"▁spra":2298,"▁servic":2299,"▁seroprevalence":2300,"▁trend":2301,"▁assessment":2302,"▁predictive":2303,"▁peak":2304,"▁provided":2305,"▁value":2306,"▁mathematical":2307,"justed":2308,"▁towards":2309,"▁context":2310,"-effec":2311,"-year":2312,"3)":2313,"42":2314,"8,":2315,"Malaria":2316,"down":2317,"fen":2318,"ier":2319,"ires":2320,"uted":2321,"▁erythroc":2322,"reated":2323,"tif":2324,"heren":2325,"nder":2326,"▁municip":2327,"▁ben":2328,"iab":2329,"ides":2330,"▁nec":2331,"▁Per":2332,"▁Americ":2333,"▁anaemia":2334,"▁Mod":2335,"▁Des":2336,"▁Data":2337,"▁chlor":2338,"pective":2339,"▁genomic":2340,"ities.\n":2341,"▁data.\n":2342,"▁humans":2343,"rimeth":2344,"urrence":2345,"▁importance":2346,"▁consider":2347,"▁phase":2348,"▁currently":2349,"▁protective":2350,"▁influence":2351,"▁accurate":2352,"▁screening":2353,"▁characteristics":2354,"CD":2355,"eu":2356,"na":2357,"yrimeth":2358,"▁sulf":2359,"▁ele":2360,"▁either":2361,"▁AN":2362,"▁Sout":2363,"istosom":2364,"▁additional":2365,"▁person":2366,"ayed":2367,"▁cases.\n":2368,"▁Introduction":2369,"▁indoor":2370,"▁sample":2371,"-con":2372,"▁concern":2373,"▁targeting":2374,"▁required":2375,"▁statistical":2376,"▁cohort":2377,"-P":2378,"-R":2379,"1).\n":2380,"plo":2381,"trol":2382,"wa":2383,"▁tropical":2384,"▁cle":2385,"▁pan":2386,"▁polic":2387,"▁der":2388,"▁water":2389,"▁future":2390,"▁bas":2391,"▁stages":2392,"amine":2393,"rane":2394,"▁Or":2395,"▁consistent":2396,"▁strategy":2397,"▁medical":2398,"▁experienc":2399,"▁cycle":2400,"▁social":2401,"▁selection":2402,"iency":2403,"<0.00":2404,"▁pooled":2405,"▁mixed":2406,"cepti":2407,"lavivirus":2408,"yrimethamine":2409,".0%":2410,"NT":2411,"dds":2412,"hie":2413,"iasis":2414,"toc":2415,"uary":2416,"ona":2417,"▁spor":2418,"▁past":2419,"▁map":2420,"▁even":2421,"▁threat":2422,"▁ver":2423,"cell":2424,"tics":2425,"▁13":2426,"▁De":2427,"▁incor":2428,"abit":2429,"▁achie":2430,"adox":2431,"▁help":2432,"▁compound":2433,"tors":2434,"▁Bang":2435,"▁genotype":2436,"▁En":2437,"▁30":2438,"▁falciparum,":2439,"▁blood-stage":2440,"▁Africa,":2441,"▁An.\n":2442,"▁causes":2443,"▁primaquine":2444,"▁varian":2445,"▁Ass":2446,"▁determined":2447,"▁accuracy":2448,"▁contribute":2449,"going":2450,"▁(DENV)":2451,"▁geographical":2452,"▁possible":2453,"▁meta-an":2454,"▁question":2455,"03":2456,"21":2457,"6)":2458,"S)":2459,"bri":2460,"ere":2461,"mented":2462,"pr":2463,"qPCR":2464,"the":2465,"thes":2466,"iss":2467,"isod":2468,"▁wide":2469,"▁(7":2470,"▁PCR":2471,"▁Col":2472,"▁proble":2473,"other":2474,"▁World":2475,"▁coun":2476,"sequent":2477,"▁datab":2478,"▁modelling":2479,"▁outcome":2480,"▁serotype":2481,"▁times":2482,"▁2015":2483,"▁drugs":2484,"▁parasites/":2485,"▁bias":2486,"▁tools":2487,"▁Jan":2488,"▁epidemiology":2489,"▁challenge":2490,"▁markers":2491,"▁district":2492,"▁involved":2493,"▁natural":2494,"▁uptake":2495,"herence":2496,"adoxine":2497,"brile":2498,"04":2499,"7%":2500,"DA":2501,"HF":2502,"az":2503,"bers":2504,"man":2505,"more":2506,"o,":2507,"oung":2508,"ps":2509,"tle":2510,"enar":2511,"▁cand":2512,"▁da":2513,"isms":2514,"ication":2515,"▁bite":2516,"us,":2517,"ird":2518,"▁residual":2519,"▁ITN":2520,"▁26":2521,"▁March":2522,"▁compre":2523,"▁complic":2524,"▁short":2525,"▁unc":2526,"▁reporting":2527,"▁decision":2528,"-pyrimethamine":2529,"▁95%CI":2530,"fore,":2531,"▁ability":2532,"▁repe":2533,"▁febrile":2534,"▁p=0.00":2535,"▁correlated":2536,"▁pregnant":2537,"▁(LLIN":2538,"▁explore":2539,"▁episod":2540,"▁pregnancy":2541,"▁histor":2542,"▁necess":2543,"▁incorpor":2544,"adoxine-pyrimethamine":2545,"/1":2546,"/P":2547,"ios":2548,"kin":2549,"otic":2550,"till":2551,"▁still":2552,"▁cur":2553,"artemisinin":2554,"▁mer":2555,"▁fam":2556,"aneous":2557,"▁report":2558,"usion":2559,"▁ever":2560,"acity":2561,"▁vol":2562,"uring":2563,"▁Cl":2564,"▁ST":2565,"▁pre-":2566,"▁transmitted":2567,"▁cases,":2568,"▁Ins":2569,"aking":2570,"▁treated":2571,"nown":2572,"▁block":2573,"▁evolution":2574,"▁travel":2575,"overy":2576,"▁suscepti":2577,"ganization":2578,"▁comparison":2579,"▁C_LIO_LI":2580,"▁capacity":2581,"vid19":2582,"tocol":2583,"-9":2584,"cale":2585,"lamm":2586,"ynd":2587,"inct":2588,"▁odds":2589,"▁costs":2590,"▁diver":2591,"▁often":2592,"ory":2593,"aset":2594,"▁fund":2595,"▁fail":2596,"road":2597,"▁hal":2598,"▁(4":2599,"▁very":2600,"eline":2601,"emographic":2602,"▁result":2603,"ival":2604,"ades":2605,"▁neon":2606,"entially":2607,"▁moderate":2608,"▁attitud":2609,"itiz":2610,"▁Inter":2611,"▁Eth":2612,"▁independent":2613,"▁Gu":2614,"▁intensity":2615,"▁developing":2616,"▁species.\n":2617,"▁observ":2618,"▁countries.\n":2619,"ronic":2620,"-like":2621,"▁selected":2622,"▁quantif":2623,"▁Although":2624,"▁practic":2625,"ause":2626,"ominant":2627,"▁education":2628,"▁efforts":2629,"▁Organization":2630,"more,":2631,"▁comprehens":2632,"eity":2633,"gent":2634,"known":2635,"vate":2636,"rec":2637,"als":2638,"alities":2639,"▁sec":2640,"▁mass":2641,"roph":2642,"▁broad":2643,"▁vit":2644,"ellow":2645,"▁Ser":2646,"▁SMC":2647,"amin":2648,"▁25":2649,"▁Dis":2650,"▁assum":2651,"▁seek":2652,"▁dataset":2653,"▁healthy":2654,"▁regard":2655,"▁Over":2656,"ethodology":2657,"▁young":2658,"ibility":2659,"▁0.7":2660,"all,":2661,"▁identification":2662,"▁relap":2663,"▁shown":2664,"▁enhan":2665,"▁predicted":2666,".1%":2667,"▁pathway":2668,"▁investigated":2669,"▁frequent":2670,"▁quantitative":2671,"▁occurred":2672,"▁hyper":2673,"▁sites":2674,"{micro}L":2675,"▁sequence":2676,"▁implementation":2677,"▁microscopy":2678,"eroon":2679,"▁spraying":2680,"7)":2681,";]":2682,"Con":2683,"ER":2684,"MA":2685,"mia":2686,"ores":2687,"rast":2688,"▁ste":2689,"orph":2690,"ertain":2691,"ict":2692,"▁bar":2693,"▁bacter":2694,"osed":2695,"oles":2696,"ucle":2697,"▁compare":2698,"▁log":2699,"ignificance":2700,"▁mosquitoes.\n":2701,"ending":2702,"oglob":2703,"idered":2704,"▁express":2705,"▁Under":2706,"▁subsequent":2707,"▁surveys":2708,"▁scenar":2709,"▁2022":2710,"▁reports":2711,"▁despite":2712,"▁considered":2713,"▁settings.\n":2714,"lished":2715,"▁symptomatic":2716,"▁districts":2717,"▁paper":2718,"▁life":2719,"iperaquine":2720,"▁Region":2721,"▁erythrocyte":2722,"▁benef":2723,"▁sulfadoxine-pyrimethamine":2724,"▁sporozoite":2725,"24":2726,"sp":2727,"inated":2728,"▁city":2729,"▁doc":2730,"itation":2731,"osome":2732,"ulate":2733,"▁go":2734,"ucial":2735,"▁Med":2736,"▁usage":2737,"▁Rec":2738,"hern":2739,"▁Hospital":2740,"▁infections.\n":2741,"▁load":2742,"▁adverse":2743,"▁clon":2744,"▁control.\n":2745,"▁cellular":2746,"▁insights":2747,"-201":2748,"▁events":2749,"▁distinct":2750,"▁published":2751,"▁numbers":2752,"ators":2753,"throp":2754,"plicated":2755,"▁mice":2756,"ording":2757,"raction":2758,"-med":2759,"▁self":2760,"▁progress":2761,"▁abs":2762,"▁facilit":2763,"▁Therefore,":2764,"▁randomized":2765,"▁appear":2766,"▁therapeu":2767,"▁strains":2768,"▁behavior":2769,"▁establish":2770,"▁high-risk":2771,"▁metabol":2772,"▁directly":2773,"▁concentr":2774,"▁Cameroon":2775,"▁Furthermore,":2776,"▁preventive":2777,"▁variants":2778,"yndrom":2779,"▁comprehensive":2780,".,":2781,"17":2782,"65":2783,"88":2784,"ES":2785,"bor":2786,"equ":2787,"fficient":2788,"ious":2789,"ote":2790,"pa":2791,"rh":2792,"to":2793,"zym":2794,"▁i":2795,"▁er":2796,"▁ec":2797,"▁enti":2798,"▁able":2799,"rees":2800,"▁cent":2801,"▁maximum":2802,"istered":2803,"tion,":2804,"let":2805,"▁(G":2806,"▁(i":2807,"lying":2808,"ull":2809,"▁nor":2810,"▁liter":2811,"▁Sub":2812,"▁resid":2813,"▁ongoing":2814,"▁24":2815,"opos":2816,"▁More":2817,"▁Dist":2818,"▁RH5":2819,"▁paras":2820,"ublic":2821,"▁search":2822,"▁interval":2823,"▁index":2824,"▁learning":2825,"▁appl":2826,"▁serological":2827,"▁surv":2828,"ources":2829,"▁regional":2830,"▁potentially":2831,"order":2832,"▁therefore":2833,"▁generated":2834,"▁determin":2835,"▁influenc":2836,"▁Among":2837,"▁continu":2838,"enetic":2839,"▁membrane":2840,"▁carried":2841,"EP1":2842,"hydroartemisinin":2843,"▁employ":2844,"iabe":2845,"▁meta-analysis":2846,"▁problem":2847,"-se":2848,"-up":2849,"-of":2850,"R)":2851,"US":2852,"rest":2853,"▁categ":2854,"iated":2855,"omp":2856,"▁thus":2857,"▁vir":2858,"ulin":2859,"▁promis":2860,"▁deg":2861,"▁DNA":2862,"abil":2863,"▁genotyp":2864,"▁admission":2865,"▁capt":2866,"ociated":2867,"ency":2868,"▁serum":2869,"temporal":2870,"▁resistant":2871,"▁PfC":2872,"▁geographic":2873,"▁clusters":2874,"artment":2875,"▁correlation":2876,"soni":2877,"▁emergence":2878,"▁inhibition":2879,"▁While":2880,"▁spp.\n":2881,"▁administration":2882,"▁Tanzania":2883,"▁plasma":2884,"▁crucial":2885,"▁explain":2886,"onavirus":2887,"▁half":2888,"oglobin":2889,"▁entire":2890,"-A":2891,"-ass":2892,"6,":2893,"C)":2894,"M)":2895,"P)":2896,"iop":2897,"ke":2898,"rup":2899,"uro":2900,"▁economic":2901,"▁pur":2902,"▁fat":2903,"▁replication":2904,"▁hom":2905,"▁habit":2906,"▁prom":2907,"▁lar":2908,"▁Mo":2909,"ower":2910,"ies,":2911,"valent":2912,"▁order":2913,"▁seropos":2914,"LISA":2915,"▁cells,":2916,"▁success":2917,"▁needed":2918,"▁identifying":2919,"▁requires":2920,"▁doub":2921,"▁school":2922,"▁guid":2923,"▁parameters":2924,"▁represent":2925,"pret":2926,"▁Southeast":2927,"thesis":2928,"+/":2929,"-5":2930,"1),":2931,"AL":2932,"gi":2933,"put":2934,"pread":2935,"onth":2936,"▁own":2937,"▁saf":2938,"▁syndrom":2939,"ice":2940,"▁(E":2941,"ulner":2942,"▁Ph":2943,"▁All":2944,"unting":2945,"tically":2946,"▁condition":2947,"▁liver":2948,"▁S.":2949,"▁rest":2950,"▁23":2951,"▁studied":2952,"▁compon":2953,"▁Ef":2954,"ensive":2955,"▁associations":2956,"plex":2957,"-scale":2958,"▁populations.\n":2959,"▁enzym":2960,"▁respond":2961,"▁2018":2962,"-de":2963,"▁MethodsA":2964,".\\n\\nCon":2965,"▁plate":2966,"▁valid":2967,".6%":2968,"▁majority":2969,".9%":2970,"▁implemented":2971,"lpC":2972,"▁profil":2973,"▁alleles":2974,"▁challenges":2975,"▁substantial":2976,"▁planning":2977,"▁linked":2978,"▁Peru":2979,"▁Despite":2980,"▁Colom":2981,"▁candidate":2982,"▁PfClpC":2983,",000":2984,"-tim":2985,"13":2986,"6%":2987,"80":2988,"DS":2989,"Q-L":2990,"awi":2991,"bi":2992,"inate":2993,"▁aver":2994,"ond":2995,"ons":2996,"hel":2997,"▁sout":2998,"▁diabe":2999,"ish":3000,"erv":3001,"icity":3002,"▁reference":3003,"▁binding":3004,"▁biting":3005,"▁however,":3006,"omain":3007,"▁(8":3008,"▁vi":3009,"▁vary":3010,"▁vulner":3011,"▁proper":3012,"rad":3013,"▁light":3014,"▁larg":3015,"rix":3016,"▁System":3017,"▁IR":3018,"▁IFR":3019,"▁RBC":3020,"▁near":3021,"▁sex":3022,"▁Ob":3023,"▁series":3024,"actate":3025,"▁obtained":3026,"-tub":3027,"-treated":3028,"▁training":3029,"▁biology":3030,"▁epidemics":3031,"▁affect":3032,"▁structural":3033,".7%":3034,"▁features":3035,"▁does":3036,"▁(AOR":3037,"▁variant":3038,"▁programs":3039,"oprevention":3040,"▁linear":3041,"▁established":3042,"▁Malawi":3043,"▁metabolic":3044,"▁communities":3045,"▁heterogeneity":3046,"▁describe":3047,"variate":3048,"▁forecas":3049,"▁parasites/{micro}L":3050,"▁Ethiop":3051,"▁vitro":3052,"▁concentrations":3053,"▁literature":3054,"▁applied":3055,"▁fatality":3056,"▁habitat":3057,".\\n\\nConclusion":3058,"Q-LNS":3059,"-on":3060,"10":3061,"2)":3062,"duce":3063,"iet":3064,"lades":3065,"ylog":3066,"reeding":3067,"▁so":3068,"esis":3069,"▁might":3070,"▁hour":3071,"omet":3072,"osquito":3073,"ly.\n":3074,"▁though":3075,"uman":3076,"▁gl":3077,"▁living":3078,"▁Sc":3079,"▁Surve":3080,"uch":3081,"amb":3082,"▁accept":3083,"▁WHO":3084,"▁alb":3085,"▁percent":3086,"▁Ex":3087,"▁On":3088,"▁diffic":3089,"▁0.9":3090,"▁rad":3091,"▁Gen":3092,"▁according":3093,"▁decl":3094,"-SP":3095,"▁upon":3096,".\\n\\nM":3097,"standing":3098,"▁biom":3099,"▁pharm":3100,"▁abund":3101,"▁Stud":3102,"▁feeding":3103,"▁require":3104,"▁private":3105,"▁limit":3106,"▁interactions":3107,"▁circulation":3108,"▁suggests":3109,"▁mobility":3110,"▁emerging":3111,"▁highlight":3112,"tide":3113,"▁calc":3114,"priate":3115,"▁(LLINs)":3116,"+/-":3117,"-tubulin":3118,"ladesh":3119,"-D":3120,"/2":3121,"2%":3122,"NG":3123,"T-":3124,"ients":3125,"ov":3126,"pir":3127,"ring":3128,"tam":3129,"urop":3130,"ware":3131,"{+/-":3132,"▁sa":3133,"▁since":3134,"▁mid":3135,"▁det":3136,"orrh":3137,"▁wave":3138,"▁ref":3139,"omes":3140,"ations,":3141,"▁nucle":3142,"▁ACT":3143,"▁stress":3144,"▁gly":3145,"emble":3146,"▁protocol":3147,"▁defic":3148,"▁prevalent":3149,"opict":3150,"▁exhib":3151,"porting":3152,"▁co-c":3153,"itig":3154,"▁interview":3155,"rict":3156,"▁National":3157,"ogens":3158,"ership":3159,"▁0.8":3160,"▁unique":3161,"▁unknown":3162,"▁cells.\n":3163,"▁analysis.\n":3164,"▁2017":3165,"▁incidence,":3166,"▁point":3167,"lect":3168,"▁age,":3169,"▁inflamm":3170,"plications":3171,"▁complete":3172,"▁indices":3173,"▁Asia":3174,"▁simulation":3175,"▁evaluation":3176,"▁throughout":3177,"-fold":3178,"▁workers":3179,"▁sequences":3180,"▁circulating":3181,"▁delayed":3182,"▁profile":3183,"▁decreased":3184,"▁concentration":3185,"▁dihydroartemisinin":3186,"▁experimental":3187,"▁IPTp-SP":3188,"▁monitoring":3189,"▁municipalities":3190,"▁questionna":3191,"▁logistic":3192,"▁albopict":3193,"{+/-}":3194,"-cell":3195,"/S":3196,"15":3197,"FV":3198,"LDH":3199,"cence":3200,"deg":3201,"eq":3202,"nes":3203,"ou":3204,"went":3205,"{deg":3206,"hei":3207,"alle":3208,"▁size":3209,"▁cure":3210,"esian":3211,"▁mitig":3212,"ers,":3213,"asc":3214,"▁flu":3215,"ans":3216,"ather":3217,"▁berg":3218,"oss":3219,"▁(W":3220,"▁vers":3221,"▁now":3222,"▁normal":3223,"▁PM":3224,"▁Cent":3225,"une":3226,"▁prote":3227,"▁malariae":3228,"▁Is":3229,"▁May":3230,"▁Most":3231,"▁existing":3232,"▁contrast":3233,"▁transcri":3234,"▁By":3235,"ities,":3236,"▁study.\n":3237,"izes":3238,"▁orig":3239,"aken":3240,"▁regimen":3241,"▁haplo":3242,"phal":3243,"▁application":3244,"aging":3245,"▁yet":3246,"thern":3247,"▁serotypes":3248,"▁signs":3249,"▁recr":3250,"▁uncom":3251,"▁population.\n":3252,"▁duration":3253,"▁resistance.\n":3254,"▁lock":3255,"▁Research":3256,"▁useful":3257,"▁sampling":3258,"iotic":3259,"▁areas.\n":3260,"aternal":3261,"▁indicate":3262,"▁pathogens":3263,"exual":3264,"▁experience":3265,"▁respectively,":3266,"▁availability":3267,"▁CHIKV":3268,"▁commonly":3269,"oft":3270,"▁circum":3271,"▁track":3272,"▁programm":3273,"▁leading":3274,"▁relevant":3275,"▁cost-effec":3276,"▁chemoprevention":3277,"▁recommended":3278,"▁rainf":3279,"idespread":3280,"▁clear":3281,"▁Bangladesh":3282,"▁daily":3283,"▁merozoite":3284,"▁practices":3285,"rees}":3286,"▁Colombia":3287,"-only":3288,"▁difficult":3289,"{degrees}":3290,"▁berghei":3291,"-7":3292,"64":3293,"79":3294,"SS":3295,"_A":3296,"_ST":3297,"nec":3298,"ob":3299,"sis":3300,"tt":3301,"tin":3302,"ways":3303,"▁j":3304,"▁-tubulin":3305,"inally,":3306,"▁skin":3307,"▁cyn":3308,"▁power":3309,"arily":3310,"▁widespread":3311,"ash":3312,"ansion":3313,"▁read":3314,"atrix":3315,"omol":3316,"▁(b":3317,"imal":3318,"▁nutri":3319,"▁asexual":3320,"ticip":3321,"▁conser":3322,"ember":3323,"▁29":3324,"ession":3325,"▁diss":3326,"ably":3327,"▁HC":3328,"▁neuro":3329,"▁infections,":3330,"▁Bay":3331,"▁adv":3332,"▁model,":3333,"▁close":3334,"▁Es":3335,"▁East":3336,"▁expansion":3337,"▁vivax,":3338,"▁regions.\n":3339,"▁impac":3340,"▁appropriate":3341,"-piperaquine":3342,"▁Zika,":3343,"▁indicated":3344,"▁Chikunguny":3345,"▁whole":3346,"▁values":3347,"overn":3348,"▁aims":3349,"▁release":3350,"▁suit":3351,"▁decrease":3352,"▁techniqu":3353,"▁reproduc":3354,"▁reproduction":3355,"▁socioeconomic":3356,"▁Model":3357,"▁episodes":3358,"▁secre":3359,"▁therapeutic":3360,"-associated":3361,"_ST_A":3362,"▁Bayesian":3363,"30":3364,"king":3365,"po":3366,"ximate":3367,"ybr":3368,"▁enc":3369,"inic":3370,"ense":3371,"▁call":3372,"estern":3373,"▁mal":3374,"eration":3375,"▁best":3376,"▁vill":3377,"ulative":3378,"▁good":3379,"▁28":3380,"ota":3381,"▁acid":3382,"▁With":3383,"▁Rio":3384,"▁hem":3385,"▁seen":3386,"▁Europ":3387,"▁Of":3388,"▁No":3389,"▁yellow":3390,"▁US":3391,"▁years.\n":3392,"▁children,":3393,"▁enrol":3394,"▁scale":3395,"▁mansoni":3396,"0%)":3397,"▁DENV2":3398,"▁2016":3399,"▁predicting":3400,"▁reductions":3401,"▁infants":3402,"▁BackgroundThe":3403,"▁medic":3404,"▁indicating":3405,"▁temporal":3406,"▁phosph":3407,"▁generate":3408,"ront":3409,"▁providing":3410,"▁Chin":3411,"▁interventions.\n":3412,"▁hospitalised":3413,"▁[&":3414,"▁types":3415,"▁examine":3416,"▁chikungunya,":3417,"▁Addition":3418,"▁mutations":3419,"▁activation":3420,"▁mechanism":3421,"▁heterogeneous":3422,"▁resulting":3423,"▁necessary":3424,"▁every":3425,"▁regarding":3426,"▁barri":3427,"▁docum":3428,"▁survival":3429,"▁determinants":3430,"▁categor":3431,"▁safety":3432,"▁restric":3433,"-time":3434,"▁radical":3435,"▁uncomplicated":3436,"▁cynomol":3437,"atrix-M":3438,"ybrid":3439,",S":3440,"-val":3441,"-term":3442,"-wide":3443,"/M":3444,"14":3445,"39":3446,"5)":3447,"59":3448,"6).\n":3449,"BP":3450,"face":3451,"most":3452,"national":3453,"ule":3454,"yt":3455,"▁0":3456,"▁semi":3457,"▁cum":3458,"▁mis":3459,"▁maternal":3460,"▁date":3461,"oring":3462,"ists":3463,"eri":3464,"tion.\n":3465,"▁free":3466,"itative":3467,"▁bu":3468,"▁(K":3469,"▁(r":3470,"▁third":3471,"urse":3472,"ode":3473,"▁pros":3474,"▁late":3475,"▁SQ-LNS":3476,"▁22":3477,"▁Methodology":3478,"▁1.1":3479,"▁expected":3480,"▁active":3481,"▁co-":3482,"▁genus":3483,"▁datase":3484,"▁adap":3485,"▁clim":3486,"▁ELISA":3487,"▁data,":3488,"agic":3489,"▁facility":3490,"ibr":3491,"▁difference":3492,"▁intra":3493,"▁region.\n":3494,"▁objective":3495,"▁predominant":3496,"0%,":3497,"▁2014":3498,"▁presented":3499,"▁polym":3500,"▁non-f":3501,"▁insect":3502,"▁coronavirus":3503,"▁arboviral":3504,"▁temperatures":3505,"▁CHMI":3506,"▁IgM":3507,"▁deliver":3508,"▁highligh":3509,"▁synthesis":3510,"▁propose":3511,"▁behaviour":3512,"erythrocytic":3513,"▁because":3514,"▁Malays":3515,"▁dosing":3516,"g/m":3517,"▁recorded":3518,"-transmission":3519,"▁95%CI:":3520,"/Principal":3521,"▁family":3522,"▁Clinical":3523,"▁neonatal":3524,"▁promising":3525,"▁capture":3526,"▁pharmac":3527,"▁abundance":3528,"▁versus":3529,"overnment":3530,"_ST_ABS":3531,"-value":3532,"▁cumulative":3533,"-B":3534,"-gen":3535,".g":3536,"//":3537,"/or":3538,"1%":3539,"32":3540,"://":3541,"Rs":3542,"au":3543,"apt":3544,"cRNA":3545,"door":3546,"lation":3547,"lif":3548,"oe":3549,"yri":3550,"▁qPCR":3551,"inc":3552,"tial":3553,"▁oper":3554,"▁sle":3555,"▁inoc":3556,"▁cat":3557,"▁cam":3558,"▁mac":3559,"▁mild":3560,"▁made":3561,"▁and/or":3562,"▁flavivirus":3563,"▁re-":3564,"▁bed":3565,"▁breeding":3566,"vement":3567,"iable":3568,"urally":3569,"▁Pi":3570,"▁Pv":3571,"▁PBO":3572,"▁At":3573,"▁Aug":3574,"▁production":3575,"vers":3576,"▁land":3577,"▁lag":3578,"restim":3579,"▁course":3580,"▁compr":3581,"▁alloc":3582,"▁High":3583,"▁neigh":3584,"▁modeling":3585,"proxy":3586,"▁diseases,":3587,"▁Finally,":3588,"▁Nor":3589,"▁controls":3590,"▁unde":3591,"ildren":3592,"OVID-19":3593,"▁recurrent":3594,"▁recovery":3595,"▁arm":3596,"▁ampl":3597,"▁agent":3598,"▁prediction":3599,"▁outbreaks.\n":3600,"ressive":3601,"taining":3602,"▁areas,":3603,"▁ResultsA":3604,"-malarial":3605,"▁open":3606,"▁June":3607,"▁recently":3608,"▁hypn":3609,"okine":3610,"▁discrim":3611,"▁examined":3612,"▁Amaz":3613,"▁containing":3614,"▁mechanisms":3615,"▁sufficient":3616,"▁haemat":3617,"▁focused":3618,"▁phenotyp":3619,"▁initial":3620,"▁100%":3621,"olysis":3622,"▁account":3623,"RP2":3624,"▁integrated":3625,"overed":3626,"▁chloroquine":3627,"▁panel":3628,"▁January":3629,"paign":3630,"▁RH5.1":3631,"▁larval":3632,"▁successful":3633,"▁Effec":3634,"▁southern":3635,"▁biomark":3636,"orrhagic":3637,"▁co-circ":3638,"▁polymorph":3639,"yriproxy":3640,"▁sleep":3641,"▁Amazon":3642,"yriproxyfen":3643,"-ph":3644,"49":3645,"Ds":3646,"ME":3647,"PF":3648,"PI":3649,"Res":3650,"V)":3651,"],":3652,"cl":3653,"greg":3654,"itic":3655,"oA":3656,"yr":3657,"▁torm":3658,"ones":3659,"onotic":3660,"teor":3661,"▁source":3662,"▁my":3663,"orb":3664,"▁warning":3665,"ances":3666,"▁reinfec":3667,"atin":3668,"▁hosts":3669,"oding":3670,"ilir":3671,"▁AR":3672,"▁states":3673,"▁gain":3674,"▁connec":3675,"▁Since":3676,"och":3677,"▁DHF":3678,"ies.\n":3679,"▁West":3680,"ubin":3681,"▁along":3682,"▁adjusted":3683,"▁adapt":3684,"rich":3685,"▁One":3686,"▁outdoor":3687,"▁parasites.\n":3688,"ellular":3689,"▁Long":3690,"▁lowest":3691,"ventional":3692,"▁timing":3693,"▁monke":3694,"▁include":3695,"▁children.\n":3696,"▁qual":3697,"▁DENV-2":3698,"ailand":3699,"▁causing":3700,"▁decline":3701,"▁rob":3702,"▁BackgroundMalaria":3703,"▁improving":3704,"▁ResultsThe":3705,"▁phylog":3706,"-month":3707,".8%":3708,"▁remained":3709,"▁affecting":3710,"▁type":3711,"▁criter":3712,"▁ConclusionsThe":3713,"▁recep":3714,"▁receive":3715,"▁(IR":3716,"▁discus":3717,"▁females":3718,"▁prioritiz":3719,"▁schistosom":3720,"▁proposed":3721,"▁activities":3722,"▁probability":3723,"▁RDTs":3724,"▁doses":3725,"▁addition,":3726,"▁Kenya":3727,"▁ensemble":3728,"▁Uganda":3729,"▁baseline":3730,"▁diverse":3731,"▁Overall,":3732,"▁enhanced":3733,"▁frequently":3734,"oleste":3735,"▁scenarios":3736,"▁absence":3737,"pretation":3738,"▁dihydroartemisinin-piperaquine":3739,"oftware":3740,"{degrees}C":3741,"▁-tubulin-1":3742,"▁cynomolgi":3743,"▁August":3744,"teorological":3745,"ilirubin":3746,"-H":3747,"-pro":3748,"0)":3749,"5),":3750,"BA":3751,"I)":3752,"Our":3753,"co":3754,"hance":3755,"nel":3756,"uk":3757,"uts":3758,"vated":3759,"▁X":3760,"▁zo":3761,"▁{micro}":3762,"ins":3763,"▁tit":3764,"▁tiss":3765,"▁pep":3766,"▁div":3767,"▁done":3768,"ers.\n":3769,"ank":3770,"ations.\n":3771,"▁(T":3772,"imens":3773,"▁Po":3774,"▁Acc":3775,"▁weight":3776,"▁star":3777,"unte":3778,"eli":3779,"▁const":3780,"▁lactate":3781,"▁resource":3782,"▁respir":3783,"▁IF":3784,"ge;]":3785,"▁2,":3786,"▁27":3787,"undred":3788,"▁chain":3789,"▁Rep":3790,"redic":3791,"▁dengue.\n":3792,"▁align":3793,"▁mosquitoes,":3794,"▁Epid":3795,"▁35":3796,"▁virus,":3797,"▁control,":3798,"▁0.00":3799,"▁0.05":3800,"▁underwent":3801,"▁expand":3802,"▁Thailand":3803,"▁years,":3804,"▁levels.\n":3805,"▁enhance":3806,"▁50":3807,"▁DENV-1":3808,"▁60":3809,"▁2013":3810,"▁approximate":3811,"racellular":3812,"▁1.0":3813,"▁countries,":3814,"▁Children":3815,"▁hospitalization":3816,"oxide":3817,"▁strategies.\n":3818,"ocytes":3819,"▁Brazil,":3820,"▁outcomes.\n":3821,"▁increases":3822,"▁knowledge,":3823,"titute":3824,"▁hypot":3825,"▁networks":3826,"-LLIN":3827,"▁insecticides":3828,"▁visits":3829,"▁become":3830,"▁weekly":3831,"▁University":3832,"▁substantially":3833,"types":3834,"imension":3835,"▁reactive":3836,"▁Ghana":3837,"▁deployment":3838,"itudinal":3839,"▁Nigeria":3840,"▁widely":3841,"▁susceptibility":3842,"▁seeking":3843,"▁step":3844,"▁expressed":3845,"US$":3846,"▁seropositivity":3847,"▁double":3848,"▁questionnaire":3849,"▁rainfall":3850,"▁dissem":3851,"▁Chikungunya":3852,"▁Additionally,":3853,"▁tormota":3854,"▁qualitative":3855,"▁robust":3856,"olesterol":3857,"-g":3858,"16":3859,"4)":3860,"ED":3861,"ae":3862,"ai":3863,"fusion":3864,"lap":3865,"t,":3866,"utions":3867,"▁lym":3868,"ines.\n":3869,"▁awa":3870,"onyl":3871,"ties":3872,"tice":3873,"enter":3874,"▁ster":3875,"▁domain":3876,"▁flow":3877,"ittle":3878,"atric":3879,"▁ble":3880,"▁hybrid":3881,"omplex":3882,"ositive":3883,"osition":3884,"▁Ac":3885,"▁stra":3886,"▁Care":3887,"▁TB":3888,"▁gap":3889,"▁malaria-endemic":3890,"▁led":3891,"▁last":3892,"▁later":3893,"▁Sal":3894,"▁Soc":3895,"▁prec":3896,"▁Min":3897,"▁Multi":3898,"▁Dec":3899,"▁cho":3900,"▁excess":3901,"▁acqu":3902,"▁RA":3903,"▁here":3904,"▁heat":3905,"▁altern":3906,"▁34":3907,"▁OR":3908,"▁Out":3909,"▁0.2":3910,"▁0.5":3911,"▁disease,":3912,"▁until":3913,"▁arri":3914,"portun":3915,"aching":3916,"▁shows":3917,"▁showing":3918,"▁vivax.\n":3919,"▁scal":3920,"▁studies.\n":3921,"▁factors,":3922,"▁poly":3923,"▁boos":3924,"-to":3925,"-pLDH":3926,"omics":3927,"▁plac":3928,"▁(Pf":3929,"▁mortality.\n":3930,"▁whereas":3931,".3%":3932,"▁affects":3933,"over,":3934,"▁received":3935,"▁inhibitor":3936,"▁analyze":3937,"▁India":3938,"afen":3939,"▁comparing":3940,"▁therapy":3941,"▁screened":3942,"▁highlights":3943,"▁recomb":3944,"iperonyl":3945,"o-temporal":3946,"▁introduced":3947,"▁defined":3948,"▁parameter":3949,"▁recommend":3950,"▁database":3951,"▁volunte":3952,"▁funding":3953,"▁Understanding":3954,"▁Recent":3955,"▁Moreover,":3956,"▁District":3957,"▁ownership":3958,"▁respondents":3959,"▁platelet":3960,"▁varying":3961,"▁percentage":3962,"▁midg":3963,"▁albopictus":3964,"/Significance":3965,"▁lockdown":3966,"▁enrolled":3967,"▁climatic":3968,"▁delivery":3969,"g/mL":3970,"▁campaign":3971,"▁lymph":3972,"GD":3973,"MM":3974,"QR":3975,"RO":3976,"RDT":3977,"gue":3978,"pression":3979,"ril":3980,"sy":3981,"uly":3982,"vation":3983,"▁\"":3984,"▁%":3985,"onal":3986,"enous":3987,"▁sw":3988,"▁sal":3989,"▁software":3990,"arasite":3991,"▁must":3992,"▁don":3993,"▁way":3994,"astern":3995,"▁fil":3996,"▁bod":3997,"▁brain":3998,"▁border":3999,"▁hots":4000,"▁hundred":4001,"▁(B":4002,"▁(F":4003,"▁(s":4004,"active":4005,"▁Predic":4006,"▁Cor":4007,"olar":4008,"▁deep":4009,"▁Sch":4010,"▁2000":4011,"ocys":4012,"reng":4013,"reness":4014,"▁DF":4015,"▁users":4016,"▁assemb":4017,"▁coup":4018,"▁almost":4019,"▁neural":4020,"▁transport":4021,"▁clinic":4022,"▁O.":4023,"charge":4024,"chron":4025,"▁0.3":4026,"▁artic":4027,"▁estimating":4028,"▁vivo":4029,"▁time.\n":4030,"▁regions,":4031,"-202":4032,"▁Analysis":4033,"▁65":4034,"▁resistance,":4035,"▁locations":4036,"▁incidence.\n":4037,"▁diagnosed":4038,"▁variations":4039,"-Seq":4040,"▁primarily":4041,"▁varied":4042,"▁1.2":4043,"▁traditional":4044,"▁pathways":4045,"▁follow-up":4046,"▁characterized":4047,"▁collection":4048,"▁longer":4049,"▁dependent":4050,"IKV)":4051,"▁sensitive":4052,"▁valu":4053,"▁opportun":4054,"▁globally":4055,"▁State":4056,".2%":4057,"▁variability":4058,"▁(n=1":4059,"▁pandemic.\n":4060,"▁contributed":4061,"▁classified":4062,"▁targets":4063,"▁confirm":4064,"▁(mean":4065,"▁(maximum":4066,"▁April":4067,"▁meteorological":4068,"▁partner":4069,"▁2021.\n":4070,"▁worldwide.\n":4071,"weight":4072,"▁ranging":4073,"▁2023.\n":4074,"-resist":4075,"▁policy":4076,"▁experienced":4077,"▁compounds":4078,"▁failure":4079,"▁Diseas":4080,"▁err":4081,"▁syndrome":4082,"▁component":4083,"▁enzyme":4084,"▁detail":4085,"▁origin":4086,"▁conserved":4087,"/Matrix-M":4088,"▁inoculation":4089,"▁underestim":4090,"▁awareness":4091,"▁bleeding":4092,"-T":4093,"-w":4094,"1.\n":4095,"69":4096,"8).\n":4097,"95%":4098,"bs":4099,"ei":4100,"gens":4101,"iatric":4102,"les.\n":4103,"mal":4104,"nam":4105,"normal":4106,"ober":4107,"ping":4108,"ruct":4109,"yond":4110,"za":4111,"zamb":4112,"▁ve":4113,"tives":4114,"▁pay":4115,"▁piperonyl":4116,"arn":4117,"▁malarial":4118,"▁mother":4119,"▁dig":4120,"▁dens":4121,"▁down":4122,"▁offer":4123,"▁wild":4124,"▁far":4125,"lets":4126,"▁(Z":4127,"▁CC":4128,"▁Trans":4129,"▁conse":4130,"▁produce":4131,"▁prolif":4132,"▁little":4133,"▁SD":4134,"▁Sh":4135,"▁Spec":4136,"▁Man":4137,"ysical":4138,"▁cholesterol":4139,"▁beyond":4140,"▁RTS":4141,"▁atten":4142,"▁adherence":4143,"▁indirect":4144,"▁3,":4145,"▁Ne":4146,"ages.\n":4147,"▁yield":4148,"▁Le":4149,"▁effectively":4150,"▁underst":4151,"▁surface":4152,"achine":4153,"velopment":4154,"▁anti-":4155,"▁antigens":4156,"▁childhood":4157,"▁humidity":4158,"▁UK":4159,"▁subset":4160,"ourc":4161,"▁analysis,":4162,"▁butoxide":4163,"▁manner":4164,"▁Control":4165,"▁studies,":4166,"▁individuals,":4167,"ultaneous":4168,"▁predictors":4169,"▁prevalence,":4170,"-parasite":4171,"▁time,":4172,"plicon":4173,"▁Viet":4174,"▁8-":4175,"▁80%":4176,"▁indicators":4177,"▁simultaneous":4178,"▁efficient":4179,"▁confidence":4180,"▁urgent":4181,"▁responsible":4182,"▁trig":4183,"▁true":4184,"▁mob":4185,"▁large-scale":4186,"▁patients,":4187,"▁marker":4188,"▁statistically":4189,"criptive":4190,"▁guide":4191,"▁differential":4192,"▁co-infections":4193,"▁ranged":4194,"-host":4195,"▁CHWs":4196,"▁culture":4197,"▁resulted":4198,"tified":4199,"-RDT":4200,"▁counts":4201,"▁repeat":4202,"▁incorporating":4203,"▁relapse":4204,"▁facilitate":4205,"▁employed":4206,"▁Mozamb":4207,"▁contrast,":4208,"▁allocation":4209,"▁hypnozoite":4210,"▁schistosomiasis":4211,"▁hypothes":4212,"▁RTS,S":4213,"▁Vietnam":4214,"-th":4215,"-ra":4216,"/3":4217,"18":4218,"6),":4219,"87":4220,"=2":4221,"AN":4222,"BD":4223,"NF":4224,"PK":4225,"RA":4226,"St":4227,"aem":4228,"cher":4229,"e.g":4230,"gs":4231,"iety":4232,"ler":4233,"less":4234,"mber":4235,"nock":4236,"ncRNA":4237,"▁air":4238,"▁sough":4239,"▁mess":4240,"▁making":4241,"▁off":4242,"orin":4243,"isation":4244,"▁replic":4245,"idal":4246,"▁(med":4247,"cephal":4248,"▁TEP1":4249,"▁gon":4250,"▁aspec":4251,"▁anemia":4252,"emory":4253,"version":4254,"▁resources":4255,"▁iss":4256,"ocyt":4257,"▁infect":4258,"▁disrup":4259,"▁inclusion":4260,"▁chronic":4261,"▁below":4262,"▁WNV":4263,"▁hep":4264,"▁comput":4265,"▁contact":4266,"▁although":4267,"▁transmit":4268,"▁seven":4269,"▁Bi":4270,"▁perip":4271,"plac":4272,"▁Inc":4273,"▁Inte":4274,"▁regul":4275,"ethrin":4276,"chlor":4277,"▁transmission,":4278,"▁virus.\n":4279,"ogn":4280,"▁space":4281,"OVID19":4282,"▁recurrence":4283,"▁low-":4284,"▁intracellular":4285,"▁49":4286,"▁Anti":4287,"▁treatment.\n":4288,"-17":4289,"▁dry":4290,"-dependent":4291,"▁multivariate":4292,"▁variable":4293,"▁infer":4294,"▁Vector":4295,"▁settings,":4296,"▁metric":4297,"ctober":4298,"racted":4299,"▁biological":4300,"▁simple":4301,"▁depend":4302,"▁efficiency":4303,"▁extent":4304,"▁development.\n":4305,"-line":4306,"▁structures":4307,"▁functions":4308,"▁Brazilian":4309,"mediate":4310,"▁knowlesi,":4311,"▁rapidly":4312,"ferred":4313,"▁improvement":4314,"▁sustain":4315,"rogenase":4316,"▁patients.\n":4317,"<0.000":4318,"▁priority":4319,"▁insecticide-treated":4320,"▁classification":4321,"▁Comp":4322,"hydrogenase":4323,"▁processes":4324,".5%)":4325,"▁probabil":4326,"▁What":4327,"▁members":4328,"▁fitted":4329,"▁isolates":4330,"▁co-infection":4331,"▁microcephal":4332,"ovember":4333,"▁projected":4334,"itude":4335,"▁services":4336,"▁AND":4337,"thetic":4338,"ps://":4339,"▁Interpretation":4340,"▁bacterial":4341,"▁profiles":4342,".\\n\\nConclusions":4343,"▁hours":4344,"▁Study":4345,"▁interviews":4346,"▁fluid":4347,"▁transcriptom":4348,"ttps://":4349,"▁suitable":4350,"▁reproductive":4351,"rontline":4352,"▁barriers":4353,"▁semi-":4354,"▁Piwi":4355,"▁zoonotic":4356,"▁respiratory":4357,"▁approximately":4358,"▁alternative":4359,"▁arrival":4360,"▁midgut":4361,"▁saliv":4362,"▁sought":4363,"-v":4364,"43":4365,"47":4366,"63":4367,"AMP":4368,"EV":4369,"IO":4370,"IS":4371,"TH":4372,"aper":4373,"bral":4374,"horin":4375,"tent":4376,"yc":4377,"▁ub":4378,"inom":4379,"escence":4380,"▁max":4381,"▁middle":4382,"▁wall":4383,"erc":4384,"▁and,":4385,"ics":4386,"▁hand":4387,"▁hist":4388,"▁hyd":4389,"osyn":4390,"▁(e.g":4391,"▁vire":4392,"immun":4393,"▁PMI":4394,"▁forms":4395,"igible":4396,"▁Trial":4397,"▁conventional":4398,"olved":4399,"▁lip":4400,"▁resear":4401,"▁21":4402,"adjusted":4403,"ypox":4404,"▁models.\n":4405,"▁Infec":4406,"▁El":4407,"ologic":4408,"ikeli":4409,"▁33":4410,"▁Fund":4411,"rosis":4412,"▁parasites,":4413,"▁November":4414,"pers":4415,"ually":4416,"▁falciparum.\n":4417,"▁0.6":4418,"▁underlying":4419,"▁analysed":4420,"▁population,":4421,"dii":4422,"▁45":4423,"▁level.\n":4424,"▁After":4425,"▁scop":4426,"▁assessing":4427,"▁poses":4428,"argeted":4429,"-dis":4430,"-demographic":4431,"-positive":4432,"▁timely":4433,"▁groups,":4434,"▁remote":4435,"▁indicates":4436,"▁longitudinal":4437,"-five":4438,"▁extensive":4439,"▁abnormal":4440,"▁willing":4441,"▁eluc":4442,"cophorin":4443,"▁July":4444,"tenatal":4445,"▁(p=0.":4446,"▁inhibit":4447,"▁profession":4448,"▁millions":4449,"▁designed":4450,"▁involving":4451,"▁Covid19":4452,"▁relatively":4453,"▁visual":4454,"ophag":4455,"▁ApoA":4456,"▁explored":4457,"▁mixt":4458,"▁weeks":4459,"▁allele":4460,"▁practice":4461,"▁epit":4462,"▁meal":4463,"▁United":4464,"▁introduction":4465,"▁CDPK":4466,"▁isolate":4467,"▁sounds":4468,"▁Particip":4469,"ether,":4470,"▁optimal":4471,"▁derived":4472,"▁version":4473,"erebral":4474,"▁bites":4475,"▁uncertain":4476,"▁assump":4477,"▁benefits":4478,"-mediated":4479,"▁northern":4480,"▁continuous":4481,"▁genotyping":4482,"▁acceptable":4483,"▁closely":4484,"▁techniques":4485,"▁build":4486,"▁phylogenetic":4487,"▁tissue":4488,"▁Republic":4489,"afenoquine":4490,"sych":4491,"▁hotsp":4492,"-resistant":4493,"▁(median":4494,"▁gondii":4495,"ikelihood":4496,"-8":4497,"/C":4498,"45":4499,"8)":4500,"8),":4501,"A)":4502,"BGD":4503,"EN":4504,"RC":4505,"T)":4506,"TP":4507,"Ws":4508,"ao":4509,"apid":4510,"ba":4511,"cing":4512,"ched":4513,"eti":4514,"ebr":4515,"rine":4516,"▁her":4517,"▁rol":4518,"▁te":4519,"▁taken":4520,"rect":4521,"reme":4522,"tead":4523,"▁sit":4524,"▁south":4525,"▁induced":4526,"▁certain":4527,"▁pass":4528,"▁much":4529,"▁mRDT":4530,"▁machine":4531,"▁dam":4532,"▁dimension":4533,"▁official":4534,"ority":4535,"erous":4536,"ason":4537,"▁ful":4538,"▁top":4539,"▁home":4540,"▁however":4541,"idities":4542,"▁eight":4543,"ately":4544,"▁(d":4545,"▁(US$":4546,"lood":4547,"thal":4548,"▁AD":4549,"▁streng":4550,"iring":4551,"▁CR":4552,"▁animal":4553,"▁conclusion":4554,"utaneous":4555,"▁Sp":4556,"range":4557,"▁head":4558,"▁HRP2":4559,"▁next":4560,"▁Bo":4561,"ouse":4562,"▁adj":4563,"▁adop":4564,"▁advant":4565,"▁diseases.\n":4566,"▁leuc":4567,"▁37":4568,"▁October":4569,"▁parasite,":4570,"▁unders":4571,"▁Lo":4572,"▁differ":4573,"▁univers":4574,"▁risk.\n":4575,"▁arch":4576,"▁90%":4577,"▁antiviral":4578,"▁subs":4579,"bovirus":4580,"ributed":4581,"▁overlap":4582,"▁obtain":4583,"▁decad":4584,"▁fever,":4585,"▁months.\n":4586,"▁ResultsO":4587,"▁ResultsWe":4588,"-income":4589,"▁ConclusionThe":4590,"ready":4591,"▁needs":4592,"▁characterize":4593,"ixed":4594,"▁burden.\n":4595,"▁careg":4596,"▁cross-re":4597,"ogenicity":4598,"▁occurrence":4599,"▁working":4600,"▁PfE":4601,"▁seasonality":4602,".7%)":4603,"▁response.\n":4604,"▁(CH":4605,"▁presenting":4606,"▁reveals":4607,"▁typh":4608,"▁receiving":4609,"▁great":4610,"-infected":4611,"▁emph":4612,"▁synchron":4613,"▁YFV":4614,"▁accoun":4615,"type":4616,"▁fewer":4617,"▁autom":4618,"▁ensure":4619,"▁trends":4620,"▁Americas":4621,"▁ANC":4622,"▁basic":4623,"▁achieve":4624,"▁Assess":4625,"▁repeated":4626,"▁benefit":4627,"▁loads":4628,"▁(i.":4629,"-seq":4630,"▁guidel":4631,"▁conditions.\n":4632,"▁diabetes":4633,"▁larger":4634,"▁IRS":4635,"ometric":4636,".\\n\\nMethods":4637,"T-PCR":4638,"▁Central":4639,"▁recru":4640,"▁biomarkers":4641,"▁monkeypox":4642,"▁receptor":4643,"▁volunteers":4644,"▁coupled":4645,"▁articles":4646,"▁digital":4647,"inomial":4648,"▁scoping":4649,"▁Participants":4650,"ebruary":4651,"▁situ":4652,");":4653,"/s":4654,"/AS":4655,"22":4656,"40":4657,"5).\n":4658,"70":4659,"9%":4660,"90":4661,"=3":4662,"BV":4663,"CC":4664,"To":4665,"WS":4666,"cr":4667,"cer":4668,"ered":4669,"i)":4670,"ienti":4671,"oqu":4672,"ored":4673,"ount":4674,"otide":4675,"pos":4676,"ses":4677,"tr":4678,"t.\n":4679,"vidence":4680,"▁iron":4681,"inter":4682,"inary":4683,"inating":4684,"▁author":4685,"▁ten":4686,"one.\n":4687,"tilis":4688,"▁inferen":4689,"▁p<0.00":4690,"▁pyriproxyfen":4691,"▁mar":4692,"▁males":4693,"▁dra":4694,"erived":4695,"▁fatal":4696,"▁fusion":4697,"▁full":4698,"roup":4699,"atform":4700,"▁bel":4701,"▁basis":4702,"iage":4703,"oma":4704,"ident":4705,"▁(V":4706,"ime":4707,"▁government":4708,"▁likelihood":4709,"▁dehydrogenase":4710,"▁island":4711,"ambia":4712,"▁Mean":4713,"ocon":4714,"▁action":4715,"▁hel":4716,"▁rash":4717,"▁HM":4718,"▁Human":4719,"▁nearly":4720,"▁separ":4721,"▁genotypes":4722,"▁modified":4723,"atives":4724,"atigue":4725,"izon":4726,"▁models,":4727,"quitos":4728,"▁orth":4729,"▁international":4730,"▁38":4731,"▁FR":4732,"elling":4733,"▁kill":4734,"agen":4735,"▁face":4736,"▁spots":4737,"▁serious":4738,"▁0.01":4739,"▁recogn":4740,"▁risks":4741,"▁antib":4742,"▁vector-borne":4743,"▁agents":4744,"▁estimation":4745,"▁year.\n":4746,"-derived":4747,"lected":4748,"▁sampled":4749,"▁potent":4750,"▁sugar":4751,"▁micron":4752,"▁groups.\n":4753,"▁newly":4754,"▁play":4755,"▁platform":4756,"▁combining":4757,"▁well-":4758,"▁Aedes-borne":4759,"▁extreme":4760,"▁multiplex":4761,"▁maintained":4762,"MC)":4763,"▁spatio-temporal":4764,"<0.05":4765,"-reg":4766,"▁lineage":4767,"▁smear":4768,"▁pyrethroid-only":4769,"▁long-term":4770,"▁drivers":4771,"▁ratios":4772,"▁(aOR=0.":4773,"▁minimum":4774,"▁fitness":4775,"▁naturally":4776,"▁routinely":4777,"patient":4778,"▁older":4779,"▁transcription":4780,"▁elements":4781,"▁residents":4782,"▁homolog":4783,"helial":4784,"▁Objective":4785,"▁Island":4786,"▁programmes":4787,"▁(by":4788,"▁[&ge;]":4789,"▁neighbor":4790,"▁ARDS":4791,"▁opportunity":4792,"▁densities":4793,"▁understood":4794,"▁ApoA1":4795,"▁fully":4796,"▁undersc":4797,"/AS01":4798,"-age":4799,"57":4800,"9,":4801,"?\n":4802,"AG":4803,"D)":4804,"LC":4805,"MS":4806,"NP":4807,"TE":4808,"Using":4809,"aqu":4810,"bial":4811,"bining":4812,"cal":4813,"fort":4814,"get":4815,"gressive":4816,"jector":4817,"mature":4818,"mark":4819,"ned":4820,"s).\n":4821,"ycle":4822,"▁ult":4823,"ints":4824,"ines,":4825,"here":4826,"alse":4827,"test":4828,"▁outs":4829,"▁sl":4830,"▁sources":4831,"▁catal":4832,"▁cerebral":4833,"▁pack":4834,"▁plus":4835,"▁psych":4836,"ar.\n":4837,"▁men":4838,"▁memory":4839,"asing":4840,"▁fatigue":4841,"ico":4842,"▁bound":4843,"▁tog":4844,"▁https://":4845,"▁eg":4846,"aterial":4847,"oses":4848,"acific":4849,"activity":4850,"▁nine":4851,"▁Pb":4852,"▁PBGD":4853,"▁AU":4854,"▁Current":4855,"ity,":4856,"▁anophe":4857,"▁antenatal":4858,"▁malariae,":4859,"▁loss":4860,"▁lncRNA":4861,"udescence":4862,"▁Sep":4863,"▁online":4864,"▁onset":4865,"▁2.1":4866,"open":4867,"oplasm":4868,"▁Mosquito":4869,"▁Del":4870,"▁During":4871,"▁Demographic":4872,"▁exc":4873,"▁When":4874,"adherence":4875,"▁heating":4876,"▁compartment":4877,"▁Ben":4878,"▁Bur":4879,"itis":4880,"izations":4881,"▁clos":4882,"▁clients":4883,"timal":4884,"akart":4885,"▁registered":4886,"▁shap":4887,"▁36":4888,"▁Fever":4889,"▁February":4890,"rospective":4891,"▁NT":4892,"▁New":4893,"▁associate":4894,"▁LO":4895,"▁0.4":4896,"▁under-five":4897,"▁rare":4898,"▁arms":4899,"▁populations,":4900,"▁93":4901,"tember":4902,"▁vaccinated":4903,"apyr":4904,"▁quin":4905,"lusive":4906,"▁accomp":4907,"▁scienti":4908,"▁2023,":4909,"▁50%":4910,"▁COVID-19.\n":4911,"▁posi":4912,"-dri":4913,"▁non-c":4914,"▁70%":4915,"▁room":4916,"▁BackgroundDengue":4917,"struct":4918,"▁MethodsThis":4919,"▁improves":4920,"▁Virus":4921,"▁deaths,":4922,".\\n\\nRes":4923,"▁performing":4924,"▁trained":4925,"▁characterised":4926,"▁demonstrates":4927,"jectives":4928,"▁hospitalized":4929,"▁investigating":4930,"ummar":4931,"▁repell":4932,"▁PfH":4933,"▁structured":4934,"ocytes.\n":4935,"▁Brazil.\n":4936,"▁community-based":4937,"▁suggested":4938,"▁movement":4939,"▁sustained":4940,"▁largely":4941,"▁genome-wide":4942,"▁pandemic,":4943,"▁marked":4944,"▁world.\n":4945,"▁comparative":4946,"▁mutation":4947,"▁preventing":4948,"▁increasingly":4949,"▁(aOR=1":4950,"reatment":4951,"▁pathogenesis":4952,"▁phenotype":4953,"▁socio-":4954,"▁persist":4955,"▁defin":4956,"▁Previous":4957,"▁chemical":4958,"osphate":4959,"g/k":4960,"▁transcriptional":4961,"tisi":4962,"▁real-time":4963,"▁forecast":4964,"▁Qu":4965,"fenapyr":4966,"istosoma":4967,".0%,":4968,"▁achieved":4969,"▁databases":4970,"▁curtisi":4971,"▁blocking":4972,"▁susceptible":4973,"▁quantify":4974,"rophil":4975,"▁Medical":4976,"▁appears":4977,"▁establishment":4978,"▁Sub-Saharan":4979,"▁parasitic":4980,"▁vulnerability":4981,"▁circumc":4982,"▁cost-effectiveness":4983,"▁Estim":4984,"▁highlighting":4985,"▁comprising":4986,"▁RH5.1/Matrix-M":4987,"▁successfully":4988,"▁alignment":4989,"▁Epidemi":4990,"▁valuable":4991,"▁mobile":4992,"▁peripher":4993,"▁lipid":4994,"▁researcher":4995,"▁Funding":4996,"ophagy":4997,"▁FREP1":4998,"▁accompan":4999,"/A":5000,"/d":5001,"23":5002,"4.\n":5003,"56":5004,"HME":5005,"IP":5006,"RBC":5007,"S3":5008,"\\\"":5009,"che":5010,"ches":5011,"gor":5012,"hap":5013,"lf":5014,"les,":5015,"not":5016,"ole":5017,"ped":5018,"pose":5019,"rp":5020,"s),":5021,"west":5022,"▁eng":5023,"inol":5024,"inant":5025,"tile":5026,"timis":5027,"al,":5028,"▁oocys":5029,"▁cities":5030,"▁pric":5031,"▁miss":5032,"asting":5033,"▁fun":5034,"itine":5035,"ediatric":5036,"iation":5037,"▁ear":5038,"osin":5039,"▁(>":5040,"ceived":5041,"▁nature":5042,"ithub":5043,"▁Ab":5044,"▁C.":5045,"▁CO":5046,"▁Cr":5047,"▁Clp":5048,"▁T.":5049,"▁TNF":5050,"umef":5051,"tering":5052,"▁anthrop":5053,"rand":5054,"ratic":5055,"ife":5056,"▁dead":5057,"▁SP":5058,"▁Se":5059,"▁Sm":5060,"▁Spati":5061,"▁SCD":5062,"▁comorb":5063,"▁precip":5064,"ucose":5065,"▁MS3":5066,"▁1%":5067,"rent":5068,"▁Dem":5069,"▁Diagnos":5070,"▁chaper":5071,"ically,":5072,"▁Rapid":5073,"adic":5074,"▁coord":5075,"▁compet":5076,"antrine":5077,"▁contribution":5078,"▁altered":5079,"tory":5080,"▁transl":5081,"▁genomes":5082,"▁adequ":5083,"ongo":5084,"▁model.\n":5085,"ensor":5086,"ologies":5087,"▁this,":5088,"▁shar":5089,"▁shif":5090,"▁31":5091,"▁32":5092,"▁From":5093,"▁NPI":5094,"fered":5095,"estration":5096,"▁knock":5097,"aged":5098,"▁serotyp":5099,"▁amplicon":5100,"▁anti-malarial":5101,"▁reliable":5102,"▁aff":5103,"rimary":5104,"▁includes":5105,"▁accum":5106,"▁event":5107,"▁treatment,":5108,"▁Cons":5109,"▁individuals.\n":5110,"▁presents":5111,"▁results.\n":5112,"▁reduces":5113,"▁outbreak.\n":5114,"▁samples.\n":5115,"▁samples,":5116,"through":5117,"▁Valle":5118,"efficient":5119,"-malaria":5120,"existing":5121,"▁epidemic.\n":5122,".4%)":5123,"forest":5124,"▁rate,":5125,"▁characterization":5126,"▁evaluating":5127,"▁conclud":5128,"▁progression":5129,".6%)":5130,"▁extraction":5131,"▁extracted":5132,"▁detection.\n":5133,"▁PfG":5134,"▁dynamics.\n":5135,"▁cyc":5136,"▁States":5137,"▁outcomes,":5138,"▁mainly":5139,"0,000":5140,"iquity":5141,"▁(p<0.00":5142,"atistical":5143,"▁exposed":5144,"▁typically":5145,"▁variety":5146,"▁suspected":5147,"▁occurs":5148,"▁channel":5149,"▁contribut":5150,"▁NS4":5151,"▁(RDT":5152,"{micro}m":5153,"▁gambiae,":5154,"▁Compar":5155,"▁containers":5156,"▁mechanistic":5157,"▁country.\n":5158,"▁dried":5159,"▁sequestration":5160,"▁haemolysis":5161,"▁haemorrhagic":5162,"ylation":5163,"▁neutrophil":5164,"justing":5165,"▁strongly":5166,"▁invasive":5167,"▁days.\n":5168,"III":5169,"▁2019,":5170,"▁persistent":5171,"▁spp.,":5172,"▁2020.\n":5173,"olytic":5174,"▁generalized":5175,"patitis":5176,"▁terms":5177,"▁represents":5178,"▁thresholds":5179,"▁poorly":5180,"▁allows":5181,"▁Ghana.\n":5182,"▁elevated":5183,"▁Janei":5184,"▁complications":5185,"▁Institute":5186,"thropod":5187,"▁metabolite":5188,"▁Cameroon.\n":5189,"▁central":5190,"▁parasit":5191,"▁continued":5192,"ALY":5193,"▁forecasting":5194,"▁Only":5195,"▁calculated":5196,"▁safe":5197,"▁nucleotide":5198,"▁glycophorin":5199,"▁deficiency":5200,"▁mitigate":5201,"▁impacts":5202,"▁called":5203,"▁village":5204,"▁China":5205,"▁document":5206,"▁prospective":5207,"▁Methodology/Principal":5208,"▁non-falciparum":5209,"▁North":5210,"▁division":5211,"▁IFN":5212,"▁dissemination":5213,"▁December":5214,"▁choice":5215,"▁assembly":5216,"▁detailed":5217,"▁consequenc":5218,"▁8-amin":5219,"▁RTS,S/AS01":5220,"chloroquine":5221,"▁Compared":5222,"▁maxim":5223,"▁viremia":5224,"▁willingness":5225,"▁damage":5226,"▁conclusion,":5227,"▁universal":5228,"▁cross-reactivity":5229,"▁PfEMP":5230,"▁accounted":5231,"▁September":5232,"-driven":5233,"▁peripheral":5234,"gorith":5235,"▁funest":5236,"umefantrine":5237,"▁Janeiro":5238,"2.\n":5239,"4),":5240,"D42":5241,"FI":5242,"O_ST_ABS":5243,"TM":5244,"UP":5245,"air":5246,"cents":5247,"i,":5248,"kill":5249,"kok":5250,"oir":5251,"oadherence":5252,"ply":5253,"rug":5254,"then":5255,"uloc":5256,"vas":5257,"▁ide":5258,"ino":5259,"▁av":5260,"▁aid":5261,"▁tw":5262,"▁tafenoquine":5263,"tificial":5264,"tebr":5265,"▁sil":5266,"▁summar":5267,"▁inn":5268,"▁cop":5269,"▁pose":5270,"▁mA":5271,"▁meth":5272,"▁diagn":5273,"aster":5274,"▁feas":5275,"▁fold":5276,"▁food":5277,"▁false":5278,"ings":5279,"▁reverse":5280,"▁bene":5281,"usc":5282,"oming":5283,"le;]":5284,"▁elect":5285,"▁(c":5286,"▁(h":5287,"loid":5288,"▁vs":5289,"urity":5290,"imination":5291,"illo":5292,"▁PPF":5293,"▁And":5294,"▁stak":5295,"▁Car":5296,"▁TH":5297,"▁Tr":5298,"quate":5299,"ticuloc":5300,"▁another":5301,"etine":5302,"rained":5303,"▁dev":5304,"▁dele":5305,"▁SU":5306,"▁residence":5307,"▁reserv":5308,"▁resourc":5309,"▁preterm":5310,"uction":5311,"▁IL":5312,"▁Mic":5313,"ength":5314,"▁uses":5315,"▁imported":5316,"▁implications":5317,"▁partial":5318,"▁area.\n":5319,"▁cover":5320,"▁rRNA":5321,"▁rise":5322,"▁already":5323,"ance,":5324,"▁BL":5325,"▁genes.\n":5326,"atial":5327,"atients":5328,"istance":5329,"istry":5330,"ignificant":5331,"▁intermit":5332,"▁EPCR":5333,"ensis":5334,"ikeri":5335,"▁high.\n":5336,"▁39":5337,"▁3.4":5338,"▁outlets":5339,"▁Not":5340,"ella":5341,"ages,":5342,"ences":5343,"ibly":5344,"ibration":5345,"▁analyse":5346,"▁signal":5347,"▁specif":5348,"▁uns":5349,"▁98":5350,"temether":5351,"▁Go":5352,"▁agre":5353,"atically":5354,"▁41":5355,"pond":5356,"▁enab":5357,"▁clinically":5358,"▁factors.\n":5359,"▁loci":5360,"▁predictions":5361,"ospatial":5362,"▁BackgroundC":5363,"▁BackgroundP":5364,"▁fever.\n":5365,"▁Vacc":5366,"-induced":5367,"▁trajector":5368,"▁correct":5369,"▁supple":5370,"▁supported":5371,"▁Asian":5372,"exp":5373,"▁generation":5374,"▁generally":5375,"-for":5376,"easonal":5377,"cript":5378,"▁optimis":5379,"▁LLINs.\n":5380,"▁above":5381,"▁period,":5382,"▁relatedness":5383,"▁p=0.01":5384,"▁(CI":5385,"▁analytical":5386,"▁temperature,":5387,"minth":5388,"▁carry":5389,"▁emergency":5390,"▁example":5391,"▁(RR":5392,"▁formation":5393,"▁therapies":5394,"▁means":5395,"▁Count":5396,"adequate":5397,"▁visit":5398,"▁continent":5399,"▁attending":5400,"▁utilis":5401,"ception":5402,"▁calibr":5403,"▁minim":5404,"▁socio-demographic":5405,"▁births":5406,"▁cytoadherence":5407,"▁administered":5408,"▁Tanzania.\n":5409,"▁retail":5410,"▁retrospective":5411,"▁Review":5412,"▁organism":5413,"▁utility":5414,"▁Parasite":5415,"▁neutralization":5416,"▁service":5417,"-control":5418,"▁consistently":5419,"▁Development":5420,"▁Bangkok":5421,"▁Associa":5422,"▁STAT":5423,"▁quantified":5424,"▁ecological":5425,"▁viraemia":5426,"▁degree":5427,"▁degrad":5428,"▁entire)":5429,"▁averted":5430,"▁largest":5431,"▁forecasts":5432,"▁habitats":5433,"▁Survey":5434,"▁Surveillance":5435,"▁exhibited":5436,"▁inflammatory":5437,"▁neurolog":5438,"▁co-circulation":5439,"▁titres":5440,"▁starting":5441,"▁acquired":5442,"▁recombinant":5443,"▁Schistosoma":5444,"▁veget":5445,"▁mothers":5446,"-random":5447,"aemoglobin":5448,"▁aspects":5449,"▁computational":5450,"▁metrics":5451,"▁microcephaly":5452,"ION":5453,"▁ubiquity":5454,"▁middle-income":5455,"▁wallikeri":5456,"▁hydro":5457,"▁epitop":5458,"▁recruited":5459,"oquinol":5460,"▁Benin":5461,"▁positively":5462,".\\n\\nResults":5463,"▁accompanied":5464,"▁oocysts":5465,"▁cycles":5466,"▁NS4A":5467,"▁consequences":5468,"▁8-aminoquinol":5469,"▁PfEMP1":5470,"▁diagnose":5471,"▁stakehold":5472,"ticulocyte":5473,"▁reservoir":5474,"▁intermittent":5475,"-risk":5476,"1.1":5477,"2/":5478,"3).\n":5479,"4).\n":5480,"500":5481,"71":5482,"76":5483,"7),":5484,"86":5485,"9)":5486,"An":5487,"E,":5488,"Es":5489,"LA":5490,"Wh":5491,"fac":5492,"lated":5493,"lier":5494,"nutri":5495,"oun":5496,"oint":5497,"pyre":5498,"rit":5499,"ta":5500,"uf":5501,"yan":5502,"▁&":5503,"▁/":5504,"inations":5505,"▁ara":5506,"enza":5507,"teen":5508,"▁inadequate":5509,"▁cre":5510,"▁pi":5511,"▁put":5512,"▁mRNA":5513,"▁mouse":5514,"▁domin":5515,"▁dominant":5516,"orn":5517,"isted":5518,"isson":5519,"eral":5520,"erved":5521,"astic":5522,"astal":5523,"tions.\n":5524,"▁fin":5525,"▁fib":5526,"▁finding":5527,"▁bio":5528,"▁bilirubin":5529,"▁binomial":5530,"▁took":5531,"▁hard":5532,"lex":5533,"ida":5534,"▁euk":5535,"oscop":5536,"osts.\n":5537,"▁(f":5538,"▁venous":5539,"ceed":5540,"ulosis":5541,"▁Poc":5542,"▁Principal":5543,"▁Public":5544,"▁weather":5545,"▁start":5546,"▁CQ":5547,"▁gra":5548,"unate":5549,"rag":5550,"▁lig":5551,"▁SL":5552,"▁Sao":5553,"▁commer":5554,"▁prep":5555,"▁Id":5556,"▁MV":5557,"ocratic":5558,"▁D.":5559,"▁infecting":5560,"▁disad":5561,"ably,":5562,"▁excell":5563,"ivaria":5564,"▁act":5565,"▁Rem":5566,"sions":5567,"0.9":5568,"uberc":5569,"▁alone":5570,"▁algorith":5571,"▁seg":5572,"▁Based":5573,"ypan":5574,"00,000":5575,"itives":5576,"ands":5577,"istan":5578,"▁adjusting":5579,"▁modelled":5580,"timalarial":5581,"ensus":5582,"▁regimens":5583,"▁3.":5584,"▁Op":5585,"▁FFR":5586,"▁viruses,":5587,"ogether,":5588,"agn":5589,"▁LDH":5590,"▁Lank":5591,"▁0.1":5592,"formation":5593,"▁uncle":5594,"▁low-transmission":5595,"ivered":5596,"▁sub-t":5597,"▁Thus,":5598,"▁42":5599,"▁humans.\n":5600,"ponse":5601,"▁detecting":5602,"▁region,":5603,"▁scan":5604,"▁score":5605,"▁overcome":5606,"▁Antimalarial":5607,"▁proteins,":5608,"▁individual-based":5609,"▁morph":5610,"▁systems.\n":5611,"-to-":5612,"▁houses":5613,"▁BackgroundS":5614,"▁BackgroundIn":5615,"▁descriptive":5616,"irec":5617,"▁species,":5618,"▁upd":5619,"▁upreg":5620,"antitative":5621,"▁months,":5622,"▁remark":5623,"▁setting.\n":5624,"▁complement":5625,"▁ResultsP":5626,"ARY":5627,"▁1.3":5628,"▁supporting":5629,"▁(P.":5630,"▁depression":5631,"ject":5632,"▁interventions,":5633,"▁care,":5634,"▁investigation":5635,"▁eligible":5636,"monella":5637,"▁confer":5638,"▁immuno":5639,"▁immunogenicity":5640,"▁(14":5641,"▁dynamics,":5642,".3%)":5643,"▁requiring":5644,"▁cluster-random":5645,"▁period.\n":5646,"▁selective":5647,"▁quantification":5648,"icrobial":5649,"▁randomised":5650,"▁interest":5651,"▁delivered":5652,"▁Conclusions/Significance":5653,"▁discovery":5654,"▁post-dis":5655,"aff":5656,"▁Prog":5657,"▁Prov":5658,"▁Community":5659,"▁leads":5660,"lock":5661,"▁behaviors":5662,"ophysical":5663,"inked":5664,"▁measures.\n":5665,"▁high-through":5666,"▁communication":5667,"▁density,":5668,"▁measures,":5669,"▁apicomplex":5670,"▁perspective":5671,"▁differentiation":5672,"▁accounting":5673,"xychloroquine":5674,"▁rainy":5675,"▁experiments":5676,"▁utilization":5677,"▁neutralising":5678,"▁gametocytes":5679,"▁cultures":5680,"▁projections":5681,"▁chlorfenapyr":5682,"▁maps":5683,"▁contributes":5684,"▁ITNs":5685,"▁decision-m":5686,"▁famil":5687,"▁pre-existing":5688,"▁observational":5689,"▁scenario":5690,"▁erythrocytes":5691,"▁goal":5692,"▁self-med":5693,"▁explained":5694,"▁validated":5695,"biensis":5696,"▁view":5697,"▁vulnerable":5698,"▁properties":5699,"▁parasites/{micro}L.":5700,"▁Ethiopia":5701,"ometry":5702,"ness.\n":5703,"ascular":5704,"▁(WHO":5705,"▁haplotypes":5706,"▁predominantly":5707,"-Bar":5708,"▁PBO-LLIN":5709,"▁sleeping":5710,"▁criteria":5711,"▁Poisson":5712,"▁expanded":5713,"▁Salmonella":5714,"▁booster":5715,"▁body":5716,"▁(ZIKV)":5717,"▁histolytic":5718,"▁mixture":5719,"▁uncertainty":5720,"▁strengthen":5721,"▁Both":5722,"▁caregivers":5723,"▁typhoid":5724,"▁helminth":5725,"▁outside":5726,"▁catalytic":5727,"▁C.I":5728,"▁comorbidities":5729,"▁Democratic":5730,"▁funestus":5731,"tebrate":5732,"▁beneficial":5733,"yanm":5734,"▁arabiensis":5735,"▁eukary":5736,"▁commerc":5737,"▁disadvant":5738,"uberculosis":5739,"▁post-discharge":5740,"▁high-throughput":5741,"-n":5742,"-per":5743,"019":5744,"100":5745,"27":5746,"3D":5747,"5.\n":5748,"5.2":5749,"7).\n":5750,"AC":5751,"C_ST_ABS":5752,"F)":5753,"L1":5754,"MDA":5755,"bon":5756,"cus":5757,"de":5758,"diagnos":5759,"gd":5760,"ged":5761,"jur":5762,"pear":5763,"sc":5764,"tropical":5765,"uel":5766,"uvant":5767,"vcr":5768,"ww":5769,"ze":5770,"▁ul":5771,"▁rib":5772,"in,":5773,"inform":5774,"▁tri":5775,"▁trac":5776,"▁ookine":5777,"▁san":5778,"▁sick":5779,"▁sizes":5780,"▁inverse":5781,"▁inference":5782,"▁injur":5783,"▁code":5784,"esic":5785,"▁p-value":5786,"▁mak":5787,"erm":5788,"ering":5789,"▁fl":5790,"▁fraction":5791,"▁reaching":5792,"▁replac":5793,"▁tox":5794,"▁hrp":5795,"▁elic":5796,"atell":5797,"▁(Y":5798,"▁(the":5799,"▁vital":5800,"▁vesic":5801,"▁Patients":5802,"▁Aut":5803,"▁stable":5804,"▁stunting":5805,"▁CM":5806,"▁Cal":5807,"▁Two":5808,"ions":5809,"▁congen":5810,"utral":5811,"▁proph":5812,"rative":5813,"▁lat":5814,"▁lab":5815,"▁live":5816,"▁length":5817,"ifest":5818,"▁deforest":5819,"▁SE":5820,"▁Sim":5821,"▁Second":5822,"▁SNT":5823,"▁Slf":5824,"▁IN":5825,"▁III":5826,"▁IQR":5827,"opath":5828,"optimal":5829,"▁Mon":5830,"▁MDA":5831,"▁10.":5832,"▁1000":5833,"othelial":5834,"▁Dep":5835,"▁imper":5836,"▁RT":5837,"▁Risk":5838,"ighted":5839,"▁covaria":5840,"▁coefficient":5841,"▁competi":5842,"▁rather":5843,"▁content":5844,"▁HAT":5845,"▁transfusion":5846,"▁admitted":5847,"protec":5848,"▁health,":5849,"ensitive":5850,"▁3%":5851,"ching":5852,"▁Nile":5853,"▁viruses.\n":5854,"5%,":5855,"IDS":5856,"▁LST":5857,"▁sera":5858,"▁serocon":5859,"allenge":5860,"▁arthropod":5861,"▁artificial":5862,"▁identity":5863,"▁vector.\n":5864,"▁vectors,":5865,"▁intens":5866,"▁Zanz":5867,"▁Zambia":5868,"▁4,":5869,"▁48":5870,"▁cannot":5871,"rimaquine":5872,"▁level,":5873,"egative":5874,"▁manip":5875,"▁imply":5876,"▁positives":5877,"▁system.\n":5878,"ightly":5879,"▁KAP":5880,"▁house":5881,"▁importation":5882,"▁deaths.\n":5883,"▁place":5884,"▁metagen":5885,"▁completed":5886,"▁conduct":5887,"▁biosyn":5888,"▁Asia,":5889,"▁aegypti,":5890,"▁(PBO":5891,"▁depending":5892,"oxic":5893,"▁protect":5894,"▁immunos":5895,"▁occup":5896,"▁geospatial":5897,"▁genetically":5898,"▁feed":5899,"▁(95%CI":5900,"▁approach,":5901,"▁maintain":5902,"▁periods":5903,"▁antimicrobial":5904,"▁randomly":5905,"▁improvements":5906,"▁occurring":5907,"▁frequencies":5908,"▁examination":5909,"▁Individual":5910,"▁Index":5911,"▁testing.\n":5912,"▁statistic":5913,"▁schizon":5914,"▁RNA-seq":5915,"▁Combining":5916,"▁entry":5917,"▁mutant":5918,"▁hetero":5919,"▁continue":5920,"▁attended":5921,"▁vaccination,":5922,"▁became":5923,"tides":5924,"-49":5925,"idering":5926,"▁1,000":5927,"▁Impro":5928,"▁FindingsWe":5929,"▁relationships":5930,"SPER":5931,"▁describing":5932,"▁described":5933,"ammal":5934,"▁CD8":5935,"▁isolated":5936,"▁term":5937,"▁Prevalence":5938,"11A":5939,"AP)":5940,"▁adults.\n":5941,"▁G6PDd":5942,"▁Art":5943,"▁artemisinin-based":5944,"▁apicoplast.\n":5945,"▁municipality":5946,"▁America":5947,"▁experiencing":5948,"▁historical":5949,"▁attitudes":5950,"▁Guang":5951,"▁dataset.\n":5952,"▁enhancing":5953,"▁influencing":5954,"▁promo":5955,"▁avert":5956,"▁unknown.\n":5957,"allel":5958,"▁tracking":5959,"▁cost-effective":5960,"▁malnutri":5961,"▁European":5962,"▁categories":5963,"▁datasets":5964,"▁adaptive":5965,"▁amplitude":5966,"▁phenotypic":5967,"gregated":5968,"▁reinfection":5969,"▁(IRR":5970,"▁inhibitors":5971,"MMARY":5972,"ROSPER":5973,"▁error":5974,"▁underestimation":5975,"▁offers":5976,"▁salivary":5977,"▁leucas":5978,"boviruses":5979,"▁automated":5980,"▁antibiotic":5981,"▁micronutri":5982,"▁homologous":5983,"▁Pbgd":5984,"openia":5985,"akarta":5986,"g/kg":5987,"▁Estimating":5988,"haplo":5989,"▁coordination":5990,"▁adequate":5991,"▁accumulation":5992,"▁Considering":5993,"▁avoid":5994,"▁SUMMARY":5995,"▁excellent":5996,"ivariate":5997,"▁Province":5998,"yanmar":5999,"atellite":6000,"▁deforestation":6001,"▁covariates":6002,"▁LSTM":6003,"▁Zanzib":6004,"ROSPERO":6005,"-)":6006,".com":6007,"33":6008,"3),":6009,"4+":6010,"4%)":6011,"52":6012,"74":6013,"89":6014,"BR":6015,"B11A":6016,"CN":6017,"G-L":6018,"Here":6019,"MR":6020,"PR":6021,"TR":6022,"aud":6023,"ded":6024,"fMDA":6025,"github":6026,"iS":6027,"ias":6028,"lies":6029,"like":6030,"mod":6031,"riage":6032,"s:":6033,"s;":6034,"xiety":6035,"▁round":6036,"▁ace":6037,"ream":6038,"one,":6039,"tiary":6040,"ening":6041,"▁s.":6042,"▁sector":6043,"▁slow":6044,"▁inequ":6045,"ester":6046,"ess.\n":6047,"escent":6048,"▁make":6049,"▁magn":6050,"▁dup":6051,"▁dram":6052,"▁direc":6053,"ises":6054,"ished":6055,"ask":6056,"▁fed":6057,"▁final":6058,"▁frontline":6059,"icine":6060,"▁rely":6061,"▁recip":6062,"▁react":6063,"▁toler":6064,"usual":6065,"atest":6066,"▁(range":6067,"▁nation":6068,"▁name":6069,"▁PD":6070,"▁PV":6071,"▁Pak":6072,"▁Ag":6073,"▁wealth":6074,"▁webs":6075,"▁Congo":6076,"▁TR":6077,"▁Tes":6078,"▁TMP":6079,"umb":6080,"quare":6081,"elec":6082,"emerg":6083,"▁progen":6084,"▁produced":6085,"ifferen":6086,"▁deficient":6087,"▁Sri":6088,"▁Sever":6089,"▁SMA":6090,"▁Seasonal":6091,"▁resol":6092,"▁resting":6093,"▁once":6094,"▁2.5":6095,"▁Met":6096,"▁Main":6097,"occ":6098,"ott":6099,"ysi":6100,"▁infectivity":6101,"▁displ":6102,"▁dispers":6103,"▁incons":6104,"ablas":6105,"▁export":6106,"resolution":6107,"ives":6108,"iesis":6109,"▁acce":6110,"▁parallel":6111,"pect":6112,"▁coinfec":6113,"▁co-endemic":6114,"▁coastal":6115,"severe":6116,"ain-Bar":6117,"▁run":6118,"▁dengue-related":6119,"▁Hsp":6120,"▁HLA":6121,"▁transition":6122,"▁sear":6123,"▁seem":6124,"▁Bio":6125,"▁genes,":6126,"lastid":6127,"▁modif":6128,"istosome":6129,"▁whose":6130,"▁effort":6131,"▁client":6132,"plen":6133,"illain-Bar":6134,"▁health.\n":6135,"▁inters":6136,"▁interact":6137,"▁Emerg":6138,"ulations":6139,"▁shock":6140,"▁Fore":6141,"▁Non":6142,"▁cage":6143,"ellcome":6144,"estational":6145,"▁controlling":6146,"ideosome":6147,"5%)":6148,"▁Lim":6149,"▁spac":6150,"▁serve":6151,"▁undergo":6152,"▁signatures":6153,"▁special":6154,"-ser":6155,"▁unit":6156,"▁unex":6157,"▁uninfec":6158,"▁population-level":6159,"▁low-d":6160,"▁relation":6161,"▁Ge":6162,"▁subtropical":6163,"▁4.":6164,"▁40":6165,"▁44":6166,"▁quar":6167,"▁2021,":6168,"▁provision":6169,"▁500":6170,"▁Hete":6171,"▁DENV1":6172,"▁62":6173,"▁63":6174,"▁64":6175,"▁positivity":6176,"▁press":6177,"▁located":6178,"▁approved":6179,"▁mostly":6180,"▁particles":6181,"▁prevalence.\n":6182,"▁age.\n":6183,"▁housing":6184,"-care":6185,"▁impact.\n":6186,"▁consult":6187,"▁group.\n":6188,"▁varies":6189,"▁ConclusionThis":6190,"▁medication":6191,"▁combat":6192,"▁1.9":6193,"▁needed.\n":6194,"▁trap":6195,"▁superv":6196,"▁superi":6197,"▁Asia.\n":6198,"CR4":6199,"ability,":6200,"▁Chi":6201,"▁Dengue,":6202,"ogenic":6203,"ogenesis":6204,"▁detection,":6205,"▁(15":6206,"▁(18":6207,"-lived":6208,"inese":6209,"▁season.\n":6210,"▁Struct":6211,"▁spreading":6212,"▁(22":6213,"▁(27":6214,"▁complexity":6215,"▁knowlesi.\n":6216,"▁limiting":6217,"▁methods.\n":6218,"iencies":6219,"▁p=0.000":6220,"▁single-cell":6221,"▁correlates":6222,"oflavivirus":6223,"▁prevention.\n":6224,"▁non-us":6225,"▁motif":6226,"MIC":6227,"▁(ITN":6228,"▁discovered":6229,"▁spatio":6230,"▁Africa:":6231,"▁analyzing":6232,"▁femal":6233,"▁greatest":6234,"▁Protein":6235,"▁schistosome":6236,"▁diagnosis.\n":6237,"▁sites,":6238,"▁severity.\n":6239,"▁synerg":6240,"▁propag":6241,"gov":6242,"▁attend":6243,"▁vaccination.\n":6244,"▁accessibility":6245,"▁18S":6246,"▁high-resolution":6247,"▁haemoglobin":6248,"▁states.\n":6249,"▁characteristics,":6250,"▁(DENV),":6251,"▁(aOR=":6252,"▁allelic":6253,"▁communities.\n":6254,"▁integration":6255,"▁calibration":6256,"▁SummaryDengue":6257,"▁phenotypes":6258,"▁minute":6259,"▁minority":6260,"▁summaryDengue":6261,"▁negatively":6262,"▁CD4+":6263,"▁plasmablas":6264,"▁tertiary":6265,"▁equival":6266,"▁questions":6267,"▁auto":6268,"▁autophagy":6269,"▁assays,":6270,"▁allowing":6271,"▁empir":6272,"▁cultured":6273,"▁prevented":6274,"iosensor":6275,"▁volum":6276,"▁evolutionary":6277,"▁attitude":6278,"▁Guillain-Bar":6279,"▁observations":6280,"▁Discus":6281,"▁younger":6282,"▁bacteria":6283,"▁iRBC":6284,"▁influenced":6285,"resting":6286,"▁purpose":6287,"▁components":6288,"ishman":6289,"▁glideosome":6290,"▁declined":6291,".\\n\\nMethodology":6292,"▁reflect":6293,"▁glyc":6294,"▁recrudescence":6295,"▁powerful":6296,"▁nutritional":6297,"▁secretion":6298,"▁medicine":6299,"▁misdiagnos":6300,"▁latest":6301,"▁adapted":6302,"▁polymorphisms":6303,"▁connected":6304,"▁discuss":6305,"▁Disease":6306,"▁proliferation":6307,"▁Mozambiqu":6308,"-third":6309,"▁Incre":6310,"THOR":6311,"▁elucidate":6312,"▁Spain":6313,"▁LoD":6314,"▁emphas":6315,"▁guidelines":6316,"▁inferences":6317,"▁belong":6318,"▁exclud":6319,"▁compartmental":6320,"▁scientific":6321,"ucose-6":6322,"▁parasitaemia":6323,"▁methaemoglobin":6324,"▁electronic":6325,"▁Notably,":6326,"▁specifically":6327,"▁vegetation":6328,"▁epitopes":6329,"▁8-aminoquinoline":6330,"▁fibrosis":6331,"▁Identi":6332,"▁remarkable":6333,"▁(WHO)":6334,"▁histolytica":6335,"▁commercial":6336,"▁congenital":6337,"▁CD8+":6338,"▁Pakistan":6339,"▁website":6340,"▁Guillain-Barre":6341,"▁Discussion":6342,"-I":6343,"-e":6344,".S":6345,"/g":6346,"0.\n":6347,"58":6348,"66":6349,"82":6350,"93":6351,"?O_LI":6352,"ACT":6353,"CE":6354,"From":6355,"IA":6356,"Net":6357,"OC":6358,"PV":6359,"Re":6360,"SC":6361,"Vac":6362,"XP":6363,"[&":6364,"aive":6365,"aves":6366,"by":6367,"bic":6368,"class":6369,"eed":6370,"fir":6371,"nce":6372,"net":6373,"o)":6374,"pens":6375,"pact":6376,"sian":6377,"tomological":6378,"ufficient":6379,"vacc":6380,"wing":6381,"xid":6382,"zy":6383,"▁aqu":6384,"▁tail":6385,"rend":6386,"tially":6387,"tification":6388,"hesion":6389,"▁ov":6390,"▁siz":6391,"▁sper":6392,"▁inh":6393,"▁inst":6394,"▁induc":6395,"▁pip":6396,"▁pron":6397,"ar,":6398,"▁mig":6399,"▁mef":6400,"▁mammal":6401,"▁dim":6402,"▁dual":6403,"▁died":6404,"▁war":6405,"▁wind":6406,"▁western":6407,"eric":6408,"▁fav":6409,"▁fores":6410,"itan":6411,"▁reason":6412,"▁har":6413,"idates":6414,"▁eas":6415,"▁eth":6416,"▁eave":6417,"▁(0":6418,"▁(U":6419,"▁(v":6420,"▁(w":6421,"▁(19":6422,"▁(AR":6423,"▁(CR":6424,"acti":6425,"▁throm":6426,"urance":6427,"urban":6428,"▁ng/mL":6429,"▁naive":6430,"▁PQ":6431,"▁Pow":6432,"▁PCI":6433,"▁Poly":6434,"▁Pacific":6435,"▁AS":6436,"▁Aag":6437,"▁force":6438,"▁stoch":6439,"▁Tg":6440,"▁Trend":6441,"▁gold":6442,"olin":6443,"ollow":6444,"olitan":6445,"▁malaria:":6446,"▁malariae.\n":6447,"▁malaria-associated":6448,"ried":6449,"riend":6450,"▁that,":6451,"▁defec":6452,"▁Sus":6453,"▁SAR":6454,"▁SES":6455,"▁IBD":6456,"▁2.2":6457,"opo":6458,"opro":6459,"▁MM":6460,"▁Mex":6461,"▁Mixed":6462,"rench":6463,"▁DRC":6464,"▁DALY":6465,"▁DUP":6466,"▁user":6467,"ine-":6468,"▁immature":6469,"▁disorder":6470,"▁dispens":6471,"abaud":6472,"▁chabaud":6473,"▁exist":6474,"▁Wellcome":6475,"▁assign":6476,"pectively":6477,"▁hepatitis":6478,"▁hence":6479,"▁comprom":6480,"▁altitud":6481,"▁alone.\n":6482,"▁mosquitos":6483,"▁transfer":6484,"▁Between":6485,"▁gender":6486,"▁20%":6487,"▁adoles":6488,"▁perceived":6489,"▁Intern":6490,"▁interfer":6491,"▁interrup":6492,"▁intermediate":6493,"▁mosquito,":6494,"▁30%":6495,"▁33%":6496,"▁Fac":6497,"▁parasite.\n":6498,"▁parasitemia":6499,"▁cave":6500,"ialog":6501,"ogle":6502,"▁kine":6503,"tection":6504,"▁serology":6505,"gnant":6506,"▁significance":6507,"▁recover":6508,"-sensitive":6509,"veloping":6510,"▁antipyre":6511,"▁reliab":6512,"▁Glob":6513,"▁Genetic":6514,"▁ages":6515,"▁U.S":6516,"ditive":6517,"ribut":6518,"▁monocyte":6519,"▁humans,":6520,"▁sched":6521,"▁manifest":6522,"▁2020,":6523,"▁52":6524,"0%.\n":6525,"▁causative":6526,"▁2012":6527,"▁preserved":6528,"▁predictor":6529,"▁outbreaks,":6530,"▁use,":6531,"-typ":6532,"-targeted":6533,"▁numerous":6534,"▁non-malarial":6535,"▁severely":6536,"▁72":6537,"▁age-":6538,"-cycle":6539,"ization.\n":6540,"▁group,":6541,"▁coll":6542,"▁remo":6543,"▁performances":6544,"▁combine":6545,"efined":6546,"▁correc":6547,"▁conducting":6548,"▁vaccine,":6549,"▁within-host":6550,"▁rates.\n":6551,"▁rates,":6552,"▁collect":6553,"▁(PPF":6554,"▁endpo":6555,"-COVID-19":6556,"▁mortality,":6557,"▁burden,":6558,".6%,":6559,"▁informed":6560,".8%,":6561,"▁(13":6562,"eking":6563,"-life":6564,"▁host-parasite":6565,"▁diagnostics":6566,"▁test.\n":6567,"▁select":6568,"▁nets.\n":6569,"▁methodology":6570,"anced":6571,"▁p=0.03":6572,"tenance":6573,"▁facilities.\n":6574,"▁non-ph":6575,"▁growing":6576,"▁antimalarials":6577,"▁surveyed":6578,"▁lineages":6579,"▁antibodies.\n":6580,"▁change,":6581,"▁driven":6582,"cribed":6583,"▁management.\n":6584,"▁pools":6585,"▁C_LI\n":6586,"▁microscopic":6587,"▁pathogens.\n":6588,"-0.9":6589,"▁geographically":6590,"▁technique":6591,"▁probable":6592,"▁possibly":6593,"▁Implications":6594,"▁(Mean":6595,"▁quality,":6596,"▁forest":6597,"▁challenging":6598,"▁cohor":6599,"▁(n=2":6600,"▁define":6601,"▁addressing":6602,"▁efforts.\n":6603,"hensi":6604,"▁transcripts":6605,"osis.\n":6606,"-response":6607,"▁Uganda,":6608,"▁Uganda.\n":6609,"▁vertebrate":6610,"▁district.\n":6611,"DA)":6612,"▁short-term":6613,"▁p=0.001)":6614,"▁divergent":6615,"▁independently":6616,"▁Guine":6617,"▁relapses":6618,"▁expressing":6619,"▁2022.\n":6620,"▁papers":6621,"▁clonal":6622,"born":6623,"▁ecology":6624,"▁centres":6625,"-seeking":6626,"-off":6627,"-of-care":6628,"▁diabetic":6629,"▁sexual":6630,"▁Studies":6631,"▁nucleic":6632,"▁deficiencies":6633,"▁exhibit":6634,"▁point-of-care":6635,"▁inflammation":6636,"▁simulations":6637,"▁nowc":6638,"▁PMV":6639,"▁Europe":6640,"▁[&le;]":6641,"▁documented":6642,"▁restrictions":6643,"▁datasets.\n":6644,"▁insect-specific":6645,"▁highlighted":6646,"▁Malaysia,":6647,"▁catch":6648,"▁Northern":6649,"▁Effects":6650,"▁reinfections":6651,"▁connectivity":6652,"▁adaptation":6653,"covid19":6654,"▁constrain":6655,"▁sterile":6656,"▁stratified":6657,"▁CareSt":6658,"▁Socio":6659,"▁Ministry":6660,"▁2000-201":6661,"▁Diseases":6662,"95%:":6663,"arnitine":6664,"▁humidity,":6665,"▁trigg":6666,"▁hepat":6667,"▁Interesting":6668,"▁Antibod":6669,"▁probabilistic":6670,"▁transcriptomes":6671,"▁abnormalities":6672,"▁professionals":6673,"▁building":6674,"▁hotspots":6675,"▁orthoflavivirus":6676,"▁extremely":6677,"▁together":6678,"▁https://github":6679,"▁eggs":6680,"▁Epidemiological":6681,"▁NPIs":6682,"D4202":6683,"▁twice":6684,"▁agreement":6685,"▁(CI95%:":6686,"▁calibrated":6687,"▁neurological":6688,"▁hydroxychloroquine":6689,"▁stakeholders":6690,"▁putative":6691,"▁SLEV":6692,"▁Remoscop":6693,"▁sub-tropical":6694,"informatic":6695,"▁ookinete":6696,"▁prophyl":6697,"▁Slfn":6698,"▁namely":6699,"▁inconsistent":6700,"▁Heterogen":6701,"▁superior":6702,"▁plasmablasts":6703,"▁equivalent":6704,"▁sperm":6705,"▁meflo":6706,"▁stochastic":6707,"▁altitude":6708,"▁Global":6709,"▁CareStart":6710,"▁https://github.com":6711,"-E":6712,"-fe":6713,".or":6714,"1%)":6715,"62":6716,"Ad":6717,"COVID19":6718,"Des":6719,"E)":6720,"Hz":6721,"HIV":6722,"L)":6723,"LV":6724,"LHIV":6725,"M,":6726,"MWs":6727,"OI":6728,"VP":6729,"ares":6730,"bilirubin":6731,"eloid":6732,"fh":6733,"flamm":6734,"gr":6735,"gence":6736,"group":6737,"ounc":6738,"side":6739,"uang":6740,"wise":6741,"xx":6742,"xim":6743,"zuel":6744,"▁ly":6745,"▁ir":6746,"▁ence":6747,"▁5%":6748,"▁tur":6749,"▁taking":6750,"▁tuberculosis":6751,"onge":6752,"alk":6753,"al.\n":6754,"eneg":6755,"▁oxid":6756,"▁side":6757,"▁skill":6758,"▁inacti":6759,"▁cen":6760,"▁cod":6761,"▁created":6762,"ndemic":6763,"▁pol":6764,"▁p<0.000":6765,"▁plastid":6766,"▁ther":6767,"▁mit":6768,"▁meg":6769,"▁marg":6770,"▁mental":6771,"▁member":6772,"oral":6773,"orylation":6774,"is,":6775,"eratin":6776,"▁fing":6777,"▁fast":6778,"itation,":6779,"icomplex":6780,"ecause":6781,"▁rein":6782,"▁reticulocyte":6783,"ided":6784,"▁et":6785,"osite":6786,"▁(in":6787,"▁thous":6788,"lored":6789,"▁nM":6790,"▁night":6791,"▁Pe":6792,"▁Pl":6793,"▁Pub":6794,"▁Pau":6795,"▁Primary":6796,"▁AL":6797,"▁Age":6798,"▁stages.\n":6799,"▁CY":6800,"▁City":6801,"▁Cost":6802,"▁Cross":6803,"▁C-term":6804,"▁Cule":6805,"▁Together,":6806,"▁anxiety":6807,"▁conditional":6808,"oler":6809,"▁proxy":6810,"▁proced":6811,"verty":6812,"udied":6813,"▁SA":6814,"▁SARS":6815,"▁SSA":6816,"▁Seneg":6817,"▁resolution":6818,"▁is,":6819,"▁IC":6820,"▁If":6821,"ample":6822,"gered":6823,"▁2.":6824,"▁MI":6825,"▁Mb":6826,"▁Mar":6827,"stinal":6828,"▁1)":6829,"▁wasting":6830,"▁Drug":6831,"▁Differen":6832,"mentation":6833,"▁immediate":6834,"▁disag":6835,"▁income":6836,"▁chrom":6837,"▁exit":6838,"▁except":6839,"▁exceed":6840,"▁beg":6841,"respond":6842,"▁Rc":6843,"▁RT-":6844,"▁coinc":6845,"tingu":6846,"▁composition":6847,"▁rich":6848,"▁rising":6849,"▁contag":6850,"▁alter":6851,"▁translation":6852,"▁sets":6853,"▁Blood":6854,"▁Biosensor":6855,"▁additive":6856,"▁model-based":6857,"▁perm":6858,"timib":6859,"▁Information":6860,"▁internal":6861,"▁mosquito.\n":6862,"▁EV":6863,"▁Early":6864,"▁EBV":6865,"▁Evidence":6866,"▁EXP":6867,"▁induce":6868,"akary":6869,"akers":6870,"▁high-transmission":6871,"▁lever":6872,"▁learn":6873,"▁regular":6874,"▁Other":6875,"challenge":6876,"▁First":6877,"▁French":6878,"▁NK":6879,"▁NCT":6880,"▁ke":6881,"▁km":6882,"▁kHz":6883,"▁keratin":6884,"▁aptam":6885,"ficiency":6886,"▁Latin":6887,"▁sple":6888,"▁0.02":6889,"▁0.99":6890,"ometer":6891,"▁recovered":6892,"▁specimens":6893,"▁unt":6894,"▁unable":6895,"▁risk,":6896,"▁arrest":6897,"▁amino":6898,"▁Gre":6899,"▁vectors.\n":6900,"▁aggressive":6901,"▁subjec":6902,"▁43":6903,"▁cancer":6904,"▁instit":6905,"▁invest":6906,"▁quick":6907,"-2019":6908,"▁imposes":6909,"▁2024":6910,"▁evolved":6911,"▁54":6912,"▁55":6913,"-10":6914,"-14":6915,"-1.3":6916,"▁60%":6917,"▁protein,":6918,"▁proteins.\n":6919,"▁protein-c":6920,"▁Resistance":6921,"▁poverty":6922,"so,":6923,"▁systemic":6924,"-treatment":6925,"▁non-s":6926,"▁7,":6927,"▁70":6928,"▁decade":6929,".1%)":6930,"-pre":6931,"▁publicly":6932,"rials.":6933,"▁micros":6934,"ization,":6935,"▁80":6936,"▁plant":6937,"-inter":6938,"▁medium":6939,"▁1.7":6940,"▁correspond":6941,"▁suppression":6942,"▁biases":6943,"▁rate.\n":6944,"▁generating":6945,"▁collections":6946,"cess.\n":6947,"uncil":6948,"▁department":6949,"▁endothelial":6950,"▁provider":6951,"-species":6952,"▁(DHF":6953,"▁Chinese":6954,"▁respect":6955,"assays":6956,"▁care.\n":6957,"▁exten":6958,"▁extra":6959,"▁development,":6960,"▁developmental":6961,"▁participated":6962,"▁remaining":6963,"ekong":6964,"▁symptoms,":6965,"▁Str":6966,"vironmental":6967,"▁clustering":6968,"▁maintenance":6969,"▁correlate":6970,"▁(SD":6971,"▁illness.\n":6972,"▁trypan":6973,"▁intestinal":6974,"▁emerged":6975,"▁eliminate":6976,"▁(IC":6977,"▁assay,":6978,"▁apply":6979,"▁inhibited":6980,"-strand":6981,"▁statistics":6982,"tyl":6983,"▁paired":6984,"▁elimination,":6985,"▁elimination.\n":6986,"tesunate":6987,"▁continues":6988,"NSO":6989,"ophil":6990,"▁illness,":6991,"▁HIV/A":6992,"▁driving":6993,"▁implementing":6994,"▁becoming":6995,"▁processing":6996,"▁199":6997,"▁measurement":6998,"▁measurements":6999,"▁IgG.\n":7000,"▁days)":7001,"enezuel":7002,"▁environmental,":7003,"▁communic":7004,"▁technology":7005,"▁capable":7006,"▁(OR:":7007,"▁phenomen":7008,"▁Import":7009,"▁FindingsThe":7010,"▁introduce":7011,"▁approache":7012,"TSB":7013,"▁Kenyan":7014,"▁Kenya.\n":7015,"▁pregnancy,":7016,"▁diar":7017,"▁demographic,":7018,"IRD":7019,"▁utilized":7020,"▁utilizing":7021,"▁integrity":7022,"▁allowed":7023,"▁Ghana,":7024,"-transmitted":7025,"▁optimize":7026,"ierarch":7027,"▁Modelling":7028,"▁considering":7029,"▁considerably":7030,"▁person-year":7031,"▁IntroductionThe":7032,"▁concerns":7033,"▁derive":7034,"▁experiences":7035,"▁Eng":7036,"▁history":7037,"▁fundam":7038,"▁neonates":7039,"▁attitudes,":7040,"rected":7041,"▁pathway.\n":7042,"▁hyperbilirubin":7043,"▁goals":7044,"▁metabolism":7045,"▁residing":7046,"▁admissions":7047,"▁half-life":7048,"▁representing":7049,"-deficient":7050,"▁Systematic":7051,"▁Ethiopia.\n":7052,"▁thought":7053,"▁Science":7054,"▁requirement":7055,"tamoe":7056,"▁ACTs":7057,"{+/-}0.":7058,"▁Centre":7059,"▁transcript":7060,"▁merozoites":7061,"▁villages":7062,"▁2016.\n":7063,"▁China,":7064,"BPII":7065,"▁(KAP)":7066,"▁Malaysia":7067,"-generation":7068,"▁cattle":7069,"▁re-emerg":7070,"▁discriminate":7071,"-phosphate":7072,"▁myosin":7073,"▁myeloid":7074,"-HAT":7075,"▁{micro}g/mL":7076,"ailored":7077,"▁gaps":7078,"▁swit":7079,"▁errors":7080,"▁triggered":7081,"▁message":7082,"▁sustainable":7083,"ycin":7084,"▁(e.g.\n":7085,"immune":7086,"▁roles":7087,"▁team":7088,"▁advantages":7089,"▁(i.e":7090,"▁fatalities":7091,"▁understood.\n":7092,"▁ultr":7093,"▁AUC":7094,"▁anopheline":7095,"▁LOD":7096,"▁researchers":7097,"▁price":7098,"▁missed":7099,"▁knockdown":7100,"▁PfGCN":7101,"▁(RDTs)":7102,"▁STATA":7103,"▁algorithm":7104,"▁unclear.\n":7105,"▁Program":7106,"vcrt":7107,"zetimib":7108,"▁competition":7109,"▁Individuals":7110,"▁schizont":7111,"▁malnutrition":7112,"▁micronutrient":7113,"G-LAMP":7114,"▁dramatically":7115,"▁low-density":7116,"ucose-6-phosphate":7117,"vaccinated":7118,"▁aquatic":7119,"▁pipeline":7120,"▁Aag2":7121,"▁Trends":7122,"▁assigned":7123,"▁caveolin":7124,"▁reliably":7125,"▁U.S.":7126,"ributable":7127,"▁Interestingly,":7128,"▁Slfn11":7129,"▁mefloquine":7130,"ounced":7131,"▁encephal":7132,"ongevity":7133,"▁megakary":7134,"▁finger":7135,"▁Paulo":7136,"▁Culex":7137,"▁RT-qPCR":7138,"▁protein-coding":7139,"rials.gov":7140,"▁HIV/AIDS":7141,"tamoeba":7142,"zetimibe":7143,"-K":7144,"-di":7145,"-NS":7146,"-na":7147,"1/":7148,"1.2":7149,"2%)":7150,"68":7151,"95":7152,"9p":7153,"AD":7154,"AF":7155,"Al":7156,"Ch":7157,"DV":7158,"D-T":7159,"F-RDT":7160,"GB":7161,"HD":7162,"Hb":7163,"LO":7164,"O_":7165,"Pre":7166,"SM":7167,"S).\n":7168,"SPT":7169,"T3":7170,"UI":7171,"WAS":7172,"XT":7173,"a}":7174,"aim":7175,"arent":7176,"bocyt":7177,"car":7178,"dom":7179,"ft":7180,"flu":7181,"ior":7182,"i.\n":7183,"iem":7184,"ks":7185,"mic":7186,"o.\n":7187,"p-Seq":7188,"ract":7189,"ss":7190,"uated":7191,"uous":7192,"utional":7193,"worm":7194,"xyp":7195,"zard":7196,"▁{":7197,"▁away":7198,"▁trim":7199,"▁tailored":7200,"rer":7201,"onym":7202,"heck":7203,"▁stem":7204,"▁sym":7205,"▁solution":7206,"▁swe":7207,"▁session":7208,"▁ing":7209,"▁inpatient":7210,"▁cord":7211,"▁curve":7212,"▁pop":7213,"▁principal":7214,"▁material":7215,"▁dorm":7216,"▁dang":7217,"orage":7218,"ortal":7219,"orbidity":7220,"▁winter":7221,"▁waves":7222,"astig":7223,"▁fight":7224,"▁flex":7225,"itus":7226,"rog":7227,"any":7228,"icide":7229,"atch":7230,"▁bur":7231,"▁bud":7232,"▁bind":7233,"▁break":7234,"veolar":7235,"iaquine":7236,"▁ham":7237,"▁hind":7238,"lemed":7239,"levant":7240,"▁emer":7241,"osm":7242,"osystem":7243,"▁(<":7244,"▁(O":7245,"▁(l":7246,"▁(re":7247,"▁(ar":7248,"urate":7249,"imals":7250,"odes":7251,"odel":7252,"odemic":7253,"▁norm":7254,"▁Part":7255,"▁PMC":7256,"▁Are":7257,"▁web":7258,"▁wet":7259,"▁weak":7260,"▁weighted":7261,"▁staff":7262,"▁storage":7263,"▁CNV":7264,"▁Center":7265,"um,":7266,"elle":7267,"elimination":7268,"▁anticip":7269,"▁conval":7270,"▁constr":7271,"▁concept":7272,"oll":7273,"emetine":7274,"et,":7275,"etting":7276,"▁process.\n":7277,"▁lost":7278,"▁libr":7279,"▁longevity":7280,"ude":7281,"ify":7282,"ifically,":7283,"▁deform":7284,"▁Sab":7285,"▁Sens":7286,"▁Sier":7287,"▁SNP":7288,"▁Significant":7289,"▁preference":7290,"▁onward":7291,"▁2)":7292,"▁2.3":7293,"▁2{middle":7294,"▁MR":7295,"▁Me":7296,"▁Method":7297,"▁MG-LAMP":7298,"▁10,000":7299,"▁They":7300,"▁DH":7301,"▁Da":7302,"▁Dar":7303,"▁DBA":7304,"▁DTP":7305,"▁discharge":7306,"▁distingu":7307,"▁exo-":7308,"▁expect":7309,"▁Western":7310,"porter":7311,"porally":7312,"▁parts":7313,"▁partially":7314,"0.0%":7315,"0.3%":7316,"redible":7317,"▁core":7318,"▁composite":7319,"ained":7320,"▁rfMDA":7321,"▁r-HAT":7322,"▁HD":7323,"▁HCT":7324,"ance.\n":7325,"▁transferred":7326,"▁transporter":7327,"▁B-cell":7328,"▁Because":7329,"ousehold":7330,"miss":7331,"orea":7332,"▁why":7333,"▁adhesion":7334,"ure,":7335,"illary":7336,"timate":7337,"▁Inv":7338,"▁In9p":7339,"▁E.":7340,"▁ER":7341,"▁Em":7342,"▁EWS":7343,"ricts":7344,"▁lethal":7345,"▁regulation":7346,"▁30,":7347,"▁OF":7348,"▁Od":7349,"character":7350,"▁Fas":7351,"▁Follow":7352,"▁outpatient":7353,"▁Nex":7354,"▁Network":7355,"ogy":7356,"▁kin":7357,"▁applic":7358,"ficacy":7359,"▁effector":7360,"vian":7361,"▁differed":7362,"plete":7363,"▁analyses.\n":7364,"gnos":7365,"athogen":7366,"▁reconstr":7367,"▁spect":7368,"ase,":7369,"-square":7370,"▁unlike":7371,"▁unusual":7372,"▁artemether":7373,"-by":7374,"-burden":7375,"▁92":7376,"▁95":7377,"▁GT":7378,"▁Government":7379,"nowledge":7380,"▁vector,":7381,"▁humoral":7382,"▁Three":7383,"▁Through":7384,"▁year,":7385,"▁instead":7386,"▁insufficient":7387,"▁vivax-":7388,"▁ground":7389,"-2)":7390,"ians":7391,"▁evol":7392,"▁Hep":7393,"▁treatments":7394,"-1,":7395,"▁66":7396,"▁distanc":7397,"▁distributed":7398,"▁2010":7399,"▁locus":7400,"▁system,":7401,"-dose":7402,"-dep":7403,"▁multi-":7404,"▁none":7405,"▁75%":7406,"▁7.5":7407,"▁decay":7408,"▁demand":7409,"merase":7410,"ography":7411,"▁Korea":7412,"▁age-specific":7413,"▁infrast":7414,"plicit":7415,"▁measuring":7416,"▁MethodsT":7417,"▁MethodsThe":7418,"▁MethodsUsing":7419,"▁consensus":7420,"▁species-specific":7421,"-SCD":7422,"▁83":7423,"▁years],":7424,"▁newborn":7425,"▁setting,":7426,"▁1.06":7427,"▁1.21":7428,"▁trade":7429,"▁indicator":7430,"▁suppor":7431,"-mosquito":7432,"▁epidemics.\n":7433,"016":7434,"▁characterizing":7435,"▁identified.\n":7436,"▁determining":7437,"▁reported.\n":7438,"▁efficac":7439,"zole":7440,"▁Character":7441,"▁trials.\n":7442,"▁validate":7443,".6)":7444,".66":7445,"▁extended":7446,"▁expert":7447,"ortheast":7448,"▁localize":7449,".8%)":7450,"▁(17":7451,"▁seasons":7452,"▁genetics":7453,"▁feature":7454,"▁[0.":7455,"▁[CI":7456,"▁reviewed":7457,"▁LLINs,":7458,".9%)":7459,"▁community-level":7460,"▁complexes":7461,"▁maintaining":7462,"▁sequenced":7463,"▁environments":7464,"▁method.\n":7465,"ancial":7466,"▁(COVID-19":7467,"▁arboviruses,":7468,"▁(Spear":7469,"▁illust":7470,"▁non-re":7471,"▁variables.\n":7472,"▁influenza":7473,"▁carriage":7474,"oked":7475,"▁(IPTp":7476,"▁apparent":7477,"▁spatially":7478,"▁included.\n":7479,"▁distribution.\n":7480,"▁insecticide-based":7481,"▁Project":7482,"▁proportions":7483,"-reported":7484,"▁COVID19.\n":7485,"▁sites.\n":7486,"roscopy":7487,"▁RNA-Seq":7488,"▁pair":7489,"▁involves":7490,"▁Council":7491,"▁severity,":7492,"▁synthetic":7493,"local":7494,"▁mutants":7495,"▁performed.\n":7496,"▁contained":7497,"▁attributable":7498,"▁Also,":7499,"▁driver":7500,"▁Appro":7501,"▁180":7502,"osomes":7503,"▁microscopy,":7504,"▁YF":7505,"-0.7":7506,"▁(34":7507,"50)":7508,"▁technologies":7509,"▁meiotic":7510,"▁SummaryThe":7511,"▁life.\n":7512,"▁summaryA":7513,"▁Impact":7514,"▁(MDA)":7515,"▁status,":7516,"▁birthweight":7517,"▁introduc":7518,"▁cytot":7519,"▁smaller":7520,"▁>2":7521,"▁termin":7522,"▁2002":7523,"▁microhaplo":7524,"▁interactions.\n":7525,"▁organelle":7526,"▁integrate":7527,"▁deployed":7528,"▁zone":7529,"▁zones":7530,"▁viability":7531,"▁produces":7532,"▁products":7533,"▁spray":7534,"▁erythrocytic":7535,"▁Southern":7536,"▁personal":7537,"-confir":7538,"plorer":7539,"▁cycle.\n":7540,".0%)":7541,"▁mapping":7542,"abitants":7543,"▁Entomological":7544,"mans":7545,"▁bites.\n":7546,"▁uncon":7547,"▁decisions":7548,"kina":7549,"▁curated":7550,"▁STT3":7551,"▁Instead":7552,"▁C_LIO_LIThe":7553,"▁intensity.\n":7554,"▁assuming":7555,"orescence":7556,"▁paper,":7557,"▁sulfadoxine-pyrimethamine,":7558,"▁sporozoites":7559,"▁clones":7560,"▁therapeutics":7561,"▁behavioral":7562,"▁ecosystem":7563,"▁north":7564,"▁resident":7565,"▁intervals":7566,"▁influences":7567,"▁virul":7568,"-AQ":7569,"▁seropositive":7570,"▁validation":7571,"▁viol":7572,"▁Objectives":7573,"▁Exper":7574,"▁declining":7575,"ovative":7576,"tamethrin":7577,"▁completely":7578,"▁mitigation":7579,"▁readily":7580,"▁nutrient":7581,"▁HCV":7582,"▁advanced":7583,"▁impacted":7584,"▁secreted":7585,"▁US$":7586,"▁phosphorylation":7587,"▁misclass":7588,"▁prospectively":7589,"▁co-ex":7590,"▁intraerythrocytic":7591,"-genome":7592,"▁landsc":7593,"▁discriminating":7594,"gregation":7595,"▁gains":7596,"▁alongside":7597,"▁discussions":7598,"▁prioritized":7599,"{degrees}C.":7600,"-protein":7601,"▁peptide":7602,"▁weight,":7603,"▁RACD":7604,"▁Outbreak":7605,"▁recombination":7606,"▁donors":7607,"▁hundreds":7608,"▁prolifer":7609,"▁attention":7610,"▁manner,":7611,"▁hypnozoites":7612,"▁issue":7613,"▁Biophysical":7614,"▁Incidence":7615,"▁probabilities":7616,".\\n\\nConclusions/Significance":7617,"▁(e.g.,":7618,"▁CDPK5":7619,"▁assumption":7620,"▁hotspot":7621,"▁ADRs":7622,"▁adjust":7623,"▁subsid":7624,"▁substit":7625,"▁(CHIKV)":7626,"▁Assessing":7627,"▁Assessment":7628,"▁(i.e.\n":7629,"▁neighborhood":7630,"▁slightly":7631,"▁package":7632,"▁socio-economic":7633,"▁persistence":7634,"▁circumcision":7635,"▁MS334":7636,"▁Diagnostic":7637,"▁competence":7638,"▁afford":7639,"vasive":7640,"▁copy":7641,"▁Trust":7642,"▁Google":7643,"▁Vaccine":7644,"▁ubiquitylation":7645,"▁financial":7646,"▁preprin":7647,"▁Lanka":7648,"▁morphological":7649,"▁updated":7650,"▁depression,":7651,"▁cluster-randomized":7652,"▁makes":7653,"▁Department":7654,"▁seroconversion":7655,"▁arthropod-borne":7656,"▁metagenomic":7657,"▁acetyl":7658,"▁nationwide":7659,"▁TRAP":7660,"ysiological":7661,"▁displayed":7662,"▁coinfection":7663,"▁uninfected":7664,"▁spatiotemporal":7665,"▁empirical":7666,".\\n\\nMethodology/Principal":7667,"/gHb":7668,"▁inhabitants":7669,"▁mammalian":7670,"▁window":7671,"▁Polynes":7672,"▁DUP4":7673,"▁compromised":7674,"▁adolescents":7675,"▁International":7676,"▁antipyretic":7677,"▁(PPF)":7678,"▁cohorts":7679,"▁https://github.com/":7680,"Despite":7681,"▁PubM":7682,"▁CYD-T":7683,"▁fundamental":7684,"▁hyperbilirubinaemia":7685,"▁transcriptome":7686,"-naive":7687,"▁sweep":7688,"lemedicine":7689,"▁emerge":7690,"▁Sabah":7691,"▁Sierra":7692,"▁DBA/2":7693,"▁exo-erythrocytic":7694,"▁infrastruct":7695,"-confirmed":7696,"▁landscap":7697,"▁CYD-TDV":7698,"(R)":7699,"-F":7700,"-es":7701,"-qu":7702,"-mer":7703,"-test":7704,"/p":7705,"/pro":7706,"1;":7707,"200":7708,"51":7709,"6%)":7710,"6%),":7711,"8%)":7712,"=9":7713,"CH":7714,"C_LI":7715,"DE":7716,"ECT":7717,"ELC":7718,"G6PD":7719,"HC":7720,"HT":7721,"ING":7722,"Jd":7723,"MO":7724,"MRI":7725,"N3D":7726,"PC":7727,"PS":7728,"RH5":7729,"Trials.gov":7730,"U/gHb":7731,"aam":7732,"avail":7733,"cast":7734,"dens":7735,"d-LLIN":7736,"etic":7737,"eed,":7738,"fying":7739,"gra":7740,"gous":7741,"has":7742,"hou":7743,"iating":7744,"iatus":7745,"kit":7746,"key":7747,"l.":7748,"len":7749,"lind":7750,"ma":7751,"matic":7752,"nial":7753,"pin":7754,"press":7755,"psoni":7756,"rr":7757,"ued":7758,"utical":7759,"vatic":7760,"wan":7761,"wired":7762,"ylo":7763,"zhou":7764,"~]":7765,"▁+":7766,"iness":7767,"▁tet":7768,"▁take":7769,"onential":7770,"heum":7771,"tee":7772,"tep":7773,"▁sent":7774,"▁sol":7775,"▁stim":7776,"▁syl":7777,"▁cut":7778,"▁cub":7779,"esp":7780,"▁pain":7781,"▁plasmodium":7782,"▁piperaquine":7783,"▁theory":7784,"ari":7785,"arling":7786,"▁mell":7787,"▁dys":7788,"▁darling":7789,"▁wor":7790,"▁ward":7791,"asal":7792,"ases,":7793,"asons":7794,"▁fif":7795,"ecu":7796,"▁reper":7797,"▁reach":7798,"▁reasons":7799,"atological":7800,"▁bal":7801,"▁bott":7802,"▁hold":7803,"▁hosts.\n":7804,"▁hierarch":7805,"idin":7806,"idences":7807,"▁eSPT":7808,"▁(as":7809,"▁(qPCR":7810,"▁(adjusted":7811,"▁(-)":7812,"actions":7813,"▁thin":7814,"▁vast":7815,"▁villo":7816,"urb":7817,"uled":7818,"ulates":7819,"ulld":7820,"ilst":7821,"ilience":7822,"▁Pan":7823,"▁Pri":7824,"▁Plasm":7825,"▁Population":7826,"▁PAN":7827,"▁PLHIV":7828,"ted,":7829,"▁Aim":7830,"▁AHME":7831,"▁AIP":7832,"▁stop":7833,"▁stability":7834,"▁stabil":7835,"▁std-LLIN":7836,"igm":7837,"▁CT":7838,"▁Cri":7839,"▁Cell":7840,"▁CNS":7841,"▁CSP":7842,"▁Test":7843,"▁Time":7844,"ump":7845,"terior":7846,"▁give":7847,"▁gland":7848,"▁grad":7849,"quef":7850,"fect":7851,"fected":7852,"▁anc":7853,"▁animals":7854,"ola":7855,"oliv":7856,"olute":7857,"▁proved":7858,"▁malaria-SCD":7859,"▁lung":7860,"▁lumb":7861,"rip":7862,"ries":7863,"▁Sant":7864,"▁Such":7865,"▁commod":7866,"▁resur":7867,"▁resolved":7868,"▁II":7869,"▁2.4":7870,"▁2.0":7871,"▁were:":7872,"▁MA":7873,"▁Mor":7874,"▁Meas":7875,"▁Molecular":7876,"▁MED":7877,"▁MAG":7878,"▁Material":7879,"▁11,":7880,"ocal":7881,"rennial":7882,"▁Due":7883,"▁use.\n":7884,"▁usually":7885,"ment.\n":7886,"▁images":7887,"▁explicit":7888,"▁acous":7889,"▁R0":7890,"▁Rand":7891,"▁RT-PCR":7892,"▁RVP":7893,"ading":7894,"adication":7895,"▁covid19":7896,"▁covariate":7897,"▁r=":7898,"toral":7899,"▁Hig":7900,"▁neither":7901,"▁Bel":7902,"▁Bam":7903,"▁Boliv":7904,"▁genom":7905,"ification.\n":7906,"▁loop":7907,"anding":7908,"istrative":7909,"▁clone":7910,"urer":7911,"▁perception":7912,"illon":7913,"▁Evalu":7914,"▁Eastern":7915,"▁ENSO":7916,"▁Err":7917,"ricult":7918,"▁regulating":7919,"▁shared":7920,"▁shares":7921,"▁35%":7922,"▁Future":7923,"▁hazard":7924,"▁Nep":7925,"▁virus-host":7926,"phi":7927,"▁kit":7928,"▁LSM":7929,"ostatistical":7930,"▁faced":7931,"▁facade":7932,"▁0.04":7933,"▁underweight":7934,"able,":7935,"-source":7936,"▁unlock":7937,"▁treating":7938,"▁arise":7939,"▁cell-cycle":7940,"▁notable":7941,"▁low,":7942,"▁91":7943,"▁97":7944,"▁relies":7945,"▁GH":7946,"▁Gaus":7947,"▁exponential":7948,"▁agricult":7949,"▁Up":7950,"▁sub-p":7951,"▁subgroup":7952,"board":7953,"▁47":7954,"▁400":7955,"▁40%":7956,"▁yearly":7957,"▁monocytes":7958,"▁monkey":7959,"▁levels,":7960,"▁manuf":7961,"▁epider":7962,"▁5,":7963,"▁amongst":7964,"▁COVID-19,":7965,"-1)":7966,"-1.1":7967,"▁Conv":7968,"▁causal":7969,"▁2014,":7970,"▁results,":7971,"▁outbreak,":7972,"▁points":7973,"▁box":7974,"-dist":7975,"lecting":7976,"▁73":7977,"▁77":7978,"-pron":7979,"▁route":7980,"▁insects":7981,"▁publication":7982,"▁infodemic":7983,"-carnitine":7984,"▁BackgroundA":7985,".\\nC_LI":7986,"▁mice.\n":7987,"▁consecu":7988,"▁Ver":7989,"▁VMWs":7990,"▁Venezuel":7991,"▁84":7992,"▁89":7993,"▁death.\n":7994,"orders":7995,".\\n\\nThe":7996,"000)":7997,"▁strategic":7998,"▁households.\n":7999,"▁Ascar":8000,"▁--":8001,"▁simpsoni":8002,"▁Zika.\n":8003,"▁depart":8004,"-COVID19":8005,"▁concer":8006,"▁intervention.\n":8007,"▁hospitals":8008,"ircum":8009,"▁localities":8010,"▁observed,":8011,"▁protected":8012,"▁confound":8013,"▁participation":8014,"▁participant":8015,"▁options":8016,"-lumefantrine":8017,"-linked":8018,"▁geostatistical":8019,"▁season,":8020,"▁Stand":8021,".7%,":8022,"▁reviews":8023,"▁rank":8024,".2%)":8025,"▁societ":8026,".9%,":8027,"▁community.\n":8028,"▁approach.\n":8029,"▁sequencing.\n":8030,"tiveness.\n":8031,"▁nets,":8032,"▁methods,":8033,"▁(ACT":8034,"▁(CQ":8035,"▁responses.\n":8036,"▁facilities,":8037,"▁correlations":8038,"off":8039,"▁revealing":8040,"▁participants,":8041,"▁efficacy,":8042,"▁Tool":8043,"▁critically":8044,"▁carbo":8045,"▁endemicity":8046,"avir":8047,"▁appe":8048,"▁post-third":8049,"▁Indian":8050,"▁Indones":8051,"aceutical":8052,"▁comparable":8053,"▁Prof":8054,"▁proportional":8055,"▁contributions":8056,"▁ovale.\n":8057,"▁exposure,":8058,"▁focal":8059,"▁laborator":8060,"▁neglected":8061,"▁attributed":8062,"▁change.\n":8063,"▁drives":8064,"▁App":8065,"▁immunity,":8066,"▁immunity.\n":8067,"▁14%":8068,"▁14.8%,":8069,"▁days,":8070,"▁microscopy.\n":8071,"▁(aOR:":8072,"▁Yogy":8073,"▁morbidity.\n":8074,"-0.8":8075,".5%,":8076,"armaceutical":8077,"▁(32":8078,"▁density.\n":8079,"▁lifesp":8080,"▁summaryThe":8081,"▁dot}5%":8082,"▁Regard":8083,"▁differentially":8084,"▁cytometry":8085,"▁initially":8086,"▁100,000":8087,"▁small-for":8088,"▁diversity,":8089,"▁Kenya,":8090,"▁equal":8091,"▁equip":8092,"▁Preto":8093,"▁reaction":8094,"▁2007":8095,"▁explan":8096,"▁worldwide,":8097,"meiotic":8098,"variable":8099,"▁(69":8100,"▁records":8101,"RIM":8102,"▁experiment":8103,"▁ranges":8104,"-hospital":8105,"▁uptak":8106,"▁realistic":8107,"▁neutralizing":8108,"▁producing":8109,"▁productivity":8110,"▁Nigeria.\n":8111,"▁services,":8112,"-effect":8113,"▁bench":8114,"▁accurately":8115,"▁personnel":8116,"-PY":8117,"▁policym":8118,"▁vertical":8119,"▁Entamoeba":8120,"▁2015-201":8121,"HFV":8122,"▁candidates":8123,"▁incorporated":8124,"▁Climate":8125,"▁failed":8126,"▁intensity,":8127,"▁quantifying":8128,"▁broader":8129,"▁Seroprevalence":8130,"▁barc":8131,"▁subsequently":8132,"▁metabolomics":8133,"▁eradication":8134,"▁(G6PD":8135,"▁problem.\n":8136,"▁category":8137,"▁promise":8138,"▁school-age":8139,"onthly":8140,"▁Phil":8141,"-dehydro":8142,"▁profiling":8143,"▁RBCs":8144,"▁Ethiopia,":8145,"▁habitats,":8146,"▁glucose-6-phosphate":8147,"▁Genomic":8148,"▁limitations":8149,"▁2017.\n":8150,"▁albopictus,":8151,"asciatus":8152,"▁PMR":8153,"▁haplotype":8154,"▁Bangladesh.\n":8155,"▁Colombia,":8156,"obium":8157,"▁HCWs":8158,"▁socioeconomic,":8159,"▁hemorrhagic":8160,"▁date,":8161,"▁95%CI:0.":8162,"▁pharmacies":8163,"▁macroph":8164,"▁macaqu":8165,"▁flaviviruses":8166,"▁Pv-pLDH":8167,"▁comprised":8168,"▁open-source":8169,"▁haematobium":8170,"orbent":8171,"▁criteria.\n":8172,"▁Access":8173,"▁Epidemic":8174,"▁0.05).\n":8175,"▁stephensi":8176,"-gestational":8177,"▁sterility":8178,"▁domains":8179,"▁stratif":8180,"▁RAB11A":8181,"▁places":8182,"▁parameters.\n":8183,"▁recommends":8184,"▁campaigns":8185,"▁campaigns.\n":8186,"▁lymphocyte":8187,"▁(maximum),":8188,"-world":8189,"▁CCHFV":8190,"▁Specifically,":8191,"▁simultaneously":8192,"▁Mozambique":8193,"▁airway":8194,"▁messages":8195,"▁issues":8196,"▁regulates":8197,"▁depends":8198,"-linear":8199,"▁arrivals":8200,"▁Infection":8201,"▁professional":8202,"▁telemedicine":8203,"▁passive":8204,"▁(US$12":8205,"▁adjuvant":8206,"▁advantage":8207,"▁differing":8208,"▁ResultsOf":8209,"▁drawn":8210,"▁recognition":8211,"▁neighboring":8212,"▁underscore":8213,"▁packages":8214,"▁Currently,":8215,"▁NTD":8216,"▁quinquef":8217,"▁repellent":8218,"▁definition":8219,"▁Quantitative":8220,"▁circumcised":8221,"▁earlier":8222,"▁deadly":8223,"▁Spatial":8224,"▁precipitation":8225,"▁chaperone":8226,"▁Valley":8227,"▁conclude":8228,"▁channels":8229,"▁contributing":8230,"{micro}m2":8231,"▁Comparative":8232,"▁mAbs":8233,"▁feasibility":8234,"▁resources.\n":8235,"▁signaling":8236,"▁carrying":8237,"▁example,":8238,"▁minimize":8239,"▁Associations":8240,"▁piRNA":8241,"▁hardwired":8242,"▁startle":8243,"▁segments":8244,"▁FFRs":8245,"▁apicomplexan":8246,"▁decision-making":8247,"▁C.I;":8248,"▁Secondary":8249,"opathy":8250,"protectin":8251,"▁(PBO)":8252,"▁(95%CI:":8253,"▁Improved":8254,"▁Zanzibar":8255,"▁magnitude":8256,"▁PDMC":8257,"▁Several":8258,"▁synergist":8259,"▁volume":8260,"▁Mozambique.\n":8261,"▁pronounced":8262,"▁dimin":8263,"▁warran":8264,"▁thrombocyt":8265,"▁TgELC":8266,"riendly":8267,"▁Mexico":8268,"ine-rich":8269,"▁chabaudi":8270,"▁Factors":8271,"▁kinetics":8272,"-type":8273,"▁(Mean=3":8274,"▁nowcasting":8275,"-feeding":8276,"flammatory":8277,"▁centers":8278,"▁marginal":8279,"▁Peak":8280,"▁C-terminal":8281,"▁SSA.\n":8282,"▁begin":8283,"▁subjects":8284,"▁microsatellite":8285,"▁corresponding":8286,"▁phenomenon":8287,"▁(i.e.,":8288,"▁PfGCN5":8289,"onymous":8290,"▁dormant":8291,"▁Sensitivity":8292,"▁Investig":8293,"gnostic":8294,"▁trade-off":8295,"▁efficacious":8296,"▁acetyl-carnitine":8297,"JdRP":8298,"▁sylvatic":8299,"▁mellitus":8300,"▁reperto":8301,"▁villous":8302,"▁MAGT":8303,"▁Random":8304,"▁Gaussian":8305,"▁manufact":8306,"▁departments":8307,"▁small-for-gestational":8308,"▁quinquefasciatus":8309,"-ad":8310,"-af":8311,"-lasting":8312,"-adjusted":8313,"-optimal":8314,"/m":8315,"/RNA":8316,"1:":8317,"1-3":8318,"1.5%)":8319,"2b":8320,"2),":8321,"46":8322,"48":8323,"5;":8324,"60":8325,"72":8326,"75":8327,"84":8328,"8-1":8329,"BI":8330,"ET-PCR":8331,"FP":8332,"GS":8333,"HI":8334,"IG":8335,"IMA":8336,"MAR":8337,"ND":8338,"NO":8339,"OC)":8340,"OTE":8341,"PG":8342,"RT":8343,"RSS":8344,"UAC":8345,"Vax":8346,"ZP":8347,"];":8348,"]).\n":8349,"bA":8350,"bion":8351,"bated":8352,"bean":8353,"csp":8354,"cutaneous":8355,"dr":8356,"day":8357,"ffic":8358,"flow":8359,"grad":8360,"i-":8361,"itical":8362,"iiS":8363,"ky":8364,"lig":8365,"linical":8366,"lines":8367,"lonal":8368,"mec":8369,"nic":8370,"natal":8371,"oy":8372,"oug":8373,"sup":8374,"trans":8375,"u,":8376,"uz":8377,"uillon":8378,"vo":8379,"vis":8380,"water":8381,"yC":8382,"zith":8383,"{sup":8384,"▁ign":8385,"ina":8386,"inoph":8387,"inopathy":8388,"▁azith":8389,"▁trop":8390,"reporting":8391,"tiv":8392,"aly":8393,"alking":8394,"ened":8395,"entical":8396,"tech":8397,"▁owing":8398,"▁sem":8399,"▁sourc":8400,"▁in-dep":8401,"▁center":8402,"▁p<":8403,"▁p=":8404,"▁pup":8405,"▁polar":8406,"▁pediatric":8407,"▁prag":8408,"ara":8409,"aries":8410,"aratus":8411,"▁mg":8412,"▁mur":8413,"▁mim":8414,"▁dro":8415,"▁dialog":8416,"oror":8417,"ishes":8418,"isition":8419,"▁wit":8420,"▁wom":8421,"asit":8422,"asome":8423,"▁fine":8424,"▁front":8425,"▁fixed":8426,"▁faster":8427,"itable":8428,"itrap":8429,"row":8430,"rocal":8431,"ana":8432,"icens":8433,"edical":8434,"ectic":8435,"▁reared":8436,"▁referred":8437,"atocys":8438,"▁band":8439,"▁base":8440,"▁background":8441,"use":8442,"using":8443,"iability":8444,"▁hor":8445,"omy":8446,"omplete":8447,"iding":8448,"idden":8449,"idae":8450,"▁eastern":8451,"osurve":8452,"▁(\"":8453,"▁(of":8454,"▁(MI":8455,"action":8456,"acch":8457,"acility":8458,"▁vascular":8459,"imited":8460,"odiaquine":8461,"iled":8462,"ilib":8463,"▁P-value":8464,"▁PROSPERO":8465,"▁PyC":8466,"▁Ara":8467,"▁ARI":8468,"▁AMM":8469,"▁ATSB":8470,"▁stre":8471,"▁Case":8472,"▁CRI":8473,"▁Typ":8474,"▁Tox":8475,"▁Tfh":8476,"quence":8477,"▁proxim":8478,"very":8479,"▁licens":8480,"ift":8481,"rium":8482,"▁deal":8483,"▁deple":8484,"▁devic":8485,"▁Single":8486,"▁Sput":8487,"▁Sinoph":8488,"▁resusc":8489,"▁resilience":8490,"▁isop":8491,"ucoc":8492,"▁IV":8493,"▁I-d":8494,"▁Iquitos":8495,"▁I{sup":8496,"ama":8497,"amination":8498,"▁2}":8499,"▁2.8":8500,"▁2.7":8501,"▁23%":8502,"▁Mat":8503,"▁Mad":8504,"▁Mass":8505,"▁13%":8506,"▁17,":8507,"ocrit":8508,"otal":8509,"otosyn":8510,"▁Then":8511,"▁DE":8512,"▁DI":8513,"▁DP":8514,"▁usual":8515,"rant":8516,"ineering":8517,"▁implicated":8518,"▁imaging":8519,"▁disorders":8520,"▁incur":8521,"▁incenti":8522,"ipp":8523,"itect":8524,"▁compute":8525,"▁ring":8526,"▁rheum":8527,"uble":8528,"▁His":8529,"▁Host":8530,"▁transcutaneous":8531,"▁modulate":8532,"yptic":8533,"upple":8534,"venous":8535,"itiv":8536,"▁what":8537,"▁2030":8538,"ples":8539,"timately":8540,"▁Influ":8541,"▁interfe":8542,"▁interpret":8543,"▁Even":8544,"▁EPI":8545,"akage":8546,"19%":8547,"ika":8548,"▁high,":8549,"▁high-burden":8550,"▁leakage":8551,"▁regulate":8552,"▁shor":8553,"▁shop":8554,"▁share":8555,"▁3.8":8556,"▁30%,":8557,"chang":8558,"▁F2":8559,"▁Five":8560,"▁Flavivirus":8561,"▁FN3D":8562,"▁NTS":8563,"▁transmission:":8564,"ogistic":8565,"estation":8566,"▁controls.\n":8567,"▁controls,":8568,"agg":8569,"agos":8570,"enced":8571,"erscript":8572,"IDI":8573,"▁Lit":8574,"▁Lung":8575,"▁LMIC":8576,"▁Local":8577,"▁Logistic":8578,"ostatus":8579,"▁effectiveness.\n":8580,"▁fact":8581,"ibbean":8582,"axis":8583,"virosis":8584,"▁0.0":8585,"▁0.03":8586,"▁0.64":8587,"▁0.18":8588,"▁Plasmodium,":8589,"▁rab":8590,"▁speciation":8591,"-selec":8592,"-sample":8593,"▁units":8594,"▁surround":8595,"▁surrog":8596,"alling":8597,"▁artesunate":8598,"▁identical":8599,"▁9,":8600,"▁94":8601,"▁94%":8602,"▁amount":8603,"▁anti-R":8604,"▁anti-ser":8605,"▁reliability":8606,"▁Upon":8607,"ught":8608,"▁4.7":8609,"▁vaccines.\n":8610,"▁year-":8611,"▁enter":8612,"▁enable":8613,"▁invade":8614,"appro":8615,"apopulation":8616,"-24":8617,"ynonymous":8618,"▁manage":8619,"▁bloodme":8620,"▁2025":8621,"▁2024,":8622,"▁objectives":8623,"▁evident":8624,"▁evoked":8625,"▁51":8626,"▁53":8627,"▁59":8628,"▁5-17":8629,"▁DENV-specific":8630,"-12":8631,"-100":8632,"urrences":8633,"▁causality":8634,"▁testes":8635,"▁2011":8636,"▁2017,":8637,"▁prescribed":8638,"▁foundation":8639,"▁noted":8640,"▁predicts":8641,"▁poin":8642,"▁diagnosing":8643,"▁bouillon":8644,"-the":8645,"-two":8646,"▁numer":8647,"▁particle":8648,"-date":8649,"-day":8650,"▁multi-c":8651,"▁multilevel":8652,"▁multigra":8653,"▁decomp":8654,"▁time-con":8655,"▁rose":8656,"▁Kins":8657,"▁Knowledge":8658,"▁infections)":8659,"▁BackgroundE":8660,"▁measles":8661,"▁constitute":8662,"▁Vol":8663,"-SMAR":8664,"▁88":8665,"=0.00":8666,"relation":8667,"relative":8668,"▁plays":8669,"▁metron":8670,"ateral":8671,"rought":8672,"▁ResultsFrom":8673,"ART":8674,"▁media":8675,"▁mediated":8676,"▁surveillance,":8677,"▁supply":8678,"▁phases":8679,"▁vaccine.\n":8680,".4)":8681,".46":8682,"01),":8683,"▁identified,":8684,"▁gambi":8685,"▁demonstrating":8686,"▁(DF":8687,"▁(DBS":8688,"▁case-control":8689,"▁ChAd":8690,"▁concurrent":8691,"▁trial,":8692,"▁sensitiz":8693,"-free":8694,"assing":8695,"▁findingsWe":8696,"irculation":8697,"▁crosses":8698,"▁localizes":8699,"▁arbovirosis":8700,"▁tool,":8701,"▁tools.\n":8702,"▁protecting":8703,"▁conflic":8704,"▁respectively).\n":8705,"▁immunode":8706,"▁work,":8707,"▁worker":8708,"▁workflow":8709,".32":8710,"▁strategies,":8711,"▁symptoms.\n":8712,"▁seasonally":8713,"▁cycl":8714,"▁structurally":8715,"▁Statistical":8716,"▁[95%":8717,"▁[~]":8718,"▁Jakarta":8719,"▁clusters,":8720,"▁community,":8721,"▁mainland":8722,"▁environment,":8723,"▁environments,":8724,"rins":8725,"▁method,":8726,"▁p=0.02":8727,"▁p=0.04":8728,"tension":8729,"▁(p-value":8730,"▁(p<0.000":8731,"▁effects,":8732,"▁effects.\n":8733,"ferral":8734,"▁(SARS-CoV-2":8735,"▁interactive":8736,"▁interacting":8737,"▁temperature.\n":8738,"▁temperature-dependent":8739,"▁efficacy.\n":8740,"▁non-severe":8741,"embles":8742,"▁variables,":8743,"▁delay":8744,"▁hypere":8745,"▁(IF":8746,"▁assay.\n":8747,"▁genome.\n":8748,"▁appra":8749,"▁apprec":8750,"▁applying":8751,"▁apparatus":8752,"▁inhibiting":8753,"▁market":8754,"▁analyzed.\n":8755,"▁worlds":8756,"▁India,":8757,"▁programme":8758,"-infection":8759,"▁12%":8760,"▁120":8761,"▁ovale,":8762,"cription":8763,"-relevant":8764,"▁classes":8765,"▁emb":8766,"▁RNAs":8767,"▁designing":8768,"▁effectiveness,":8769,"▁Added":8770,"▁synthes":8771,"▁women,":8772,"locking":8773,"▁entom":8774,"▁accessible":8775,"▁HIV,":8776,"▁country-specific":8777,"▁suicide":8778,"MPs":8779,"▁Apicomplex":8780,"▁188":8781,"▁bird":8782,"▁focuses":8783,"▁characteristics.\n":8784,"▁decreases":8785,"▁Yellow":8786,"▁meet":8787,"05).\n":8788,"▁calprotectin":8789,"▁SummaryA":8790,"▁similarity":8791,"▁membran":8792,"▁doses.\n":8793,"SPI":8794,"SPR":8795,"▁them,":8796,"▁coverage,":8797,"▁perspec":8798,"▁differentiated":8799,"▁cytok":8800,"FR)":8801,"▁administrative":8802,"▁limited.\n":8803,"▁challenging.\n":8804,"▁education,":8805,"▁general,":8806,"▁(57":8807,"▁structure.\n":8808,"▁thresholds.\n":8809,"▁Cambod":8810,"▁contex":8811,"▁lacking":8812,"▁2009":8813,"▁retur":8814,"▁retinopathy":8815,"▁carriers":8816,"IRS":8817,"-Myanmar":8818,"▁histid":8819,"▁optimized":8820,"▁invasion.\n":8821,"995":8822,"▁stage-specific":8823,"▁project":8824,"▁apicoplast-targeted":8825,"▁annually":8826,"▁Qual":8827,"▁peaks":8828,"-effects":8829,"▁America,":8830,"▁Descriptive":8831,"▁chloroplas":8832,"▁phase,":8833,"▁pan-pLDH":8834,"▁policies":8835,"NT16":8836,"▁threats":8837,"▁Detection":8838,"▁problems":8839,"▁counter":8840,"▁district,":8841,"azine":8842,"▁26%":8843,"▁necessit":8844,"▁STH":8845,"▁comparison,":8846,"▁moderately":8847,"▁observation":8848,"▁vitamin":8849,"▁assumed":8850,"▁regardless":8851,"ibility,":8852,"▁hypertension":8853,"▁stead":8854,"▁Regions":8855,"▁Regional":8856,"▁going":8857,"▁Hospital,":8858,"▁absolute":8859,"▁facilitating":8860,"▁randomized,":8861,"▁eradic":8862,"▁Districts":8863,"▁employing":8864,"▁virion":8865,"▁genotyped":8866,"▁captured":8867,"▁purified":8868,"▁doubling":8869,"▁guidance":8870,"▁Phylog":8871,"▁conditions,":8872,"▁2018.\n":8873,"-developing":8874,"▁platelets":8875,"▁planning.\n":8876,"▁Peru,":8877,"▁Peruvian":8878,"ishuang":8879,"▁IFR2":8880,"▁literature.\n":8881,"▁Exp":8882,"▁General":8883,"▁detox":8884,"omestic":8885,"▁questionnaires":8886,"▁proteasome":8887,"▁ja":8888,"ashboard":8889,"▁readmission":8890,"▁advance":8891,"▁advances":8892,"▁whole-genome":8893,"▁secretory":8894,"▁encour":8895,"▁encomp":8896,"▁encoun":8897,"▁calls":8898,"▁scale-up":8899,"▁mansoni,":8900,"▁medications":8901,"▁phosphat":8902,"▁barrier":8903,"▁co-occ":8904,"▁intravenous":8905,"▁non-frontline":8906,"▁behavioural":8907,"▁lagged":8908,"▁haematological":8909,"▁polymorphic":8910,"▁polymorphism":8911,"-phase":8912,"clinical":8913,"▁monkeys":8914,"{degrees}C,":8915,"▁cynomolgi-specific":8916,"▁Xishuang":8917,"▁{micro}g":8918,"▁peptides":8919,"▁started":8920,"▁constant":8921,"▁chains":8922,"▁double-b":8923,"▁Across":8924,"▁lateral":8925,"▁Salaam":8926,"▁preceding":8927,"▁Multiple":8928,"▁acquisition":8929,"▁scalable":8930,"▁polymerase":8931,"▁boosting":8932,"▁ownership,":8933,"▁lockdowns":8934,"▁Coronavirus":8935,"▁globally.\n":8936,"▁(mean),":8937,"▁offering":8938,"▁CCS":8939,"▁Transmission":8940,"▁Shield":8941,"▁Many":8942,"▁Management":8943,"▁attenuated":8944,"▁Neut":8945,"▁relapse,":8946,"lerated":8947,"▁Integr":8948,"▁space-time":8949,"-17D":8950,"▁inferred":8951,"▁transcriptomic":8952,"▁saliva":8953,"▁Trials":8954,"▁isolates,":8955,"▁assumptions":8956,"▁dimensional":8957,"thalm":8958,"▁decades.\n":8959,"▁ResultsOver":8960,"▁greatly":8961,"▁emphasis":8962,"▁YFV-17D":8963,"▁situation":8964,"trum":8965,"▁authorities":8966,"▁p<0.001).\n":8967,"▁separately":8968,"▁ortholog":8969,"▁ultra":8970,"▁AUTHOR":8971,"oplasma":8972,"▁Burkina":8973,"▁PfHRP2":8974,"▁markedly":8975,"▁Crl":8976,"▁Severe":8977,"▁sharply":8978,"▁metabolites":8979,"FIG":8980,"O_ST_ABSWh":8981,"▁innate":8982,"▁innovative":8983,"▁mAb":8984,"▁feasible":8985,"▁Caribbean":8986,"▁deletions":8987,"▁resources,":8988,"▁IL-6":8989,"▁3.4%,":8990,"▁enables":8991,"▁Bangkok,":8992,"▁degradation":8993,"idazole":8994,"▁gradi":8995,"▁ligand":8996,"▁upregulation":8997,"▁upregulated":8998,"▁families":8999,"▁self-medic":9000,"▁self-medication":9001,"▁eukaryotic":9002,"L1C":9003,"▁ultimately":9004,"▁ribbon":9005,"▁sanitation":9006,"▁inversely":9007,"▁hrp2":9008,"▁(YFV":9009,"▁vesicle":9010,"▁latent":9011,"▁Monitor":9012,"▁biosynthesis":9013,"▁immunosorbent":9014,"▁Guangzhou":9015,"▁avoidance":9016,"▁duplic":9017,"▁reciprocal":9018,"▁Ag-RDT":9019,"▁resolve":9020,"▁Hsp70":9021,"▁searched":9022,"▁unexpected":9023,"▁quarter":9024,"▁pressure":9025,"▁Chi-square":9026,"▁minutes":9027,"▁autoimmune":9028,"▁Increasing":9029,"▁Identification":9030,"[&ge;]":9031,"▁tailoring":9032,"▁ovitrap":9033,"▁easily":9034,"▁MMV":9035,"▁interferon":9036,"▁removed":9037,"▁endpoint":9038,"▁catchment":9039,"▁Antibody":9040,"▁Heterogeneity":9041,"▁lys":9042,"▁turn":9043,"alkiiS":9044,"▁codon":9045,"▁contagion":9046,"▁permethrin":9047,"▁spleen":9048,"▁investment":9049,"▁Important":9050,"▁re-emerging":9051,"-directed":9052,"xyprimaquine":9053,"▁symbion":9054,"▁normally":9055,"▁convalescent":9056,"characterized":9057,"▁Following":9058,"▁Next,":9059,"▁Hepatocys":9060,"▁(Spearmans":9061,"▁illustr":9062,"▁terminal":9063,"▁STT3B":9064,"▁misclassification":9065,"▁proliferating":9066,"▁infrastructure":9067,"lenec":9068,"▁darlingi":9069,"▁bottlenec":9070,"▁resurgence":9071,"▁MEDLIN":9072,"▁genomes,":9073,"▁Error":9074,"▁agricultural":9075,"-prone":9076,"▁Ascaris":9077,"ircumc":9078,"▁carboxyprimaquine":9079,"▁appeared":9080,"▁lifespan":9081,"▁uptake.\n":9082,"▁benchmark":9083,"▁diminished":9084,"▁MAGT1":9085,"mectin":9086,"ougou":9087,"▁azithrom":9088,"▁in-depth":9089,"▁pragmatic":9090,"▁murine":9091,"▁womens":9092,"▁front-line":9093,"ilibrium":9094,"▁ARIMA":9095,"▁CRISPR":9096,"▁Toxoplasma":9097,"▁Sinopharm":9098,"ucocutaneous":9099,"▁I-domain":9100,"▁I{superscript":9101,"otosynthetic":9102,"▁surrogate":9103,"▁anti-RH5":9104,"▁anti-serum":9105,"▁multigravid":9106,"▁Kinshas":9107,"▁metronidazole":9108,"▁gambiense":9109,"▁hyperendemic":9110,"NT162b":9111,"▁Xishuangban":9112,"▁Hepatocystis":9113,"\".\n":9114,",3":9115,"-G":9116,"-or":9117,"-at":9118,"-tal":9119,"-BS":9120,"-we":9121,"-III":9122,"-Vac":9123,"08),":9124,"1{middle":9125,"25":9126,"35":9127,"38":9128,"3R":9129,"40%":9130,"40,":9131,"580":9132,"6.4%":9133,"63)":9134,"76).\n":9135,"70)":9136,"8;":9137,"9).\n":9138,"AM":9139,"Am":9140,"ABA":9141,"B)":9142,"By":9143,"Between":9144,"Com":9145,"D7":9146,"EST":9147,"Evidence":9148,"For":9149,"G)":9150,"IC":9151,"KA":9152,"L,":9153,"LD":9154,"Mosquito":9155,"Ne":9156,"NC)":9157,"PLO":9158,"R]":9159,"Ra":9160,"RII":9161,"RNT":9162,"SR":9163,"SMA":9164,"TT":9165,"TM)":9166,"TP)":9167,"TalkiiS":9168,"Under":9169,"V,":9170,"W1":9171,"Z.\n":9172,"Zika":9173,"].\n":9174,"]),":9175,"aved":9176,"back":9177,"con":9178,"cidin":9179,"dent":9180,"dong":9181,"donal":9182,"fric":9183,"fRNA":9184,"hing":9185,"hment":9186,"hak":9187,"human":9188,"itions":9189,"ii)":9190,"kary":9191,"los":9192,"long":9193,"lerate":9194,"mg":9195,"mo":9196,"mosp":9197,"nom":9198,"nik":9199,"ners":9200,"nership":9201,"otes":9202,"p://":9203,"rys":9204,"sh":9205,"spor":9206,"ua":9207,"uh":9208,"uge":9209,"ues.\n":9210,"uage":9211,"vents":9212,"vax":9213,"wh":9214,"western":9215,"x.\n":9216,"{cents":9217,"▁$":9218,"▁ite":9219,"▁econ":9220,"▁\\\"":9221,"inel":9222,"▁ty":9223,"▁tax":9224,"▁task":9225,"reach":9226,"ontrol":9227,"onucle":9228,"onegative":9229,"ties.\n":9230,"herap":9231,"heastern":9232,"te,":9233,"▁olig":9234,"▁she":9235,"▁som":9236,"▁sun":9237,"▁sectional":9238,"▁induction":9239,"▁inversion":9240,"▁in-hospital":9241,"▁came":9242,"▁costs.\n":9243,"▁check":9244,"▁credible":9245,"▁pf":9246,"▁py":9247,"▁pul":9248,"▁pig":9249,"▁porph":9250,"aro":9251,"ars":9252,"ardi":9253,"▁mul":9254,"▁mature":9255,"▁mekong":9256,"▁dest":9257,"▁drop":9258,"▁dense":9259,"▁domestic":9260,"orous":9261,"er,":9262,"erve":9263,"erbated":9264,"as9":9265,"asts":9266,"▁fra":9267,"▁fill":9268,"itations":9269,"ani":9270,"ann":9271,"ans,":9272,"ican":9273,"icidal":9274,"icum,":9275,"ection":9276,"▁retained":9277,"▁referral":9278,"▁bre":9279,"▁bivariate":9280,"▁batch":9281,"ush":9282,"used":9283,"iac":9284,"▁hall":9285,"▁hidden":9286,"omn":9287,"idation":9288,"idated":9289,"▁ease":9290,"▁ezetimibe":9291,"ate,":9292,"osing":9293,"osts,":9294,"▁(or":9295,"▁(rec":9296,"acdonal":9297,"acerbated":9298,"lyset":9299,"▁thor":9300,"load":9301,"ura":9302,"uris":9303,"uration":9304,"imental":9305,"uli":9306,"▁nar":9307,"▁nan":9308,"ilt":9309,"▁Pat":9310,"▁Pover":9311,"▁PET-PCR":9312,"▁ABV":9313,"▁stay":9314,"▁stall":9315,"▁stock":9316,"▁stool":9317,"igenous":9318,"▁CX":9319,"▁Cox":9320,"▁CQR":9321,"▁Tex":9322,"▁Tropical":9323,"▁TER":9324,"▁Taken":9325,"▁Tai":9326,"▁Treatment":9327,"▁Toror":9328,"ummer":9329,"▁gut":9330,"elian":9331,"▁anch":9332,"▁conver":9333,"olate":9334,"etary":9335,"▁proof":9336,"▁prognostic":9337,"▁prokary":9338,"▁li":9339,"▁lay":9340,"▁lang":9341,"▁lines":9342,"▁lumefantrine":9343,"iform":9344,"ifying":9345,"rie":9346,"▁Sind":9347,"▁SIV":9348,"▁Significance":9349,"▁Sigm":9350,"▁SJdRP":9351,"▁comorbidity":9352,"▁prevents":9353,"▁ID":9354,"▁Its":9355,"▁Ital":9356,"▁Ill":9357,"▁IZP":9358,"amp":9359,"am-C":9360,"▁ones":9361,"opolitan":9362,"▁ME":9363,"▁ML":9364,"▁Mend":9365,"▁Map":9366,"▁Male":9367,"▁Memb":9368,"▁Municip":9369,"▁Matrix-M":9370,"▁Myanmar":9371,"▁MUAC":9372,"▁1:":9373,"▁119":9374,"▁15%":9375,"▁10%":9376,"oc)":9377,"oting":9378,"otherap":9379,"owered":9380,"▁Dhak":9381,"rang":9382,"mentary":9383,"▁images.\n":9384,"▁infective":9385,"▁incident":9386,"▁incomplete":9387,"▁cham":9388,"▁exported":9389,"▁exists":9390,"▁exacerbated":9391,"resent":9392,"ivax":9393,"▁acad":9394,"▁Ro":9395,"▁Rp":9396,"▁Red":9397,"▁Rel":9398,"▁R21":9399,"▁Ross":9400,"▁Rins":9401,"▁ROTE":9402,"▁Rift":9403,"▁students":9404,"ease":9405,"0.2":9406,"▁height":9407,"▁compl":9408,"▁rh":9409,"▁rig":9410,"▁right":9411,"▁rED":9412,"▁contamination":9413,"▁How":9414,"▁Hub":9415,"▁Hill":9416,"▁HMC":9417,"▁HMI":9418,"▁HDs":9419,"▁Haem":9420,"▁Huh":9421,"▁Bes":9422,"▁BCR":9423,"▁modul":9424,"00)":9425,"▁attem":9426,"oreg":9427,"oregressive":9428,"▁studying":9429,"▁study-level":9430,"anded":9431,"▁whom":9432,"▁permit":9433,"plies":9434,"▁Web":9435,"logous":9436,"▁interpre":9437,"▁Each":9438,"▁EHT":9439,"▁indigenous":9440,"19,":9441,"rick":9442,"ricoid":9443,"ologists":9444,"▁data-driven":9445,"▁leishman":9446,"▁left":9447,"▁registration":9448,"▁300":9449,"▁3Ra":9450,"▁O_":9451,"▁Four":9452,"▁Flaviv":9453,"▁FOI":9454,"▁outreach":9455,"▁Nam":9456,"▁N95":9457,"▁Northeast":9458,"▁NMPs":9459,"ends":9460,"elled":9461,"▁apical":9462,"5%).\n":9463,"5%),":9464,"▁undiagnos":9465,"▁La":9466,"▁Low":9467,"▁LAMP":9468,"▁LF-RDT":9469,"▁falciparum-pLDH":9470,"▁spillo":9471,"▁speed":9472,"▁serosurve":9473,"▁serostatus":9474,"OVID-Vac":9475,"▁0.06":9476,"▁undert":9477,"▁underreporting":9478,"▁analysed.\n":9479,"formed":9480,"▁disease;":9481,"ross-sectional":9482,"-sc":9483,"-site":9484,"▁unvaccinated":9485,"▁unavail":9486,"▁surfac":9487,"alleng":9488,"▁arche":9489,"▁it.\n":9490,"▁population-based":9491,"▁low-res":9492,"-binding":9493,"▁amoe":9494,"▁amoun":9495,"▁anti-parasite":9496,"▁GIA":9497,"▁GWAS":9498,"▁vector-control":9499,"▁Ul":9500,"ughter":9501,"▁subjective":9502,"▁sub-reg":9503,"▁sub-dist":9504,"▁inten":9505,"actating":9506,"bout":9507,"bouring":9508,"ribute":9509,"▁inser":9510,"▁insight":9511,"▁mono":9512,"▁identifies":9513,"ponicum,":9514,"▁vivax)":9515,"▁region-specific":9516,"-200":9517,"▁scales":9518,"▁scores":9519,"▁manus":9520,"▁blood,":9521,"▁impair":9522,"▁2022,":9523,"▁overd":9524,"▁count,":9525,"▁countrys":9526,"▁provinc":9527,"▁57":9528,"▁50.":9529,"ardiac":9530,"0%),":9531,"▁DENV,":9532,"▁Anophe":9533,"▁COVID-19:":9534,"-15":9535,"▁Conc":9536,"▁69":9537,"▁62%":9538,"▁assessments":9539,"▁tests.\n":9540,"▁distress":9541,"epi":9542,"eptide":9543,"▁posed":9544,"▁2018,":9545,"▁2016,":9546,"▁locally":9547,"▁notified":9548,"▁morb":9549,"▁systems,":9550,"▁settle":9551,"-days":9552,"-dimension":9553,"-defined":9554,"▁non-linear":9555,"▁drugs,":9556,"▁71":9557,"▁79":9558,"▁70%,":9559,"▁decades":9560,".1)":9561,"▁others":9562,"ized.\n":9563,"-prim":9564,"▁rodent":9565,"▁insecurity":9566,"lder":9567,"▁KE":9568,"ants.\n":9569,"-co":9570,"-count":9571,"▁BackgroundL":9572,"tainable":9573,"▁VE":9574,"▁86":9575,"▁87":9576,"▁88%":9577,"antity":9578,"▁months)":9579,"▁priming":9580,"▁observe":9581,"▁plaus":9582,"▁metapopulation":9583,"ytes":9584,"standard":9585,"▁ResultsIn":9586,"-inf":9587,"-invasive":9588,"▁ConclusionA":9589,"▁combinations":9590,"▁1.01":9591,"uctu":9592,"▁train":9593,"▁traffic":9594,"▁suppress":9595,"▁bios":9596,"▁temporally":9597,"▁phys":9598,"▁physical":9599,"▁vaccinees":9600,"▁thereby":9601,"▁simpl":9602,"▁simulated":9603,"▁simulating":9604,"▁epidemic,":9605,"0186":9606,"▁characterise":9607,"nets":9608,"▁collecting":9609,"▁(PM":9610,"▁(Pow":9611,"▁(Poc)":9612,"▁game":9613,"unctional":9614,"▁depressive":9615,"ability.\n":9616,"-Cor":9617,"▁(DF)":9618,"▁concord":9619,"jected":9620,"▁hospital.\n":9621,"▁hospitalizations":9622,"▁conducted.\n":9623,"-fed":9624,"-face":9625,"-friendly":9626,"▁validity":9627,"assay":9628,"▁investigations":9629,"ynamics":9630,"▁importantly,":9631,"▁observed.\n":9632,"▁toolkit":9633,"▁Malaria,":9634,"ogenetic":9635,".8)":9636,".83%":9637,"▁temperate":9638,"▁Pfcsp":9639,"-lactate":9640,".3%,":9641,"▁Healthcare":9642,"▁response,":9643,"hemical":9644,"▁review,":9645,"▁Brazil:":9646,"▁(25":9647,"lassical":9648,"▁complex,":9649,"▁complexes.\n":9650,"▁aiming":9651,"▁IgA":9652,"▁limitation":9653,"▁methodologies":9654,"iences":9655,"▁sensitivity,":9656,"▁presentation":9657,"▁single-strand":9658,"▁(SMC)":9659,"▁increases.\n":9660,"▁typical":9661,"▁available,":9662,"▁available.\n":9663,"▁trust":9664,"▁triage":9665,"eya":9666,"▁prevention,":9667,"▁non-net":9668,"▁influential":9669,"▁occur.\n":9670,"▁interes":9671,"CT)":9672,"▁estimates.\n":9673,"▁eliminating":9674,".5)":9675,"▁(IFR)":9676,"▁discard":9677,"▁post-inter":9678,"▁ZIKV,":9679,"▁Indic":9680,"▁Indoor":9681,"▁India.\n":9682,"▁survey,":9683,"▁survey.\n":9684,"▁testing,":9685,"tility":9686,"▁networks,":9687,"▁Protocol":9688,"-rec":9689,"▁(RBC":9690,"▁formal":9691,"▁diagnosis,":9692,"-L,":9693,"▁growth.\n":9694,"ty-two":9695,"▁insecticides,":9696,"=1.1":9697,"▁targets.\n":9698,"-34":9699,"▁Amp-Seq":9700,"▁involvement":9701,"▁strains.\n":9702,"▁Coverage":9703,"▁pyrethroids":9704,"▁research.\n":9705,"▁antibodies,":9706,"▁visited":9707,"▁activated":9708,"▁activities.\n":9709,"▁releases":9710,"▁container":9711,"▁attract":9712,"▁access,":9713,"versely,":9714,"▁adding":9715,"▁illnesses":9716,"▁lesser":9717,"▁suf":9718,"▁processes,":9719,"▁tested.\n":9720,"troph":9721,"▁editing":9722,"osomiasis":9723,"▁focusing":9724,"▁states,":9725,"alyses":9726,"▁guardi":9727,"▁pathogens,":9728,"-0.99":9729,"▁(30.0%":9730,"▁geography":9731,"▁Unit":9732,"▁possess":9733,"▁systematically":9734,"▁activity,":9735,"▁activity.\n":9736,"▁range:":9737,"▁(OR;":9738,"▁NS1-specific":9739,"▁Immun":9740,"▁Imple":9741,"▁protection,":9742,"▁status.\n":9743,"▁2019.\n":9744,"▁gametogenesis":9745,"▁dot}9":9746,"▁them.\n":9747,"▁coverage.\n":9748,"▁initiated":9749,"▁initiatives":9750,"▁standardized":9751,"▁Tanzania,":9752,"▁CDC":9753,"iveness":9754,"▁co-infected":9755,"▁efforts,":9756,"▁equation":9757,"▁equally":9758,"merican":9759,"▁represented":9760,"▁cryptic":9761,"▁reached":9762,"▁reactivity":9763,"▁threshold.\n":9764,"▁2006":9765,"▁planned":9766,"ospho":9767,"▁(0.00":9768,"▁(0.01":9769,"▁(0.17":9770,"▁links":9771,"▁interaction.\n":9772,"RP17":9773,"▁retrie":9774,"▁transcripts,":9775,"EP-G":9776,"-Macdonal":9777,"34C":9778,"▁real-world":9779,"▁Parame":9780,"▁optimizing":9781,"▁invasion,":9782,"▁<1.\n":9783,"▁framework,":9784,"▁Arboviruses":9785,"▁deploying":9786,"▁apicoplast,":9787,"▁zero":9788,"▁viable":9789,"▁services.\n":9790,"▁America.\n":9791,"▁anaemia,":9792,"▁anaemia.\n":9793,"▁Design":9794,"▁considerable":9795,"▁considerations":9796,"▁phase.\n":9797,"▁sulfasal":9798,"▁concern.\n":9799,"▁selection,":9800,"▁selection.\n":9801,"<0.001)":9802,"▁mixed-m":9803,"▁mapped":9804,"▁Deep":9805,"▁compounds.\n":9806,"▁Assay":9807,"▁accuracy.\n":9808,"▁PCR-based":9809,"▁parasites/l":9810,"▁epidemiology.\n":9811,"▁challenge.\n":9812,"▁daughter":9813,"▁complicated":9814,"▁reporting,":9815,"▁historically":9816,"▁incorporate":9817,"/100,000":9818,"▁pre-erythrocytic":9819,"▁Insectic":9820,"▁capacity.\n":9821,"▁Interventions":9822,"▁security":9823,"▁massive":9824,"▁Serum":9825,"▁0.70":9826,"▁investigated.\n":9827,"▁occurred.\n":9828,"▁city,":9829,"▁clonally":9830,"▁absent":9831,"▁centur":9832,"▁degrees":9833,"▁inhibition,":9834,"▁promp":9835,"▁promote":9836,"▁promoting":9837,"▁(ELISA":9838,"▁studied.\n":9839,"▁Efficacy":9840,"▁MethodsAn":9841,"▁planning,":9842,"▁southeast":9843,"▁IRR":9844,"▁sex,":9845,"▁biology.\n":9846,"▁Malawi.\n":9847,"▁parasites/{micro}L;":9848,"▁Sciences":9849,"▁acceptability":9850,"▁Expl":9851,"▁requirements":9852,"▁mobility,":9853,"▁calculating":9854,"-DENV":9855,"-DWS":9856,"▁saving":9857,"▁reflecting":9858,"▁protocols":9859,"▁profile,":9860,"▁concentrations.\n":9861,"wenty":9862,"▁(WTP)":9863,"▁proteomic":9864,"▁haploid":9865,"▁CHIKV,":9866,"▁circumspor":9867,"▁tracked":9868,"▁rainfall,":9869,"▁clearing":9870,"▁clearance":9871,"ttp://":9872,"▁joint":9873,"▁Models":9874,"▁USD":9875,"▁medicines":9876,"▁restricted":9877,",S-dehydro":9878,"BPRII":9879,"BP-Cor":9880,"▁co-local":9881,"▁CHMI,":9882,"▁arm.\n":9883,"▁haematocrit":9884,"▁Effective":9885,"▁co-circulating":9886,"▁Long-lasting":9887,"-months":9888,"▁receptors":9889,"▁(IRS)":9890,"▁XTalkiiS":9891,"▁titre":9892,"▁constrained":9893,"▁expanding":9894,"▁Thailand.\n":9895,"▁Thailand-Myanmar":9896,"▁disseminate":9897,"▁hybrids":9898,"▁Social":9899,"▁Society":9900,"▁precise":9901,"▁Multiplex":9902,"▁0.20":9903,"▁scale.\n":9904,"▁polycl":9905,"▁placent":9906,"▁(Pf)":9907,"▁donor":9908,"▁bodies":9909,"▁Prediction":9910,"▁Predictive":9911,"▁Predicting":9912,"▁DFx":9913,"▁clinics":9914,"▁Statement":9915,"▁farnes":9916,"▁(ZIKV":9917,"▁Short":9918,"▁yielded":9919,"▁hypothesis":9920,"ocytosis":9921,"▁disrupt":9922,"▁transmitting":9923,"▁recurrence.\n":9924,"▁InterpretationThe":9925,"▁Elimination":9926,"▁Covid19Vax":9927,"▁visualizations":9928,"▁mixtures":9929,"▁bites/d":9930,"EN-I":9931,"▁ADR":9932,"▁next-generation":9933,"▁adoption":9934,"▁LoDs":9935,"▁archived":9936,"▁architect":9937,"▁decades,":9938,"▁synchrony":9939,"▁synchronous":9940,"▁guidelines.\n":9941,"/significance":9942,"▁married":9943,"imeter":9944,"▁well-known":9945,"▁underscoring":9946,"▁psychosis":9947,"▁together,":9948,"▁shaping":9949,"▁rarely":9950,"▁non-classical":9951,"structural":9952,"structured":9953,"▁PfHop":9954,"▁pathogenesis.\n":9955,"▁Quanti":9956,"▁lipid-based":9957,"ches,":9958,"▁SPSS":9959,"▁Spatio-temporal":9960,"▁precipitation,":9961,"▁shifts":9962,"▁serotypes.\n":9963,"▁events.\n":9964,"▁PfGRP17":9965,"▁(p<0.001)":9966,"▁documentation":9967,"O_ST_ABSEvidence":9968,"▁ideal":9969,"▁ideation,":9970,"▁THE":9971,"▁trajectories":9972,"▁correctly":9973,"▁supplements":9974,"▁utilisation":9975,"▁Association":9976,"▁degrade":9977,"▁create":9978,"▁pilo":9979,"▁bioinformatic":9980,"▁actual":9981,"0.9%,":9982,"▁immunoassays":9983,"▁apicomplexans":9984,"▁strengthening":9985,"-null":9986,"-negative":9987,"C_ST_ABSO_LI":9988,"▁sickle":9989,"▁injury":9990,"▁injury.\n":9991,"▁fluctu":9992,"▁replacement":9993,"▁stunting,":9994,"▁manipulation":9995,"▁immunosup":9996,"▁heterologous":9997,"▁Guangdong":9998,"▁Pbgd-null":9999,"BR>":10000,"Here,":10001,"liest":10002,"▁tolerance":10003,"▁TMPRSS":10004,"▁progeny":10005,"▁accelerated":10006,"▁interspec":10007,"▁Emerging":10008,"▁consultations":10009,"▁Structural":10010,"▁non-users":10011,"▁females,":10012,"▁propagation":10013,"▁glycolysis":10014,"▁misdiagnosed":10015,"▁excluding":10016,"SCPLO":10017,"▁favour":10018,"▁(0-1":10019,"▁(with":10020,"▁PCINet":10021,"opoiesis":10022,"▁Mixed-effect":10023,"▁DRC.\n":10024,"▁non-photosynthetic":10025,"▁constraints":10026,"▁triggers":10027,".org":10028,"▁political":10029,"▁thermal":10030,"▁reinfor":10031,"▁Plate":10032,"▁Costa":10033,"▁ICU":10034,"▁Mbeya":10035,"▁Rcase":10036,"▁EVEs":10037,"▁EXP2":10038,"▁aptamer":10039,"▁Greater":10040,"▁non-synonymous":10041,"▁extension":10042,"▁Strateg":10043,"▁trypanosomiasis":10044,"▁(IC50":10045,"▁approaches.\n":10046,"▁switches":10047,"▁ultrason":10048,"▁encephalitis":10049,"AF1":10050,"ssRNA":10051,"▁sessions":10052,"astigote":10053,"▁flexible":10054,"▁budge":10055,"osmopolitan":10056,"▁CNVs":10057,"▁anticipate":10058,"▁construc":10059,"▁DTP3":10060,"▁In9pvcrt":10061,"▁kinases":10062,"▁artemether-lumefantrine":10063,"▁[CI]":10064,"▁(COVID-19)":10065,"▁>2000":10066,"▁viability.\n":10067,"▁unconventional":10068,"▁Instead,":10069,"▁virulent":10070,"-protein-2":10071,"▁Sabah,":10072,"▁landscape":10073,"-quantity":10074,"G6PD-BS":10075,"PC1":10076,"▁hierarchical":10077,"▁(qPCR)":10078,"▁lumbricoid":10079,"ripe":10080,"▁MAY":10081,"▁Materials":10082,"▁acoustic":10083,"▁RVP-based":10084,"▁Evaluation":10085,"▁GH{cents":10086,".\\nC_LIO_LI":10087,"▁societal":10088,"▁Applying":10089,"▁Yogyakarta":10090,"▁Philipp":10091,"▁thrombocytopenia":10092,"ine-rich-protein-2":10093,"▁Investigating":10094,"▁manufacturer":10095,"BIBP-Cor":10096,"▁sources.\n":10097,"▁PyCCR4":10098,"▁Arabic":10099,"▁proximity":10100,"▁licensed":10101,"▁depletion":10102,"▁Sputnik":10103,"▁Iquitos,":10104,"▁2030.\n":10105,"▁EPICOVID19":10106,"▁shorter":10107,"▁rabies":10108,"▁surrounding":10109,"-SMARRT":10110,"▁sensitization":10111,"▁immunodeficiency":10112,"rinsic":10113,"▁histidine-rich-protein-2":10114,"▁steady":10115,"▁Phylogenetic":10116,"▁proteasome-like":10117,"▁japonicum,":10118,"▁co-occurrence":10119,"▁double-blind":10120,"▁Neut50":10121,"▁Crl=1":10122,"O_ST_ABSWhat":10123,"▁vesicle-like":10124,"▁Importantly,":10125,"NT162b2":10126,"Understanding":10127,"frica":10128,"▁pigment":10129,"▁mekongi":10130,"▁hallmark":10131,"▁(recr":10132,"▁Poverty":10133,"▁Taiwan":10134,"▁convergent":10135,"▁prokaryotic":10136,"▁language":10137,"▁SIVEP-G":10138,"▁Sigmoid":10139,"am-COVID-Vac":10140,"▁Mendelian":10141,"otherapy":10142,"▁academic":10143,"▁Ross-Macdonal":10144,"▁ROTEM":10145,"▁HMIS":10146,"▁interpreted":10147,"▁low-resource":10148,"▁amounts":10149,"-dimensional":10150,"▁post-intervention":10151,"▁sulfasalazine":10152,"▁circumsporozoite":10153,"▁Covid19Vaxplorer":10154,"▁bites/day":10155,"▁architecture":10156,"▁TMPRSS2":10157,"SCPLOW":10158,"▁lumbricoides,":10159,"▁GH{cents}":10160,"▁SIVEP-Gripe":10161,"▁Ross-Macdonald":10162,"\",":10163,"-he":10164,"-as":10165,"-going":10166,"/L":10167,"/ad":10168,"/{micro}L":10169,"/NO":10170,"0{middle":10171,"14,":10172,"20":10173,"26":10174,"3.\n":10175,"34,":10176,"313":10177,"41":10178,"61":10179,"67":10180,"77":10181,"7%)":10182,"7.9":10183,"72,":10184,"724":10185,"83":10186,"8.\n":10187,"8%),":10188,"94":10189,"9),":10190,":effec":10191,"AK":10192,"A/S":10193,"AACT":10194,"BL":10195,"B.\n":10196,"BST":10197,"BAS":10198,"CL":10199,"C_":10200,"COVID-19":10201,"Cross-sectional":10202,"Ds)":10203,"DBPII":10204,"DDE":10205,"EAL":10206,"Findings":10207,"Household":10208,"IN":10209,"Ig":10210,"Mel":10211,"M),":10212,"MS)":10213,"N)":10214,"One":10215,"PA":10216,"Pf":10217,"Plasmodium":10218,"SI":10219,"SL":10220,"SGS":10221,"UT":10222,"UTHOR":10223,"V),":10224,"Ws.\n":10225,"Xt":10226,"ZS":10227,"])":10228,"a:":10229,"aut":10230,"aren":10231,"ae.\n":10232,"a-an":10233,"b.\n":10234,"bet":10235,"bors":10236,"biasis":10237,"breeding":10238,"cending":10239,"clusive":10240,"d)":10241,"d.":10242,"ders":10243,"e/":10244,"epers":10245,"fied":10246,"g,":10247,"high":10248,"hort":10249,"ih":10250,"ihydroartemisinin":10251,"juvant":10252,"k-1":10253,"lers":10254,"larg":10255,"mend":10256,"mia.\n":10257,"mg/kg":10258,"na,":10259,"nitine":10260,"oal":10261,"oost":10262,"obia":10263,"ook":10264,"pen":10265,"posed":10266,"present":10267,"rhe":10268,"rban":10269,"ritor":10270,"sa":10271,"sum":10272,"tage":10273,"tozo":10274,"toxic":10275,"turb":10276,"ves,":10277,"w.":10278,"wid":10279,"word":10280,"x10":10281,"ylp":10282,"ygo":10283,"ygi":10284,"yoA":10285,"za,":10286,"▁x":10287,"▁%,":10288,"▁-2)":10289,"inity":10290,"inute":10291,"inatory":10292,"inflammatory":10293,"▁aud":10294,"▁tick":10295,"▁trich":10296,"▁t-test":10297,"requent":10298,"tise":10299,"tific":10300,"environmental":10301,"tel":10302,"tero":10303,"tes,":10304,"teome":10305,"▁oph":10306,"▁squ":10307,"▁splen":10308,"▁sfRNA":10309,"▁inbreeding":10310,"▁cry":10311,"▁cust":10312,"▁cities.\n":10313,"▁citiz":10314,"▁cutaneous":10315,"▁cardiac":10316,"esters":10317,"▁pne":10318,"▁port":10319,"▁theore":10320,"▁thems":10321,"arid":10322,"arra":10323,"arse":10324,"▁mm":10325,"▁mel":10326,"▁mated":10327,"▁msp":10328,"▁mg/kg":10329,"▁dil":10330,"▁doll":10331,"▁dashboard":10332,"▁offic":10333,"orrelation":10334,"isal":10335,"isum":10336,"ister":10337,"ists,":10338,"▁wider":10339,"▁wMel":10340,"as,":10341,"asoph":10342,"▁fec":10343,"▁fear":10344,"▁fall":10345,"▁frag":10346,"itation.\n":10347,"rolog":10348,"robor":10349,"anes":10350,"ica":10351,"ece":10352,"ecological":10353,"▁reestablis":10354,"▁replen":10355,"▁rechallenge":10356,"atent":10357,"atab":10358,"atural":10359,"▁big":10360,"▁back":10361,"▁billion":10362,"vered":10363,"▁hit":10364,"▁huge":10365,"▁hook":10366,"▁hygi":10367,"le,":10368,"ates.\n":10369,"▁(+":10370,"▁(Q":10371,"▁(g":10372,"▁(am":10373,"▁(end":10374,"▁(all":10375,"▁(42":10376,"acu":10377,"ache":10378,"actic":10379,"urring":10380,"urpos":10381,"th,":10382,"ths":10383,"▁n=":10384,"ilome":10385,"▁Pen":10386,"▁Pres":10387,"▁Prop":10388,"▁Port":10389,"▁PRI":10390,"▁P<0.05":10391,"ted.\n":10392,"▁Average":10393,"▁Aust":10394,"▁About":10395,"▁stream":10396,"ira":10397,"irida":10398,"▁Cy":10399,"▁Can":10400,"▁Core":10401,"▁Class":10402,"▁Costs":10403,"▁CAF1":10404,"▁Te":10405,"▁Tem":10406,"▁Tik":10407,"▁Trich":10408,"▁TPR":10409,"umon":10410,"umina":10411,"▁gast":10412,"▁green":10413,"▁gave":10414,"▁gives":10415,"quantitative":10416,"una":10417,"▁ask":10418,"elf":10419,"▁construct":10420,"etail":10421,"etry":10422,"▁proc":10423,"▁prolong":10424,"▁protozo":10425,"▁malaria-positive":10426,"▁malaria-naive":10427,"▁liv":10428,"▁list":10429,"udy":10430,"ifier":10431,"▁Sur":10432,"▁Some":10433,"▁Six":10434,"▁Scale":10435,"▁come":10436,"▁IMP":10437,"amet":10438,"amoy":10439,"▁20.":10440,"▁2.6":10441,"▁250":10442,"▁28%":10443,"undity":10444,"▁Mark":10445,"▁Made":10446,"▁MMS":10447,"stag":10448,"stage":10449,"stream":10450,"▁1%,":10451,"oclonal":10452,"engvax":10453,"▁waste":10454,"▁Do":10455,"▁Dire":10456,"▁Direct":10457,"▁DBS":10458,"▁D23":10459,"▁DBPRII":10460,"▁DEN-I":10461,"▁Datab":10462,"rome":10463,"mental":10464,"ments.\n":10465,"mentation,":10466,"▁image":10467,"▁disability":10468,"▁dispar":10469,"▁incidences":10470,"abel":10471,"ables":10472,"▁exception":10473,"▁actions":10474,"▁actin":10475,"▁Women":10476,"▁Where":10477,"▁Rati":10478,"▁River":10479,"▁ROC":10480,"▁area,":10481,"0.4":10482,"0.000":10483,"▁cough":10484,"▁covered":10485,"▁compens":10486,"▁rs":10487,"antine":10488,"▁al.\n":10489,"▁always":10490,"▁alone,":10491,"▁alveolar":10492,"▁Hom":10493,"▁HTM":10494,"▁never":10495,"▁neare":10496,"▁transamin":10497,"▁seed":10498,"▁seps":10499,"▁BG":10500,"▁Bl":10501,"▁Bal":10502,"▁Bas":10503,"▁Bus":10504,"▁Bag":10505,"▁Box":10506,"▁BMI":10507,"▁modest":10508,"▁modification":10509,"ypical":10510,"00,":10511,"atitis":10512,"valences":10513,"▁atov":10514,"▁atmosp":10515,"▁atypical":10516,"▁look":10517,"▁whilst":10518,"▁clade":10519,"▁claim":10520,"▁perimeter":10521,"▁perturb":10522,"play":10523,"ayment":10524,"▁Initi":10525,"▁Inhib":10526,"▁Invas":10527,"▁interface":10528,"▁interpretation":10529,"▁interplay":10530,"▁E1":10531,"▁Eb":10532,"▁Ev":10533,"▁End":10534,"▁Euro":10535,"▁EDS":10536,"▁E-K":10537,"▁indeed":10538,"ulation.\n":10539,"▁leuk":10540,"▁regulated":10541,"aryn":10542,"▁3V":10543,"▁3.3":10544,"▁3.5":10545,"▁3-year":10546,"▁32%":10547,"▁3D7":10548,"cipients":10549,"▁Oman":10550,"▁Fc":10551,"▁Found":10552,"▁Full":10553,"▁Functional":10554,"▁FSGS":10555,"rosine":10556,"▁outwe":10557,"▁out-of":10558,"▁NI":10559,"▁Num":10560,"▁NCD":10561,"▁caught":10562,"person":10563,"▁k-mer":10564,"▁kilome":10565,"▁applications":10566,"5%.\n":10567,"agers":10568,"▁Line":10569,"▁Labor":10570,"▁LRIM":10571,"ostasis":10572,"▁spike":10573,"▁sparse":10574,"▁serves":10575,"▁serologic":10576,"▁seronegative":10577,"▁0.000":10578,"▁0.50":10579,"▁0.21":10580,"▁0.65":10581,"▁underto":10582,"▁raises":10583,"▁signalling":10584,"▁recap":10585,"formance":10586,"▁spectrum":10587,"▁string":10588,"ally.\n":10589,"-sil":10590,"-step":10591,"-supple":10592,"▁unpre":10593,"▁unchang":10594,"▁trees":10595,"▁arising":10596,"▁argue":10597,"▁not.\n":10598,"▁cases)":10599,"▁cases:":10600,"▁low.\n":10601,"▁low-endemic":10602,"-born":10603,"▁9%":10604,"▁98%":10605,"▁ama":10606,"▁amplic":10607,"▁anti-malaria":10608,"▁relating":10609,"▁GY":10610,"▁Gambia":10611,"▁Grand":10612,"▁Giem":10613,"▁aggregated":10614,"▁UI":10615,"▁Util":10616,"▁ULV":10617,"▁subun":10618,"▁subnational":10619,"▁subclinical":10620,"▁intense":10621,"▁4%":10622,"▁4.6":10623,"▁40.3%":10624,"▁vaccines,":10625,"▁insurance":10626,"▁monoclonal":10627,"ponent":10628,"▁childrens":10629,"▁envelop":10630,"▁enough":10631,"▁enrich":10632,"ast,":10633,"▁detects":10634,"appa":10635,"▁scans":10636,"▁blood-feeding":10637,"▁these,":10638,"▁2024.\n":10639,"▁2025.\n":10640,"▁overc":10641,"▁obtaining":10642,"▁province":10643,"▁58":10644,"▁5.3":10645,"0%).\n":10646,"▁Ank-1":10647,"-11":10648,"-18":10649,"-10.":10650,"-1.6":10651,"-1.2":10652,"-1.9":10653,"▁Conf":10654,"▁Conversely,":10655,"▁65%":10656,"▁66%":10657,"▁61.5%)":10658,"▁protein.\n":10659,"▁protein/ad":10660,"▁tests,":10661,"▁individual-level":10662,"▁position":10663,"▁2015,":10664,"▁pressing":10665,"▁location":10666,"ulture":10667,"▁notification":10668,"▁Resource":10669,"▁poore":10670,"▁poison":10671,"quencing":10672,"-trained":10673,"served":10674,"▁multistage":10675,"▁drug.\n":10676,"▁drugs.\n":10677,"genic":10678,"genitor":10679,"▁74":10680,"▁75":10681,"▁78":10682,"▁73%":10683,"▁76%":10684,"▁others.\n":10685,"ographical":10686,"▁Kan":10687,"▁King":10688,"▁Kil":10689,"▁Kay":10690,"▁Knock":10691,"▁Kisum":10692,"-cost":10693,"▁BackgroundT":10694,"▁BackgroundV":10695,"▁MethodsD":10696,"▁MethodsIn":10697,"tainment":10698,"▁consent":10699,"▁consol":10700,"▁consisting":10701,"▁Val":10702,"-SNP":10703,".\\n\\nS":10704,".\\n\\nWe":10705,"▁primers":10706,"▁metrop":10707,"▁completen":10708,"▁ResultsS":10709,"▁ConclusionOur":10710,"ractive":10711,"▁mediating":10712,"▁1.5":10713,"▁needed,":10714,"▁trait":10715,"▁tradition":10716,"▁corrobor":10717,"▁number,":10718,"▁biased":10719,"▁biophysical":10720,"▁phot":10721,"▁phone":10722,"▁-3":10723,"▁thereaf":10724,"▁therefore,":10725,"-minute":10726,"▁pathoph":10727,"▁well,":10728,"▁well.\n":10729,"▁well-st":10730,"▁epidemic-prone":10731,".4%,":10732,"015":10733,"▁characterising":10734,"▁collection.\n":10735,"▁evaluates":10736,"▁(Pv":10737,"▁(Plasmodium":10738,"▁long-lived":10739,"▁peer":10740,"▁perennial":10741,"unction":10742,"▁depri":10743,"▁depended":10744,"▁providers":10745,"-COV":10746,"▁(DALY":10747,"▁Challeng":10748,"▁intervention,":10749,"nessed":10750,"▁sensitiv":10751,"ropic":10752,"▁hospital,":10753,"▁careful":10754,"lish":10755,"▁extend":10756,"▁extrap":10757,"▁extinc":10758,"▁expertise":10759,"▁informing":10760,"▁cross-tal":10761,"▁localized":10762,"▁localised":10763,"▁confers":10764,".88":10765,".8%),":10766,"▁immunof":10767,"▁immunogenic":10768,"▁urg":10769,"▁(1)":10770,"▁(12":10771,"▁opin":10772,"▁repair":10773,"▁PfRH5":10774,"▁Pf-SMARRT":10775,"▁host.\n":10776,".78":10777,"iodemographic":10778,"▁target.\n":10779,"hemoglobin":10780,"ocyte-prim":10781,".2)":10782,"raining":10783,"▁spread.\n":10784,"▁(2)":10785,"▁(23":10786,"▁(2.5":10787,"▁(2.66":10788,"▁cluster,":10789,"▁complex.\n":10790,"▁CHAT":10791,"▁periods,":10792,"▁knowlesi-specific":10793,"ancer":10794,"ancing":10795,"▁epidemiologic":10796,"▁p=0.0":10797,"▁(An":10798,"▁(Ar":10799,"▁(ANC)":10800,"▁effect.\n":10801,"▁(p<0.05":10802,"▁responsive":10803,"▁arboviruses.\n":10804,"ferring":10805,"▁quantile":10806,"▁(SE":10807,"▁types.\n":10808,"▁randomization":10809,"▁non-endemic":10810,"-Count":10811,"▁people,":10812,"itors;":10813,"▁deline":10814,"▁delays":10815,"▁deltamethrin":10816,"▁ConclusionsWe":10817,"▁ConclusionsThis":10818,"▁carbon":10819,"▁carnitine":10820,"▁emergenc":10821,"▁detected.\n":10822,"avage":10823,"▁discover":10824,"▁assays.\n":10825,"▁genome,":10826,"1,5":10827,"▁frequencies,":10828,"-state":10829,"-stained":10830,"▁post-":10831,"▁post-treatment":10832,"▁post-COVID19":10833,"▁examines":10834,"▁surveys.\n":10835,"▁programs.\n":10836,"aborative":10837,"<0.01":10838,"▁essential,":10839,"acein":10840,"▁distribution,":10841,"▁reduction,":10842,"▁insecticide.\n":10843,"▁fourth":10844,"▁Process":10845,"-review":10846,"▁COVID19-related":10847,"▁exposure-response":10848,"▁site.\n":10849,"▁therapy.\n":10850,"▁therapies.\n":10851,"▁(aIR":10852,"roscopic":10853,"▁growth,":10854,"▁emetine":10855,"▁paediatric":10856,"▁parent":10857,"▁dose,":10858,"▁dose-response":10859,"-3III":10860,"4,000":10861,"established":10862,"▁Ampl":10863,"▁involve":10864,"▁expression,":10865,"▁Adv":10866,"▁Additional":10867,"▁keyword":10868,"▁matter":10869,"▁patterns.\n":10870,"▁relev":10871,"▁released":10872,"▁contains":10873,"▁attack":10874,"ophobia":10875,"▁adds":10876,"▁Alt":10877,"▁HIV-1":10878,"▁country,":10879,".0-9":10880,"▁drive":10881,"▁sequel":10882,"▁sequential":10883,"▁sequesters":10884,"▁implementation,":10885,"▁198":10886,"troviral":10887,"osomal":10888,"▁Mali":10889,"▁pool;":10890,"▁state,":10891,"▁(aOR=2":10892,"AT)":10893,"▁Yet,":10894,"▁weeks.\n":10895,"▁particular,":10896,".5%).\n":10897,"▁practical":10898,"armac":10899,"▁technolog":10900,"▁standing":10901,"▁Southwest":10902,"▁capital":10903,"▁capillary":10904,".\\n\\nAUTHOR":10905,"▁(OR=":10906,"▁(OR=0.":10907,"▁SummaryS":10908,"▁1,5":10909,"▁Whole":10910,"ernat":10911,"▁lifest":10912,"▁summaryIn":10913,"▁RDT,":10914,"▁RDTs,":10915,"▁protection.\n":10916,"orship":10917,"ietic":10918,"landin":10919,"o-pro":10920,"▁fitting":10921,"▁persisted":10922,"▁spp.":10923,"▁differentiate":10924,"▁initiation":10925,"▁(HR":10926,"▁(n=3":10927,"▁standardised":10928,"▁annot":10929,"▁>7":10930,"▁>10":10931,"▁defining":10932,".4%;":10933,".4%).\n":10934,"▁addressed":10935,"▁co-infection.\n":10936,"▁additionally":10937,"▁Kenyas":10938,"patients":10939,"regulated":10940,"▁equilibrium":10941,"▁Prevention":10942,"▁structure,":10943,"▁structures.\n":10944,"APL1C":10945,"▁crude":10946,"▁(NT":10947,"▁threshold-based":10948,"▁Campin":10949,"▁2003":10950,"▁17th":10951,"▁explor":10952,"▁microv":10953,"▁microbi":10954,"▁microarra":10955,"dermal":10956,"▁detectable":10957,"▁evaluated.\n":10958,"g/day":10959,"▁old,":10960,"▁Reporting":10961,"▁records.\n":10962,"▁carries":10963,"▁ratio,":10964,"IR)":10965,"▁ensembles":10966,"▁integrating":10967,"-human":10968,"BOX":10969,"▁Parasit":10970,"▁gametocytes.\n":10971,"cedented":10972,"▁antigenically":10973,"▁deployments":10974,"▁functionality":10975,"▁zon":10976,"▁z-sc":10977,"▁field.\n":10978,"▁product":10979,"▁Nigerias":10980,"▁value:":10981,"▁context,":10982,"▁context-specific":10983,"▁nectin":10984,"CD)":10985,"▁element":10986,"▁persons":10987,"▁IntroductionDengue":10988,"plored":10989,"▁cleaved":10990,"▁deriv":10991,"▁water.\n":10992,"onaVac":10993,"▁threatens":10994,"▁achieving":10995,"▁Ens":10996,"▁Environmental":10997,"▁variants,":10998,"▁Associated":10999,"210,":11000,"prising":11001,"theless":11002,"▁serotype-specific":11003,"▁2015.\n":11004,"▁biases.\n":11005,"▁epidemiology,":11006,"7%.\n":11007,"manent":11008,"▁complication":11009,"▁complications,":11010,"▁complications.\n":11011,"▁short-lived":11012,"▁uncover":11013,"▁uncircumc":11014,"▁p=0.007)":11015,"▁history.\n":11016,"/180":11017,"▁curves":11018,"▁Clinic":11019,"▁ST313":11020,"▁blocks":11021,"▁travel,":11022,"▁travelers":11023,"▁failures":11024,"▁Ethics":11025,"▁practices.\n":11026,"▁Overall":11027,"▁relapsing":11028,"▁hyperpar":11029,"▁steps":11030,"▁lifetim":11031,"▁sulfadoxine-pyrimethamine.\n":11032,"▁doctor":11033,"▁Median":11034,"▁loads,":11035,"▁cloned":11036,"▁clone.\n":11037,"▁self-reported":11038,"▁facilitated":11039,"▁appearance":11040,"▁establishing":11041,"▁iCC":11042,"▁(Gam-COVID-Vac":11043,"▁index,":11044,"▁deterministic":11045,"▁explaining":11046,"-AI":11047,"-Africa":11048,"keepers":11049,"▁purch":11050,"▁larvic":11051,"▁schools":11052,"▁representation":11053,"▁representative":11054,"-59":11055,"▁safet":11056,"▁enzymes":11057,"▁implemented.\n":11058,"▁averting":11059,"ondon":11060,"▁(82":11061,"▁virolog":11062,"▁properly":11063,"▁IRF":11064,"▁IFR1":11065,"▁(AOR=1":11066,"10).\n":11067,"▁sole":11068,"▁soil":11069,"▁pharmacy":11070,"▁abundant":11071,"▁circulation.\n":11072,"/263)":11073,"▁wave.\n":11074,"▁dihydroartemisinin-":11075,"▁IPTp-SP.\n":11076,"▁mitigating":11077,"▁fluorescence":11078,"▁(WNV":11079,"▁protease":11080,"▁Bangladesh,":11081,"▁difficulty":11082,"{degrees}C)":11083,"79)":11084,"▁reproducible":11085,"▁Modeling":11086,"▁encoding":11087,"▁Without":11088,"▁hemat":11089,"▁hemoglobin":11090,"▁Europe.\n":11091,"▁mechanisms.\n":11092,"▁necessary.\n":11093,"▁survival,":11094,"▁restriction":11095,"▁restricting":11096,"▁built":11097,"▁22.8":11098,"▁22.0%)":11099,"▁intra-":11100,"▁non-facility":11101,"▁synthesis,":11102,"▁abundance.\n":11103,"cRNA-Seq":11104,"▁qPCR.\n":11105,"▁operate":11106,"▁operating":11107,"▁operational":11108,"▁flaviviruses,":11109,"▁re-challenge":11110,"▁bednets":11111,"▁PvW1":11112,"▁Atlas":11113,"▁hypnozo":11114,"okinetic":11115,"▁haematopo":11116,"▁Effect":11117,"▁Effectiveness":11118,"▁biomarker":11119,"▁Amazon,":11120,"491":11121,"MENT":11122,"ochond":11123,"▁ConclusionsThese":11124,"▁prioritize":11125,"▁prioritization":11126,"▁scenarios.\n":11127,"-HbA":11128,"▁Accurate":11129,"▁0.05)":11130,"▁Thailand,":11131,"▁1.09":11132,"▁1.02,":11133,"▁Ghana:":11134,"▁questionnaire.\n":11135,"▁rainfall.\n":11136,"▁precedes":11137,"▁Minority":11138,"▁recommendations":11139,"▁Recently,":11140,"▁District,":11141,"▁swarm":11142,"▁software.\n":11143,"▁filtering":11144,"▁(BBIBP-Cor":11145,"▁(such":11146,"-2022,":11147,"▁opportunities":11148,"▁(n=16),":11149,"▁(n=108),":11150,"▁policy-relevant":11151,"▁details":11152,"▁underestimate":11153,"-TMP":11154,"▁payment":11155,"▁consequence":11156,"▁SD-DWS":11157,"▁Species":11158,"▁Special":11159,"▁indirectly":11160,"▁Neural":11161,"▁mobil":11162,"▁cultures.\n":11163,"▁hypothesized":11164,"▁Vietnam,":11165,"-threat":11166,"/33":11167,"ANCE":11168,"gsc":11169,"▁replication.\n":11170,"▁disruption":11171,"▁hepatic":11172,"▁hepcidin":11173,"▁regulator":11174,"▁regulatory":11175,"▁semi-nom":11176,"▁semi-quantitative":11177,"-vector":11178,"▁hand,":11179,"▁Infections":11180,"▁extensively":11181,"▁abnormalities,":11182,"▁(p=0.04":11183,"▁epithelial":11184,"▁CDPK4":11185,"▁isolates.\n":11186,"/CCR4":11187,"/Cas9":11188,"▁heritable":11189,"▁passed":11190,"▁topic":11191,"▁homeostasis":11192,"▁CRT":11193,"▁CRD4202":11194,"▁animals.\n":11195,"▁headache":11196,"▁adopt":11197,"▁adopted":11198,"▁ConclusionThese":11199,"▁caregiver":11200,"▁(CHMI":11201,"▁Americas,":11202,"=3.1":11203,"▁iron-supple":11204,"▁p<0.001)":11205,"▁p<0.001),":11206,"▁pyriproxyfen,":11207,"▁draw":11208,"▁belie":11209,"▁separated":11210,"▁0.01%":11211,"-regression":11212,"▁smears":11213,"▁ObjectiveTo":11214,"▁Islands":11215,"MSE":11216,"TEXT":11217,"▁psychiatric":11218,"▁egg":11219,"▁anophelines":11220,"▁Delta":11221,"▁NTBC":11222,"▁LODs":11223,"▁socio-environmental":11224,"▁definitions":11225,"▁Epidemiology":11226,"▁engagement":11227,"▁CONT":11228,"▁anthropogenic":11229,"▁SmSPI":11230,"▁Diagnosis":11231,"▁competing":11232,"▁translational":11233,"▁translation,":11234,"▁sharing,":11235,"▁shift":11236,"▁contributor":11237,"▁Northwest":11238,"▁Janeiro,":11239,"killed":11240,"▁silence":11241,"▁(control":11242,"▁Micron":11243,"▁Microscopy":11244,"▁covering":11245,"▁98.83%":11246,"▁41.7%":11247,"▁enabling":11248,"▁trajectory":11249,"exposed":11250,"▁(RR:":11251,"▁Countries":11252,"▁visits,":11253,"▁minimally":11254,"▁organisms.\n":11255,"▁Benin.\n":11256,"▁reservoirs":11257,"While":11258,"▁dominated":11259,"▁bilirubinometer":11260,"▁(from":11261,"▁ligands":11262,"▁MV-infected":11263,"▁Optim":11264,"▁0.119%":11265,"▁complementary":11266,"▁cluster-randomised":11267,"▁chlorfenapyr,":11268,"▁disadvantage":11269,"▁disadvantaged":11270,"www.":11271,"▁toxoplasm":11272,"▁elicitation":11273,"▁SEA":11274,"▁Similar":11275,"▁imperfect":11276,"▁identity-by":11277,"▁biosynthetic":11278,"▁occupation":11279,"▁occupations":11280,"▁statistics.\n":11281,"▁Art-TMP":11282,"▁promoter":11283,"▁(IRR:":11284,"boviruses)":11285,"▁Pbgd-deficient":11286,"▁Province,":11287,"iSeq":11288,"▁rounds":11289,"▁inequities":11290,"▁duplex":11291,"▁reactogenicity":11292,"▁Testing":11293,"▁progenitors;":11294,"▁seems":11295,"▁Biotech":11296,"▁spaces":11297,"▁specialized":11298,"▁quarantine":11299,"▁64.1%)":11300,"▁pressures":11301,"▁medications,":11302,"▁supervised":11303,"▁supervision":11304,"▁(22.0":11305,"▁motifs":11306,"▁(ITNs)":11307,"▁females.\n":11308,"▁attendance":11309,"▁misdiagnosis":11310,"▁Increased":11311,"▁emphasizes":11312,"-eight":11313,"Report":11314,"zygo":11315,"zygous":11316,"▁instance,":11317,"▁induces":11318,"▁migration":11319,"▁reasonable":11320,"▁(CRD4202":11321,"▁AS-AQ":11322,"▁Sustainable":11323,"▁SARIMA":11324,"▁user-friendly":11325,"▁schedule":11326,"▁manifestations":11327,"▁collateral":11328,"▁correction":11329,"▁non-pharmaceutical":11330,"▁Socioeconomic":11331,"▁trigger":11332,"▁hepatocytes.\n":11333,"▁orthoflaviviruses":11334,"▁Remoscope":11335,"▁prophylaxis":11336,"▁oxidative":11337,"▁inactivated":11338,"▁inactivation":11339,"▁mitochond":11340,"▁thousand":11341,"▁thousands":11342,"▁procedure":11343,"▁procedures":11344,"▁Senegal":11345,"▁disaggregated":11346,"▁chromosome":11347,"▁keep":11348,"▁keratinocytes":11349,"▁keratinocytes.\n":11350,"▁quickly":11351,"▁(DHF)":11352,"▁communicated":11353,"▁diarrhe":11354,"▁English":11355,"▁teams":11356,"▁megakaryopoiesis":11357,"▁megakaryocyte-prim":11358,"▁fingerp":11359,"-NS1":11360,"1/APL1C":11361,"Character":11362,"▁trimester":11363,"▁stem/pro":11364,"▁ingred":11365,"▁populated":11366,"▁dangerous":11367,"▁binds":11368,"▁hindered":11369,"▁Dawa":11370,"▁distinguish":11371,"missible":11372,"▁Networks":11373,"▁effector:effec":11374,"▁reconstruction":11375,"▁evolving":11376,"▁7.57%":11377,"▁MethodsTen":11378,"▁newborns":11379,"▁1.21%)":11380,"▁supports":11381,"▁non-recipients":11382,"▁pairwise":11383,"▁Council,":11384,"▁cytotoxic":11385,"▁violacein":11386,"▁Experimental":11387,"▁co-expression":11388,"▁RACD,":11389,"▁subsidized":11390,"▁substitutions":11391,"▁neighborhoods":11392,"▁preprints":11393,"▁Polynesia.\n":11394,"▁PubMed,":11395,"-escal":11396,"▁sentinel":11397,"▁cutoff":11398,"▁balance":11399,"▁holds":11400,"ulldown":11401,"▁Prior":11402,"▁ancest":11403,"▁Higher":11404,"▁Bamend":11405,"▁Bolivar,":11406,"▁Nepal":11407,"▁Upper":11408,"▁subgroups":11409,"▁epidermis":11410,"▁ConvNe":11411,"▁consecutive":11412,"▁concerning":11413,"▁Regardless":11414,"▁explanation":11415,"▁policymakers":11416,"▁macrophage":11417,"▁beginning":11418,"▁repertoires":11419,"-affected":11420,"▁p<0,":11421,"▁mimick":11422,"▁drove":11423,"▁dialogue":11424,"▁witnessed":11425,"▁fine-scale":11426,"▁bandwid":11427,"▁2}=9":11428,"▁incurred":11429,"▁incentives":11430,"▁Littoral":11431,"▁0.640%)":11432,"▁0.180%":11433,"-selected":11434,"▁bloodmeal":11435,"▁time-consum":11436,"▁Knowledge,":11437,"▁(SARS-CoV-2)":11438,"▁embed":11439,"▁entomology":11440,"▁perspectives":11441,"▁cytokines":11442,"▁Cambodia":11443,"995F":11444,"▁counterpar":11445,"▁eradicate":11446,"▁detoxification":11447,"▁encompassing":11448,"▁Monitoring":11449,"▁duplicate":11450,"▁azithromycin":11451,"▁CRISPR/Cas9":11452,"▁Xishuangbanna,":11453,"▁items":11454,"▁econom":11455,"▁tyrosine":11456,"omnia":11457,"▁CXRs":11458,"▁anchored":11459,"▁Illumina":11460,"▁chambers":11461,"▁rEDIII":11462,"▁leishmaniasis":11463,"▁Flavivirida":11464,"▁undiagnosed":11465,"▁Laos":11466,"▁spillover":11467,"▁sub-district":11468,"▁manuscript":11469,"▁plausible":11470,"▁simpler":11471,"▁gamete":11472,"▁discarded":11473,"▁attractant":11474,"▁Implementation":11475,"▁(0.00491":11476,"▁(0.0121":11477,"▁retrieved":11478,"▁Insecticide":11479,"▁century":11480,"▁(ELISA)":11481,"▁Exploring":11482,"▁polyclonal":11483,"▁PfGRP170":11484,"▁interspecies":11485,"▁constructed":11486,"▁(recrudescence":11487,"/NOT":11488,"beta}":11489,"▁trichi":11490,"▁custom":11491,"▁pneumon":11492,"▁portable":11493,"▁theoretical":11494,"▁themsel":11495,"asopharyn":11496,"▁fecundity":11497,"▁reestablishment":11498,"▁replenishes":11499,"▁hookworm":11500,"▁(end),":11501,"▁Portug":11502,"▁Austral":11503,"▁CAF1/CCR4":11504,"▁Tiko":11505,"▁Trichuris":11506,"▁gastro":11507,"▁prolonged":11508,"▁protozoan":11509,"amoyo,":11510,"staglandin":11511,"▁Database":11512,"▁disability-adjusted":11513,"▁nearest":11514,"▁Bagamoyo,":11515,"▁Invasion":11516,"▁Euroimmun":11517,"▁kilometers":11518,"▁undertook":11519,"▁recapit":11520,"▁unprecedented":11521,"▁amplicons":11522,"▁Grande":11523,"▁Giemsa":11524,"▁protein/adjuvant":11525,"▁Knockdown":11526,"▁Kisumu":11527,"▁traditionally":11528,"▁thereafter":11529,"▁well-studied":11530,"▁sensitivities":11531,"▁immunoflu":11532,"▁PfRH5-specific":11533,"-3III_":11534,"▁microarray":11535,"▁Parasitology":11536,"▁nectin-4":11537,"theless,":11538,"▁uncircumcised":11539,"▁haematopoietic":11540,"▁semi-nomadic":11541,"▁iron-supplements":11542,"TEXTBOX":11543,"▁megakaryocyte-primed":11544,"▁stem/progenitor":11545,"▁effector:effector":11546,"▁ConvNeXt":11547,"▁bandwidth":11548,"▁CAF1/CCR4/NOT":11549,"\")":11550,"%).\n":11551,"(2":11552,")-based":11553,"+,":11554,"-,":11555,"-Y":11556,"-ar":11557,"-le":11558,"-eas":11559,"-read":11560,"-PCR":11561,"-50":11562,"-way":11563,"-80":11564,"-ready":11565,".d":11566,".ac":11567,".uk":11568,".b.\n":11569,".high":11570,"/6":11571,"/T":11572,"/k":11573,"/re":11574,"/min":11575,"/L)":11576,"0).\n":11577,"0),":11578,"0-5":11579,"089":11580,"0{degrees}C.":11581,"119":11582,"1.6":11583,"1.3":11584,"1-H":11585,"105).\n":11586,"2;":11587,"2.9":11588,"3{micro}m2":11589,"44":11590,"4g":11591,"4-0.":11592,"5/":11593,"55":11594,"688":11595,"62)":11596,"6.7%)":11597,"96":11598,"97":11599,":00":11600,":30":11601,"=-0.":11602,"?C_ST_ABSO_LI":11603,"AV":11604,"Ab":11605,"A1-H":11606,"Bank":11607,"CM":11608,"CS":11609,"Cr":11610,"Comp":11611,"D,":11612,"DL":11613,"DP":11614,"EMENT":11615,"FP)":11616,"GY":11617,"Gen":11618,"G-b":11619,"GEN":11620,"HP":11621,"H-19":11622,"Im":11623,"It":11624,"IBD":11625,"Ivo":11626,"K)":11627,"KBP":11628,"LP":11629,"LY":11630,"LID":11631,"M).\n":11632,"MAS":11633,"MBAS":11634,"Non":11635,"New":11636,"NTS":11637,"N724":11638,"OP":11639,"OX":11640,"Out":11641,"Over":11642,"OI)":11643,"Rx":11644,"S,":11645,"SNG":11646,"T,":11647,"TA":11648,"UK":11649,"UCI":11650,"X2":11651,"Zo":11652,"[R]":11653,"auc":11654,"aeg":11655,"aited":11656,"aving":11657,"ae,":11658,"bott":11659,"cy":11660,"ces,":11661,"ciated":11662,"dis":11663,"ding":11664,"ev":11665,"ets":11666,"ealth":11667,"even":11668,"eper":11669,"eutral":11670,"eza,":11671,"ff":11672,"fl":11673,"fter":11674,"gu":11675,"gle":11676,"gun":11677,"gamm":11678,"gona":11679,"g.high":11680,"hyp":11681,"hoid":11682,"ij":11683,"iol":11684,"iot":11685,"iance":11686,"iquit":11687,"iers":11688,"iosis":11689,"jing":11690,"ka":11691,"kA1-H":11692,"l.\n":11693,"lac":11694,"lam":11695,"lip":11696,"list":11697,"lined":11698,"linked":11699,"mm":11700,"mp":11701,"mended":11702,"morph":11703,"no":11704,"nozoite":11705,"nicity":11706,"oted":11707,"ouc":11708,"oD)":11709,"o-malaria":11710,"p,":11711,"pi":11712,"pas":11713,"pass":11714,"ploy":11715,"puts":11716,"r.":11717,"ru":11718,"sw":11719,"ste":11720,"sed":11721,"t)":11722,"tl.":11723,"uer":11724,"uate":11725,"uag":11726,"uicidal":11727,"wire":11728,"watin":11729,"wins":11730,"where":11731,"xia":11732,"ya":11733,"ye":11734,"yle":11735,"york":11736,"yosin":11737,"{gamm":11738,"▁.":11739,"▁iver":11740,"▁=0.":11741,"▁erythro":11742,"▁<0.00":11743,"▁<0.05":11744,"▁{degrees}C.":11745,"in/":11746,"inf":11747,"inants":11748,"▁a)":11749,"▁a.":11750,"▁aOR":11751,"▁table":11752,"▁troph":11753,"▁tightly":11754,"requenc":11755,"ony":11756,"onom":11757,"tition":11758,"ties,":11759,"head":11760,"hered":11761,"text":11762,"▁ove":11763,"▁sor":11764,"▁sul":11765,"▁sodium":11766,"▁stif":11767,"▁shel":11768,"▁summer":11769,"▁inacc":11770,"▁inner":11771,"▁inexp":11772,"▁citation":11773,"▁census":11774,"ested":11775,"▁pyre":11776,"▁princip":11777,"▁pick":11778,"▁pict":11779,"▁p<0.05":11780,"▁push":11781,"▁powered":11782,"arval":11783,"artile":11784,"▁ment":11785,"▁mot":11786,"▁mucocutaneous":11787,"▁den":11788,"▁dip":11789,"▁dynam":11790,"▁divers":11791,"▁dIvo":11792,"▁of,":11793,"▁offered":11794,"orable":11795,"orient":11796,"isen":11797,"isation,":11798,"istory":11799,"iso-pro":11800,"▁worm":11801,"▁walking":11802,"asi":11803,"as.\n":11804,"ases.\n":11805,"asound":11806,"asitic":11807,"▁fet":11808,"▁fix":11809,"▁fading":11810,"ittent":11811,"rose":11812,"an,":11813,"ane":11814,"ange":11815,"anog":11816,"anned":11817,"ect":11818,"▁re-in":11819,"▁retro":11820,"▁revers":11821,"ats":11822,"attor":11823,"atocytes":11824,"▁b)":11825,"▁bl":11826,"▁br":11827,"▁bus":11828,"▁bim":11829,"▁bron":11830,"▁borne":11831,"▁binary":11832,"▁born":11833,"▁to,":11834,"uses":11835,"ia.org":11836,"▁hol":11837,"▁hut":11838,"▁hits":11839,"▁harm":11840,"ompl":11841,"omiting":11842,"lege":11843,"identi":11844,"ides,":11845,"idome":11846,"▁e.g":11847,"▁elder":11848,"osive":11849,"▁(t":11850,"▁(st":11851,"▁(and":11852,"▁(ind":11853,"▁(MC":11854,"▁(IV":11855,"▁(NS":11856,"▁(EP":11857,"▁(very":11858,"▁(relative":11859,"acts":11860,"acting":11861,"accept":11862,"lycophorin":11863,"▁thio":11864,"▁thick":11865,"lout":11866,"▁venti":11867,"▁vag":11868,"▁vacu":11869,"▁vomiting":11870,"urnal":11871,"urpose":11872,"iment":11873,"ula":11874,"thri":11875,"thron":11876,"▁n=1":11877,"▁nasopharyn":11878,"ilities":11879,"ilarly":11880,"▁Pap":11881,"▁Pep":11882,"▁Phen":11883,"▁Pern":11884,"▁PAS":11885,"▁Pyriproxyfen":11886,"▁Positive":11887,"▁Pathogen":11888,"▁PHC":11889,"▁PRNT":11890,"▁Puer":11891,"▁A,":11892,"▁AP":11893,"▁AIRD":11894,"▁formed":11895,"▁stri":11896,"▁staging":11897,"igence":11898,"igure":11899,"▁C1":11900,"▁C_":11901,"▁Cq":11902,"▁Cuc":11903,"▁Cap":11904,"▁Clus":11905,"▁Cord":11906,"▁Chan":11907,"▁CER":11908,"▁Coch":11909,"▁Cx.\n":11910,"▁Cosmopolitan":11911,"▁CZS":11912,"▁Cauc":11913,"▁Ta":11914,"▁Tra":11915,"▁Tow":11916,"▁Target":11917,"▁TRI":11918,"▁Targeted":11919,"▁Tuberculosis":11920,"▁Term":11921,"▁Twins":11922,"umba":11923,"▁gather":11924,"▁getting":11925,"ione":11926,"ticle":11927,"tics.\n":11928,"elagos":11929,"▁answ":11930,"▁conce":11931,"▁condens":11932,"olutional":11933,"utumba":11934,"et-level":11935,"▁proven":11936,"▁malaria-c":11937,"▁malaria-HbA":11938,"▁lati":11939,"▁lines.\n":11940,"▁loses":11941,"▁lives":11942,"▁lavage":11943,"ifies":11944,"▁deb":11945,"▁degen":11946,"▁deterior":11947,"▁deeper":11948,"▁So":11949,"▁Sam":11950,"▁Sup":11951,"▁Scop":11952,"▁SRP":11953,"▁Sero":11954,"▁Syndrom":11955,"▁Setting":11956,"▁Suna":11957,"▁commit":11958,"▁resc":11959,"▁reside":11960,"▁preferen":11961,"▁prepar":11962,"▁preferred":11963,"▁premeiotic":11964,"ucity":11965,"▁I2":11966,"ameth":11967,"geal":11968,"▁on.\n":11969,"▁2%":11970,"▁2.9":11971,"▁21,":11972,"▁2-4":11973,"▁234":11974,"▁2.9%":11975,"opy":11976,"ophen":11977,"under":11978,"▁MO":11979,"▁Mel":11980,"▁Mult":11981,"▁Middle":11982,"▁Memory":11983,"▁Mekong":11984,"▁Monthly":11985,"stac":11986,"▁1-2":11987,"▁102":11988,"▁15%,":11989,"ocy":11990,"ocum":11991,"ocial":11992,"ochemical":11993,"ocorrelation":11994,"otgun":11995,"▁wasted":11996,"▁washing":11997,"▁DV":11998,"▁Dual":11999,"▁DBPII":12000,"▁DABA":12001,"▁Dynamics":12002,"▁Dihydroartemisinin":12003,"▁Dengvax":12004,"▁Dr.":12005,"rance":12006,"rometry":12007,"▁infects":12008,"ess,":12009,"engue,":12010,"abol":12011,"abiting":12012,"▁char":12013,"▁chym":12014,"▁charge":12015,"iportal":12016,"ipelagos":12017,"ivable":12018,"▁acting":12019,"▁actively":12020,"▁Water":12021,"▁Rain":12022,"▁Rout":12023,"▁RES":12024,"▁Rico":12025,"▁student":12026,"▁studys":12027,"adical":12028,"adougou":12029,"0.3":12030,"0.47":12031,"heric":12032,"▁assured":12033,"▁assisted":12034,"pection":12035,"redit":12036,"▁co-m":12037,"▁coherence":12038,"▁coaching":12039,"▁heal":12040,"▁heard":12041,"▁compiled":12042,"▁dengue-like":12043,"▁dengue-risk":12044,"▁contr":12045,"▁contracted":12046,"ub-":12047,"▁alph":12048,"▁HR":12049,"▁Hem":12050,"▁Hop":12051,"▁Hence":12052,"▁Hong":12053,"▁Horn":12054,"▁HBR":12055,"▁Household":12056,"uggle":12057,"▁see":12058,"▁Bou":12059,"▁Bei":12060,"▁BTM":12061,"▁BNT162b2":12062,"▁Battor":12063,"▁mode":12064,"ificity":12065,"ification,":12066,"upe":12067,"▁at:":12068,"▁studyC_ST_ABS":12069,"izable":12070,"▁203":12071,"▁207":12072,"urement":12073,"▁perme":12074,"▁per-pro":12075,"▁perfusion":12076,"▁peri-":12077,"▁Interm":12078,"▁intermed":12079,"▁interference":12080,"▁interlinked":12081,"▁EN":12082,"▁Equ":12083,"▁Ezetimibe":12084,"▁EMBAS":12085,"aking,":12086,"riched":12087,"iked":12088,"▁high-dose":12089,"▁shield":12090,"arying":12091,"▁3.0":12092,"▁34%":12093,"▁3.6%":12094,"▁3.0%,":12095,"▁30.9%,":12096,"▁OST":12097,"▁OMO":12098,"▁Olyset":12099,"▁Ouag":12100,"chool":12101,"choal":12102,"change":12103,"▁Field":12104,"▁F15":12105,"▁FKBP":12106,"▁France":12107,"▁output":12108,"▁outpatients":12109,"▁outputs":12110,"▁parasitemia.\n":12111,"▁NG":12112,"▁NM":12113,"▁Nd":12114,"▁Never":12115,"▁Nino":12116,"▁Niem":12117,"▁NIRS":12118,"▁NPC1":12119,"▁Natural":12120,"▁analytes":12121,"ormous":12122,"phadoxine-pyrimethamine":12123,"elles":12124,"perature":12125,"estock":12126,"▁kind":12127,"▁kdr":12128,"agasc":12129,"encing":12130,"encies":12131,"tective":12132,"▁associates":12133,"▁Late":12134,"▁Living":12135,"▁Lock":12136,"▁Life":12137,"▁LTR":12138,"▁Landing":12139,"▁Lih":12140,"pidemi":12141,"▁facepi":12142,"▁falciparum-endemic":12143,"▁speed,":12144,"ibling":12145,"▁0.11":12146,"▁0.24":12147,"▁underlies":12148,"▁under-reported":12149,"▁Plasmodium.\n":12150,"▁raised":12151,"▁raising":12152,"▁signs,":12153,"▁recurrences":12154,"▁strata":12155,"▁struggle":12156,"▁unf":12157,"▁unst":12158,"▁unadjusted":12159,"▁uniform":12160,"ichia":12161,"▁tree":12162,"▁incremental":12163,"▁arrang":12164,"india.org":12165,"▁low-cost":12166,"-blocking":12167,"-baited":12168,"▁96":12169,"▁99":12170,"▁93%":12171,"▁97%":12172,"▁96%":12173,"achoma":12174,"▁amodiaquine":12175,"▁anti-S":12176,"▁anti-DENV":12177,"▁Group":12178,"taleza,":12179,"▁USA":12180,"▁Urban":12181,"▁used.\n":12182,"▁subtypes":12183,"▁suboptimal":12184,"▁sub-optimal":12185,"▁intensive":12186,"▁Thai":12187,"bour":12188,"book":12189,"▁4/":12190,"▁40.":12191,"▁45%":12192,"▁4.4":12193,"▁450":12194,"▁44%":12195,"▁488":12196,"▁4-ph":12197,"▁inside":12198,"▁insignificant":12199,"▁times.\n":12200,"▁monocytes.\n":12201,"▁mononucle":12202,"▁human,":12203,"▁human-to":12204,"lligence":12205,"ournal":12206,"ourced":12207,"▁children;":12208,"▁entering":12209,"▁enlarg":12210,"▁enriched":12211,"▁enormous":12212,"astating":12213,"ologically":12214,"apse":12215,"appre":12216,"▁quen":12217,"▁quite":12218,"-25":12219,"-2.6":12220,"-2.0":12221,"-2%),":12222,"▁during-COVID-19":12223,"eglected":12224,"▁scar":12225,"▁scat":12226,"▁schem":12227,"▁scAl":12228,"ynchron":12229,"▁impa":12230,"▁imped":12231,"▁implying":12232,"▁obvious":12233,"▁obstac":12234,"▁56":12235,"▁5.5":12236,"▁52%":12237,"▁5.9%,":12238,"▁Hepatitis":12239,"ardef":12240,"▁Ang":12241,"▁clinical,":12242,"▁treatments.\n":12243,"▁treatments,":12244,"▁treatment-seeking":12245,"-1.0":12246,"▁Context":12247,"▁6.1":12248,"▁6.5":12249,"▁64%":12250,"▁posterior":12251,"▁2013,":12252,"▁prescrip":12253,"NAemia":12254,"NA/RNA":12255,"▁found,":12256,"▁Residual":12257,"▁Result":12258,"▁reductional":12259,"▁gene,":12260,"terminants":12261,"uthrin":12262,"-descent":12263,"▁multi-stage":12264,"▁multivariable":12265,"▁non-S":12266,"▁nonline":12267,"▁non-pre":12268,"▁drug,":12269,"▁7.7":12270,".1,":12271,"▁otherwise":12272,"ptomic":12273,"-pull":12274,"-pyriproxyfen":12275,"-pathogen":12276,"-pulldown":12277,"▁time-v":12278,"▁potency":12279,"atorial":12280,"▁CI)":12281,"▁insects.\n":12282,"▁differently,":12283,"▁publications":12284,"▁publications,":12285,"▁Kw":12286,"▁Kin":12287,"▁Kit":12288,"▁Kong":12289,"▁K-S":12290,"▁Key":12291,"▁KES":12292,"▁age;":12293,"▁infant":12294,"▁infestation":12295,"▁impact,":12296,"plicity":12297,"▁BackgroundR":12298,"▁BackgroundZo":12299,"ORT":12300,"iremia":12301,"strate":12302,"▁consum":12303,"▁consist":12304,"▁consists":12305,"▁Varia":12306,"▁Vgsc":12307,"▁83%":12308,"▁84%":12309,"▁849":12310,"▁up-to":12311,"▁years)":12312,"▁years),":12313,"▁collap":12314,"iotics":12315,"▁month)":12316,"▁remove":12317,"▁performs":12318,"▁methemoglobin":12319,"▁completing":12320,"atern":12321,"comes":12322,"commended":12323,"▁ResultsD":12324,"unga":12325,"ARD":12326,"racts":12327,"▁mediation":12328,"▁folic":12329,"▁folate":12330,"▁first-line":12331,"▁combines":12332,"▁1.4":12333,"▁1.3%":12334,"▁traps":12335,"▁indicative":12336,"▁households,":12337,"▁supernat":12338,"▁biop":12339,"▁Asymptomatic":12340,"▁95%Cr":12341,"▁phylo":12342,"▁one-third":12343,"-model":12344,"▁simulate":12345,"▁pathology":12346,"▁Zika)":12347,"forecast":12348,"▁increased.\n":12349,"▁evaluations":12350,"▁determines":12351,"▁(92":12352,"▁(99":12353,"▁(PI)":12354,"▁(PkA1-H":12355,"▁potential.\n":12356,"rontal":12357,"-CSP":12358,"-Congo":12359,"▁total,":12360,"▁(DR":12361,"▁(DNA/RNA":12362,"▁case,":12363,"▁conclusive":12364,"jection":12365,"▁respective":12366,"▁hospital-based":12367,"-field":12368,"hesus":12369,"assive":12370,"▁findings?O_LI":12371,".60{degrees}C.":12372,"▁extracellular":12373,"▁experts":12374,"▁informative":12375,"▁cross-species":12376,"▁localization":12377,"▁samples)":12378,"oxicity":12379,"▁else":12380,"monary":12381,"ogenous":12382,".89":12383,"▁participating":12384,"▁urine":12385,"▁urinary":12386,"▁(12/":12387,"criptomic":12388,"▁repression":12389,"-lag":12390,"-limited":12391,".3,":12392,".3).\n":12393,"▁seasons,":12394,"DTLV":12395,"▁Stage":12396,"▁Stress":12397,".7)":12398,".7,":12399,".73":12400,".7),":12401,"ning,":12402,"erythron":12403,"▁[8":12404,"▁[H":12405,"▁[I":12406,"▁Jo":12407,"▁Jose":12408,"▁sociodemographic":12409,"▁spreads":12410,"▁(24":12411,"▁(28":12412,"▁(2.3":12413,"▁(202":12414,"▁LLIN,":12415,"▁increase,":12416,"▁only.\n":12417,"▁diagnostics.\n":12418,"msp":12419,"▁Herein,":12420,"▁periodic":12421,"▁periods.\n":12422,"▁positive-strand":12423,"▁selecting":12424,"▁limits":12425,"▁common,":12426,"rin-1":12427,"ancy":12428,"▁(Ae.\n":12429,"▁(AHME":12430,"▁(CD":12431,"▁(CI)":12432,"▁(CUI":12433,"▁(CFP)":12434,"▁acutely":12435,"▁single-c":12436,"▁associations.\n":12437,"▁exposures":12438,"▁quantities":12439,"▁(SI":12440,"▁(SMA":12441,"icrohaplo":12442,"▁interacts":12443,"▁circulate":12444,"▁trachoma":12445,"▁non-n":12446,"▁non-oph":12447,"▁non-vaccinated":12448,"▁non-structural":12449,"▁urbanized":12450,"▁motile":12451,"▁motility":12452,"▁effective.\n":12453,"▁variance":12454,"rogenital":12455,"▁intelligence":12456,"▁ConclusionsD":12457,"▁ConclusionsS":12458,"▁ConclusionsOur":12459,"▁Conclusions/significance":12460,"▁climate,":12461,"▁antimalarial.\n":12462,".54":12463,".57":12464,"reening":12465,"▁assay;":12466,"▁assayed":12467,"1,000":12468,"1,016":12469,"▁postgrad":12470,"▁postnatal":12471,"▁world,":12472,"▁programs,":12473,"arantee":12474,"▁grey":12475,"-infections":12476,"-infectious":12477,"▁regression,":12478,"▁network,":12479,"▁network.\n":12480,"olicited":12481,"▁NS5":12482,"-recommended":12483,"▁(RT)":12484,"▁format":12485,"▁formulated":12486,"▁COVID19,":12487,"▁assessed.\n":12488,"▁districts.\n":12489,"▁classify":12490,"▁classification.\n":12491,"▁chikungunya.\n":12492,"▁screening,":12493,"{micro}l.":12494,"▁smart":12495,"▁paren":12496,"▁paucity":12497,"▁dose.\n":12498,"▁variation,":12499,"▁design,":12500,"-30":12501,"-38":12502,"-36%),":12503,"4,24":12504,"▁Commit":12505,"▁Component":12506,"▁Amplicon":12507,"wards":12508,"▁Cote":12509,"▁Co-infection":12510,"PDSI":12511,"▁pyrethroid-resistant":12512,"▁pyrethroid-pyriproxyfen":12513,"▁Admin":12514,"▁Fortaleza,":12515,"location":12516,"▁research,":12517,"▁156":12518,"▁15th":12519,"▁15-2":12520,"▁months),":12521,"▁matrix":12522,"▁matched":12523,"▁matching":12524,"▁mutations,":12525,"▁visible":12526,"▁visiting":12527,"▁viscRNA-Seq":12528,"▁activate":12529,"▁activation.\n":12530,"▁negatives":12531,"▁attraction":12532,"▁attractive":12533,"▁accessing":12534,"▁Alupe":12535,"▁Allocation":12536,"▁10-fold":12537,"▁10-34":12538,"▁HIV.\n":12539,"▁country-wide":12540,".0)":12541,"▁suite":12542,"▁(LoD)":12543,"▁sequentially":12544,"▁(mRDT":12545,"▁(many":12546,"▁process,":12547,"▁18,":12548,"▁190":12549,"▁1990":12550,"▁management,":12551,"▁IgG,":12552,"troduc":12553,"▁urogenital":12554,"▁editor":12555,"osomes.\n":12556,"▁C_LIO_":12557,"▁laboratory-confirmed":12558,"▁guarantee":12559,"▁16,":12560,"▁changing":12561,"▁changed":12562,"▁changes.\n":12563,"▁before.\n":12564,"▁decreasing":12565,"▁Yap":12566,"▁five-year":12567,"ceptions":12568,"▁morbidity,":12569,"-0.2":12570,".5%.\n":12571,".5%),":12572,"▁practition":12573,"arming":12574,"▁epic":12575,"▁(3)":12576,"▁(36":12577,"▁(39":12578,"▁(3.1%":12579,"-4)":12580,"-4%),":12581,"vice":12582,"▁probably":12583,"▁possibility":12584,"▁partnership":12585,"▁combined.\n":12586,"▁SummaryMalaria":12587,"▁1,2":12588,"▁1,200":12589,"▁stronger":12590,"▁heterogenous":12591,"▁minor":12592,"▁minimal":12593,"▁RDT.\n":12594,"▁FindingsA":12595,"ausing":12596,"▁(MM":12597,"▁(MRI":12598,"▁dot}4":12599,"▁dot}6":12600,"▁dot}8":12601,"▁dot}0%":12602,"7,000":12603,"SP40":12604,"▁Registration":12605,"▁persists":12606,"▁differentiating":12607,"▁cytos":12608,"▁cytological":12609,"▁cytokine":12610,"▁cytometer":12611,"▁initiating":12612,"▁(HC":12613,"▁challenges.\n":12614,"▁(n=6).\n":12615,"▁(n=22":12616,"▁educational":12617,"▁standards":12618,"▁Tanzanian":12619,"▁plasmid":12620,"▁1132":12621,"▁meta-trans":12622,"▁meta-regression":12623,"▁generalised":12624,"▁pregnancy.\n":12625,"-69":12626,"regular":12627,"▁Pregnant":12628,"▁specificity,":12629,"▁specificity.\n":12630,"▁Wolbachia-mediated":12631,"▁cris":12632,"▁dihydro":12633,"▁diurnal":12634,"▁thresholds,":12635,"▁2008":12636,"▁explosive":12637,"▁adults,":12638,"▁2021).\n":12639,"▁demographics,":12640,"▁planners":12641,"▁(0.02":12642,"▁(0.46":12643,"▁linkage":12644,"▁evaluated:":12645,"▁interactions,":12646,"▁old.\n":12647,"▁(6.4%":12648,"▁Real":12649,"▁Reticulocyte":12650,"126":12651,"128":12652,"IRA":12653,"▁organize":12654,"▁organisms":12655,"▁organelles":12656,"▁Further,":12657,"-history":12658,"-hub-":12659,"▁real-tim":12660,"▁optimum":12661,"▁optimization":12662,"▁gametocytes,":12663,"▁Artemisinin":12664,"▁Artemether":12665,"▁stage,":12666,"▁annually,":12667,"06),":12668,"▁QU":12669,"▁zonal":12670,"▁productive":12671,"▁assessment.\n":12672,"▁peaks,":12673,"▁context.\n":12674,"herent":12675,"▁municipal":12676,"▁American":12677,"▁Module":12678,"▁consideration":12679,"▁phase-III":12680,"▁elevation":12681,"▁ANKA":12682,"istosomiasis":12683,"▁person-to-":12684,"▁IntroductionMalaria":12685,"▁sample,":12686,"▁sample.\n":12687,"-containing":12688,"▁cohort,":12689,"-Ph":12690,"-Pic":12691,"-Pick":12692,"-PBO":12693,"-R,S-dehydro":12694,"waves":12695,"▁clean":12696,"▁clearly":12697,"▁panning,":12698,"▁derm":12699,"▁dermal":12700,"▁social,":12701,"ceptible":12702,"▁sporadic":12703,"▁threat,":12704,"▁130":12705,"▁130.47":12706,"▁helps":12707,"▁PCR.\n":12708,"▁PCR-confirmed":12709,"▁couns":12710,"sequently,":12711,"▁parasites/{micro}l.":12712,"▁challenge,":12713,"▁district-level":12714,"7%).\n":12715,"▁uncovered":12716,"▁p=0.001).\n":12717,"▁episode":12718,"▁episodes.\n":12719,"▁episodes,":12720,"▁pregnancy:":12721,"▁histories":12722,"▁necessarily":12723,"▁incorporation":12724,"/10":12725,"/14":12726,"/Pow":12727,"▁curb":12728,"▁volunt":12729,"▁pre-elimination":12730,"▁Insurance":12731,"▁travel-history":12732,"▁comparisons":12733,"▁attitude,":12734,"▁Interval":12735,"▁Interactions":12736,"▁observation,":12737,"rophosphate":12738,"▁broadly":12739,"▁25th":12740,"▁dataset,":12741,"▁0.77":12742,"▁quantitatively":12743,"▁quantitative-PCR":12744,"▁hyperco":12745,"▁surveys,":12746,"▁2022-202":12747,"▁considered.\n":12748,"▁life-threat":12749,"▁Region,":12750,"▁usage.\n":12751,"▁Recurrent":12752,"▁load,":12753,"-2017":12754,"-2014.\n":12755,"▁progressing":12756,"▁progressed":12757,"▁progressive":12758,"▁facilitates":12759,"▁establishments":12760,"179":12761,"ESS":12762,"rhoe":12763,"▁i)":12764,"▁i.":12765,"▁ii)":12766,"▁centre":12767,"▁(i)":12768,"▁(ii)":12769,"▁Sub-Count":12770,"▁244,24":12771,"▁24.5%.\n":12772,"▁applies":12773,"▁surviv":12774,"▁determinant":12775,"abilities":12776,"▁genotype,":12777,"▁admission.\n":12778,"▁entire),":12779,"▁purpos":12780,"▁homo":12781,"▁homophobia":12782,"▁larv":12783,"▁Moi":12784,"▁guiding":12785,"▁guided":12786,"▁syndrome,":12787,"▁(EB":12788,"▁(EPCR":12789,"▁Phys":12790,"▁Phase":12791,"▁liver-stage":12792,"▁237":12793,"▁validating":12794,"▁validation.\n":12795,".6%).\n":12796,"▁Peru.\n":12797,"▁candidate,":12798,"6%).\n":12799,"DS).\n":12800,"helian":12801,"▁diabetes,":12802,"▁virome":12803,"▁Systems":12804,"▁IFRs":12805,"▁training,":12806,"▁(AOR:":12807,"▁(AOR=0.":12808,"▁(AOR=2":12809,"▁variant,":12810,"▁Malawi,":12811,"▁vitro;":12812,"▁vitro.\n":12813,"▁Scot":12814,"▁Scenar":12815,"ambuc":12816,"▁acceptance":12817,"▁WHO,":12818,"▁radiation":12819,"▁declared":12820,"▁declines":12821,"-DNAemia":12822,"▁safer":12823,"▁wavelet":12824,"▁reflected":12825,"▁prevalent.\n":12826,"▁exhibits":12827,"▁0.88%":12828,"▁inflammation,":12829,"▁Asia:":12830,"156":12831,"▁normalization":12832,"▁normal-like":12833,"▁PMRs":12834,"▁proteomics":12835,"▁Islam":12836,"▁regimen,":12837,"▁regimen.\n":12838,"▁usefulness":12839,"▁circumst":12840,"▁programmatic":12841,"▁Colombia.\n":12842,"▁journal":12843,"▁widespread,":12844,"▁nutrition":12845,"▁conserv":12846,"▁dissec":12847,"▁HCMC":12848,"▁HCWs.\n":12849,"▁neurotoxic":12850,"▁advoc":12851,"▁Escher":12852,"▁Eswatin":12853,"▁expansion,":12854,"▁appropriately":12855,"▁Chikungunya,":12856,"▁release.\n":12857,"▁suitability":12858,"points":12859,"poiesis":12860,"▁Within":12861,"▁hemorrh":12862,"▁scale,":12863,"▁phosphopro":12864,"▁phosphoreg":12865,"▁categorized":12866,"596":12867,"59-fold":12868,"▁maternal,":12869,"▁freely":12870,"▁(r=0.":12871,"▁datasets,":12872,"▁ELISA/T":12873,"▁facility-based":12874,"▁2014-19":12875,"▁temperatures,":12876,"▁CHMI.\n":12877,"▁behaviour.\n":12878,"▁ClinicalTrials.gov":12879,"▁pharmacokinetic":12880,"-Based":12881,"1%;":12882,"life":12883,"▁operates":12884,"▁re-orient":12885,"▁landings":12886,"▁course.\n":12887,"▁neighbouring":12888,"▁undetec":12889,"▁arm,":12890,"▁amplified":12891,"▁amplification":12892,"▁agent-based":12893,"▁discrimination":12894,"▁discriminatory":12895,"▁phenotype.\n":12896,"▁co-circulate":12897,"iticidal":12898,"▁myal":12899,"▁gained":12900,"▁gains.\n":12901,"▁DHF.\n":12902,"▁outdoors.\n":12903,"▁discussion":12904,"▁-tubulin-1,":12905,"▁peptic":12906,"▁peptid":12907,"▁divided":12908,"▁Point":12909,"▁Accra":12910,"▁According":12911,"elief":12912,"▁resource-limited":12913,"▁respirators":12914,"▁IFA/S":12915,"▁2759-fold":12916,"▁0.001),":12917,"▁0.05),":12918,"▁2013.\n":12919,"▁seropositivity.\n":12920,"-group":12921,"▁Acute":12922,"▁later.\n":12923,"▁precision":12924,"▁heatw":12925,"▁34.6%,":12926,"▁OROV":12927,"▁0.2%,":12928,"▁scaled":12929,"▁scalability":12930,"▁placed":12931,"▁(Pf3D":12932,"▁enrolled:":12933,"▁climatic,":12934,"▁film":12935,"▁filter":12936,"▁CoronaVac":12937,"▁DF.\n":12938,"▁follow-up,":12939,"▁values.\n":12940,"▁confirming":12941,"▁confirmation":12942,"▁enzyme-linked":12943,"▁awareness,":12944,"▁bleeding,":12945,"▁payments":12946,"▁wild-type":12947,"▁yields":12948,"▁Level":12949,"▁Leone":12950,"▁Leishman":12951,"▁understudied":12952,"▁anti-viral":12953,"▁8-iso-pro":12954,"▁efficiently":12955,"▁urgently":12956,"▁relapse.\n":12957,"▁hypnozoites.\n":12958,"AND":12959,"RACT":12960,"RAB11A":12961,"ncRNAs)":12962,"▁replicate":12963,"▁replicates":12964,"▁anemia,":12965,"▁computation":12966,"▁periportal":12967,"▁Anti-Pic":12968,"▁Vectors":12969,"▁semi-structured":12970,"▁semi-arid":12971,"▁midgut.\n":12972,"-vacc":12973,"ycling":12974,"▁ubiquit":12975,"▁handle":12976,"▁Infectious":12977,"▁Eligible":12978,"▁454g":12979,"▁elucidated":12980,"▁Covid19.\n":12981,"▁visualized":12982,"▁visualization":12983,"▁explored.\n":12984,"▁allele,":12985,"▁meal.\n":12986,"▁assumptions.\n":12987,"▁gondii,":12988,"▁rollout":12989,"▁southwest":12990,"▁machine-le":12991,"▁dimensions":12992,"▁(US$105).\n":12993,"▁CR1":12994,"▁CRD42":12995,"▁37.1%":12996,"▁archipelagos":12997,"▁overlapping":12998,"▁decade.\n":12999,"▁ResultsOut":13000,"▁occurrence.\n":13001,"▁working-age":13002,"▁seasonality,":13003,"▁typho-malaria":13004,"▁synchronization":13005,"▁situations":13006,"/suicidal":13007,"CCM)":13008,"crd.":13009,"▁rash.\n":13010,"▁HMOX":13011,"▁separate":13012,"▁38.60{degrees}C.":13013,"▁recognized":13014,"▁antibiotics":13015,"▁potently":13016,"▁well-established":13017,"▁homologs":13018,"▁underscores":13019,"AGR":13020,"testinal":13021,"▁PbRAB11A":13022,"▁lncRNAs":13023,"▁onset.\n":13024,"▁2.10,":13025,"▁Mosquitoes":13026,"▁Burma":13027,"itised":13028,"▁closure":13029,"▁closures":13030,"▁closure,":13031,"▁Fever,":13032,"▁NTDs":13033,"▁937.9":13034,"▁non-coding":13035,"▁repellency":13036,"▁PfHsp":13037,"▁definite":13038,"g/kg/day":13039,"▁alignment,":13040,"▁alignment.\n":13041,"▁FREP1-pulldown":13042,"▁engineering":13043,"▁early,":13044,"▁earliest":13045,"▁(>9":13046,"▁anthropometric":13047,"▁Small":13048,"▁1%-2%),":13049,"▁chaperones":13050,"▁serotype.\n":13051,"▁extraction.\n":13052,"▁(p<0.001).\n":13053,"{micro}m,":13054,"▁Comparing":13055,"▁Comparison":13056,"▁North-E":13057,"▁divisions":13058,"▁maximize":13059,"▁maximise":13060,"▁summarised":13061,"▁summarize":13062,"▁copies":13063,"▁folded":13064,"▁PPF.\n":13065,"▁Andes":13066,"▁Trypan":13067,"▁devising":13068,"▁devastating":13069,"▁deletion":13070,"▁residence,":13071,"▁agreed":13072,"▁trajectories,":13073,"▁p=0.016)":13074,"▁County":13075,"▁continent,":13076,"▁continent.\n":13077,"▁utilisation,":13078,"▁calibrate":13079,"▁neurologic":13080,".\\n\\nResultsThe":13081,"Anopheles":13082,"▁creating":13083,"▁dominance":13084,"▁findings.\n":13085,"ceeded":13086,"▁Poc/Pow":13087,"▁weather,":13088,"▁gravity":13089,"unately,":13090,"▁actually":13091,"▁algorithms":13092,"▁3.00":13093,"▁unclear":13094,"-to-severe":13095,"▁ResultsPlac":13096,"▁conferring":13097,"▁immunoinformatic":13098,"▁immunoassay":13099,"▁perspective,":13100,"▁scenario,":13101,"▁PBO-LLINs":13102,"▁helminths":13103,"▁catalytically":13104,"▁eukaryote":13105,"5.2%)":13106,"▁ulcer":13107,"▁triple":13108,"▁trace":13109,"▁tracing.\n":13110,"▁p-value=":13111,"▁toxicity":13112,"▁elicited":13113,"▁(YF)":13114,"▁vesicular":13115,"▁Cali":13116,"utralizing":13117,"▁Simulations":13118,"▁imperative":13119,"▁RT.\n":13120,"▁transfusion.\n":13121,"▁3%-4%),":13122,"▁seroconver":13123,"▁intensities":13124,"▁4,8":13125,"▁imply?O_LI":13126,"▁metagenomics":13127,"▁Province.\n":13128,"▁recipients":13129,"▁Teso":13130,"▁Severity":13131,"▁dispersal":13132,"▁dispersed":13133,"▁dispersal,":13134,"▁accelerate":13135,"▁seemed":13136,"▁Forest":13137,"▁Forecast":13138,"▁Lima,":13139,"▁space.\n":13140,"▁unexplored":13141,"▁Geographical":13142,"▁(22.4%":13143,"▁p=0.0006)":13144,"▁non-use":13145,"▁synergistic":13146,"▁autoinflammatory":13147,"▁discussed":13148,"▁Mozambique,":13149,"▁emphasizing":13150,"▁belonged":13151,"▁Identifying":13152,"▁commercialised":13153,"▁DiscussionThe":13154,"[&le;]":13155,"▁ovip":13156,"▁size.\n":13157,"▁size,":13158,"▁forested":13159,"▁forests":13160,"▁(vs.":13161,"▁(ARDS).\n":13162,"▁defective":13163,"▁defects,":13164,"▁SARDDE":13165,"▁2.20":13166,"oprotein":13167,"▁MMD":13168,"▁DALYs":13169,"▁disorders,":13170,"▁dispensability":13171,"▁gender,":13172,"▁interfering":13173,"▁interrupt":13174,"▁33%-36%),":13175,"▁monocytes,":13176,"▁scheduled":13177,"▁52%,":13178,"▁Guinea":13179,"▁Socio-demographic":13180,"▁Antibodies":13181,"▁prophylactic":13182,"▁Heterogeneous":13183,"▁spermatocytes":13184,".org/":13185,"▁irregular":13186,"▁tuberculosis,":13187,"▁p<0.0001)":13188,"▁p<0.0001),":13189,"▁therm":13190,"▁SAEs":13191,"▁SAUCI":13192,"▁Differential":13193,"▁immediately":13194,"▁chromosomes":13195,"▁exceeds":13196,"▁coincide":13197,"▁internalized":13198,"▁EVE":13199,"▁leverages":13200,"▁aptamers":13201,"▁untargeted":13202,"▁institutions":13203,"▁54%,":13204,"▁poverty,":13205,"▁extensions":13206,"▁Strong":13207,"▁trypanolysis":13208,"▁approaches,":13209,"▁{micro}g/mL;":13210,"▁Programme":13211,"vcrt-":13212,"▁caveolin-1":13213,"dominal":13214,"▁trimeric":13215,"▁danger":13216,"▁burst":13217,"▁burdens":13218,"▁breakdown":13219,"▁hamper":13220,"▁(lncRNAs)":13221,"▁(arbo":13222,"▁(arboviruses)":13223,"▁Area":13224,"▁conceptual":13225,"▁library":13226,"▁deformations":13227,"▁SNPs":13228,"▁10,000-fold":13229,"▁HDC":13230,"▁Faso":13231,"▁applicability":13232,"▁spectrometry":13233,"▁evolve":13234,"▁distancing":13235,"▁multi-omics":13236,"▁(IPTp)":13237,"▁introduces":13238,"▁introductions":13239,"▁cytotoxicity":13240,"▁microhaplotyp":13241,"▁microhaplotypes":13242,"▁violence":13243,"▁US$210,":13244,"▁co-exist":13245,"▁adjustment":13246,"▁substitution":13247,"▁TRAP-CSP":13248,"▁windows":13249,"▁soluble":13250,"▁stimuli":13251,"▁pain,":13252,"▁fifty-two":13253,"▁(-)-R,S-dehydro":13254,"▁Plasmo":13255,"▁stopped":13256,"▁Critical":13257,"▁glands":13258,"▁Santa":13259,"▁Santo":13260,"▁commodities":13261,"▁covariates,":13262,"▁sub-patent":13263,"▁Vertical":13264,"▁Venezuela":13265,"▁confounding":13266,"▁Standard":13267,"▁StandG6PD-BS":13268,"▁Indonesia":13269,"▁Indonesia,":13270,"▁laboratories":13271,"▁cytometry.\n":13272,"▁2015-2017":13273,"▁(G6PD)":13274,"▁professionals,":13275,"▁(US$126),":13276,"▁(US$127),":13277,"▁TgELC1":13278,"PGP":13279,"kyrin-1":13280,"linicalTrials.gov":13281,"transfer":13282,"▁tropics":13283,"alyz":13284,"▁seminal":13285,"▁polarity":13286,"▁horizon":13287,"omyia":13288,"acchar":13289,"▁street-level":13290,"▁devices":13291,"▁resuscitation":13292,"▁isopent":13293,"▁Madagasc":13294,"▁DENG":13295,"▁Influenza":13296,"▁interfere":13297,"▁shopkeepers":13298,"IDIAP":13299,"▁year-round":13300,"▁pointed":13301,"▁numerical":13302,"▁(DBS).\n":13303,"▁ChAd63":13304,"▁conflict":13305,".32{micro}m":13306,"▁cycles.\n":13307,"▁appraisal":13308,"▁appreciable":13309,"▁suicide/suicidal":13310,"▁Apicomplexan":13311,"▁contexts":13312,"▁returned":13313,"▁Quality":13314,"▁chloroplasts,":13315,"▁hypertension,":13316,"▁encouraging":13317,"▁encounter":13318,"▁Salaam,":13319,"▁ShieldTM)":13320,"▁ResultsOverall,":13321,"▁orthologs":13322,"▁ultra-sensitive":13323,"▁gradients":13324,"▁MMV688":13325,"▁lysosome":13326,"▁symbiont":13327,"▁illustrate":13328,"▁MEDLINE,":13329,"▁multigravidae.\n":13330,"▁Kinshasa":13331,"▁metronidazole.\n":13332,"▁somatic":13333,"▁pyrophosphate":13334,"▁pulmonary":13335,"▁multic":13336,"▁destr":13337,"▁densely":13338,"▁thorough":13339,"▁Pattern":13340,"▁stalled":13341,"▁Tororo":13342,"▁Sindh":13343,"▁IZPs":13344,"▁MLN724":13345,"▁Mapping":13346,
[...]
