{
  "version": "1.0",
  "truncation": null,
  "padding": null,
  "added_tokens": [
    {
      "id": 0,
      "content": "[UNK]",
      "single_word": false,
      "lstrip": false,
      "rstrip": false,
      "normalized": false,
      "special": true
    },
    {
      "id": 1,
      "content": "[CLS]",
      "single_word": false,
      "lstrip": false,
      "rstrip": false,
      "normalized": false,
      "special": true
    },
    {
      "id": 2,
      "content": "[SEP]",
      "single_word": false,
      "lstrip": false,
      "rstrip": false,
      "normalized": false,
      "special": true
    },
    {
      "id": 3,
      "content": "[PAD]",
      "single_word": false,
      "lstrip": false,
      "rstrip": false,
      "normalized": false,
      "special": true
    },
    {
      "id": 4,
      "content": "[MASK]",
      "single_word": false,
      "lstrip": false,
      "rstrip": false,
      "normalized": false,
      "special": true
    }
  ],
  "normalizer": {
    "type": "Sequence",
    "normalizers": [
      {
        "type": "NFD"
      },
      {
        "type": "Lowercase"
      },
      {
        "type": "StripAccents"
      }
    ]
  },
  "pre_tokenizer": {
    "type": "Whitespace"
  },
  "post_processor": {
    "type": "BertProcessing",
    "sep": [
      "[SEP]",
      2
    ],
    "cls": [
      "[CLS]",
      1
    ]
  },
  "decoder": null,
  "model": {
    "type": "BPE",
    "dropout": null,
    "unk_token": "[UNK]",
    "continuing_subword_prefix": null,
    "end_of_word_suffix": null,
    "fuse_unk": false,
    "byte_fallback": false,
    "ignore_merges": false,
    "vocab": {
      "[UNK]": 0,
      "[CLS]": 1,
      "[SEP]": 2,
      "[PAD]": 3,
      "[MASK]": 4,
      "!": 5,
      "\"": 6,
      "#": 7,
      "$": 8,
      "%": 9,
      "&": 10,
      "'": 11,
      "(": 12,
      ")": 13,
      "*": 14,
      "+": 15,
      ",": 16,
      "-": 17,
      ".": 18,
      "/": 19,
      "0": 20,
      "1": 21,
      "2": 22,
      "3": 23,
      "4": 24,
      "5": 25,
      "6": 26,
      "7": 27,
      "8": 28,
      "9": 29,
      ":": 30,
      ";": 31,
      "<": 32,
      "=": 33,
      ">": 34,
      "?": 35,
      "@": 36,
      "[": 37,
      "\\": 38,
      "]": 39,
      "^": 40,
      "_": 41,
      "`": 42,
      "a": 43,
      "b": 44,
      "c": 45,
      "d": 46,
      "e": 47,
      "f": 48,
      "g": 49,
      "h": 50,
      "i": 51,
      "j": 52,
      "k": 53,
      "l": 54,
      "m": 55,
      "n": 56,
      "o": 57,
      "p": 58,
      "q": 59,
      "r": 60,
      "s": 61,
      "t": 62,
      "u": 63,
      "v": 64,
      "w": 65,
      "x": 66,
      "y": 67,
      "z": 68,
      "{": 69,
      "|": 70,
      "}": 71,
      "~": 72,
      "": 73,
      "": 74,
      "": 75,
      "": 76,
      "": 77,
      "": 78,
      "": 79,
      "": 80,
      "": 81,
      "": 82,
      "": 83,
      "": 84,
      "": 85,
      "": 86,
      "": 87,
      "": 88,
      "¡": 89,
      "¢": 90,
      "£": 91,
      "¤": 92,
      "¥": 93,
      "§": 94,
      "¨": 95,
      "©": 96,
      "ª": 97,
      "«": 98,
      "¬": 99,
      "­": 100,
      "®": 101,
      "¯": 102,
      "°": 103,
      "±": 104,
      "²": 105,
      "³": 106,
      "´": 107,
      "µ": 108,
      "¶": 109,
      "·": 110,
      "¸": 111,
      "¹": 112,
      "º": 113,
      "»": 114,
      "¼": 115,
      "½": 116,
      "¾": 117,
      "¿": 118,
      "×": 119,
      "ß": 120,
      "æ": 121,
      "ð": 122,
      "÷": 123,
      "ø": 124,
      "þ": 125,
      "đ": 126,
      "ı": 127,
      "ĸ": 128,
      "ł": 129,
      "ŋ": 130,
      "œ": 131,
      "ƍ": 132,
      "ƒ": 133,
      "ƙ": 134,
      "ƛ": 135,
      "ƞ": 136,
      "ƨ": 137,
      "ƭ": 138,
      "ƴ": 139,
      "ƹ": 140,
      "ƺ": 141,
      "ƿ": 142,
      "ǀ": 143,
      "ǁ": 144,
      "ǂ": 145,
      "ȣ": 146,
      "ȵ": 147,
      "ȼ": 148,
      "ɑ": 149,
      "ɓ": 150,
      "ɔ": 151,
      "ɗ": 152,
      "ə": 153,
      "ɛ": 154,
      "ɣ": 155,
      "ɤ": 156,
      "ɩ": 157,
      "ɯ": 158,
      "ɳ": 159,
      "ɵ": 160,
      "ɶ": 161,
      "ɷ": 162,
      "ɸ": 163,
      "ɼ": 164,
      "ʀ": 165,
      "ʁ": 166,
      "ʃ": 167,
      "ʋ": 168,
      "ʌ": 169,
      "ʎ": 170,
      "ʏ": 171,
      "ʒ": 172,
      "ʟ": 173,
      "ʰ": 174,
      "ʳ": 175,
      "ʹ": 176,
      "˂": 177,
      "˃": 178,
      "˄": 179,
      "ˆ": 180,
      "ˈ": 181,
      "ˍ": 182,
      "ː": 183,
      "ˑ": 184,
      "˗": 185,
      "˘": 186,
      "˙": 187,
      "˚": 188,
      "˜": 189,
      "˝": 190,
      "˟": 191,
      "ˠ": 192,
      "ˡ": 193,
      "ˢ": 194,
      "˩": 195,
      "˫": 196,
      "˭": 197,
      "ˮ": 198,
      "˷": 199,
      "ͱ": 200,
      "΁": 201,
      "΄": 202,
      "΍": 203,
      "α": 204,
      "β": 205,
      "γ": 206,
      "δ": 207,
      "ε": 208,
      "ζ": 209,
      "η": 210,
      "θ": 211,
      "ι": 212,
      "κ": 213,
      "λ": 214,
      "μ": 215,
      "ν": 216,
      "ξ": 217,
      "ο": 218,
      "π": 219,
      "ρ": 220,
      "ς": 221,
      "σ": 222,
      "τ": 223,
      "υ": 224,
      "φ": 225,
      "χ": 226,
      "ψ": 227,
      "ω": 228,
      "ϑ": 229,
      "ϒ": 230,
      "ϕ": 231,
      "ϖ": 232,
      "ϗ": 233,
      "ϫ": 234,
      "ϭ": 235,
      "ϰ": 236,
      "ϱ": 237,
      "ϲ": 238,
      "ϵ": 239,
      "ϸ": 240,
      "а": 241,
      "б": 242,
      "в": 243,
      "г": 244,
      "д": 245,
      "е": 246,
      "ж": 247,
      "з": 248,
      "и": 249,
      "к": 250,
      "л": 251,
      "м": 252,
      "н": 253,
      "о": 254,
      "п": 255,
      "р": 256,
      "с": 257,
      "т": 258,
      "у": 259,
      "ф": 260,
      "х": 261,
      "ц": 262,
      "ч": 263,
      "ш": 264,
      "ы": 265,
      "ь": 266,
      "я": 267,
      "є": 268,
      "і": 269,
      "ѡ": 270,
      "ѱ": 271,
      "ґ": 272,
      "қ": 273,
      "ҝ": 274,
      "ҡ": 275,
      "ҫ": 276,
      "ү": 277,
      "һ": 278,
      "ӏ": 279,
      "ө": 280,
      "ԁ": 281,
      "ԑ": 282,
      "՛": 283,
      "ւ": 284,
      "փ": 285,
      "־": 286,
      "׃": 287,
      "א": 288,
      "ב": 289,
      "ג": 290,
      "ד": 291,
      "ה": 292,
      "ו": 293,
      "ז": 294,
      "ח": 295,
      "ט": 296,
      "י": 297,
      "ך": 298,
      "כ": 299,
      "ל": 300,
      "ם": 301,
      "מ": 302,
      "ן": 303,
      "נ": 304,
      "ס": 305,
      "ע": 306,
      "ף": 307,
      "פ": 308,
      "ץ": 309,
      "צ": 310,
      "ק": 311,
      "ר": 312,
      "ש": 313,
      "ת": 314,
      "׳": 315,
      "،": 316,
      "ا": 317,
      "ب": 318,
      "ة": 319,
      "ت": 320,
      "ث": 321,
      "ج": 322,
      "ح": 323,
      "خ": 324,
      "د": 325,
      "ذ": 326,
      "ر": 327,
      "ز": 328,
      "س": 329,
      "ش": 330,
      "ص": 331,
      "ض": 332,
      "ط": 333,
      "ظ": 334,
      "ع": 335,
      "ـ": 336,
      "ف": 337,
      "ق": 338,
      "ك": 339,
      "ل": 340,
      "م": 341,
      "ن": 342,
      "ه": 343,
      "و": 344,
      "ى": 345,
      "ي": 346,
      "٠": 347,
      "١": 348,
      "٣": 349,
      "٤": 350,
      "٥": 351,
      "٦": 352,
      "٩": 353,
      "٪": 354,
      "چ": 355,
      "ک": 356,
      "ی": 357,
      "ۥ": 358,
      "१": 359,
      "ก": 360,
      "ข": 361,
      "ค": 362,
      "ง": 363,
      "จ": 364,
      "ฉ": 365,
      "ช": 366,
      "ซ": 367,
      "ญ": 368,
      "ฎ": 369,
      "ฏ": 370,
      "ฐ": 371,
      "ณ": 372,
      "ด": 373,
      "ต": 374,
      "ถ": 375,
      "ท": 376,
      "ธ": 377,
      "น": 378,
      "บ": 379,
      "ป": 380,
      "ผ": 381,
      "พ": 382,
      "ภ": 383,
      "ม": 384,
      "ย": 385,
      "ร": 386,
      "ล": 387,
      "ว": 388,
      "ศ": 389,
      "ษ": 390,
      "ส": 391,
      "ห": 392,
      "อ": 393,
      "ฮ": 394,
      "ะ": 395,
      "า": 396,
      "ำ": 397,
      "฿": 398,
      "เ": 399,
      "แ": 400,
      "โ": 401,
      "ใ": 402,
      "ไ": 403,
      "༅": 404,
      "༈": 405,
      "༉": 406,
      "་": 407,
      "༌": 408,
      "།": 409,
      "༎": 410,
      "༜": 411,
      "༞": 412,
      "ཀ": 413,
      "ཁ": 414,
      "ག": 415,
      "ང": 416,
      "ཆ": 417,
      "ཏ": 418,
      "ན": 419,
      "བ": 420,
      "མ": 421,
      "ར": 422,
      "ལ": 423,
      "ས": 424,
      "ᄀ": 425,
      "ᄁ": 426,
      "ᄂ": 427,
      "ᄃ": 428,
      "ᄄ": 429,
      "ᄅ": 430,
      "ᄆ": 431,
      "ᄇ": 432,
      "ᄈ": 433,
      "ᄉ": 434,
      "ᄊ": 435,
      "ᄋ": 436,
      "ᄌ": 437,
      "ᄎ": 438,
      "ᄏ": 439,
      "ᄐ": 440,
      "ᄑ": 441,
      "ᄒ": 442,
      "ᅟ": 443,
      "ᅡ": 444,
      "ᅢ": 445,
      "ᅣ": 446,
      "ᅥ": 447,
      "ᅦ": 448,
      "ᅧ": 449,
      "ᅨ": 450,
      "ᅩ": 451,
      "ᅪ": 452,
      "ᅫ": 453,
      "ᅬ": 454,
      "ᅭ": 455,
      "ᅮ": 456,
      "ᅯ": 457,
      "ᅱ": 458,
      "ᅲ": 459,
      "ᅳ": 460,
      "ᅴ": 461,
      "ᅵ": 462,
      "ᆨ": 463,
      "ᆩ": 464,
      "ᆫ": 465,
      "ᆭ": 466,
      "ᆯ": 467,
      "ᆱ": 468,
      "ᆲ": 469,
      "ᆷ": 470,
      "ᆸ": 471,
      "ᆺ": 472,
      "ᆻ": 473,
      "ᆼ": 474,
      "ᆽ": 475,
      "ᆾ": 476,
      "ᆿ": 477,
      "ᇀ": 478,
      "ᇁ": 479,
      "ᇂ": 480,
      "፡": 481,
      "ᐩ": 482,
      "ᴅ": 483,
      "ᴋ": 484,
      "ᴏ": 485,
      "ᴓ": 486,
      "ᴨ": 487,
      "ᴪ": 488,
      "ᴬ": 489,
      "ᴱ": 490,
      "ᴸ": 491,
      "ᴹ": 492,
      "ᴺ": 493,
      "ᴼ": 494,
      "ᴽ": 495,
      "ᴾ": 496,
      "ᴿ": 497,
      "ᵀ": 498,
      "ᵁ": 499,
      "ᵂ": 500,
      "ᵃ": 501,
      "ᵍ": 502,
      "ᵐ": 503,
      "ᵒ": 504,
      "ᵗ": 505,
      "ᵘ": 506,
      "ᵝ": 507,
      "ᵡ": 508,
      "ᵣ": 509,
      "ᵤ": 510,
      "ᵥ": 511,
      "ᵦ": 512,
      "ᵧ": 513,
      "ᶜ": 514,
      "ᶟ": 515,
      "ᶲ": 516,
      "ᶻ": 517,
      "ẟ": 518,
      "ỿ": 519,
      "᾽": 520,
      "​": 521,
      "‌": 522,
      "‍": 523,
      "‎": 524,
      "‏": 525,
      "‐": 526,
      "‑": 527,
      "‒": 528,
      "–": 529,
      "—": 530,
      "―": 531,
      "‖": 532,
      "‘": 533,
      "’": 534,
      "‚": 535,
      "‛": 536,
      "“": 537,
      "”": 538,
      "„": 539,
      "‟": 540,
      "†": 541,
      "‡": 542,
      "•": 543,
      "․": 544,
      "‥": 545,
      "…": 546,
      "‧": 547,
      "‪": 548,
      "‬": 549,
      "‭": 550,
      "‰": 551,
      "‱": 552,
      "′": 553,
      "″": 554,
      "‴": 555,
      "‵": 556,
      "‹": 557,
      "›": 558,
      "‾": 559,
      "‿": 560,
      "⁀": 561,
      "⁃": 562,
      "⁄": 563,
      "⁎": 564,
      "⁒": 565,
      "⁓": 566,
      "⁗": 567,
      "⁚": 568,
      "⁠": 569,
      "⁡": 570,
      "⁢": 571,
      "⁣": 572,
      "⁤": 573,
      "⁰": 574,
      "ⁱ": 575,
      "⁴": 576,
      "⁵": 577,
      "⁶": 578,
      "⁷": 579,
      "⁸": 580,
      "⁹": 581,
      "⁺": 582,
      "⁻": 583,
      "⁽": 584,
      "⁾": 585,
      "₀": 586,
      "₁": 587,
      "₂": 588,
      "₃": 589,
      "₄": 590,
      "₅": 591,
      "₆": 592,
      "₇": 593,
      "₈": 594,
      "₉": 595,
      "₊": 596,
      "₋": 597,
      "₌": 598,
      "ₐ": 599,
      "ₑ": 600,
      "ₒ": 601,
      "ₓ": 602,
      "ₕ": 603,
      "ₗ": 604,
      "ₘ": 605,
      "ₙ": 606,
      "ₛ": 607,
      "ₜ": 608,
      "₣": 609,
      "₦": 610,
      "₩": 611,
      "₪": 612,
      "€": 613,
      "₱": 614,
      "₵": 615,
      "₹": 616,
      "₽": 617,
      "℃": 618,
      "℅": 619,
      "ℇ": 620,
      "℉": 621,
      "ℏ": 622,
      "ℐ": 623,
      "ℓ": 624,
      "№": 625,
      "℗": 626,
      "℘": 627,
      "ℙ": 628,
      "ℛ": 629,
      "ℜ": 630,
      "ℝ": 631,
      "℠": 632,
      "™": 633,
      "ℰ": 634,
      "ℱ": 635,
      "ℴ": 636,
      "ℽ": 637,
      "⅓": 638,
      "⅔": 639,
      "⅕": 640,
      "⅗": 641,
      "⅙": 642,
      "⅚": 643,
      "⅛": 644,
      "⅜": 645,
      "⅞": 646,
      "⅟": 647,
      "ⅰ": 648,
      "ⅱ": 649,
      "ⅲ": 650,
      "ⅳ": 651,
      "ⅴ": 652,
      "ⅵ": 653,
      "ⅶ": 654,
      "ⅷ": 655,
      "ⅸ": 656,
      "ⅹ": 657,
      "ⅺ": 658,
      "ⅻ": 659,
      "←": 660,
      "↑": 661,
      "→": 662,
      "↓": 663,
      "↔": 664,
      "↗": 665,
      "↘": 666,
      "↱": 667,
      "↵": 668,
      "⇄": 669,
      "⇆": 670,
      "⇋": 671,
      "⇌": 672,
      "⇒": 673,
      "⇔": 674,
      "⇿": 675,
      "∂": 676,
      "∅": 677,
      "∆": 678,
      "∇": 679,
      "∈": 680,
      "∊": 681,
      "∏": 682,
      "∑": 683,
      "−": 684,
      "∓": 685,
      "∕": 686,
      "∖": 687,
      "∗": 688,
      "∘": 689,
      "∙": 690,
      "√": 691,
      "∛": 692,
      "∝": 693,
      "∞": 694,
      "∠": 695,
      "∣": 696,
      "∥": 697,
      "∧": 698,
      "∩": 699,
      "∪": 700,
      "∫": 701,
      "∴": 702,
      "∶": 703,
      "∷": 704,
      "∼": 705,
      "∽": 706,
      "≂": 707,
      "≃": 708,
      "≅": 709,
      "≈": 710,
      "≌": 711,
      "≍": 712,
      "≐": 713,
      "≒": 714,
      "≙": 715,
      "≡": 716,
      "≣": 717,
      "≤": 718,
      "≥": 719,
      "≦": 720,
      "≧": 721,
      "≪": 722,
      "≫": 723,
      "≲": 724,
      "≳": 725,
      "≷": 726,
      "≺": 727,
      "≻": 728,
      "≽": 729,
      "≿": 730,
      "⊂": 731,
      "⊃": 732,
      "⊆": 733,
      "⊕": 734,
      "⊖": 735,
      "⊗": 736,
      "⊙": 737,
      "⊝": 738,
      "⊠": 739,
      "⊥": 740,
      "⊿": 741,
      "⋃": 742,
      "⋅": 743,
      "⋆": 744,
      "⋋": 745,
      "⋙": 746,
      "⋜": 747,
      "⋝": 748,
      "⋯": 749,
      "⌀": 750,
      "⌈": 751,
      "⌉": 752,
      "⌢": 753,
      "⍛": 754,
      "⍦": 755,
      "⍰": 756,
      "⍴": 757,
      "⍵": 758,
      "⍺": 759,
      "⎔": 760,
      "⎯": 761,
      "⎼": 762,
      "␣": 763,
      "①": 764,
      "②": 765,
      "③": 766,
      "④": 767,
      "⑤": 768,
      "⑥": 769,
      "⑦": 770,
      "⑧": 771,
      "⑴": 772,
      "⑵": 773,
      "⑶": 774,
      "⑷": 775,
      "ⓑ": 776,
      "ⓡ": 777,
      "─": 778,
      "│": 779,
      "═": 780,
      "║": 781,
      "░": 782,
      "■": 783,
      "□": 784,
      "▪": 785,
      "▬": 786,
      "▲": 787,
      "△": 788,
      "▴": 789,
      "▵": 790,
      "▶": 791,
      "▸": 792,
      "►": 793,
      "▼": 794,
      "▽": 795,
      "▾": 796,
      "◊": 797,
      "○": 798,
      "●": 799,
      "◦": 800,
      "◻": 801,
      "◼": 802,
      "★": 803,
      "☑": 804,
      "☓": 805,
      "♀": 806,
      "♂": 807,
      "♡": 808,
      "♦": 809,
      "✓": 810,
      "✕": 811,
      "✥": 812,
      "❖": 813,
      "➔": 814,
      "➜": 815,
      "➝": 816,
      "➞": 817,
      "➢": 818,
      "➣": 819,
      "➤": 820,
      "⟝": 821,
      "⟨": 822,
      "⟩": 823,
      "⟪": 824,
      "⟫": 825,
      "⟶": 826,
      "⦀": 827,
      "⦁": 828,
      "⧧": 829,
      "⨉": 830,
      "⨯": 831,
      "⩽": 832,
      "⩾": 833,
      "⩿": 834,
      "⪅": 835,
      "⪕": 836,
      "⪖": 837,
      "⫹": 838,
      "⬇": 839,
      "⬜": 840,
      "ⱪ": 841,
      "ⱽ": 842,
      "ⲫ": 843,
      "⸬": 844,
      "⸰": 845,
      "⸱": 846,
      "⸳": 847,
      "⸺": 848,
      "⿥": 849,
      "⿿": 850,
      "、": 851,
      "。": 852,
      "〈": 853,
      "〉": 854,
      "《": 855,
      "》": 856,
      "【": 857,
      "】": 858,
      "〔": 859,
      "〕": 860,
      "〖": 861,
      "〗": 862,
      "〜": 863,
      "せ": 864,
      "゜": 865,
      "カ": 866,
      "ク": 867,
      "ナ": 868,
      "ム": 869,
      "ラ": 870,
      "・": 871,
      "ㆍ": 872,
      "㎕": 873,
      "㎛": 874,
      "㎡": 875,
      "中": 876,
      "以": 877,
      "伍": 878,
      "升": 879,
      "卍": 880,
      "可": 881,
      "囊": 882,
      "国": 883,
      "國": 884,
      "場": 885,
      "宝": 886,
      "德": 887,
      "文": 888,
      "本": 889,
      "根": 890,
      "水": 891,
      "汤": 892,
      "版": 893,
      "現": 894,
      "生": 895,
      "發": 896,
      "的": 897,
      "知": 898,
      "章": 899,
      "篇": 900,
      "网": 901,
      "羊": 902,
      "胶": 903,
      "脉": 904,
      "葛": 905,
      "這": 906,
      "連": 907,
      "金": 908,
      "饮": 909,
      "麻": 910,
      "ꘌ": 911,
      "ꝏ": 912,
      "ꝩ": 913,
      "ꞇ": 914,
      "꞉": 915,
      "꞊": 916,
      "ꞌ": 917,
      "ꞏ": 918,
      "ꞵ": 919,
      "ꭓ": 920,
      "ꭕ": 921,
      "": 922,
      "": 923,
      "": 924,
      "": 925,
      "": 926,
      "": 927,
      "": 928,
      "": 929,
      "": 930,
      "": 931,
      "": 932,
      "": 933,
      "": 934,
      "": 935,
      "": 936,
      "": 937,
      "": 938,
      "": 939,
      "": 940,
      "": 941,
      "": 942,
      "": 943,
      "": 944,
      "": 945,
      "": 946,
      "": 947,
      "": 948,
      "": 949,
      "": 950,
      "": 951,
      "": 952,
      "": 953,
      "": 954,
      "": 955,
      "": 956,
      "": 957,
      "": 958,
      "": 959,
      "": 960,
      "": 961,
      "": 962,
      "": 963,
      "": 964,
      "": 965,
      "": 966,
      "": 967,
      "": 968,
      "": 969,
      "": 970,
      "": 971,
      "": 972,
      "": 973,
      "ﬀ": 974,
      "ﬁ": 975,
      "ﬂ": 976,
      "ﬃ": 977,
      "ﬄ": 978,
      "ﬅ": 979,
      "︰": 980,
      "﹒": 981,
      "﹣": 982,
      "﹤": 983,
      "﹥": 984,
      "﻿": 985,
      "＂": 986,
      "＄": 987,
      "％": 988,
      "＆": 989,
      "＇": 990,
      "（": 991,
      "）": 992,
      "＊": 993,
      "＋": 994,
      "，": 995,
      "－": 996,
      "．": 997,
      "６": 998,
      "：": 999,
      "；": 1000,
      "＜": 1001,
      "＝": 1002,
      "＞": 1003,
      "？": 1004,
      "［": 1005,
      "］": 1006,
      "＿": 1007,
      "ｘ": 1008,
      "｛": 1009,
      "｜": 1010,
      "｝": 1011,
      "～": 1012,
      "､": 1013,
      "･": 1014,
      "ｰ": 1015,
      "ﾀ": 1016,
      "ﾓ": 1017,
      "ￚ": 1018,
      "￢": 1019,
      "￥": 1020,
      "￼": 1021,
      "�": 1022,
      "𝐴": 1023,
      "𝐵": 1024,
      "𝐶": 1025,
      "𝐷": 1026,
      "𝐸": 1027,
      "𝐹": 1028,
      "𝐺": 1029,
      "𝐻": 1030,
      "𝐼": 1031,
      "𝐿": 1032,
      "𝑃": 1033,
      "𝑅": 1034,
      "𝑆": 1035,
      "𝑎": 1036,
      "𝑑": 1037,
      "𝑒": 1038,
      "𝑓": 1039,
      "𝑛": 1040,
      "𝑝": 1041,
      "𝑞": 1042,
      "𝑟": 1043,
      "𝑠": 1044,
      "𝑡": 1045,
      "𝑤": 1046,
      "𝑥": 1047,
      "𝒦": 1048,
      "𝒪": 1049,
      "𝒫": 1050,
      "𝒮": 1051,
      "𝒯": 1052,
      "𝒾": 1053,
      "𝓁": 1054,
      "𝓡": 1055,
      "𝔼": 1056,
      "𝘗": 1057,
      "𝘢": 1058,
      "𝘤": 1059,
      "𝘥": 1060,
      "𝘪": 1061,
      "𝘭": 1062,
      "𝘮": 1063,
      "𝘰": 1064,
      "𝘱": 1065,
      "𝘳": 1066,
      "𝘴": 1067,
      "𝘶": 1068,
      "𝚫": 1069,
      "𝛃": 1070,
      "𝛄": 1071,
      "𝛇": 1072,
      "𝛋": 1073,
      "𝛍": 1074,
      "𝛘": 1075,
      "𝛥": 1076,
      "𝛸": 1077,
      "𝛼": 1078,
      "𝛽": 1079,
      "𝛾": 1080,
      "𝜀": 1081,
      "𝜃": 1082,
      "𝜅": 1083,
      "𝜆": 1084,
      "𝜇": 1085,
      "𝜋": 1086,
      "𝜏": 1087,
      "𝜒": 1088,
      "𝜸": 1089,
      "𝜿": 1090,
      "𠀓": 1091,
      "in": 1092,
      "th": 1093,
      "re": 1094,
      "an": 1095,
      "ti": 1096,
      "on": 1097,
      "te": 1098,
      "the": 1099,
      "en": 1100,
      "al": 1101,
      "se": 1102,
      "or": 1103,
      "and": 1104,
      "of": 1105,
      "ro": 1106,
      "is": 1107,
      "ic": 1108,
      "tion": 1109,
      "er": 1110,
      "es": 1111,
      "as": 1112,
      "to": 1113,
      "ar": 1114,
      "ing": 1115,
      "ed": 1116,
      "ac": 1117,
      "at": 1118,
      "st": 1119,
      "co": 1120,
      "ec": 1121,
      "ent": 1122,
      "ate": 1123,
      "ve": 1124,
      "su": 1125,
      "it": 1126,
      "ation": 1127,
      "le": 1128,
      "si": 1129,
      "we": 1130,
      "ly": 1131,
      "de": 1132,
      "ce": 1133,
      "di": 1134,
      "un": 1135,
      "lo": 1136,
      "ter": 1137,
      "vi": 1138,
      "pro": 1139,
      "res": 1140,
      "wi": 1141,
      "ul": 1142,
      "mp": 1143,
      "for": 1144,
      "us": 1145,
      "me": 1146,
      "ch": 1147,
      "with": 1148,
      "con": 1149,
      "ur": 1150,
      "tr": 1151,
      "mo": 1152,
      "</": 1153,
      "ll": 1154,
      "ase": 1155,
      "ho": 1156,
      "po": 1157,
      "tic": 1158,
      "li": 1159,
      "bi": 1160,
      "ag": 1161,
      "pa": 1162,
      "be": 1163,
      "ated": 1164,
      "hi": 1165,
      "gen": 1166,
      "ts": 1167,
      "ad": 1168,
      "ted": 1169,
      "ity": 1170,
      "id": 1171,
      "ap": 1172,
      "tive": 1173,
      "sp": 1174,
      "ver": 1175,
      "ex": 1176,
      "fec": 1177,
      "ment": 1178,
      "were": 1179,
      "ma": 1180,
      "was": 1181,
      "no": 1182,
      "so": 1183,
      "uc": 1184,
      "am": 1185,
      "ab": 1186,
      "gh": 1187,
      "im": 1188,
      "are": 1189,
      "he": 1190,
      "cl": 1191,
      "um": 1192,
      "that": 1193,
      "ut": 1194,
      "ol": 1195,
      "ant": 1196,
      "mic": 1197,
      "h4": 1198,
      "fic": 1199,
      "ir": 1200,
      "per": 1201,
      "ri": 1202,
      "qu": 1203,
      "ne": 1204,
      "ud": 1205,
      "by": 1206,
      "ys": 1207,
      "red": 1208,
      "il": 1209,
      "ine": 1210,
      "ci": 1211,
      "str": 1212,
      "vir": 1213,
      "comp": 1214,
      "und": 1215,
      "ther": 1216,
      "ical": 1217,
      "use": 1218,
      "fe": 1219,
      "ain": 1220,
      "sion": 1221,
      "ents": 1222,
      "this": 1223,
      "pl": 1224,
      "rom": 1225,
      "ren": 1226,
      "pres": 1227,
      "ph": 1228,
      "anti": 1229,
      "tho": 1230,
      "pati": 1231,
      "cell": 1232,
      "gn": 1233,
      "bac": 1234,
      "infec": 1235,
      "from": 1236,
      "ten": 1237,
      "sub": 1238,
      "ge": 1239,
      "ef": 1240,
      "ind": 1241,
      "teri": 1242,
      "com": 1243,
      "pre": 1244,
      "bio": 1245,
      "vid": 1246,
      "sup": 1247,
      "val": 1248,
      "log": 1249,
      "ence": 1250,
      "ific": 1251,
      "mon": 1252,
      "sis": 1253,
      "spec": 1254,
      "par": 1255,
      "),": 1256,
      "patients": 1257,
      "ty": 1258,
      "fo": 1259,
      "high": 1260,
      "20": 1261,
      "sa": 1262,
      "ort": 1263,
      "do": 1264,
      "gro": 1265,
      "ations": 1266,
      "tiv": 1267,
      "stud": 1268,
      "act": 1269,
      "med": 1270,
      "bo": 1271,
      "up": 1272,
      "ha": 1273,
      ").": 1274,
      "cy": 1275,
      "ance": 1276,
      "ans": 1277,
      "pe": 1278,
      "study": 1279,
      "resp": 1280,
      "sul": 1281,
      "dis": 1282,
      "tions": 1283,
      "mun": 1284,
      "af": 1285,
      "cre": 1286,
      "all": 1287,
      "tro": 1288,
      "fi": 1289,
      "tre": 1290,
      "ms": 1291,
      "ari": 1292,
      "ces": 1293,
      "age": 1294,
      "ure": 1295,
      "ses": 1296,
      "sign": 1297,
      "mi": 1298,
      "prote": 1299,
      "bacteri": 1300,
      "can": 1301,
      "wh": 1302,
      "gr": 1303,
      "ased": 1304,
      "reg": 1305,
      "low": 1306,
      "na": 1307,
      "ally": 1308,
      "anal": 1309,
      "19": 1310,
      "resul": 1311,
      "ong": 1312,
      "fl": 1313,
      "ous": 1314,
      "ved": 1315,
      "imp": 1316,
      "sho": 1317,
      "soci": 1318,
      "inter": 1319,
      "enti": 1320,
      "ds": 1321,
      "les": 1322,
      "ary": 1323,
      "micro": 1324,
      "ies": 1325,
      "sy": 1326,
      "min": 1327,
      "ich": 1328,
      "dif": 1329,
      "ory": 1330,
      "dise": 1331,
      "out": 1332,
      "ers": 1333,
      "effec": 1334,
      "disease": 1335,
      "acc": 1336,
      "duc": 1337,
      "ular": 1338,
      "ors": 1339,
      "rel": 1340,
      "ta": 1341,
      "ca": 1342,
      "immun": 1343,
      "pr": 1344,
      "feren": 1345,
      "ser": 1346,
      "cr": 1347,
      "ting": 1348,
      "trans": 1349,
      "ates": 1350,
      "ke": 1351,
      "these": 1352,
      "able": 1353,
      "vel": 1354,
      "treat": 1355,
      "00": 1356,
      "infection": 1357,
      "fun": 1358,
      "tis": 1359,
      "sed": 1360,
      "od": 1361,
      "one": 1362,
      "signific": 1363,
      "associ": 1364,
      "results": 1365,
      "ction": 1366,
      "mal": 1367,
      "tri": 1368,
      "bet": 1369,
      "show": 1370,
      "ob": 1371,
      "virus": 1372,
      "hy": 1373,
      ".<": 1374,
      "which": 1375,
      "ative": 1376,
      "gene": 1377,
      "significant": 1378,
      "ist": 1379,
      "pi": 1380,
      "have": 1381,
      "lec": 1382,
      "wo": 1383,
      "ay": 1384,
      "heal": 1385,
      "protein": 1386,
      "form": 1387,
      "differen": 1388,
      "treatment": 1389,
      "incre": 1390,
      "cells": 1391,
      "using": 1392,
      "des": 1393,
      "iz": 1394,
      "inv": 1395,
      "ven": 1396,
      "sur": 1397,
      "ges": 1398,
      "tes": 1399,
      "not": 1400,
      "cor": 1401,
      "activ": 1402,
      "used": 1403,
      "its": 1404,
      "health": 1405,
      "cri": 1406,
      "ars": 1407,
      "incl": 1408,
      "identi": 1409,
      "cent": 1410,
      "br": 1411,
      "ye": 1412,
      "lity": 1413,
      "covid": 1414,
      "del": 1415,
      "more": 1416,
      "group": 1417,
      "respon": 1418,
      "velo": 1419,
      "has": 1420,
      "ween": 1421,
      "between": 1422,
      "ct": 1423,
      "clin": 1424,
      "mul": 1425,
      "der": 1426,
      "ion": 1427,
      "cc": 1428,
      "op": 1429,
      "velop": 1430,
      "ace": 1431,
      "dr": 1432,
      "metho": 1433,
      "develop": 1434,
      "dat": 1435,
      "our": 1436,
      "lic": 1437,
      "man": 1438,
      "car": 1439,
      "over": 1440,
      "als": 1441,
      "bility": 1442,
      "ties": 1443,
      "associated": 1444,
      "under": 1445,
      "vari": 1446,
      "logical": 1447,
      "main": 1448,
      "their": 1449,
      "ysis": 1450,
      "wor": 1451,
      "ugh": 1452,
      "cer": 1453,
      "valu": 1454,
      "expres": 1455,
      "vacc": 1456,
      "ug": 1457,
      "therap": 1458,
      "includ": 1459,
      "infl": 1460,
      "atory": 1461,
      "10": 1462,
      "patho": 1463,
      "yste": 1464,
      "analysis": 1465,
      "clinical": 1466,
      "arge": 1467,
      "tu": 1468,
      "han": 1469,
      "ating": 1470,
      "rep": 1471,
      "ld": 1472,
      "level": 1473,
      "tial": 1474,
      "ia": 1475,
      "fied": 1476,
      "poten": 1477,
      "fer": 1478,
      "ach": 1479,
      "syste": 1480,
      "ants": 1481,
      "sequ": 1482,
      "dies": 1483,
      "end": 1484,
      "peri": 1485,
      "fact": 1486,
      "test": 1487,
      "dur": 1488,
      "ris": 1489,
      "contro": 1490,
      "produc": 1491,
      "ble": 1492,
      "been": 1493,
      "resist": 1494,
      "ess": 1495,
      "here": 1496,
      "ases": 1497,
      "ulation": 1498,
      "model": 1499,
      "data": 1500,
      "but": 1501,
      "hum": 1502,
      "than": 1503,
      "also": 1504,
      "genes": 1505,
      "stu": 1506,
      "risk": 1507,
      "ra": 1508,
      "ber": 1509,
      "esti": 1510,
      "mis": 1511,
      "most": 1512,
      "bacterial": 1513,
      "fir": 1514,
      "uld": 1515,
      "zed": 1516,
      "based": 1517,
      "posi": 1518,
      "ast": 1519,
      "after": 1520,
      "tain": 1521,
      "dec": 1522,
      "met": 1523,
      "partic": 1524,
      "av": 1525,
      "usion": 1526,
      "wn": 1527,
      "ared": 1528,
      "during": 1529,
      "may": 1530,
      "there": 1531,
      "hosp": 1532,
      "ill": 1533,
      "ps": 1534,
      "syn": 1535,
      "est": 1536,
      "tively": 1537,
      "specific": 1538,
      "cep": 1539,
      "inding": 1540,
      "expression": 1541,
      "ght": 1542,
      "two": 1543,
      "mer": 1544,
      "other": 1545,
      "strain": 1546,
      "viral": 1547,
      "ino": 1548,
      "arch": 1549,
      "samp": 1550,
      "cal": 1551,
      "sing": 1552,
      "showed": 1553,
      "ae": 1554,
      "char": 1555,
      "cur": 1556,
      "non": 1557,
      "dete": 1558,
      "control": 1559,
      "du": 1560,
      "ree": 1561,
      "dition": 1562,
      "both": 1563,
      "ss": 1564,
      "95": 1565,
      "had": 1566,
      "related": 1567,
      "cul": 1568,
      "howe": 1569,
      "however": 1570,
      "fol": 1571,
      "men": 1572,
      "agno": 1573,
      "tics": 1574,
      "emic": 1575,
      "among": 1576,
      "diagno": 1577,
      "kno": 1578,
      "geno": 1579,
      "fur": 1580,
      "inhi": 1581,
      "yl": 1582,
      "isol": 1583,
      "bu": 1584,
      "ination": 1585,
      "struc": 1586,
      "ays": 1587,
      "present": 1588,
      "function": 1589,
      "activity": 1590,
      "%)": 1591,
      "uced": 1592,
      "mec": 1593,
      "studies": 1594,
      "pop": 1595,
      "potential": 1596,
      "thro": 1597,
      "fici": 1598,
      "import": 1599,
      "human": 1600,
      "analy": 1601,
      "12": 1602,
      "compared": 1603,
      "ality": 1604,
      "medi": 1605,
      "methods": 1606,
      "vie": 1607,
      "ater": 1608,
      "further": 1609,
      "type": 1610,
      "mechan": 1611,
      "ish": 1612,
      "ability": 1613,
      "strate": 1614,
      "found": 1615,
      "different": 1616,
      "ital": 1617,
      "new": 1618,
      "bacteria": 1619,
      "view": 1620,
      "mar": 1621,
      "dy": 1622,
      "again": 1623,
      "comple": 1624,
      "tal": 1625,
      "significantly": 1626,
      "sug": 1627,
      "drug": 1628,
      "logy": 1629,
      "requ": 1630,
      "dro": 1631,
      "appro": 1632,
      "against": 1633,
      "targe": 1634,
      "time": 1635,
      "gener": 1636,
      "increased": 1637,
      "sen": 1638,
      "sti": 1639,
      "pathogen": 1640,
      "work": 1641,
      "ip": 1642,
      "my": 1643,
      "ox": 1644,
      "charac": 1645,
      "including": 1646,
      "typ": 1647,
      "evalu": 1648,
      "concl": 1649,
      "16": 1650,
      "rna": 1651,
      "species": 1652,
      "who": 1653,
      "ding": 1654,
      "asses": 1655,
      "such": 1656,
      "dep": 1657,
      "mes": 1658,
      "estig": 1659,
      "investig": 1660,
      "gi": 1661,
      "multi": 1662,
      "ev": 1663,
      "immune": 1664,
      "jec": 1665,
      "hiv": 1666,
      "identified": 1667,
      "sive": 1668,
      "sugges": 1669,
      "ines": 1670,
      "care": 1671,
      "ub": 1672,
      "15": 1673,
      "whi": 1674,
      "ane": 1675,
      "coun": 1676,
      "chan": 1677,
      "higher": 1678,
      "ced": 1679,
      "asi": 1680,
      "line": 1681,
      "mechanis": 1682,
      "stand": 1683,
      "microbi": 1684,
      "comb": 1685,
      "obser": 1686,
      "org": 1687,
      "well": 1688,
      "pred": 1689,
      "into": 1690,
      "ture": 1691,
      "levels": 1692,
      "resistance": 1693,
      "positive": 1694,
      "search": 1695,
      "enz": 1696,
      "os": 1697,
      "cov": 1698,
      "molec": 1699,
      "compo": 1700,
      "ments": 1701,
      "cd": 1702,
      "indic": 1703,
      "conclusion": 1704,
      "amm": 1705,
      "uses": 1706,
      "therapy": 1707,
      "poly": 1708,
      "cyto": 1709,
      "microbial": 1710,
      "factors": 1711,
      "host": 1712,
      "immuno": 1713,
      "sh": 1714,
      "action": 1715,
      "centr": 1716,
      "14": 1717,
      "infections": 1718,
      "tin": 1719,
      "impro": 1720,
      "cess": 1721,
      "ak": 1722,
      "follow": 1723,
      "addition": 1724,
      "respec": 1725,
      "development": 1726,
      "through": 1727,
      "eu": 1728,
      "inflamm": 1729,
      "long": 1730,
      "reve": 1731,
      "antibio": 1732,
      "plic": 1733,
      "repor": 1734,
      "cle": 1735,
      "formation": 1736,
      "bit": 1737,
      "indi": 1738,
      "path": 1739,
      "18": 1740,
      "role": 1741,
      "plas": 1742,
      "rent": 1743,
      "blo": 1744,
      "demon": 1745,
      "acid": 1746,
      "aim": 1747,
      "response": 1748,
      "au": 1749,
      "exp": 1750,
      "ild": 1751,
      "ple": 1752,
      "ful": 1753,
      "deter": 1754,
      "ving": 1755,
      "ric": 1756,
      "effects": 1757,
      "cases": 1758,
      "samples": 1759,
      "while": 1760,
      "13": 1761,
      "years": 1762,
      "lu": 1763,
      "review": 1764,
      "sars": 1765,
      "sco": 1766,
      "organ": 1767,
      "epi": 1768,
      "tor": 1769,
      "cancer": 1770,
      "gu": 1771,
      "mut": 1772,
      "tical": 1773,
      "like": 1774,
      "phy": 1775,
      "regul": 1776,
      "grow": 1777,
      "reveal": 1778,
      "tribu": 1779,
      "fore": 1780,
      "ck": 1781,
      "sequen": 1782,
      "liver": 1783,
      "ori": 1784,
      "ze": 1785,
      "fr": 1786,
      "important": 1787,
      "inal": 1788,
      "ail": 1789,
      "ural": 1790,
      "coll": 1791,
      "tox": 1792,
      "metab": 1793,
      "vere": 1794,
      "first": 1795,
      "col": 1796,
      "system": 1797,
      "could": 1798,
      "respectively": 1799,
      "commun": 1800,
      "crip": 1801,
      "go": 1802,
      "fy": 1803,
      "17": 1804,
      "finding": 1805,
      "ign": 1806,
      "mental": 1807,
      "cap": 1808,
      "genetic": 1809,
      "three": 1810,
      "tero": 1811,
      "led": 1812,
      "den": 1813,
      "dna": 1814,
      "mission": 1815,
      "depend": 1816,
      "current": 1817,
      ">,": 1818,
      "observed": 1819,
      "influ": 1820,
      "mem": 1821,
      "meas": 1822,
      "research": 1823,
      "experi": 1824,
      "ano": 1825,
      "ures": 1826,
      "infected": 1827,
      "tra": 1828,
      "ational": 1829,
      "patient": 1830,
      "hospital": 1831,
      "rate": 1832,
      "neu": 1833,
      "effect": 1834,
      "back": 1835,
      "formed": 1836,
      "ages": 1837,
      "ii": 1838,
      "ined": 1839,
      "total": 1840,
      "cs": 1841,
      "ization": 1842,
      "eno": 1843,
      "predic": 1844,
      "mil": 1845,
      "if": 1846,
      "vo": 1847,
      "ress": 1848,
      "cing": 1849,
      "ard": 1850,
      "ran": 1851,
      "child": 1852,
      "la": 1853,
      "ature": 1854,
      "acro": 1855,
      "pos": 1856,
      "strateg": 1857,
      "pub": 1858,
      "matic": 1859,
      "viron": 1860,
      "prim": 1861,
      "proteins": 1862,
      "environ": 1863,
      "el": 1864,
      "findings": 1865,
      "sever": 1866,
      "tum": 1867,
      "common": 1868,
      "inhibit": 1869,
      "assa": 1870,
      "sity": 1871,
      "neg": 1872,
      "ini": 1873,
      "tran": 1874,
      "only": 1875,
      "reported": 1876,
      "num": 1877,
      "por": 1878,
      "vaccine": 1879,
      "bre": 1880,
      "gs": 1881,
      "mpto": 1882,
      "strains": 1883,
      "need": 1884,
      "ass": 1885,
      "mark": 1886,
      "ters": 1887,
      "gal": 1888,
      "concentr": 1889,
      "due": 1890,
      "pand": 1891,
      "provid": 1892,
      "acy": 1893,
      "ns": 1894,
      "sus": 1895,
      "set": 1896,
      "growth": 1897,
      "decre": 1898,
      "revealed": 1899,
      "50": 1900,
      "ger": 1901,
      "pandemic": 1902,
      "onic": 1903,
      "collec": 1904,
      "diseases": 1905,
      "pathw": 1906,
      "ground": 1907,
      "bro": 1908,
      "induced": 1909,
      "preval": 1910,
      "groups": 1911,
      "invol": 1912,
      "vidu": 1913,
      "individu": 1914,
      "antibo": 1915,
      "em": 1916,
      "11": 1917,
      "tent": 1918,
      "approach": 1919,
      "vention": 1920,
      "microbio": 1921,
      "nor": 1922,
      "fication": 1923,
      "prog": 1924,
      "ized": 1925,
      "(<": 1926,
      "cu": 1927,
      "molecular": 1928,
      "arly": 1929,
      "known": 1930,
      "within": 1931,
      "affec": 1932,
      "uni": 1933,
      "novel": 1934,
      "%,": 1935,
      "negative": 1936,
      "diver": 1937,
      "ived": 1938,
      "inte": 1939,
      "zo": 1940,
      "severe": 1941,
      "some": 1942,
      "inc": 1943,
      "ste": 1944,
      "cus": 1945,
      "remain": 1946,
      "occ": 1947,
      "gram": 1948,
      "30": 1949,
      "those": 1950,
      "glo": 1951,
      "production": 1952,
      "region": 1953,
      "ucle": 1954,
      "mor": 1955,
      "active": 1956,
      "synthe": 1957,
      "mice": 1958,
      "pho": 1959,
      "when": 1960,
      "ths": 1961,
      "eng": 1962,
      "py": 1963,
      "sal": 1964,
      "itro": 1965,
      "selec": 1966,
      "dependent": 1967,
      "mort": 1968,
      "demonstr": 1969,
      "king": 1970,
      "particip": 1971,
      "reduc": 1972,
      "jor": 1973,
      "grap": 1974,
      "try": 1975,
      "pcr": 1976,
      "blood": 1977,
      "mit": 1978,
      "population": 1979,
      "background": 1980,
      "transcrip": 1981,
      "major": 1982,
      "side": 1983,
      "mortality": 1984,
      "types": 1985,
      "bl": 1986,
      "ono": 1987,
      "extr": 1988,
      "tech": 1989,
      "ency": 1990,
      "wide": 1991,
      "ofil": 1992,
      "22": 1993,
      "cted": 1994,
      "understand": 1995,
      "ute": 1996,
      "viruses": 1997,
      "hydro": 1998,
      "characteri": 1999,
      "sympto": 2000,
      "gre": 2001,
      "days": 2002,
      "21": 2003,
      "performed": 2004,
      "recent": 2005,
      "ml": 2006,
      "lish": 2007,
      "ness": 2008,
      "isolates": 2009,
      "24": 2010,
      "effective": 2011,
      "number": 2012,
      "lower": 2013,
      "complex": 2014,
      "therapeu": 2015,
      "flu": 2016,
      "sure": 2017,
      "ami": 2018,
      "children": 2019,
      "port": 2020,
      "vs": 2021,
      "tissu": 2022,
      "conduc": 2023,
      "exam": 2024,
      "evid": 2025,
      "ks": 2026,
      "case": 2027,
      "rect": 2028,
      "included": 2029,
      "water": 2030,
      "tivity": 2031,
      "lead": 2032,
      "ni": 2033,
      "vide": 2034,
      "mate": 2035,
      "bal": 2036,
      "emer": 2037,
      "vious": 2038,
      "kin": 2039,
      "sensi": 2040,
      "expo": 2041,
      "amp": 2042,
      "25": 2043,
      "post": 2044,
      "fac": 2045,
      "identify": 2046,
      "prevalence": 2047,
      ">-": 2048,
      "endo": 2049,
      "parasi": 2050,
      "vis": 2051,
      "where": 2052,
      "promo": 2053,
      "confir": 2054,
      "come": 2055,
      "simil": 2056,
      "cro": 2057,
      "inflammatory": 2058,
      "arm": 2059,
      "hc": 2060,
      "diagnosis": 2061,
      "ves": 2062,
      "pri": 2063,
      "ological": 2064,
      "ression": 2065,
      "ired": 2066,
      "assess": 2067,
      "occur": 2068,
      "survi": 2069,
      "idence": 2070,
      "metabol": 2071,
      "oral": 2072,
      "though": 2073,
      "method": 2074,
      "impact": 2075,
      "face": 2076,
      "determin": 2077,
      "comes": 2078,
      "provide": 2079,
      "ial": 2080,
      "chall": 2081,
      "ded": 2082,
      "chr": 2083,
      "chemic": 2084,
      "mechanisms": 2085,
      "previous": 2086,
      "ons": 2087,
      "changes": 2088,
      "very": 2089,
      "respir": 2090,
      "da": 2091,
      "ep": 2092,
      "plication": 2093,
      "increase": 2094,
      "sm": 2095,
      "enzy": 2096,
      "rele": 2097,
      "lac": 2098,
      "resistant": 2099,
      "mato": 2100,
      "nec": 2101,
      "sible": 2102,
      "clo": 2103,
      "lin": 2104,
      "tained": 2105,
      "acute": 2106,
      "binding": 2107,
      "cat": 2108,
      "ens": 2109,
      "antibiotic": 2110,
      "nucle": 2111,
      "therapeutic": 2112,
      "reco": 2113,
      "def": 2114,
      "mg": 2115,
      "read": 2116,
      "actions": 2117,
      "100": 2118,
      "ism": 2119,
      "multiple": 2120,
      "compar": 2121,
      "olu": 2122,
      "less": 2123,
      "reduced": 2124,
      "responses": 2125,
      "zation": 2126,
      "evidence": 2127,
      "will": 2128,
      "transp": 2129,
      "outcomes": 2130,
      "tumor": 2131,
      "ditions": 2132,
      "report": 2133,
      "surve": 2134,
      "respiratory": 2135,
      "four": 2136,
      "ning": 2137,
      "nas": 2138,
      "treated": 2139,
      "compound": 2140,
      "play": 2141,
      "23": 2142,
      "several": 2143,
      "genome": 2144,
      "conditions": 2145,
      "design": 2146,
      "effici": 2147,
      "rece": 2148,
      "acti": 2149,
      "cocc": 2150,
      "asis": 2151,
      "tb": 2152,
      "ung": 2153,
      "public": 2154,
      "ona": 2155,
      "they": 2156,
      "conducted": 2157,
      "bv": 2158,
      "detection": 2159,
      "vaccination": 2160,
      "descri": 2161,
      "early": 2162,
      "temp": 2163,
      "elec": 2164,
      "key": 2165,
      "mm": 2166,
      "rs": 2167,
      "et": 2168,
      "toxic": 2169,
      "nam": 2170,
      "various": 2171,
      "ide": 2172,
      "demonstrated": 2173,
      "cir": 2174,
      "presence": 2175,
      "ids": 2176,
      "developed": 2177,
      "gly": 2178,
      "%),": 2179,
      "che": 2180,
      "plant": 2181,
      "anim": 2182,
      "avail": 2183,
      "transmission": 2184,
      "improve": 2185,
      "secon": 2186,
      "recep": 2187,
      "many": 2188,
      "05": 2189,
      "scre": 2190,
      "frequ": 2191,
      "fungal": 2192,
      "detected": 2193,
      "pv": 2194,
      "ities": 2195,
      "second": 2196,
      "large": 2197,
      "primary": 2198,
      "nano": 2199,
      "activation": 2200,
      "period": 2201,
      "tio": 2202,
      "single": 2203,
      "app": 2204,
      "participants": 2205,
      "coli": 2206,
      "ie": 2207,
      "sta": 2208,
      "without": 2209,
      "screen": 2210,
      "world": 2211,
      "signal": 2212,
      "pec": 2213,
      "nu": 2214,
      "collected": 2215,
      "character": 2216,
      "overall": 2217,
      "dri": 2218,
      "year": 2219,
      "rates": 2220,
      "adv": 2221,
      "ently": 2222,
      "dea": 2223,
      "pep": 2224,
      "down": 2225,
      "characteris": 2226,
      "factor": 2227,
      "inf": 2228,
      "emp": 2229,
      "tric": 2230,
      "gl": 2231,
      "adul": 2232,
      "cont": 2233,
      "phosp": 2234,
      "alter": 2235,
      "antimicrobial": 2236,
      "conclusions": 2237,
      "cellular": 2238,
      "asing": 2239,
      "lla": 2240,
      "mat": 2241,
      "ques": 2242,
      "wee": 2243,
      "stress": 2244,
      "models": 2245,
      "evaluated": 2246,
      "rap": 2247,
      "nat": 2248,
      "ame": 2249,
      "inhibi": 2250,
      "membr": 2251,
      "similar": 2252,
      "vitro": 2253,
      "genic": 2254,
      "ig": 2255,
      "community": 2256,
      "target": 2257,
      "proper": 2258,
      "exhi": 2259,
      "light": 2260,
      "symptoms": 2261,
      "sero": 2262,
      "cardi": 2263,
      "each": 2264,
      "about": 2265,
      "que": 2266,
      "functional": 2267,
      "ade": 2268,
      "neuro": 2269,
      "effic": 2270,
      "mod": 2271,
      "caused": 2272,
      "assay": 2273,
      "28": 2274,
      "chemical": 2275,
      "strategies": 2276,
      "survival": 2277,
      "understanding": 2278,
      "individuals": 2279,
      "ust": 2280,
      "stic": 2281,
      "uce": 2282,
      "chronic": 2283,
      "sequencing": 2284,
      "epide": 2285,
      "agement": 2286,
      "months": 2287,
      "auto": 2288,
      "should": 2289,
      "fami": 2290,
      "investigated": 2291,
      "medical": 2292,
      "although": 2293,
      "information": 2294,
      "ented": 2295,
      "ics": 2296,
      "contribu": 2297,
      "explo": 2298,
      "bor": 2299,
      "modi": 2300,
      "tially": 2301,
      "verse": 2302,
      "sel": 2303,
      "ei": 2304,
      "ging": 2305,
      "grad": 2306,
      "bed": 2307,
      "40": 2308,
      "safe": 2309,
      "stat": 2310,
      "lymp": 2311,
      "enhan": 2312,
      "ben": 2313,
      "life": 2314,
      "ner": 2315,
      "abs": 2316,
      "how": 2317,
      "thus": 2318,
      "day": 2319,
      "part": 2320,
      "sin": 2321,
      "olution": 2322,
      "quanti": 2323,
      "suggest": 2324,
      "women": 2325,
      "poin": 2326,
      "efficacy": 2327,
      "male": 2328,
      "know": 2329,
      "range": 2330,
      "intr": 2331,
      "cin": 2332,
      "decreased": 2333,
      "intest": 2334,
      "ele": 2335,
      "tered": 2336,
      "hel": 2337,
      "pathogens": 2338,
      "hip": 2339,
      "aging": 2340,
      "uti": 2341,
      "erg": 2342,
      "mia": 2343,
      "highly": 2344,
      "om": 2345,
      "challen": 2346,
      "oli": 2347,
      "pur": 2348,
      "cause": 2349,
      "therefore": 2350,
      "abor": 2351,
      "analyzed": 2352,
      "tested": 2353,
      "vent": 2354,
      "objec": 2355,
      "confirmed": 2356,
      "resi": 2357,
      "pepti": 2358,
      "structure": 2359,
      "suppres": 2360,
      "old": 2361,
      "pd": 2362,
      "ential": 2363,
      "tern": 2364,
      "001": 2365,
      "minis": 2366,
      "break": 2367,
      "corona": 2368,
      "rapid": 2369,
      "pat": 2370,
      "eric": 2371,
      "particular": 2372,
      "via": 2373,
      "mechanism": 2374,
      "contain": 2375,
      "mean": 2376,
      "opti": 2377,
      "meth": 2378,
      "vic": 2379,
      "his": 2380,
      "soil": 2381,
      "tool": 2382,
      "tious": 2383,
      "oxid": 2384,
      "systems": 2385,
      "transcription": 2386,
      "suscep": 2387,
      "ablish": 2388,
      "establish": 2389,
      "mir": 2390,
      "analyses": 2391,
      "art": 2392,
      "perform": 2393,
      "suscepti": 2394,
      "tration": 2395,
      "27": 2396,
      "adj": 2397,
      "proces": 2398,
      "composi": 2399,
      "being": 2400,
      "26": 2401,
      "cular": 2402,
      "relations": 2403,
      "antibiotics": 2404,
      "gut": 2405,
      "lar": 2406,
      "fin": 2407,
      "phi": 2408,
      "infectious": 2409,
      "involved": 2410,
      "biofil": 2411,
      "coccus": 2412,
      "differences": 2413,
      "ins": 2414,
      "graph": 2415,
      "onia": 2416,
      "management": 2417,
      "coh": 2418,
      "mine": 2419,
      "did": 2420,
      "ax": 2421,
      "pheno": 2422,
      "genesis": 2423,
      "strong": 2424,
      "knowled": 2425,
      "ls": 2426,
      "bur": 2427,
      "testing": 2428,
      "net": 2429,
      "mentation": 2430,
      "her": 2431,
      "furthermore": 2432,
      ">.": 2433,
      "rest": 2434,
      "increasing": 2435,
      "dia": 2436,
      "tures": 2437,
      "beha": 2438,
      "mb": 2439,
      "dynam": 2440,
      "support": 2441,
      "01": 2442,
      "diversity": 2443,
      "mediated": 2444,
      "process": 2445,
      "fa": 2446,
      "gas": 2447,
      "across": 2448,
      "available": 2449,
      "tur": 2450,
      "surface": 2451,
      "pen": 2452,
      "isolated": 2453,
      "ina": 2454,
      "membrane": 2455,
      "incidence": 2456,
      "following": 2457,
      "discus": 2458,
      "knowledge": 2459,
      "small": 2460,
      "retro": 2461,
      "compounds": 2462,
      "behavi": 2463,
      "dose": 2464,
      "pathway": 2465,
      "sex": 2466,
      "lled": 2467,
      "sequence": 2468,
      "2020": 2469,
      "ged": 2470,
      "ked": 2471,
      "whe": 2472,
      "medic": 2473,
      "exposure": 2474,
      "characteristics": 2475,
      "aimed": 2476,
      "iv": 2477,
      "adminis": 2478,
      "direct": 2479,
      "+</": 2480,
      "stitu": 2481,
      "integr": 2482,
      "60": 2483,
      "quality": 2484,
      "properties": 2485,
      "fut": 2486,
      "tissue": 2487,
      "influenz": 2488,
      "tives": 2489,
      "combination": 2490,
      "cho": 2491,
      "normal": 2492,
      "onal": 2493,
      "ides": 2494,
      "29": 2495,
      "intestinal": 2496,
      "obtained": 2497,
      "future": 2498,
      "ulations": 2499,
      "serum": 2500,
      "contin": 2501,
      "ual": 2502,
      "prof": 2503,
      "abund": 2504,
      "antigen": 2505,
      "culture": 2506,
      "association": 2507,
      "relative": 2508,
      "local": 2509,
      "%).": 2510,
      "consis": 2511,
      ")-": 2512,
      "cand": 2513,
      "vivo": 2514,
      "rence": 2515,
      "concentration": 2516,
      "istic": 2517,
      "domain": 2518,
      "spective": 2519,
      "sequences": 2520,
      "lip": 2521,
      "tries": 2522,
      "ba": 2523,
      "assessed": 2524,
      "coronavirus": 2525,
      "neum": 2526,
      "suc": 2527,
      "90": 2528,
      "antibodies": 2529,
      "microbiota": 2530,
      "isms": 2531,
      "global": 2532,
      "influenza": 2533,
      "signaling": 2534,
      "antibody": 2535,
      "limi": 2536,
      "interactions": 2537,
      "limited": 2538,
      "35": 2539,
      "biological": 2540,
      "tors": 2541,
      "tural": 2542,
      "evaluate": 2543,
      "psy": 2544,
      "receptor": 2545,
      "bs": 2546,
      "colon": 2547,
      "acts": 2548,
      "distribu": 2549,
      "bar": 2550,
      "ctions": 2551,
      "determine": 2552,
      "atures": 2553,
      "macro": 2554,
      "loc": 2555,
      "pneum": 2556,
      "yo": 2557,
      "phys": 2558,
      "ator": 2559,
      "sour": 2560,
      "cm": 2561,
      "died": 2562,
      "ghts": 2563,
      "ratio": 2564,
      "2019": 2565,
      "ire": 2566,
      "clear": 2567,
      "seri": 2568,
      "achi": 2569,
      "mono": 2570,
      "term": 2571,
      "food": 2572,
      "lation": 2573,
      "pathogenic": 2574,
      "tle": 2575,
      "oper": 2576,
      "essential": 2577,
      "regulation": 2578,
      "countries": 2579,
      "sw": 2580,
      "sensitivity": 2581,
      "hepa": 2582,
      "lant": 2583,
      "syndro": 2584,
      "solu": 2585,
      "pic": 2586,
      "inflammation": 2587,
      "critical": 2588,
      "investigate": 2589,
      "pneumonia": 2590,
      "complic": 2591,
      "drugs": 2592,
      "characterized": 2593,
      "48": 2594,
      "hypo": 2595,
      "pathways": 2596,
      "degrad": 2597,
      "program": 2598,
      "continu": 2599,
      "pers": 2600,
      "syndrome": 2601,
      "concentrations": 2602,
      "ions": 2603,
      "cross": 2604,
      "death": 2605,
      "bacterium": 2606,
      "pose": 2607,
      "lympho": 2608,
      "33": 2609,
      "family": 2610,
      "bec": 2611,
      "ler": 2612,
      "order": 2613,
      "sc": 2614,
      "importance": 2615,
      "ople": 2616,
      "hist": 2617,
      "vaccines": 2618,
      "national": 2619,
      "cost": 2620,
      "outbreak": 2621,
      "synthesis": 2622,
      "determined": 2623,
      "induc": 2624,
      "moreover": 2625,
      "ude": 2626,
      "kine": 2627,
      "theli": 2628,
      "people": 2629,
      "az": 2630,
      "ord": 2631,
      "vities": 2632,
      "rich": 2633,
      "derived": 2634,
      "materi": 2635,
      "tex": 2636,
      "reduction": 2637,
      "environment": 2638,
      "inten": 2639,
      "diagnostic": 2640,
      "bili": 2641,
      "ian": 2642,
      "ules": 2643,
      "candid": 2644,
      "mass": 2645,
      "plants": 2646,
      "onomic": 2647,
      "adap": 2648,
      "xim": 2649,
      "success": 2650,
      "lung": 2651,
      "phosph": 2652,
      "atten": 2653,
      "air": 2654,
      "five": 2655,
      "state": 2656,
      "bic": 2657,
      "markers": 2658,
      "aged": 2659,
      "37": 2660,
      "mr": 2661,
      "remains": 2662,
      "plasma": 2663,
      "war": 2664,
      "sep": 2665,
      "then": 2666,
      "cas": 2667,
      "labor": 2668,
      "cohort": 2669,
      "presented": 2670,
      "rand": 2671,
      "hyper": 2672,
      "free": 2673,
      "populations": 2674,
      "hepati": 2675,
      "ially": 2676,
      "pharm": 2677,
      "scal": 2678,
      "hepatitis": 2679,
      "carb": 2680,
      "200": 2681,
      "exten": 2682,
      "hr": 2683,
      "screening": 2684,
      "conside": 2685,
      "considered": 2686,
      "mu": 2687,
      "combin": 2688,
      "sor": 2689,
      "pc": 2690,
      "spread": 2691,
      "hcc": 2692,
      "dex": 2693,
      "losis": 2694,
      "intro": 2695,
      "previously": 2696,
      "ances": 2697,
      "mid": 2698,
      "network": 2699,
      "environmental": 2700,
      "consi": 2701,
      "ling": 2702,
      "llular": 2703,
      "natural": 2704,
      "bacter": 2705,
      "stain": 2706,
      "fat": 2707,
      "social": 2708,
      "better": 2709,
      "ately": 2710,
      "36": 2711,
      "hcv": 2712,
      "45": 2713,
      "rt": 2714,
      "chi": 2715,
      ">)": 2716,
      "80": 2717,
      "myco": 2718,
      "them": 2719,
      ".,": 2720,
      "amino": 2721,
      "likely": 2722,
      "prevent": 2723,
      "gin": 2724,
      "base": 2725,
      "qui": 2726,
      "vas": 2727,
      "espec": 2728,
      "status": 2729,
      "valid": 2730,
      "especially": 2731,
      "activities": 2732,
      "compon": 2733,
      "before": 2734,
      "poor": 2735,
      "clus": 2736,
      "acellular": 2737,
      "value": 2738,
      "stimul": 2739,
      "verage": 2740,
      "techno": 2741,
      "consider": 2742,
      "organisms": 2743,
      "indicated": 2744,
      "interaction": 2745,
      "ken": 2746,
      "nf": 2747,
      "followed": 2748,
      "independent": 2749,
      "38": 2750,
      "cytes": 2751,
      "improved": 2752,
      "load": 2753,
      "provides": 2754,
      "vec": 2755,
      "ped": 2756,
      "regression": 2757,
      "whether": 2758,
      "lying": 2759,
      "six": 2760,
      "estim": 2761,
      "inhibition": 2762,
      "carri": 2763,
      "site": 2764,
      "any": 2765,
      "oro": 2766,
      "subjec": 2767,
      "correl": 2768,
      "70": 2769,
      "contr": 2770,
      "illus": 2771,
      "pite": 2772,
      "statis": 2773,
      "despite": 2774,
      "hetero": 2775,
      "imple": 2776,
      "bers": 2777,
      "aure": 2778,
      "performance": 2779,
      "transfer": 2780,
      "enco": 2781,
      "complete": 2782,
      "promis": 2783,
      "oxy": 2784,
      "ry": 2785,
      "shown": 2786,
      "healthy": 2787,
      "allow": 2788,
      "bri": 2789,
      "metabolic": 2790,
      "lr": 2791,
      "wei": 2792,
      "biofilm": 2793,
      "strategy": 2794,
      "immunity": 2795,
      "bited": 2796,
      "land": 2797,
      "evolution": 2798,
      "tically": 2799,
      "hbv": 2800,
      "aureus": 2801,
      "change": 2802,
      "safety": 2803,
      "ati": 2804,
      "fail": 2805,
      "possible": 2806,
      "34": 2807,
      "self": 2808,
      "toxicity": 2809,
      "mas": 2810,
      "virul": 2811,
      "real": 2812,
      "wild": 2813,
      "aria": 2814,
      "31": 2815,
      "polymer": 2816,
      "promising": 2817,
      "deliver": 2818,
      "pes": 2819,
      "hs": 2820,
      "exhibited": 2821,
      "required": 2822,
      "recogn": 2823,
      "enhanced": 2824,
      "tuber": 2825,
      "simul": 2826,
      "concer": 2827,
      "radi": 2828,
      "agents": 2829,
      "pul": 2830,
      "enzyme": 2831,
      "utili": 2832,
      "ats": 2833,
      "dys": 2834,
      "lit": 2835,
      "brain": 2836,
      "mutations": 2837,
      "assi": 2838,
      "aneous": 2839,
      "studied": 2840,
      "ably": 2841,
      "prevention": 2842,
      "insi": 2843,
      "measures": 2844,
      "techni": 2845,
      ">+</": 2846,
      "accur": 2847,
      "defici": 2848,
      "enter": 2849,
      "amin": 2850,
      "bes": 2851,
      "pregn": 2852,
      "composition": 2853,
      "stage": 2854,
      "chro": 2855,
      "scopy": 2856,
      "ot": 2857,
      "add": 2858,
      "objective": 2859,
      "recom": 2860,
      "facil": 2861,
      "temper": 2862,
      "itor": 2863,
      "carc": 2864,
      "highest": 2865,
      "introduc": 2866,
      "replication": 2867,
      "regions": 2868,
      "functions": 2869,
      "native": 2870,
      "proto": 2871,
      "chain": 2872,
      "ators": 2873,
      "assays": 2874,
      "size": 2875,
      "expressed": 2876,
      "methyl": 2877,
      "demonstrate": 2878,
      "transplant": 2879,
      "particles": 2880,
      "general": 2881,
      "whereas": 2882,
      "tests": 2883,
      "chl": 2884,
      "ically": 2885,
      "setting": 2886,
      "neur": 2887,
      "eco": 2888,
      "values": 2889,
      "received": 2890,
      "physi": 2891,
      "nal": 2892,
      "><": 2893,
      "median": 2894,
      "sci": 2895,
      "reduce": 2896,
      "zing": 2897,
      "exis": 2898,
      "weeks": 2899,
      "99": 2900,
      "parame": 2901,
      "don": 2902,
      "relev": 2903,
      "still": 2904,
      "eth": 2905,
      "amo": 2906,
      "mend": 2907,
      "affected": 2908,
      "eld": 2909,
      "loss": 2910,
      "dam": 2911,
      "late": 2912,
      "fully": 2913,
      "hpv": 2914,
      "itis": 2915,
      "represent": 2916,
      "propor": 2917,
      "recommend": 2918,
      "applic": 2919,
      "healthcare": 2920,
      "trials": 2921,
      "histo": 2922,
      "intervention": 2923,
      "limit": 2924,
      "electr": 2925,
      "processes": 2926,
      "progno": 2927,
      "generation": 2928,
      "emergen": 2929,
      "liter": 2930,
      "proli": 2931,
      "remo": 2932,
      "animals": 2933,
      "achie": 2934,
      "cf": 2935,
      "tosis": 2936,
      "minant": 2937,
      "tubercu": 2938,
      "thelial": 2939,
      "antibacterial": 2940,
      "put": 2941,
      "artic": 2942,
      "phase": 2943,
      "particularly": 2944,
      "metabolism": 2945,
      "ring": 2946,
      "fusion": 2947,
      "eg": 2948,
      "ancy": 2949,
      "china": 2950,
      "point": 2951,
      "tiation": 2952,
      "highli": 2953,
      "result": 2954,
      "65": 2955,
      "phag": 2956,
      "laboratory": 2957,
      "chemo": 2958,
      "phylo": 2959,
      "vered": 2960,
      "same": 2961,
      "leading": 2962,
      "subst": 2963,
      "prolifer": 2964,
      "features": 2965,
      "tral": 2966,
      "pse": 2967,
      "interest": 2968,
      "ured": 2969,
      "take": 2970,
      "identification": 2971,
      "application": 2972,
      "distin": 2973,
      "containing": 2974,
      "areas": 2975,
      "lied": 2976,
      "aw": 2977,
      "sites": 2978,
      "antiviral": 2979,
      "pression": 2980,
      "ause": 2981,
      "protec": 2982,
      "often": 2983,
      "phages": 2984,
      "field": 2985,
      "outcome": 2986,
      "because": 2987,
      "might": 2988,
      "75": 2989,
      "sample": 2990,
      "examined": 2991,
      "fibro": 2992,
      "carcino": 2993,
      "genomic": 2994,
      "leu": 2995,
      "32": 2996,
      "bp": 2997,
      "combined": 2998,
      "secondary": 2999,
      "phage": 3000,
      "regulated": 3001,
      "glu": 3002,
      "epidemi": 3003,
      "communities": 3004,
      "skin": 3005,
      "accor": 3006,
      "structural": 3007,
      "according": 3008,
      "distribution": 3009,
      "persis": 3010,
      "pseud": 3011,
      "index": 3012,
      "hen": 3013,
      "recor": 3014,
      "39": 3015,
      "rare": 3016,
      "selected": 3017,
      "adults": 3018,
      "fil": 3019,
      "ile": 3020,
      "controls": 3021,
      "har": 3022,
      "ft": 3023,
      "reaction": 3024,
      "secre": 3025,
      "loy": 3026,
      "progression": 3027,
      "modul": 3028,
      "xy": 3029,
      "diabe": 3030,
      "individual": 3031,
      "expl": 3032,
      "interven": 3033,
      "construc": 3034,
      "standard": 3035,
      "inj": 3036,
      "000": 3037,
      "short": 3038,
      "hal": 3039,
      "tt": 3040,
      "suggesting": 3041,
      "pan": 3042,
      "ference": 3043,
      "subsequ": 3044,
      "events": 3045,
      "summ": 3046,
      "since": 3047,
      "even": 3048,
      "adverse": 3049,
      "relationship": 3050,
      "arr": 3051,
      "afric": 3052,
      "eli": 3053,
      "mus": 3054,
      "help": 3055,
      "approaches": 3056,
      "body": 3057,
      "ack": 3058,
      "tuberculosis": 3059,
      "surveill": 3060,
      "posed": 3061,
      "place": 3062,
      "datab": 3063,
      "sou": 3064,
      "asse": 3065,
      "44": 3066,
      "toge": 3067,
      "surveillance": 3068,
      "together": 3069,
      "ifn": 3070,
      "nutri": 3071,
      "score": 3072,
      "classi": 3073,
      "thre": 3074,
      ").<": 3075,
      "disco": 3076,
      "tail": 3077,
      "animal": 3078,
      "section": 3079,
      "susceptibility": 3080,
      "worldwide": 3081,
      "interventions": 3082,
      "ga": 3083,
      "area": 3084,
      "eding": 3085,
      "variants": 3086,
      "mito": 3087,
      "anu": 3088,
      "nt": 3089,
      "chol": 3090,
      "%.": 3091,
      "cry": 3092,
      "degradation": 3093,
      "scale": 3094,
      "either": 3095,
      "recei": 3096,
      "monitor": 3097,
      "economic": 3098,
      "graphic": 3099,
      "stric": 3100,
      "diagnosed": 3101,
      ":</": 3102,
      "facilit": 3103,
      "glyco": 3104,
      "tissues": 3105,
      "needed": 3106,
      "few": 3107,
      "mitted": 3108,
      "parasite": 3109,
      "regar": 3110,
      "humans": 3111,
      "nps": 3112,
      "off": 3113,
      "fungi": 3114,
      "targeting": 3115,
      "conf": 3116,
      "literature": 3117,
      "class": 3118,
      "virulence": 3119,
      "survey": 3120,
      "atric": 3121,
      "additionally": 3122,
      "severity": 3123,
      "minim": 3124,
      "lis": 3125,
      "entero": 3126,
      "abundance": 3127,
      "delivery": 3128,
      "acted": 3129,
      "appe": 3130,
      "treatments": 3131,
      "difference": 3132,
      "rup": 3133,
      "moder": 3134,
      "metaboli": 3135,
      "proportion": 3136,
      "detect": 3137,
      "ella": 3138,
      "causes": 3139,
      "broad": 3140,
      "pt": 3141,
      "ize": 3142,
      "enced": 3143,
      "morpho": 3144,
      "content": 3145,
      "vascular": 3146,
      "mrna": 3147,
      "ones": 3148,
      "applied": 3149,
      "central": 3150,
      "distinct": 3151,
      "hia": 3152,
      "servic": 3153,
      "pseudo": 3154,
      "efficient": 3155,
      "tax": 3156,
      "cyte": 3157,
      "underlying": 3158,
      "diet": 3159,
      "photo": 3160,
      "hol": 3161,
      "aphy": 3162,
      "established": 3163,
      "pharmac": 3164,
      "products": 3165,
      "98": 3166,
      "lig": 3167,
      "malaria": 3168,
      "bd": 3169,
      "ko": 3170,
      "targeted": 3171,
      "produced": 3172,
      "regarding": 3173,
      "ology": 3174,
      "pp": 3175,
      "bacillus": 3176,
      "cruc": 3177,
      "alle": 3178,
      "injur": 3179,
      "interval": 3180,
      "bc": 3181,
      "parameters": 3182,
      "influence": 3183,
      "greater": 3184,
      "trial": 3185,
      "ores": 3186,
      "47": 3187,
      "challenges": 3188,
      "46": 3189,
      "mix": 3190,
      "glob": 3191,
      "aero": 3192,
      "rh": 3193,
      "indicate": 3194,
      "accum": 3195,
      "catal": 3196,
      "targets": 3197,
      "eness": 3198,
      "graphy": 3199,
      "describe": 3200,
      "sil": 3201,
      "md": 3202,
      "round": 3203,
      "logic": 3204,
      "mics": 3205,
      "nucleo": 3206,
      "patter": 3207,
      "tative": 3208,
      "foc": 3209,
      "dynamics": 3210,
      "tation": 3211,
      "bir": 3212,
      "tw": 3213,
      "elev": 3214,
      "molecules": 3215,
      "ban": 3216,
      "certain": 3217,
      "uv": 3218,
      "measure": 3219,
      "zole": 3220,
      "weight": 3221,
      "metry": 3222,
      "capac": 3223,
      "benef": 3224,
      "96": 3225,
      "correlation": 3226,
      "specificity": 3227,
      "recently": 3228,
      "linked": 3229,
      "cum": 3230,
      "systemic": 3231,
      "burden": 3232,
      "igg": 3233,
      "suf": 3234,
      "correlated": 3235,
      "unique": 3236,
      "spp": 3237,
      "patterns": 3238,
      "necess": 3239,
      "males": 3240,
      "crucial": 3241,
      "reli": 3242,
      "zi": 3243,
      "homo": 3244,
      "acqu": 3245,
      "profil": 3246,
      "izing": 3247,
      "history": 3248,
      "activated": 3249,
      "inary": 3250,
      "ene": 3251,
      "least": 3252,
      "mouse": 3253,
      "adult": 3254,
      "mag": 3255,
      "close": 3256,
      "currently": 3257,
      "42": 3258,
      "applications": 3259,
      "53": 3260,
      "measured": 3261,
      "adi": 3262,
      "ward": 3263,
      "gue": 3264,
      "described": 3265,
      "implic": 3266,
      "staphy": 3267,
      "fold": 3268,
      "home": 3269,
      "ables": 3270,
      "protective": 3271,
      "staphylo": 3272,
      "lipid": 3273,
      "spectro": 3274,
      "io": 3275,
      "resulting": 3276,
      "proble": 3277,
      "49": 3278,
      "phyl": 3279,
      "administration": 3280,
      "compre": 3281,
      "tiveness": 3282,
      "mented": 3283,
      "bid": 3284,
      "mainly": 3285,
      "neutral": 3286,
      "kg": 3287,
      "57": 3288,
      "toler": 3289,
      "enh": 3290,
      "resulted": 3291,
      "monary": 3292,
      "ergy": 3293,
      "2021": 3294,
      "fever": 3295,
      "inhibitors": 3296,
      "protection": 3297,
      "systematic": 3298,
      "pain": 3299,
      "prior": 3300,
      "peptide": 3301,
      "enhance": 3302,
      "micr": 3303,
      "gluco": 3304,
      "diverse": 3305,
      "consistent": 3306,
      "vaccin": 3307,
      "lan": 3308,
      "damage": 3309,
      "dist": 3310,
      "relevant": 3311,
      "roles": 3312,
      "cept": 3313,
      "microbiome": 3314,
      "phylogenetic": 3315,
      "proteo": 3316,
      "comprehen": 3317,
      "cd4": 3318,
      "orders": 3319,
      "decrease": 3320,
      "experimental": 3321,
      "employ": 3322,
      "potentially": 3323,
      "phen": 3324,
      "temperature": 3325,
      "developing": 3326,
      "minal": 3327,
      "throm": 3328,
      "apop": 3329,
      "contex": 3330,
      "ycin": 3331,
      "phal": 3332,
      "pathogenesis": 3333,
      "sto": 3334,
      "contribute": 3335,
      "cence": 3336,
      "flow": 3337,
      "challenge": 3338,
      "additional": 3339,
      "ficial": 3340,
      "chon": 3341,
      "ited": 3342,
      "geo": 3343,
      "observ": 3344,
      "43": 3345,
      "imaging": 3346,
      "rho": 3347,
      "comparis": 3348,
      "cardio": 3349,
      "effectiveness": 3350,
      "imens": 3351,
      "cies": 3352,
      "failure": 3353,
      "complications": 3354,
      "unders": 3355,
      "resour": 3356,
      "regulatory": 3357,
      "times": 3358,
      "jun": 3359,
      "unknown": 3360,
      "unit": 3361,
      "condition": 3362,
      "ium": 3363,
      "97": 3364,
      "56": 3365,
      "structures": 3366,
      "spi": 3367,
      "acids": 3368,
      "oxygen": 3369,
      "initial": 3370,
      "finally": 3371,
      "fs": 3372,
      "cru": 3373,
      "conser": 3374,
      "would": 3375,
      "barri": 3376,
      "provided": 3377,
      "prac": 3378,
      "iso": 3379,
      "educ": 3380,
      "along": 3381,
      "electro": 3382,
      "materials": 3383,
      "question": 3384,
      "plat": 3385,
      "comprehensive": 3386,
      "enrich": 3387,
      "assessment": 3388,
      "female": 3389,
      "stability": 3390,
      "affect": 3391,
      "good": 3392,
      "cp": 3393,
      "monas": 3394,
      "wards": 3395,
      "lack": 3396,
      "injec": 3397,
      "lytic": 3398,
      "cut": 3399,
      "efficiency": 3400,
      "spo": 3401,
      "carcinoma": 3402,
      "release": 3403,
      "proposed": 3404,
      "55": 3405,
      "ice": 3406,
      "mized": 3407,
      "ick": 3408,
      "ition": 3409,
      "teria": 3410,
      "eral": 3411,
      "lines": 3412,
      "proliferation": 3413,
      "capacity": 3414,
      "thir": 3415,
      "nit": 3416,
      "hes": 3417,
      "41": 3418,
      "68": 3419,
      "injury": 3420,
      "hepato": 3421,
      "culated": 3422,
      "cycl": 3423,
      "whole": 3424,
      "enzymes": 3425,
      "sac": 3426,
      "mab": 3427,
      "presents": 3428,
      "evaluation": 3429,
      "quantitative": 3430,
      "67": 3431,
      "lact": 3432,
      "therapies": 3433,
      "genus": 3434,
      "average": 3435,
      "cate": 3436,
      "alternative": 3437,
      "lling": 3438,
      "explore": 3439,
      "physical": 3440,
      "hor": 3441,
      "defined": 3442,
      "ney": 3443,
      "way": 3444,
      "kid": 3445,
      "tured": 3446,
      "tract": 3447,
      "insights": 3448,
      "source": 3449,
      "gf": 3450,
      "biotic": 3451,
      "agent": 3452,
      "she": 3453,
      "asive": 3454,
      "surger": 3455,
      "count": 3456,
      "equ": 3457,
      "demo": 3458,
      "stre": 3459,
      "baseline": 3460,
      "ety": 3461,
      "appropri": 3462,
      "practi": 3463,
      "suggested": 3464,
      "sensitive": 3465,
      "migr": 3466,
      "deficiency": 3467,
      "conver": 3468,
      "pulmonary": 3469,
      "aer": 3470,
      "consu": 3471,
      "cycle": 3472,
      "mt": 3473,
      "forms": 3474,
      "intra": 3475,
      "aims": 3476,
      "suggests": 3477,
      "yet": 3478,
      "living": 3479,
      "reducing": 3480,
      "carbon": 3481,
      "bas": 3482,
      "nitro": 3483,
      "monitoring": 3484,
      "let": 3485,
      "compe": 3486,
      "given": 3487,
      "bone": 3488,
      "states": 3489,
      "leng": 3490,
      "assemb": 3491,
      "polic": 3492,
      "inhibitory": 3493,
      "lid": 3494,
      "esch": 3495,
      "protocol": 3496,
      "88": 3497,
      "pal": 3498,
      "mos": 3499,
      "ite": 3500,
      "far": 3501,
      "clinic": 3502,
      "illin": 3503,
      "controlled": 3504,
      "kines": 3505,
      "wound": 3506,
      "chondri": 3507,
      "quito": 3508,
      "ield": 3509,
      "ros": 3510,
      "yield": 3511,
      "hd": 3512,
      "escheric": 3513,
      "escherichia": 3514,
      "retrospective": 3515,
      "stem": 3516,
      "fish": 3517,
      "great": 3518,
      "disorders": 3519,
      "thal": 3520,
      "np": 3521,
      "lear": 3522,
      "vement": 3523,
      "block": 3524,
      "mitochondri": 3525,
      "invasive": 3526,
      "emerging": 3527,
      "shi": 3528,
      "taken": 3529,
      "confidence": 3530,
      "surg": 3531,
      "asy": 3532,
      "cris": 3533,
      "week": 3534,
      "polymerase": 3535,
      "regis": 3536,
      "las": 3537,
      "oid": 3538,
      "pair": 3539,
      "frequency": 3540,
      "multiv": 3541,
      "cit": 3542,
      "iatric": 3543,
      "lesions": 3544,
      "simp": 3545,
      "staphylococcus": 3546,
      "fluores": 3547,
      "inse": 3548,
      "components": 3549,
      "ana": 3550,
      "sustain": 3551,
      "sized": 3552,
      "lies": 3553,
      "open": 3554,
      "bidity": 3555,
      "recombin": 3556,
      "restric": 3557,
      "58": 3558,
      "nate": 3559,
      "vector": 3560,
      "multivari": 3561,
      "later": 3562,
      "hypothe": 3563,
      "display": 3564,
      "duce": 3565,
      "univer": 3566,
      "66": 3567,
      "appropriate": 3568,
      "microscopy": 3569,
      "experiments": 3570,
      "useful": 3571,
      "72": 3572,
      "gui": 3573,
      "hold": 3574,
      "percent": 3575,
      "fra": 3576,
      "ulated": 3577,
      "surgery": 3578,
      "contrast": 3579,
      "expec": 3580,
      "ision": 3581,
      "gent": 3582,
      "seas": 3583,
      "include": 3584,
      "admission": 3585,
      "elevated": 3586,
      "itu": 3587,
      "diabetes": 3588,
      "kidney": 3589,
      "kill": 3590,
      "ws": 3591,
      "technology": 3592,
      "month": 3593,
      "seven": 3594,
      "alg": 3595,
      "subjects": 3596,
      "tomy": 3597,
      "guidel": 3598,
      "length": 3599,
      "surgical": 3600,
      "overe": 3601,
      "78": 3602,
      "versus": 3603,
      "enro": 3604,
      "cataly": 3605,
      "introduction": 3606,
      "indicating": 3607,
      "oc": 3608,
      "mination": 3609,
      "overex": 3610,
      "upon": 3611,
      "dm": 3612,
      "usted": 3613,
      "hand": 3614,
      "estimated": 3615,
      "predo": 3616,
      "ched": 3617,
      "supple": 3618,
      "tren": 3619,
      "fung": 3620,
      "macrophages": 3621,
      "inhibited": 3622,
      "lex": 3623,
      "repe": 3624,
      "plan": 3625,
      "strep": 3626,
      "substanti": 3627,
      "logies": 3628,
      "mutant": 3629,
      "focus": 3630,
      "commonly": 3631,
      "criteria": 3632,
      "existing": 3633,
      "proced": 3634,
      "euro": 3635,
      "idal": 3636,
      "selection": 3637,
      "ery": 3638,
      "cour": 3639,
      "inhibitor": 3640,
      "inosa": 3641,
      "urine": 3642,
      "medicine": 3643,
      "avi": 3644,
      "genous": 3645,
      "issu": 3646,
      "tide": 3647,
      "train": 3648,
      "ences": 3649,
      "plays": 3650,
      "nic": 3651,
      "utro": 3652,
      "optimal": 3653,
      "cop": 3654,
      "71": 3655,
      "ka": 3656,
      "lt": 3657,
      "64": 3658,
      "85": 3659,
      "lished": 3660,
      "techniques": 3661,
      "stable": 3662,
      "myo": 3663,
      "widely": 3664,
      "context": 3665,
      "ckdown": 3666,
      "effor": 3667,
      "aor": 3668,
      "pathological": 3669,
      "stream": 3670,
      "synthetic": 3671,
      "agg": 3672,
      "capa": 3673,
      "rando": 3674,
      "generated": 3675,
      "physiological": 3676,
      "rsv": 3677,
      "ont": 3678,
      "cv": 3679,
      "respond": 3680,
      "unclear": 3681,
      "electron": 3682,
      "onset": 3683,
      "metabolites": 3684,
      "access": 3685,
      "cere": 3686,
      "glut": 3687,
      "comparison": 3688,
      "exposed": 3689,
      "paper": 3690,
      "recombinant": 3691,
      "anced": 3692,
      "ires": 3693,
      "rrna": 3694,
      "profile": 3695,
      "odds": 3696,
      "fas": 3697,
      "parasites": 3698,
      "waste": 3699,
      "residu": 3700,
      "preg": 3701,
      "convention": 3702,
      "janu": 3703,
      "january": 3704,
      "predicted": 3705,
      "duration": 3706,
      "exo": 3707,
      "tools": 3708,
      "core": 3709,
      "intracellular": 3710,
      "transi": 3711,
      "aerug": 3712,
      "malign": 3713,
      "contact": 3714,
      "preci": 3715,
      "require": 3716,
      "lay": 3717,
      "microorganisms": 3718,
      "nanoparticles": 3719,
      "wa": 3720,
      "cluster": 3721,
      "aeruginosa": 3722,
      "apoptosis": 3723,
      "upreg": 3724,
      "ang": 3725,
      "producing": 3726,
      "innate": 3727,
      "susceptible": 3728,
      "potent": 3729,
      "dium": 3730,
      "cd8": 3731,
      "energy": 3732,
      "ulo": 3733,
      "borne": 3734,
      "mutation": 3735,
      "63": 3736,
      "gastro": 3737,
      "purpose": 3738,
      "prob": 3739,
      "achieved": 3740,
      "rhi": 3741,
      "tional": 3742,
      "peptides": 3743,
      "16s": 3744,
      "practice": 3745,
      "pical": 3746,
      "engine": 3747,
      "trum": 3748,
      "marker": 3749,
      "ucid": 3750,
      "recru": 3751,
      "mero": 3752,
      "ost": 3753,
      "adjusted": 3754,
      "neutro": 3755,
      "52": 3756,
      "genomes": 3757,
      "origin": 3758,
      "frequently": 3759,
      "62": 3760,
      "specifically": 3761,
      "73": 3762,
      "ensis": 3763,
      "best": 3764,
      "serious": 3765,
      "occurred": 3766,
      "older": 3767,
      "sol": 3768,
      "vin": 3769,
      "carried": 3770,
      "disrup": 3771,
      "epithelial": 3772,
      "camp": 3773,
      "μg": 3774,
      "aceae": 3775,
      "51": 3776,
      "organic": 3777,
      "ense": 3778,
      "epidemic": 3779,
      "responsible": 3780,
      "made": 3781,
      "conventional": 3782,
      "asion": 3783,
      "necessary": 3784,
      "explored": 3785,
      "reactive": 3786,
      "cial": 3787,
      "house": 3788,
      "tradition": 3789,
      "59": 3790,
      "random": 3791,
      "published": 3792,
      "dent": 3793,
      "americ": 3794,
      "europe": 3795,
      "having": 3796,
      "south": 3797,
      "last": 3798,
      "azole": 3799,
      "atin": 3800,
      "kinase": 3801,
      "lc": 3802,
      "spectrum": 3803,
      "pha": 3804,
      "sof": 3805,
      "extensive": 3806,
      "moti": 3807,
      "moderate": 3808,
      "ule": 3809,
      "belong": 3810,
      "ication": 3811,
      "elucid": 3812,
      "directly": 3813,
      "trig": 3814,
      "see": 3815,
      "promi": 3816,
      "rosis": 3817,
      "dynamic": 3818,
      ");": 3819,
      "dai": 3820,
      "somal": 3821,
      "sectional": 3822,
      "ians": 3823,
      "vaccinated": 3824,
      "nov": 3825,
      "prognosis": 3826,
      "diffic": 3827,
      "pto": 3828,
      "iii": 3829,
      "renal": 3830,
      "difficul": 3831,
      "fibrosis": 3832,
      "services": 3833,
      "detail": 3834,
      "dire": 3835,
      "wes": 3836,
      "stri": 3837,
      "modified": 3838,
      "dele": 3839,
      "cytokines": 3840,
      "cultures": 3841,
      "tig": 3842,
      "icillin": 3843,
      "vul": 3844,
      "69": 3845,
      "ili": 3846,
      "star": 3847,
      "salmon": 3848,
      "nm": 3849,
      "54": 3850,
      "position": 3851,
      "vol": 3852,
      "behavior": 3853,
      "trac": 3854,
      "mediate": 3855,
      "san": 3856,
      "muco": 3857,
      "suppor": 3858,
      "stages": 3859,
      "maxim": 3860,
      "profiles": 3861,
      "reports": 3862,
      "ified": 3863,
      "77": 3864,
      "designed": 3865,
      "pb": 3866,
      "mosquito": 3867,
      "ades": 3868,
      "opport": 3869,
      "promote": 3870,
      "ampli": 3871,
      "prin": 3872,
      "differentiation": 3873,
      "nk": 3874,
      "highlight": 3875,
      "points": 3876,
      "axis": 3877,
      "manif": 3878,
      "accumulation": 3879,
      "idi": 3880,
      "excl": 3881,
      "ai": 3882,
      "reach": 3883,
      "daily": 3884,
      "investigation": 3885,
      "atal": 3886,
      "ker": 3887,
      "summari": 3888,
      "metric": 3889,
      "extract": 3890,
      "occurrence": 3891,
      "lipo": 3892,
      "alone": 3893,
      "encing": 3894,
      "breast": 3895,
      "questionna": 3896,
      "super": 3897,
      "morbidity": 3898,
      "discuss": 3899,
      "arily": 3900,
      "neurons": 3901,
      "basis": 3902,
      "logistic": 3903,
      "gc": 3904,
      "tence": 3905,
      "lps": 3906,
      "frame": 3907,
      "toxin": 3908,
      "majority": 3909,
      "uptake": 3910,
      "special": 3911,
      "sepsis": 3912,
      "hepatic": 3913,
      "maintain": 3914,
      "pneumoniae": 3915,
      "genotype": 3916,
      "variant": 3917,
      "removal": 3918,
      "pow": 3919,
      "gel": 3920,
      "absence": 3921,
      "2018": 3922,
      "iting": 3923,
      "guidelines": 3924,
      "increases": 3925,
      "suffici": 3926,
      "va": 3927,
      "mill": 3928,
      "little": 3929,
      "hosts": 3930,
      "article": 3931,
      "africa": 3932,
      "94": 3933,
      "reference": 3934,
      "initi": 3935,
      "learning": 3936,
      "93": 3937,
      "pu": 3938,
      "eight": 3939,
      "terms": 3940,
      "providing": 3941,
      "full": 3942,
      "92": 3943,
      "oxidative": 3944,
      "glucose": 3945,
      "vit": 3946,
      "spati": 3947,
      "angi": 3948,
      "interfer": 3949,
      "course": 3950,
      "2022": 3951,
      "receptors": 3952,
      "produce": 3953,
      "sources": 3954,
      "aring": 3955,
      "confirm": 3956,
      "transplantation": 3957,
      "alk": 3958,
      "implementation": 3959,
      "institu": 3960,
      "database": 3961,
      "iety": 3962,
      "variation": 3963,
      "mam": 3964,
      "2016": 3965,
      "cytokine": 3966,
      "reci": 3967,
      "march": 3968,
      "deaths": 3969,
      "61": 3970,
      "constitu": 3971,
      "biomarkers": 3972,
      "culation": 3973,
      "pediatric": 3974,
      "subsequent": 3975,
      "conserved": 3976,
      "scores": 3977,
      "ustr": 3978,
      "causing": 3979,
      "variables": 3980,
      "map": 3981,
      "situ": 3982,
      "predominant": 3983,
      "western": 3984,
      "pg": 3985,
      "become": 3986,
      "settings": 3987,
      "extracellular": 3988,
      "heterogene": 3989,
      "anx": 3990,
      "effectively": 3991,
      "aryo": 3992,
      "meta": 3993,
      "pregnancy": 3994,
      "fav": 3995,
      "iva": 3996,
      "alco": 3997,
      "plac": 3998,
      "induce": 3999,
      "improvement": 4000,
      "robu": 4001,
      "ists": 4002,
      "physic": 4003,
      "challeng": 4004,
      "87": 4005,
      "separ": 4006,
      "prepa": 4007,
      "outbreaks": 4008,
      "spor": 4009,
      "2017": 4010,
      "cli": 4011,
      "fatty": 4012,
      "adhe": 4013,
      "mitochondrial": 4014,
      "gover": 4015,
      "members": 4016,
      "infants": 4017,
      "practic": 4018,
      "phic": 4019,
      "pattern": 4020,
      "robust": 4021,
      "ju": 4022,
      "metal": 4023,
      "2015": 4024,
      "acin": 4025,
      "hab": 4026,
      "cers": 4027,
      "],": 4028,
      "nitrogen": 4029,
      "enrolled": 4030,
      "transcriptional": 4031,
      "pseudomonas": 4032,
      "sts": 4033,
      "ton": 4034,
      "usu": 4035,
      "nes": 4036,
      "possi": 4037,
      "series": 4038,
      "understo": 4039,
      "epidemiological": 4040,
      "understood": 4041,
      "ingly": 4042,
      "fal": 4043,
      "tumors": 4044,
      "media": 4045,
      "van": 4046,
      "density": 4047,
      "gor": 4048,
      "unt": 4049,
      "til": 4050,
      "decem": 4051,
      "recovery": 4052,
      "highligh": 4053,
      "antioxid": 4054,
      "mn": 4055,
      "lox": 4056,
      "date": 4057,
      "associations": 4058,
      "december": 4059,
      "concern": 4060,
      "transport": 4061,
      "towards": 4062,
      "workers": 4063,
      "elis": 4064,
      "traditional": 4065,
      "shows": 4066,
      "incor": 4067,
      "lia": 4068,
      "education": 4069,
      "advanced": 4070,
      "somes": 4071,
      "gon": 4072,
      "doses": 4073,
      "prophyl": 4074,
      "step": 4075,
      "location": 4076,
      "zes": 4077,
      "nur": 4078,
      "ands": 4079,
      "dengue": 4080,
      "fund": 4081,
      "grade": 4082,
      "went": 4083,
      "91": 4084,
      "commer": 4085,
      "examine": 4086,
      "nine": 4087,
      "periph": 4088,
      "predict": 4089,
      "demographic": 4090,
      "transcripto": 4091,
      "ible": 4092,
      "mol": 4093,
      "rox": 4094,
      "thy": 4095,
      "83": 4096,
      "poll": 4097,
      "fu": 4098,
      "demic": 4099,
      "tem": 4100,
      "pathy": 4101,
      "mild": 4102,
      "shap": 4103,
      "76": 4104,
      "kv": 4105,
      "plate": 4106,
      "call": 4107,
      "efforts": 4108,
      "employed": 4109,
      "ption": 4110,
      "students": 4111,
      "expected": 4112,
      "neutrophi": 4113,
      "%;": 4114,
      "p1": 4115,
      "accuracy": 4116,
      "onco": 4117,
      "paren": 4118,
      "statistically": 4119,
      "att": 4120,
      "bits": 4121,
      "ear": 4122,
      "quin": 4123,
      "ive": 4124,
      "medium": 4125,
      "ferred": 4126,
      "hemo": 4127,
      "address": 4128,
      "successfully": 4129,
      "karyo": 4130,
      "02": 4131,
      "linear": 4132,
      "86": 4133,
      "attention": 4134,
      "suppression": 4135,
      "material": 4136,
      "ods": 4137,
      "emo": 4138,
      "approxim": 4139,
      "gy": 4140,
      "gain": 4141,
      "head": 4142,
      "89": 4143,
      "component": 4144,
      "administered": 4145,
      "variety": 4146,
      "adeno": 4147,
      "fit": 4148,
      "amine": 4149,
      "aerobic": 4150,
      "exhibit": 4151,
      "ressive": 4152,
      "pig": 4153,
      "phenotype": 4154,
      "nex": 4155,
      "rr": 4156,
      "lysis": 4157,
      "84": 4158,
      "rapidly": 4159,
      "ebv": 4160,
      "underwent": 4161,
      "74": 4162,
      "jo": 4163,
      "past": 4164,
      "cogn": 4165,
      "typic": 4166,
      "bene": 4167,
      "antifungal": 4168,
      "explain": 4169,
      "induction": 4170,
      "compare": 4171,
      "specimens": 4172,
      "ually": 4173,
      "find": 4174,
      "center": 4175,
      "serve": 4176,
      "oste": 4177,
      "receiving": 4178,
      "advant": 4179,
      "characterization": 4180,
      "polysac": 4181,
      "mixed": 4182,
      "incorpor": 4183,
      "aves": 4184,
      "mammal": 4185,
      "tid": 4186,
      "tribut": 4187,
      "highlights": 4188,
      "dysfunction": 4189,
      "mach": 4190,
      "iron": 4191,
      "making": 4192,
      "pool": 4193,
      "sexual": 4194,
      "smo": 4195,
      "82": 4196,
      "stero": 4197,
      "qual": 4198,
      "ata": 4199,
      "nuclear": 4200,
      "tlr": 4201,
      "los": 4202,
      "emergence": 4203,
      "involvement": 4204,
      "tnf": 4205,
      "recipi": 4206,
      "young": 4207,
      "auth": 4208,
      "presentation": 4209,
      "caus": 4210,
      "emergency": 4211,
      "assembly": 4212,
      "adhes": 4213,
      "autophag": 4214,
      "hospit": 4215,
      "aft": 4216,
      "mater": 4217,
      "chromo": 4218,
      "intensive": 4219,
      "pregnant": 4220,
      "sd": 4221,
      "objectives": 4222,
      "icu": 4223,
      "anxiety": 4224,
      "81": 4225,
      "significance": 4226,
      "around": 4227,
      "aryn": 4228,
      "exer": 4229,
      "aspec": 4230,
      "manifest": 4231,
      "isolate": 4232,
      "frequent": 4233,
      "sym": 4234,
      "phosphory": 4235,
      "rout": 4236,
      "examination": 4237,
      "optimi": 4238,
      "mv": 4239,
      "fluid": 4240,
      "attenu": 4241,
      "hospitals": 4242,
      "endemic": 4243,
      "candidate": 4244,
      "79": 4245,
      "peripheral": 4246,
      "infor": 4247,
      "titis": 4248,
      "prevalent": 4249,
      "gap": 4250,
      "upl": 4251,
      "practices": 4252,
      "cerv": 4253,
      "agon": 4254,
      "abnormal": 4255,
      "wall": 4256,
      "root": 4257,
      "antioxidant": 4258,
      "prospective": 4259,
      "vision": 4260,
      "acting": 4261,
      "03": 4262,
      "third": 4263,
      "feed": 4264,
      "oles": 4265,
      "neon": 4266,
      "oil": 4267,
      "growing": 4268,
      "sampling": 4269,
      "heart": 4270,
      "stren": 4271,
      "cervical": 4272,
      "amination": 4273,
      "improving": 4274,
      "sch": 4275,
      "implications": 4276,
      "preven": 4277,
      "cultiv": 4278,
      "predictive": 4279,
      "streng": 4280,
      "cys": 4281,
      "elisa": 4282,
      "hemato": 4283,
      "acquired": 4284,
      "hips": 4285,
      "bind": 4286,
      "differential": 4287,
      "connec": 4288,
      "training": 4289,
      "clinically": 4290,
      "units": 4291,
      "relatively": 4292,
      "milk": 4293,
      "isolation": 4294,
      "strepto": 4295,
      "frag": 4296,
      "delay": 4297,
      "nucleotide": 4298,
      "ribo": 4299,
      "comor": 4300,
      "amy": 4301,
      "angio": 4302,
      "recommended": 4303,
      "environments": 4304,
      "analyze": 4305,
      "substrate": 4306,
      "salmonella": 4307,
      "2014": 4308,
      "illness": 4309,
      "pm": 4310,
      "ubi": 4311,
      "seed": 4312,
      "suit": 4313,
      "hood": 4314,
      "labe": 4315,
      "overexpression": 4316,
      "acer": 4317,
      "mers": 4318,
      "routine": 4319,
      "int": 4320,
      "prepared": 4321,
      "cardiac": 4322,
      "ught": 4323,
      "rix": 4324,
      "mitig": 4325,
      "govern": 4326,
      "nr": 4327,
      "dem": 4328,
      "circul": 4329,
      "toward": 4330,
      "cirrho": 4331,
      "affecting": 4332,
      "availability": 4333,
      "ue": 4334,
      "successful": 4335,
      "emphas": 4336,
      "now": 4337,
      "approximately": 4338,
      "dominant": 4339,
      "standar": 4340,
      "bul": 4341,
      "jap": 4342,
      "liqu": 4343,
      "solid": 4344,
      "alpha": 4345,
      "mel": 4346,
      "aso": 4347,
      "coding": 4348,
      "lacto": 4349,
      "abo": 4350,
      "chool": 4351,
      "ato": 4352,
      "terminal": 4353,
      "technique": 4354,
      "white": 4355,
      "correspon": 4356,
      "interview": 4357,
      "continuous": 4358,
      "sions": 4359,
      "beneficial": 4360,
      "framework": 4361,
      "altered": 4362,
      "disse": 4363,
      "bon": 4364,
      "colonization": 4365,
      "spike": 4366,
      "hydr": 4367,
      "provin": 4368,
      "adherence": 4369,
      "pas": 4370,
      "residues": 4371,
      "hydrogen": 4372,
      "mely": 4373,
      "depression": 4374,
      "mption": 4375,
      "focused": 4376,
      "herein": 4377,
      "sid": 4378,
      "arti": 4379,
      "risks": 4380,
      "sl": 4381,
      "remained": 4382,
      "contamin": 4383,
      "thrombo": 4384,
      "diarr": 4385,
      "socio": 4386,
      "pf": 4387,
      "united": 4388,
      "wt": 4389,
      "resolution": 4390,
      "promoting": 4391,
      "international": 4392,
      "validated": 4393,
      "atic": 4394,
      "encoding": 4395,
      "platform": 4396,
      "epito": 4397,
      "dogs": 4398,
      "solution": 4399,
      "b1": 4400,
      "urs": 4401,
      "biosynthesis": 4402,
      "randomized": 4403,
      "largely": 4404,
      "umin": 4405,
      "feeding": 4406,
      "bilities": 4407,
      "tolerance": 4408,
      "policy": 4409,
      "pyl": 4410,
      "cryst": 4411,
      "maternal": 4412,
      "mode": 4413,
      "regulating": 4414,
      "seen": 4415,
      "coupl": 4416,
      "online": 4417,
      "secretion": 4418,
      "loid": 4419,
      "reviewed": 4420,
      "aug": 4421,
      "questionnaire": 4422,
      "scienti": 4423,
      "hout": 4424,
      "strongly": 4425,
      "statistical": 4426,
      "aware": 4427,
      "cen": 4428,
      "stor": 4429,
      "thereby": 4430,
      "deep": 4431,
      "pathology": 4432,
      "females": 4433,
      "sufficient": 4434,
      "domains": 4435,
      "04": 4436,
      "asympto": 4437,
      "agen": 4438,
      "experience": 4439,
      "prediction": 4440,
      "phyto": 4441,
      "tc": 4442,
      "recognition": 4443,
      "hospitalization": 4444,
      "recur": 4445,
      "hospitalized": 4446,
      "problem": 4447,
      "reproduc": 4448,
      "synthesized": 4449,
      "discovery": 4450,
      "internal": 4451,
      "offer": 4452,
      "ray": 4453,
      "prognostic": 4454,
      "screened": 4455,
      "forming": 4456,
      "modeling": 4457,
      "logous": 4458,
      "next": 4459,
      "minated": 4460,
      "qpcr": 4461,
      "mrsa": 4462,
      "vag": 4463,
      "facilitate": 4464,
      "requires": 4465,
      "vary": 4466,
      "venous": 4467,
      "estimate": 4468,
      "thern": 4469,
      "cutaneous": 4470,
      "bound": 4471,
      "adop": 4472,
      "experiment": 4473,
      "crispr": 4474,
      "closely": 4475,
      "gastrointestinal": 4476,
      "affin": 4477,
      "atus": 4478,
      "beta": 4479,
      "migration": 4480,
      "event": 4481,
      "persistent": 4482,
      "reverse": 4483,
      "variable": 4484,
      "school": 4485,
      "ering": 4486,
      "ised": 4487,
      "biology": 4488,
      "adequ": 4489,
      "discussed": 4490,
      "zy": 4491,
      "cox": 4492,
      "regard": 4493,
      "multivariate": 4494,
      "barrier": 4495,
      "fraction": 4496,
      "pressure": 4497,
      "green": 4498,
      "ril": 4499,
      "invasion": 4500,
      "defec": 4501,
      "nature": 4502,
      "visual": 4503,
      "selective": 4504,
      "antigens": 4505,
      "rd": 4506,
      "valuable": 4507,
      "jug": 4508,
      "evol": 4509,
      "person": 4510,
      "bron": 4511,
      "birth": 4512,
      "leish": 4513,
      "enem": 4514,
      "haz": 4515,
      "valent": 4516,
      "identifying": 4517,
      "reas": 4518,
      "ath": 4519,
      "bacterio": 4520,
      "interferon": 4521,
      "gender": 4522,
      "mechanical": 4523,
      "wastewater": 4524,
      "ricul": 4525,
      "counts": 4526,
      "throug": 4527,
      "university": 4528,
      "throughout": 4529,
      "recorded": 4530,
      "flav": 4531,
      "flec": 4532,
      "threat": 4533,
      "dou": 4534,
      "faec": 4535,
      "asymptomatic": 4536,
      "benefits": 4537,
      "carbo": 4538,
      "poorly": 4539,
      "biochemical": 4540,
      "impair": 4541,
      "biofilms": 4542,
      "itin": 4543,
      "encephal": 4544,
      "leishman": 4545,
      "substantial": 4546,
      "live": 4547,
      "undergo": 4548,
      "does": 4549,
      "datase": 4550,
      "molecule": 4551,
      "product": 4552,
      "extracted": 4553,
      "cmv": 4554,
      "devic": 4555,
      "hl": 4556,
      "plasm": 4557,
      "hu": 4558,
      "expand": 4559,
      "half": 4560,
      "reflec": 4561,
      "programs": 4562,
      "leads": 4563,
      "fed": 4564,
      "double": 4565,
      "initiation": 4566,
      "morph": 4567,
      "cx": 4568,
      "extre": 4569,
      "located": 4570,
      "mening": 4571,
      "parasitic": 4572,
      "methodo": 4573,
      "positively": 4574,
      "country": 4575,
      "displayed": 4576,
      "involving": 4577,
      "descrip": 4578,
      "cancers": 4579,
      "aqu": 4580,
      "clonal": 4581,
      "simult": 4582,
      "bile": 4583,
      "tan": 4584,
      "simultaneous": 4585,
      "mc": 4586,
      "analysed": 4587,
      "genotypes": 4588,
      "peak": 4589,
      "braz": 4590,
      "fered": 4591,
      "represents": 4592,
      "vers": 4593,
      "primarily": 4594,
      "fecal": 4595,
      "numero": 4596,
      "icin": 4597,
      "notably": 4598,
      "sle": 4599,
      "rnas": 4600,
      "rhizo": 4601,
      "oph": 4602,
      "driven": 4603,
      "power": 4604,
      "numerous": 4605,
      "memory": 4606,
      "anes": 4607,
      "sia": 4608,
      "coccal": 4609,
      "collection": 4610,
      "accurate": 4611,
      "percentage": 4612,
      "subsequently": 4613,
      "contamination": 4614,
      "articles": 4615,
      "admitted": 4616,
      "rats": 4617,
      "n1": 4618,
      "scopic": 4619,
      "much": 4620,
      "neo": 4621,
      "resources": 4622,
      "expressing": 4623,
      "assis": 4624,
      "addres": 4625,
      "matrix": 4626,
      "sens": 4627,
      "impacts": 4628,
      "loxacin": 4629,
      "calculated": 4630,
      "experienced": 4631,
      "operative": 4632,
      "mdr": 4633,
      "aggreg": 4634,
      "inese": 4635,
      "ming": 4636,
      "methan": 4637,
      "organization": 4638,
      "consumption": 4639,
      "classified": 4640,
      "stro": 4641,
      "regulate": 4642,
      "injection": 4643,
      "vation": 4644,
      "err": 4645,
      "fru": 4646,
      "seg": 4647,
      ">),": 4648,
      "mye": 4649,
      "disorder": 4650,
      "chinese": 4651,
      "autophagy": 4652,
      "radio": 4653,
      "itation": 4654,
      "defense": 4655,
      "charge": 4656,
      "itive": 4657,
      "needs": 4658,
      "emerged": 4659,
      "faces": 4660,
      "clusters": 4661,
      "complement": 4662,
      "urban": 4663,
      "l1": 4664,
      "benefit": 4665,
      "imen": 4666,
      "neutralizing": 4667,
      "cardiovascular": 4668,
      "depart": 4669,
      "brid": 4670,
      "counter": 4671,
      "scan": 4672,
      "abundant": 4673,
      "commercial": 4674,
      "yeast": 4675,
      "link": 4676,
      "μm": 4677,
      "categor": 4678,
      "profes": 4679,
      "numbers": 4680,
      "posses": 4681,
      "compromi": 4682,
      "conjug": 4683,
      "spatial": 4684,
      "uring": 4685,
      "integrated": 4686,
      "mutants": 4687,
      "trophic": 4688,
      "muscle": 4689,
      "infil": 4690,
      "aff": 4691,
      "acces": 4692,
      "chec": 4693,
      "recognized": 4694,
      "cts": 4695,
      "lands": 4696,
      "bb": 4697,
      "fv": 4698,
      "bru": 4699,
      "turn": 4700,
      "genera": 4701,
      "nc": 4702,
      "guid": 4703,
      "chari": 4704,
      "treating": 4705,
      "sulf": 4706,
      "fermentation": 4707,
      "alterations": 4708,
      "leaf": 4709,
      "ophi": 4710,
      "mother": 4711,
      "affinity": 4712,
      "immunodeficiency": 4713,
      "muc": 4714,
      "processing": 4715,
      "phosphate": 4716,
      "coverage": 4717,
      "coc": 4718,
      "candida": 4719,
      "tetr": 4720,
      "characterize": 4721,
      "maximum": 4722,
      "divid": 4723,
      "tam": 4724,
      "(-": 4725,
      "databases": 4726,
      "acety": 4727,
      "nan": 4728,
      "suspec": 4729,
      "elements": 4730,
      "reporting": 4731,
      "entry": 4732,
      "phenol": 4733,
      "2013": 4734,
      "costs": 4735,
      "typing": 4736,
      "compati": 4737,
      "april": 4738,
      "blas": 4739,
      "ecological": 4740,
      "relationships": 4741,
      "manner": 4742,
      "lactam": 4743,
      "extracts": 4744,
      "promoter": 4745,
      "sar": 4746,
      "morphological": 4747,
      "gt": 4748,
      "profession": 4749,
      "propose": 4750,
      "must": 4751,
      "affects": 4752,
      "liquid": 4753,
      "ral": 4754,
      "corresponding": 4755,
      "showing": 4756,
      "f1": 4757,
      "terior": 4758,
      "longer": 4759,
      "simple": 4760,
      "personal": 4761,
      "micron": 4762,
      "circulating": 4763,
      "pk": 4764,
      "squ": 4765,
      "hydroxy": 4766,
      "algori": 4767,
      "prolong": 4768,
      "chemotherapy": 4769,
      "multidrug": 4770,
      "constructed": 4771,
      "million": 4772,
      "evolutionary": 4773,
      "algorith": 4774,
      "tomo": 4775,
      "alis": 4776,
      "difficult": 4777,
      "newly": 4778,
      "herpes": 4779,
      "enriched": 4780,
      "achieve": 4781,
      "pyr": 4782,
      "cine": 4783,
      "signs": 4784,
      ".</": 4785,
      "substitu": 4786,
      "ng": 4787,
      "projec": 4788,
      "p2": 4789,
      "incub": 4790,
      "carbap": 4791,
      "avoid": 4792,
      "charide": 4793,
      "cattle": 4794,
      "ulin": 4795,
      "volu": 4796,
      "complexes": 4797,
      "p3": 4798,
      "metast": 4799,
      "adoles": 4800,
      "hf": 4801,
      "rever": 4802,
      "cirrhosis": 4803,
      "fungus": 4804,
      "ola": 4805,
      "mac": 4806,
      "above": 4807,
      "suitable": 4808,
      "marked": 4809,
      "dle": 4810,
      "recommendations": 4811,
      "reactions": 4812,
      "ora": 4813,
      "hea": 4814,
      "african": 4815,
      "adjuv": 4816,
      "hap": 4817,
      "gm": 4818,
      "ching": 4819,
      "bla": 4820,
      "summary": 4821,
      "radiation": 4822,
      "income": 4823,
      "gd": 4824,
      "fluorescence": 4825,
      "ered": 4826,
      "princi": 4827,
      "recipients": 4828,
      "chromato": 4829,
      "interpre": 4830,
      "contribut": 4831,
      "sea": 4832,
      "bsi": 4833,
      "alcohol": 4834,
      "decision": 4835,
      "epidemiology": 4836,
      "cognitive": 4837,
      "asper": 4838,
      "adaptive": 4839,
      "viro": 4840,
      "oing": 4841,
      "aspects": 4842,
      "temporal": 4843,
      "science": 4844,
      "classification": 4845,
      "utes": 4846,
      "cape": 4847,
      "plus": 4848,
      "ib": 4849,
      "retroviral": 4850,
      "generally": 4851,
      "resource": 4852,
      "ways": 4853,
      "weak": 4854,
      "neurological": 4855,
      "bidi": 4856,
      "aa": 4857,
      "opportun": 4858,
      "chemis": 4859,
      "rati": 4860,
      "ht": 4861,
      "uter": 4862,
      "psych": 4863,
      "deletion": 4864,
      "synerg": 4865,
      "ostasis": 4866,
      "row": 4867,
      "atp": 4868,
      "ongoing": 4869,
      "favor": 4870,
      "agricul": 4871,
      "gest": 4872,
      "plasmid": 4873,
      "recurrence": 4874,
      "ortho": 4875,
      "pylori": 4876,
      "utilized": 4877,
      "nd": 4878,
      "top": 4879,
      "magne": 4880,
      "ore": 4881,
      "challenging": 4882,
      "transmitted": 4883,
      "atti": 4884,
      "controlling": 4885,
      "shed": 4886,
      "positivity": 4887,
      "ultr": 4888,
      "differenti": 4889,
      "divided": 4890,
      "suspected": 4891,
      "zoono": 4892,
      "xyl": 4893,
      "immunization": 4894,
      "june": 4895,
      "vectors": 4896,
      "suppressed": 4897,
      "idae": 4898,
      "protease": 4899,
      "cribed": 4900,
      "pigs": 4901,
      "hyperten": 4902,
      "concerns": 4903,
      "nel": 4904,
      "seq": 4905,
      "vulner": 4906,
      "homeostasis": 4907,
      "obes": 4908,
      "plastic": 4909,
      "spectively": 4910,
      "particle": 4911,
      "bov": 4912,
      "inclusion": 4913,
      "examp": 4914,
      "swit": 4915,
      "wides": 4916,
      "gastric": 4917,
      "industr": 4918,
      "asperg": 4919,
      "industry": 4920,
      "lf": 4921,
      "middle": 4922,
      "lated": 4923,
      "psychological": 4924,
      "streptococcus": 4925,
      "replic": 4926,
      "validation": 4927,
      "mature": 4928,
      "colo": 4929,
      "venti": 4930,
      "microbes": 4931,
      "itative": 4932,
      "bidities": 4933,
      "conversion": 4934,
      "%-": 4935,
      "hsv": 4936,
      "asth": 4937,
      "gli": 4938,
      "hv": 4939,
      "until": 4940,
      "spectrometry": 4941,
      "excell": 4942,
      "pread": 4943,
      "phenotypic": 4944,
      "rial": 4945,
      "ok": 4946,
      "elic": 4947,
      "adhesion": 4948,
      "urinary": 4949,
      "amount": 4950,
      "perce": 4951,
      "viability": 4952,
      "annu": 4953,
      "attribu": 4954,
      "deg": 4955,
      "phospho": 4956,
      "obesity": 4957,
      "genital": 4958,
      "crim": 4959,
      "widespread": 4960,
      "neumo": 4961,
      "explor": 4962,
      "prophylaxis": 4963,
      "parent": 4964,
      "farm": 4965,
      "scientific": 4966,
      "modification": 4967,
      "tas": 4968,
      "comparative": 4969,
      "reser": 4970,
      "phosphorylation": 4971,
      "fus": 4972,
      "curve": 4973,
      "orter": 4974,
      "considering": 4975,
      "sets": 4976,
      "chloro": 4977,
      "polymorph": 4978,
      "rac": 4979,
      "carry": 4980,
      "bing": 4981,
      "qualitative": 4982,
      "procedures": 4983,
      "poses": 4984,
      "extraction": 4985,
      "presenting": 4986,
      "chemistry": 4987,
      "layer": 4988,
      "preventing": 4989,
      "truc": 4990,
      "bat": 4991,
      "records": 4992,
      "throughput": 4993,
      "barriers": 4994,
      "advances": 4995,
      "corti": 4996,
      "healing": 4997,
      "vesic": 4998,
      "lockdown": 4999,
      "dietary": 5000,
      "h1": 5001,
      "kes": 5002,
      "web": 5003,
      "manifestations": 5004,
      "resid": 5005,
      "networks": 5006,
      "negatively": 5007,
      "problems": 5008,
      "ontal": 5009,
      "families": 5010,
      "ception": 5011,
      "pin": 5012,
      "aque": 5013,
      "differentially": 5014,
      "impa": 5015,
      "progress": 5016,
      "rv": 5017,
      "chlor": 5018,
      "almost": 5019,
      "behaviour": 5020,
      "pharmaco": 5021,
      "0001": 5022,
      "endothelial": 5023,
      "stimulation": 5024,
      "adjust": 5025,
      "rice": 5026,
      "eb": 5027,
      "stay": 5028,
      "ido": 5029,
      "uration": 5030,
      "sum": 5031,
      "predictors": 5032,
      "what": 5033,
      "every": 5034,
      "ranging": 5035,
      "appear": 5036,
      "tored": 5037,
      "translation": 5038,
      "staining": 5039,
      "impaired": 5040,
      "lymphoma": 5041,
      "adequate": 5042,
      "recovered": 5043,
      "none": 5044,
      "excellent": 5045,
      "issues": 5046,
      "autoimmune": 5047,
      "fc": 5048,
      "repair": 5049,
      "remark": 5050,
      "ani": 5051,
      "ln": 5052,
      "insul": 5053,
      "geal": 5054,
      "tick": 5055,
      "limitations": 5056,
      "cis": 5057,
      "cultured": 5058,
      "defini": 5059,
      "interestingly": 5060,
      "var": 5061,
      "knock": 5062,
      "technologies": 5063,
      "ferti": 5064,
      "upregulated": 5065,
      "catalytic": 5066,
      "hence": 5067,
      "gam": 5068,
      "make": 5069,
      "feasi": 5070,
      "matched": 5071,
      "bm": 5072,
      "putative": 5073,
      "minimum": 5074,
      "elds": 5075,
      "silic": 5076,
      "teen": 5077,
      "heterogeneity": 5078,
      "obtain": 5079,
      "india": 5080,
      "enab": 5081,
      "eps": 5082,
      "hours": 5083,
      "prepar": 5084,
      "t2": 5085,
      "fix": 5086,
      "ageno": 5087,
      "erad": 5088,
      "libr": 5089,
      "eukaryo": 5090,
      "sv": 5091,
      "dimen": 5092,
      "rad": 5093,
      "aryngeal": 5094,
      "accomp": 5095,
      "abdo": 5096,
      "completed": 5097,
      "vae": 5098,
      "icidal": 5099,
      "habit": 5100,
      "pneumo": 5101,
      "mostly": 5102,
      "approved": 5103,
      "physiology": 5104,
      "capable": 5105,
      "consequences": 5106,
      "morphology": 5107,
      "pane": 5108,
      "varied": 5109,
      "ace2": 5110,
      "communication": 5111,
      "perox": 5112,
      "pert": 5113,
      "acce": 5114,
      "insight": 5115,
      "implemented": 5116,
      "hepatocellular": 5117,
      "hla": 5118,
      "lives": 5119,
      "nei": 5120,
      "rin": 5121,
      "graft": 5122,
      "phago": 5123,
      "degree": 5124,
      "dock": 5125,
      "leaves": 5126,
      "capsul": 5127,
      "ification": 5128,
      "indust": 5129,
      "promoted": 5130,
      "oxide": 5131,
      "compromised": 5132,
      "generate": 5133,
      "behaviors": 5134,
      "ulate": 5135,
      "demonstrates": 5136,
      "transferase": 5137,
      "donor": 5138,
      "κb": 5139,
      "diges": 5140,
      "ket": 5141,
      "tun": 5142,
      "csf": 5143,
      "immunogenic": 5144,
      "amide": 5145,
      "globally": 5146,
      "metageno": 5147,
      "asthma": 5148,
      "cn": 5149,
      "another": 5150,
      "cfu": 5151,
      "volume": 5152,
      "mirnas": 5153,
      "bt": 5154,
      "acceler": 5155,
      "enrichment": 5156,
      "comparable": 5157,
      "trend": 5158,
      "never": 5159,
      "larvae": 5160,
      "roo": 5161,
      "inoculated": 5162,
      "dual": 5163,
      "auc": 5164,
      "2012": 5165,
      "subunit": 5166,
      "european": 5167,
      "fications": 5168,
      "dd": 5169,
      "rather": 5170,
      "aid": 5171,
      "ann": 5172,
      "calci": 5173,
      "utilization": 5174,
      "placebo": 5175,
      "larger": 5176,
      "perceived": 5177,
      "phenotypes": 5178,
      "clearance": 5179,
      "fres": 5180,
      "biopsy": 5181,
      "omicron": 5182,
      "characteristic": 5183,
      "detailed": 5184,
      "basic": 5185,
      "equi": 5186,
      "albic": 5187,
      "abstr": 5188,
      "etio": 5189,
      "zikv": 5190,
      "north": 5191,
      "isation": 5192,
      "antic": 5193,
      "marine": 5194,
      "lot": 5195,
      "immunotherapy": 5196,
      "sr": 5197,
      "indo": 5198,
      "cord": 5199,
      "qr": 5200,
      "mycobacterium": 5201,
      "surfaces": 5202,
      "beli": 5203,
      "carbapenem": 5204,
      "enhancing": 5205,
      "voir": 5206,
      ">:": 5207,
      "pap": 5208,
      "prolonged": 5209,
      "storage": 5210,
      "reservoir": 5211,
      "ratios": 5212,
      "thri": 5213,
      "vitamin": 5214,
      "indicates": 5215,
      "cytotoxicity": 5216,
      "extended": 5217,
      "importantly": 5218,
      "cellulo": 5219,
      "albicans": 5220,
      "ergic": 5221,
      "amplification": 5222,
      "crystal": 5223,
      "innov": 5224,
      "spir": 5225,
      "antiretroviral": 5226,
      "pac": 5227,
      "fresh": 5228,
      "observational": 5229,
      "encies": 5230,
      "uded": 5231,
      "thermo": 5232,
      "deple": 5233,
      "threate": 5234,
      "occurs": 5235,
      "assign": 5236,
      "lineage": 5237,
      "comycin": 5238,
      "final": 5239,
      "symptomatic": 5240,
      "trends": 5241,
      "lateral": 5242,
      "staff": 5243,
      "methylation": 5244,
      "ligand": 5245,
      "ovirus": 5246,
      "k1": 5247,
      "transition": 5248,
      "umab": 5249,
      "awareness": 5250,
      "plasmic": 5251,
      "candidates": 5252,
      "coag": 5253,
      "polysaccharide": 5254,
      "discrim": 5255,
      "lase": 5256,
      "dial": 5257,
      "organism": 5258,
      "vaginal": 5259,
      "effector": 5260,
      "others": 5261,
      "09": 5262,
      "tase": 5263,
      "dii": 5264,
      "eligi": 5265,
      "influenced": 5266,
      "differ": 5267,
      "avage": 5268,
      "sphere": 5269,
      "pol": 5270,
      "partial": 5271,
      "dry": 5272,
      "left": 5273,
      "hbs": 5274,
      "preventive": 5275,
      "gp": 5276,
      "abi": 5277,
      "chic": 5278,
      "comparing": 5279,
      "integration": 5280,
      "near": 5281,
      "mps": 5282,
      "adaptation": 5283,
      "leukin": 5284,
      "protect": 5285,
      "lab": 5286,
      "inhibiting": 5287,
      "aav": 5288,
      "plasmodi": 5289,
      "interleukin": 5290,
      "mammalian": 5291,
      "t1": 5292,
      "cting": 5293,
      "orig": 5294,
      "a1": 5295,
      "spe": 5296,
      "aids": 5297,
      "apping": 5298,
      "right": 5299,
      "chromatography": 5300,
      "pathogenicity": 5301,
      "dl": 5302,
      "analo": 5303,
      "recruited": 5304,
      "inoculation": 5305,
      "flo": 5306,
      "deriva": 5307,
      "06": 5308,
      "check": 5309,
      "ras": 5310,
      "regular": 5311,
      "derivatives": 5312,
      "acerb": 5313,
      "rif": 5314,
      "exacerb": 5315,
      "hing": 5316,
      "tingu": 5317,
      "engineering": 5318,
      "nerv": 5319,
      "recurrent": 5320,
      "usually": 5321,
      "myce": 5322,
      "tinguish": 5323,
      "ico": 5324,
      "spectroscopy": 5325,
      "cytosis": 5326,
      "wave": 5327,
      "department": 5328,
      "comorbidities": 5329,
      "ilities": 5330,
      "heat": 5331,
      "biomass": 5332,
      "extent": 5333,
      "contributes": 5334,
      "facilities": 5335,
      "black": 5336,
      "spinal": 5337,
      "flex": 5338,
      "pancre": 5339,
      "era": 5340,
      "domes": 5341,
      "(+": 5342,
      "rural": 5343,
      "province": 5344,
      "vancomycin": 5345,
      "timate": 5346,
      "sensing": 5347,
      "composite": 5348,
      "typical": 5349,
      "alb": 5350,
      "city": 5351,
      "cover": 5352,
      "ya": 5353,
      "glyce": 5354,
      "lat": 5355,
      "nemato": 5356,
      "scen": 5357,
      "options": 5358,
      "pubmed": 5359,
      "reproductive": 5360,
      "changed": 5361,
      "discovered": 5362,
      "dra": 5363,
      "fying": 5364,
      "ution": 5365,
      "penia": 5366,
      "lactobacillus": 5367,
      "allows": 5368,
      "independently": 5369,
      "inform": 5370,
      "season": 5371,
      "symptom": 5372,
      "hypertension": 5373,
      "remia": 5374,
      "investigations": 5375,
      "kinetics": 5376,
      "balance": 5377,
      "typically": 5378,
      "get": 5379,
      "mim": 5380,
      "inser": 5381,
      "regulator": 5382,
      "susp": 5383,
      "mucosal": 5384,
      "intravenous": 5385,
      "cortico": 5386,
      "sedi": 5387,
      "deficient": 5388,
      "kle": 5389,
      "domestic": 5390,
      "strand": 5391,
      "nutrient": 5392,
      "relap": 5393,
      "neonatal": 5394,
      "zoonotic": 5395,
      "identity": 5396,
      "expan": 5397,
      "hb": 5398,
      "indirect": 5399,
      "onto": 5400,
      "aro": 5401,
      "completely": 5402,
      "blot": 5403,
      "regimen": 5404,
      "oster": 5405,
      "service": 5406,
      "terol": 5407,
      "transformation": 5408,
      "chy": 5409,
      "lacking": 5410,
      "07": 5411,
      "usive": 5412,
      "asia": 5413,
      "variations": 5414,
      "consequ": 5415,
      "compri": 5416,
      "ranged": 5417,
      "estimates": 5418,
      "preser": 5419,
      "synergistic": 5420,
      "scenari": 5421,
      "aceu": 5422,
      "hp": 5423,
      "purified": 5424,
      "coming": 5425,
      "lets": 5426,
      "lys": 5427,
      "magnetic": 5428,
      "tropical": 5429,
      "similarity": 5430,
      "knockdown": 5431,
      "soluble": 5432,
      "attenuated": 5433,
      "ches": 5434,
      "supported": 5435,
      "cline": 5436,
      "ctic": 5437,
      "diarrhea": 5438,
      "2a": 5439,
      "mtb": 5440,
      "metastasis": 5441,
      "hypothesis": 5442,
      "distributed": 5443,
      "flux": 5444,
      "thanol": 5445,
      ">/": 5446,
      "isto": 5447,
      "fract": 5448,
      "reliable": 5449,
      "nervous": 5450,
      "titers": 5451,
      "nasal": 5452,
      "mell": 5453,
      "donors": 5454,
      "biotics": 5455,
      "comput": 5456,
      "aries": 5457,
      "contaminated": 5458,
      "accept": 5459,
      "stimulated": 5460,
      "denv": 5461,
      "increasingly": 5462,
      "questions": 5463,
      "perior": 5464,
      "guide": 5465,
      "sf": 5466,
      "ubiqu": 5467,
      "rectal": 5468,
      "2023": 5469,
      "july": 5470,
      "thres": 5471,
      "respondents": 5472,
      "periods": 5473,
      "ners": 5474,
      "ards": 5475,
      "depth": 5476,
      "loma": 5477,
      "coupled": 5478,
      "taxa": 5479,
      "choles": 5480,
      "done": 5481,
      "thermal": 5482,
      "therapeutics": 5483,
      "murine": 5484,
      "rab": 5485,
      "bold": 5486,
      "strati": 5487,
      "regimens": 5488,
      "shared": 5489,
      "ammon": 5490,
      "satis": 5491,
      "ond": 5492,
      "brazil": 5493,
      "dental": 5494,
      "tual": 5495,
      "copies": 5496,
      "traits": 5497,
      "absor": 5498,
      "08": 5499,
      "crypto": 5500,
      "electronic": 5501,
      "udes": 5502,
      "infect": 5503,
      "uted": 5504,
      "cumented": 5505,
      "benz": 5506,
      "apo": 5507,
      "encoded": 5508,
      "rising": 5509,
      "bly": 5510,
      "taxonomic": 5511,
      "ica": 5512,
      "dio": 5513,
      "persons": 5514,
      "born": 5515,
      "cure": 5516,
      "chrom": 5517,
      "superior": 5518,
      "posto": 5519,
      "sustained": 5520,
      "austr": 5521,
      "sensor": 5522,
      "lum": 5523,
      "lp": 5524,
      "distinguish": 5525,
      "occurring": 5526,
      "haemo": 5527,
      "granu": 5528,
      "iring": 5529,
      "tenance": 5530,
      "macrophage": 5531,
      "immunological": 5532,
      "neuronal": 5533,
      "lipids": 5534,
      "cytotoxic": 5535,
      "intensity": 5536,
      "plasmodium": 5537,
      "centers": 5538,
      "called": 5539,
      "nucleic": 5540,
      "dig": 5541,
      "endogenous": 5542,
      "ea": 5543,
      "indicators": 5544,
      "hormon": 5545,
      "enable": 5546,
      "working": 5547,
      "postoper": 5548,
      "retin": 5549,
      "coord": 5550,
      "researchers": 5551,
      "lv": 5552,
      "perme": 5553,
      "ends": 5554,
      "means": 5555,
      "3d": 5556,
      "fab": 5557,
      "tg": 5558,
      "randomly": 5559,
      "induces": 5560,
      "rol": 5561,
      "postoperative": 5562,
      "asp": 5563,
      "toxins": 5564,
      "interviews": 5565,
      "contribution": 5566,
      "ru": 5567,
      "maintenance": 5568,
      "wise": 5569,
      "dc": 5570,
      "membranes": 5571,
      "necrosis": 5572,
      "resol": 5573,
      "procedure": 5574,
      "tele": 5575,
      "ious": 5576,
      "myocardi": 5577,
      "1β": 5578,
      "sem": 5579,
      "minimal": 5580,
      "anaerobic": 5581,
      "attach": 5582,
      "2010": 5583,
      "organs": 5584,
      "enty": 5585,
      "vital": 5586,
      "prep": 5587,
      "issue": 5588,
      "array": 5589,
      "discharge": 5590,
      "atum": 5591,
      "except": 5592,
      "oflu": 5593,
      "buil": 5594,
      "uk": 5595,
      "elimination": 5596,
      "signals": 5597,
      "infant": 5598,
      "documented": 5599,
      "precise": 5600,
      "holds": 5601,
      "wel": 5602,
      "parts": 5603,
      "capsid": 5604,
      "></": 5605,
      "decline": 5606,
      "modulation": 5607,
      "placement": 5608,
      "embr": 5609,
      "climate": 5610,
      "west": 5611,
      "aspergillus": 5612,
      "longit": 5613,
      "febru": 5614,
      "february": 5615,
      "gma": 5616,
      "iqr": 5617,
      "anth": 5618,
      "sequenced": 5619,
      "trim": 5620,
      "izations": 5621,
      "extern": 5622,
      "measurements": 5623,
      "shock": 5624,
      "supp": 5625,
      "stabili": 5626,
      "µg": 5627,
      "includes": 5628,
      "upper": 5629,
      "ams": 5630,
      "antagon": 5631,
      "introduced": 5632,
      "pharmacological": 5633,
      "attr": 5634,
      "standardi": 5635,
      "ensure": 5636,
      "hazard": 5637,
      "nlr": 5638,
      "occup": 5639,
      "'-": 5640,
      "nac": 5641,
      "cns": 5642,
      "pharmaceu": 5643,
      "microbiological": 5644,
      "twenty": 5645,
      "genetically": 5646,
      "continued": 5647,
      "longitud": 5648,
      "decades": 5649,
      "ethyl": 5650,
      "diabetic": 5651,
      "substr": 5652,
      "competi": 5653,
      "cocci": 5654,
      "version": 5655,
      "complicated": 5656,
      "accoun": 5657,
      "contributing": 5658,
      "agree": 5659,
      "m1": 5660,
      "persistence": 5661,
      "variability": 5662,
      "hund": 5663,
      ">=": 5664,
      "lyso": 5665,
      "fri": 5666,
      "rea": 5667,
      "hybrid": 5668,
      "hundred": 5669,
      "ancing": 5670,
      "contained": 5671,
      "globulin": 5672,
      "lesion": 5673,
      "promotes": 5674,
      "enzymatic": 5675,
      "fluorescent": 5676,
      "advance": 5677,
      "ready": 5678,
      "suppressive": 5679,
      "fast": 5680,
      "h3": 5681,
      "terti": 5682,
      "lif": 5683,
      "amr": 5684,
      "progressive": 5685,
      "maintaining": 5686,
      "austral": 5687,
      "elder": 5688,
      "bias": 5689,
      "igm": 5690,
      "c1": 5691,
      "regulates": 5692,
      "determinants": 5693,
      "cef": 5694,
      "regional": 5695,
      "n2": 5696,
      "calcium": 5697,
      "gg": 5698,
      "disper": 5699,
      "b2": 5700,
      "distric": 5701,
      "docking": 5702,
      "clinicians": 5703,
      "expansion": 5704,
      "receive": 5705,
      "discussion": 5706,
      "cents": 5707,
      "transduc": 5708,
      "whose": 5709,
      "allo": 5710,
      "predicting": 5711,
      "initially": 5712,
      "highlighted": 5713,
      "zer": 5714,
      "tn": 5715,
      "m2": 5716,
      "ancies": 5717,
      "odes": 5718,
      "ula": 5719,
      "panel": 5720,
      "eos": 5721,
      "ings": 5722,
      "substrates": 5723,
      "efficiently": 5724,
      "pris": 5725,
      "dic": 5726,
      "conformation": 5727,
      "incid": 5728,
      "structured": 5729,
      "downstream": 5730,
      "lineages": 5731,
      "highlighting": 5732,
      "theless": 5733,
      "sleep": 5734,
      "intermediate": 5735,
      "uro": 5736,
      "trau": 5737,
      ">).": 5738,
      "tai": 5739,
      "loop": 5740,
      "cytic": 5741,
      "cathe": 5742,
      "uth": 5743,
      "oxidation": 5744,
      "probiotic": 5745,
      "belonging": 5746,
      "malignant": 5747,
      "lowest": 5748,
      "optimized": 5749,
      "cision": 5750,
      "neural": 5751,
      "empir": 5752,
      "biomarker": 5753,
      "kinetic": 5754,
      ".)": 5755,
      "engineered": 5756,
      "charides": 5757,
      "supplementation": 5758,
      "tumo": 5759,
      "octo": 5760,
      "favorable": 5761,
      "american": 5762,
      "allevi": 5763,
      "ske": 5764,
      "necro": 5765,
      "pooled": 5766,
      "providers": 5767,
      "delayed": 5768,
      "hex": 5769,
      "biosis": 5770,
      "multivariable": 5771,
      "stead": 5772,
      "transcriptome": 5773,
      "adsor": 5774,
      "chest": 5775,
      "considerable": 5776,
      "casp": 5777,
      "ned": 5778,
      "crp": 5779,
      "advantages": 5780,
      "implement": 5781,
      "uncertain": 5782,
      "contains": 5783,
      "quinol": 5784,
      "allowed": 5785,
      "birds": 5786,
      "insect": 5787,
      "possibility": 5788,
      "developmental": 5789,
      "naive": 5790,
      "rus": 5791,
      "elderly": 5792,
      "youn": 5793,
      "pene": 5794,
      "dimension": 5795,
      "/-": 5796,
      "infr": 5797,
      "cephal": 5798,
      "government": 5799,
      "probability": 5800,
      "arum": 5801,
      "policies": 5802,
      "vity": 5803,
      "adolescents": 5804,
      "bioinfor": 5805,
      "nod": 5806,
      "causative": 5807,
      "olar": 5808,
      "external": 5809,
      "manip": 5810,
      "sect": 5811,
      "phenyl": 5812,
      "behavioral": 5813,
      "len": 5814,
      "subjected": 5815,
      "localization": 5816,
      "thi": 5817,
      "turb": 5818,
      "tree": 5819,
      "abstract": 5820,
      "tember": 5821,
      "space": 5822,
      "overcome": 5823,
      "detecting": 5824,
      "acet": 5825,
      "recruit": 5826,
      "bioactive": 5827,
      "args": 5828,
      "thromycin": 5829,
      "microenvironment": 5830,
      "authors": 5831,
      "implant": 5832,
      "falci": 5833,
      "methodology": 5834,
      "september": 5835,
      "precip": 5836,
      "relevance": 5837,
      "pack": 5838,
      "overview": 5839,
      "insulin": 5840,
      "vac": 5841,
      "transl": 5842,
      "encephalitis": 5843,
      "ining": 5844,
      "implicated": 5845,
      "reson": 5846,
      "urgent": 5847,
      "classes": 5848,
      "partners": 5849,
      "fatal": 5850,
      "psycho": 5851,
      "ki": 5852,
      "kers": 5853,
      "lymphocytes": 5854,
      "ada": 5855,
      "goal": 5856,
      "slow": 5857,
      "elucidate": 5858,
      "secu": 5859,
      "clari": 5860,
      "ofor": 5861,
      "combinations": 5862,
      "abdominal": 5863,
      "locus": 5864,
      "reveals": 5865,
      "cessive": 5866,
      "epitopes": 5867,
      "klebsi": 5868,
      "delta": 5869,
      "2011": 5870,
      "kap": 5871,
      "sodium": 5872,
      "nutrition": 5873,
      "semi": 5874,
      "veter": 5875,
      "softw": 5876,
      "trigger": 5877,
      "neutrophil": 5878,
      "alkal": 5879,
      "scanning": 5880,
      "actino": 5881,
      "klebsiella": 5882,
      "inducing": 5883,
      "orts": 5884,
      "parum": 5885,
      "lethal": 5886,
      "simultaneously": 5887,
      "leuko": 5888,
      "wing": 5889,
      "member": 5890,
      "compart": 5891,
      "vast": 5892,
      "poul": 5893,
      "utility": 5894,
      "accep": 5895,
      "software": 5896,
      "library": 5897,
      "gered": 5898,
      "falciparum": 5899,
      "detectable": 5900,
      "consequently": 5901,
      "october": 5902,
      "physicians": 5903,
      "500": 5904,
      "cytometry": 5905,
      "silencing": 5906,
      "fos": 5907,
      "platelet": 5908,
      "spori": 5909,
      "fox": 5910,
      "travel": 5911,
      "visits": 5912,
      "medication": 5913,
      "undergoing": 5914,
      "varying": 5915,
      "f2": 5916,
      "retrospectively": 5917,
      "protocols": 5918,
      "colony": 5919,
      "son": 5920,
      "deli": 5921,
      "modifications": 5922,
      "scaf": 5923,
      "dh": 5924,
      "offers": 5925,
      "wheat": 5926,
      "feature": 5927,
      "sures": 5928,
      "xi": 5929,
      "tertiary": 5930,
      "ocular": 5931,
      "adjuvant": 5932,
      "farms": 5933,
      "1000": 5934,
      "synap": 5935,
      "copy": 5936,
      "hev": 5937,
      "oh": 5938,
      "meningitis": 5939,
      "eved": 5940,
      "below": 5941,
      "ylo": 5942,
      "editing": 5943,
      "ider": 5944,
      "diffusion": 5945,
      "joint": 5946,
      "incubation": 5947,
      "critically": 5948,
      "annual": 5949,
      "mur": 5950,
      "cholesterol": 5951,
      "ultimate": 5952,
      "leuke": 5953,
      "lymphocyte": 5954,
      "quar": 5955,
      "gondii": 5956,
      "poultry": 5957,
      "force": 5958,
      "namely": 5959,
      "zinc": 5960,
      "machine": 5961,
      "fruit": 5962,
      "motor": 5963,
      "serological": 5964,
      "predominantly": 5965,
      "eligible": 5966,
      "example": 5967,
      "react": 5968,
      "geograph": 5969,
      "eye": 5970,
      "younger": 5971,
      "mox": 5972,
      "acquis": 5973,
      "lun": 5974,
      "hbsag": 5975,
      "sustainable": 5976,
      "assessing": 5977,
      "collectively": 5978,
      "directed": 5979,
      "agar": 5980,
      "gran": 5981,
      "esbl": 5982,
      "septic": 5983,
      "gar": 5984,
      "summarize": 5985,
      "impairment": 5986,
      "generative": 5987,
      "assigned": 5988,
      "own": 5989,
      "account": 5990,
      "longitudinal": 5991,
      "ff": 5992,
      "immunohisto": 5993,
      "subtypes": 5994,
      "lymph": 5995,
      "zone": 5996,
      "steri": 5997,
      "tomography": 5998,
      "supporting": 5999,
      "soils": 6000,
      "combining": 6001,
      "ventilation": 6002,
      "entire": 6003,
      "harm": 6004,
      "appears": 6005,
      "cas9": 6006,
      "cats": 6007,
      "august": 6008,
      "consecu": 6009,
      "bcl": 6010,
      "depending": 6011,
      "observations": 6012,
      "yel": 6013,
      "promp": 6014,
      "stroke": 6015,
      "asian": 6016,
      "arthri": 6017,
      "je": 6018,
      "transgenic": 6019,
      "earli": 6020,
      "dimer": 6021,
      "scle": 6022,
      "distress": 6023,
      "inactivation": 6024,
      "hypox": 6025,
      "osis": 6026,
      "evaluating": 6027,
      "tetracy": 6028,
      "perspective": 6029,
      "astern": 6030,
      "pot": 6031,
      "bovine": 6032,
      "reduces": 6033,
      "appeared": 6034,
      "interact": 6035,
      "ulative": 6036,
      "sera": 6037,
      "minor": 6038,
      "mosquitoes": 6039,
      "acquisition": 6040,
      "mobili": 6041,
      "mirna": 6042,
      "hind": 6043,
      "searched": 6044,
      "simulations": 6045,
      "lim": 6046,
      "dend": 6047,
      "disruption": 6048,
      "seasonal": 6049,
      "resonance": 6050,
      "naf": 6051,
      "s1": 6052,
      "bactero": 6053,
      "gold": 6054,
      "disci": 6055,
      "viable": 6056,
      "avy": 6057,
      "demand": 6058,
      "ticks": 6059,
      "poli": 6060,
      "matter": 6061,
      "maintained": 6062,
      "sense": 6063,
      "added": 6064,
      "crop": 6065,
      "baum": 6066,
      "spring": 6067,
      "proven": 6068,
      "collabor": 6069,
      "bey": 6070,
      "bia": 6071,
      "epis": 6072,
      "lifes": 6073,
      "td": 6074,
      "pano": 6075,
      "achiev": 6076,
      "verte": 6077,
      "prescrip": 6078,
      "slight": 6079,
      "idine": 6080,
      "bral": 6081,
      "dilu": 6082,
      "nearly": 6083,
      "iry": 6084,
      "infiltration": 6085,
      "schisto": 6086,
      "chito": 6087,
      "fitness": 6088,
      "heavy": 6089,
      "funda": 6090,
      "pox": 6091,
      "fif": 6092,
      "nap": 6093,
      "taking": 6094,
      "industrial": 6095,
      "contributed": 6096,
      "losses": 6097,
      "aden": 6098,
      "static": 6099,
      "algorithm": 6100,
      "kit": 6101,
      "repeated": 6102,
      "ethanol": 6103,
      "southern": 6104,
      "partially": 6105,
      "ibd": 6106,
      "determining": 6107,
      "attemp": 6108,
      "zn": 6109,
      "ise": 6110,
      "mothers": 6111,
      "once": 6112,
      "cyclo": 6113,
      "silver": 6114,
      "archae": 6115,
      "nurses": 6116,
      "salt": 6117,
      "pcv": 6118,
      "avian": 6119,
      "raw": 6120,
      "latent": 6121,
      "bies": 6122,
      "1a": 6123,
      "subset": 6124,
      "phenomen": 6125,
      "mous": 6126,
      "focal": 6127,
      "clade": 6128,
      "clostri": 6129,
      "experiences": 6130,
      "neutrophils": 6131,
      "endophy": 6132,
      "p53": 6133,
      "attributed": 6134,
      "gan": 6135,
      "coating": 6136,
      "digital": 6137,
      "nation": 6138,
      "residents": 6139,
      "reached": 6140,
      "cellulose": 6141,
      "activate": 6142,
      "hsp": 6143,
      "].": 6144,
      "lactic": 6145,
      "nct": 6146,
      "bran": 6147,
      "preced": 6148,
      "agricultural": 6149,
      "pus": 6150,
      "loaded": 6151,
      "die": 6152,
      "users": 6153,
      "cohorts": 6154,
      "olo": 6155,
      "already": 6156,
      "decl": 6157,
      "rise": 6158,
      "tock": 6159,
      "focusing": 6160,
      "strength": 6161,
      "intrins": 6162,
      "seroprevalence": 6163,
      "crnas": 6164,
      "rum": 6165,
      "vulnerable": 6166,
      "household": 6167,
      "artificial": 6168,
      "immunocompromised": 6169,
      "crc": 6170,
      "descriptive": 6171,
      "shift": 6172,
      "representative": 6173,
      "beyond": 6174,
      "baumann": 6175,
      "mri": 6176,
      "title": 6177,
      "preparation": 6178,
      "airway": 6179,
      "arabi": 6180,
      "registered": 6181,
      "baumannii": 6182,
      "requiring": 6183,
      "adapted": 6184,
      "rog": 6185,
      "consen": 6186,
      "bactericidal": 6187,
      "phospha": 6188,
      "ier": 6189,
      "composed": 6190,
      "alve": 6191,
      "const": 6192,
      "-,": 6193,
      "rbd": 6194,
      "izes": 6195,
      "allowing": 6196,
      "solutions": 6197,
      "intake": 6198,
      "swabs": 6199,
      "professionals": 6200,
      "society": 6201,
      "chromosome": 6202,
      "pet": 6203,
      "idase": 6204,
      "sme": 6205,
      "crisis": 6206,
      ">-</": 6207,
      "integrity": 6208,
      "spont": 6209,
      "histor": 6210,
      "sat": 6211,
      "noted": 6212,
      "vem": 6213,
      "cumulative": 6214,
      "modulate": 6215,
      "bean": 6216,
      "demonstrating": 6217,
      "america": 6218,
      "inhibits": 6219,
      "describes": 6220,
      "arthritis": 6221,
      "similarly": 6222,
      "compatibility": 6223,
      "threatening": 6224,
      "spontaneous": 6225,
      "aemia": 6226,
      "reviews": 6227,
      "nutritional": 6228,
      "-<": 6229,
      "anese": 6230,
      "mycin": 6231,
      "oth": 6232,
      "priori": 6233,
      "steps": 6234,
      "ech": 6235,
      "lus": 6236,
      "melano": 6237,
      "threshold": 6238,
      "msm": 6239,
      "accompani": 6240,
      "agreement": 6241,
      "cg": 6242,
      "vibri": 6243,
      "subtype": 6244,
      "swine": 6245,
      "released": 6246,
      "anine": 6247,
      "mimic": 6248,
      "activating": 6249,
      "matics": 6250,
      "tac": 6251,
      "dom": 6252,
      "accompanied": 6253,
      "mechanistic": 6254,
      "chick": 6255,
      "immunogenicity": 6256,
      "lungs": 6257,
      "topic": 6258,
      "respective": 6259,
      "moni": 6260,
      "assu": 6261,
      "rhe": 6262,
      "ago": 6263,
      "theore": 6264,
      "shif": 6265,
      "possibly": 6266,
      "tgf": 6267,
      "blast": 6268,
      "advantage": 6269,
      "computational": 6270,
      "sensiti": 6271,
      "placed": 6272,
      "proteobacteria": 6273,
      "secreted": 6274,
      "profiling": 6275,
      "practical": 6276,
      "rat": 6277,
      "bus": 6278,
      "tomato": 6279,
      "restricted": 6280,
      "helic": 6281,
      "immunoglobulin": 6282,
      "usage": 6283,
      "forest": 6284,
      "rig": 6285,
      "tub": 6286,
      "gence": 6287,
      "chitosan": 6288,
      "annot": 6289,
      "triggered": 6290,
      "sper": 6291,
      "roots": 6292,
      "carrying": 6293,
      "tatic": 6294,
      "sheep": 6295,
      "histological": 6296,
      "sple": 6297,
      "carriers": 6298,
      "emission": 6299,
      "eradication": 6300,
      "acetyl": 6301,
      "300": 6302,
      "evolved": 6303,
      "diff": 6304,
      "discipl": 6305,
      "ising": 6306,
      "paralle": 6307,
      "distance": 6308,
      "cad": 6309,
      "operating": 6310,
      "osteo": 6311,
      "dataset": 6312,
      "cold": 6313,
      "rit": 6314,
      "original": 6315,
      "dissemination": 6316,
      "plasmids": 6317,
      "room": 6318,
      "cture": 6319,
      "ptosis": 6320,
      "multiplex": 6321,
      "monoclonal": 6322,
      "complication": 6323,
      "sent": 6324,
      "aper": 6325,
      "reason": 6326,
      "sibility": 6327,
      "rational": 6328,
      "japan": 6329,
      "limiting": 6330,
      "sought": 6331,
      "])": 6332,
      "wan": 6333,
      "oo": 6334,
      "toxo": 6335,
      "clon": 6336,
      "orf": 6337,
      "nasoph": 6338,
      "geographic": 6339,
      "option": 6340,
      "rb": 6341,
      "thropo": 6342,
      "fluoro": 6343,
      "arium": 6344,
      "repeat": 6345,
      "decreasing": 6346,
      "sial": 6347,
      "tag": 6348,
      "tudes": 6349,
      "apparent": 6350,
      "images": 6351,
      "onucle": 6352,
      "lihood": 6353,
      "steroids": 6354,
      "dv": 6355,
      "metabolo": 6356,
      "exist": 6357,
      "usa": 6358,
      "rod": 6359,
      "novem": 6360,
      "cali": 6361,
      "pharmaceutical": 6362,
      "cam": 6363,
      "operation": 6364,
      "cise": 6365,
      "november": 6366,
      "temperatures": 6367,
      "interpretation": 6368,
      "standardized": 6369,
      "nafld": 6370,
      "variate": 6371,
      "resili": 6372,
      "ultimately": 6373,
      "carbohydr": 6374,
      "unities": 6375,
      "chicken": 6376,
      "microbials": 6377,
      "relation": 6378,
      "aba": 6379,
      "computed": 6380,
      "opportunities": 6381,
      "orum": 6382,
      "represented": 6383,
      "psi": 6384,
      "knockout": 6385,
      "locations": 6386,
      "arteri": 6387,
      "silico": 6388,
      "besides": 6389,
      "consecutive": 6390,
      "greatly": 6391,
      "concept": 6392,
      "nh": 6393,
      "120": 6394,
      "overl": 6395,
      "timely": 6396,
      "construction": 6397,
      "motif": 6398,
      "zika": 6399,
      "etiology": 6400,
      "agnps": 6401,
      "cannot": 6402,
      "gra": 6403,
      "lamp": 6404,
      "translational": 6405,
      "probiotics": 6406,
      "recombination": 6407,
      "largest": 6408,
      "ished": 6409,
      "tol": 6410,
      "sarco": 6411,
      "fundamental": 6412,
      "device": 6413,
      "choice": 6414,
      "polar": 6415,
      "curity": 6416,
      "antimicrobials": 6417,
      "scr": 6418,
      "conten": 6419,
      "epider": 6420,
      "(+)": 6421,
      "upregulation": 6422,
      "eggs": 6423,
      "simulation": 6424,
      "analytical": 6425,
      "leukemia": 6426,
      "dendri": 6427,
      "002": 6428,
      "eukaryotic": 6429,
      "nad": 6430,
      "depletion": 6431,
      "smoking": 6432,
      "sugar": 6433,
      "bmi": 6434,
      "150": 6435,
      "registration": 6436,
      "solute": 6437,
      "istin": 6438,
      "utum": 6439,
      "ethnic": 6440,
      "fp": 6441,
      "humoral": 6442,
      "suppress": 6443,
      "tricho": 6444,
      "gamma": 6445,
      "tude": 6446,
      "consensus": 6447,
      "opportunistic": 6448,
      "acto": 6449,
      "recruitment": 6450,
      "dimensional": 6451,
      "parents": 6452,
      "grown": 6453,
      "encapsul": 6454,
      "vesicles": 6455,
      "perit": 6456,
      "glycosy": 6457,
      "aki": 6458,
      "complexity": 6459,
      "tl": 6460,
      "weigh": 6461,
      "fide": 6462,
      "elimin": 6463,
      "devices": 6464,
      "granulo": 6465,
      "dramatic": 6466,
      "elucidated": 6467,
      "hae": 6468,
      "blu": 6469,
      "manu": 6470,
      "logists": 6471,
      "draw": 6472,
      "extremely": 6473,
      "mediation": 6474,
      "table": 6475,
      "leishmania": 6476,
      "g1": 6477,
      "calcul": 6478,
      "extra": 6479,
      "asome": 6480,
      "quantification": 6481,
      "cleavage": 6482,
      "imer": 6483,
      "involves": 6484,
      "viridae": 6485,
      "initiated": 6486,
      "alling": 6487,
      "transcripts": 6488,
      "conclude": 6489,
      "utilizing": 6490,
      "covered": 6491,
      "hygi": 6492,
      "mscs": 6493,
      "innovative": 6494,
      "evs": 6495,
      "-(": 6496,
      "dg": 6497,
      "east": 6498,
      "itant": 6499,
      "mobile": 6500,
      "hemor": 6501,
      "fies": 6502,
      "urally": 6503,
      "correct": 6504,
      "scar": 6505,
      "traf": 6506,
      "breeding": 6507,
      "trypano": 6508,
      "cryo": 6509,
      "nmr": 6510,
      "regardless": 6511,
      "tim": 6512,
      "earlier": 6513,
      "rot": 6514,
      "sulfate": 6515,
      "astro": 6516,
      "compli": 6517,
      "existence": 6518,
      "orb": 6519,
      "ester": 6520,
      "og": 6521,
      "virulent": 6522,
      "saliva": 6523,
      "systematically": 6524,
      "observation": 6525,
      "likelihood": 6526,
      "color": 6527,
      "epigenetic": 6528,
      "livestock": 6529,
      "abnormalities": 6530,
      "ony": 6531,
      "influencing": 6532,
      "alveolar": 6533,
      "versely": 6534,
      "naturally": 6535,
      "representing": 6536,
      "easi": 6537,
      "subgroup": 6538,
      "fields": 6539,
      "diffici": 6540,
      "difficile": 6541,
      "max": 6542,
      "equip": 6543,
      "childhood": 6544,
      "methicillin": 6545,
      "cyano": 6546,
      "modulating": 6547,
      "datasets": 6548,
      "2009": 6549,
      "modes": 6550,
      "hemorrh": 6551,
      "defects": 6552,
      "stool": 6553,
      "tention": 6554,
      "gluc": 6555,
      "killing": 6556,
      "surround": 6557,
      "dairy": 6558,
      "niger": 6559,
      "tetracycline": 6560,
      "hydropho": 6561,
      "fum": 6562,
      "neph": 6563,
      "spleen": 6564,
      "itus": 6565,
      "fine": 6566,
      "localized": 6567,
      "chromatin": 6568,
      "synth": 6569,
      "(>": 6570,
      "northern": 6571,
      "tobacter": 6572,
      "mycosis": 6573,
      "ley": 6574,
      "cycles": 6575,
      "outer": 6576,
      "gaps": 6577,
      "egg": 6578,
      "caspase": 6579,
      "papil": 6580,
      "onas": 6581,
      "nitri": 6582,
      "overexpres": 6583,
      "astic": 6584,
      "surviv": 6585,
      "roc": 6586,
      "refer": 6587,
      "ali": 6588,
      "correlations": 6589,
      "gingi": 6590,
      "mum": 6591,
      "ky": 6592,
      "malignancies": 6593,
      "stics": 6594,
      "mf": 6595,
      "extensively": 6596,
      "ads": 6597,
      "measurement": 6598,
      "arbo": 6599,
      "substantially": 6600,
      "usual": 6601,
      "heterogeneous": 6602,
      "italic": 6603,
      "tumour": 6604,
      "respect": 6605,
      "hcws": 6606,
      "oligo": 6607,
      "neutralization": 6608,
      "sca": 6609,
      "phila": 6610,
      "termin": 6611,
      "posing": 6612,
      "micror": 6613,
      "poie": 6614,
      "manufact": 6615,
      "npc": 6616,
      "fewer": 6617,
      "pia": 6618,
      "named": 6619,
      "contacts": 6620,
      "mess": 6621,
      "serotype": 6622,
      "untreated": 6623,
      "mitigate": 6624,
      "meat": 6625,
      "metabolite": 6626,
      "tilis": 6627,
      "charged": 6628,
      "quantified": 6629,
      "atives": 6630,
      "amycin": 6631,
      "diagnostics": 6632,
      "created": 6633,
      "align": 6634,
      "metas": 6635,
      "determination": 6636,
      "colistin": 6637,
      "cation": 6638,
      "vibrio": 6639,
      "regulators": 6640,
      "exhibits": 6641,
      "responsive": 6642,
      "blasts": 6643,
      "attitudes": 6644,
      "pollution": 6645,
      "hg": 6646,
      "rarely": 6647,
      "corne": 6648,
      "archite": 6649,
      "chickens": 6650,
      "contents": 6651,
      "pore": 6652,
      "shape": 6653,
      "hei": 6654,
      "nevertheless": 6655,
      "reactivity": 6656,
      "constant": 6657,
      "dar": 6658,
      "ji": 6659,
      "thio": 6660,
      "megal": 6661,
      "iae": 6662,
      "hydrogel": 6663,
      "precipitation": 6664,
      "intervals": 6665,
      "ales": 6666,
      "tus": 6667,
      "mineral": 6668,
      "assist": 6669,
      "proved": 6670,
      "h2": 6671,
      "remaining": 6672,
      "marrow": 6673,
      "fabric": 6674,
      "monitored": 6675,
      "antigenic": 6676,
      "geographical": 6677,
      "inde": 6678,
      "reporter": 6679,
      "precur": 6680,
      "c2": 6681,
      "soma": 6682,
      "surveys": 6683,
      "transient": 6684,
      "tery": 6685,
      "udge": 6686,
      "nucleus": 6687,
      "eosin": 6688,
      "multic": 6689,
      "acetate": 6690,
      "fear": 6691,
      "bacte": 6692,
      "formulation": 6693,
      "cha": 6694,
      "circulation": 6695,
      "preferen": 6696,
      "retic": 6697,
      "insectic": 6698,
      "construct": 6699,
      "optimization": 6700,
      "transfec": 6701,
      "factory": 6702,
      "dify": 6703,
      "supply": 6704,
      "dan": 6705,
      "epitheli": 6706,
      "serine": 6707,
      "remarkable": 6708,
      "docu": 6709,
      "kt": 6710,
      "stru": 6711,
      "categories": 6712,
      "poc": 6713,
      "hn": 6714,
      "absolute": 6715,
      "copper": 6716,
      "epitope": 6717,
      "vertebr": 6718,
      "yellow": 6719,
      "ret": 6720,
      "substances": 6721,
      "hydrophobic": 6722,
      "whom": 6723,
      "ribosomal": 6724,
      "ecosystems": 6725,
      "tability": 6726,
      "downregulated": 6727,
      "bis": 6728,
      "glycan": 6729,
      "ues": 6730,
      "medications": 6731,
      "mobility": 6732,
      "titer": 6733,
      "mex": 6734,
      "tory": 6735,
      "capture": 6736,
      "glutam": 6737,
      "quick": 6738,
      "lization": 6739,
      "retention": 6740,
      "pag": 6741,
      "nar": 6742,
      "2000": 6743,
      "akt": 6744,
      "reactivation": 6745,
      "intrinsic": 6746,
      "acyl": 6747,
      "tm": 6748,
      "coordin": 6749,
      "kp": 6750,
      "depres": 6751,
      "continue": 6752,
      "tations": 6753,
      "athe": 6754,
      "exchange": 6755,
      "immunosuppressive": 6756,
      "lam": 6757,
      "subtilis": 6758,
      "cough": 6759,
      "actin": 6760,
      "loci": 6761,
      "nursing": 6762,
      "sampled": 6763,
      "interface": 6764,
      "nasopharyngeal": 6765,
      "psychi": 6766,
      "binds": 6767,
      "vl": 6768,
      "stigma": 6769,
      "rhiz": 6770,
      "classical": 6771,
      "pestic": 6772,
      "iga": 6773,
      "theoretical": 6774,
      "consistently": 6775,
      "preclinical": 6776,
      "consisting": 6777,
      "situation": 6778,
      "dehydrogen": 6779,
      "outpatient": 6780,
      "consul": 6781,
      "vp": 6782,
      "syphi": 6783,
      "decis": 6784,
      "race": 6785,
      "run": 6786,
      "physico": 6787,
      "radical": 6788,
      "dendritic": 6789,
      "thought": 6790,
      "competent": 6791,
      "circum": 6792,
      "reasons": 6793,
      "dehy": 6794,
      "tering": 6795,
      "tempor": 6796,
      "gos": 6797,
      "episodes": 6798,
      "discrimin": 6799,
      "5p": 6800,
      "visit": 6801,
      "worm": 6802,
      "yielded": 6803,
      "comprising": 6804,
      "differed": 6805,
      "corre": 6806,
      "direction": 6807,
      "serotypes": 6808,
      "pass": 6809,
      "porcine": 6810,
      "iasis": 6811,
      "eo": 6812,
      "typhi": 6813,
      "markedly": 6814,
      "mand": 6815,
      "studying": 6816,
      "alities": 6817,
      "drin": 6818,
      "combat": 6819,
      "route": 6820,
      "soft": 6821,
      "enhancement": 6822,
      "stres": 6823,
      "dop": 6824,
      "clean": 6825,
      "papilloma": 6826,
      "iran": 6827,
      "outside": 6828,
      "hypothesized": 6829,
      "roid": 6830,
      "aty": 6831,
      "cb": 6832,
      "boost": 6833,
      "polymorphisms": 6834,
      "modify": 6835,
      "basal": 6836,
      "harbor": 6837,
      "define": 6838,
      "changing": 6839,
      "d1": 6840,
      "metastatic": 6841,
      "relapse": 6842,
      "absorption": 6843,
      "repres": 6844,
      "acade": 6845,
      "project": 6846,
      "ciprof": 6847,
      "pivo": 6848,
      "dos": 6849,
      "achieving": 6850,
      "concerning": 6851,
      "motility": 6852,
      "polari": 6853,
      "adsorption": 6854,
      "shaped": 6855,
      "homolog": 6856,
      "explained": 6857,
      "enables": 6858,
      "h5": 6859,
      "supports": 6860,
      "progen": 6861,
      "neurode": 6862,
      "oids": 6863,
      "ov": 6864,
      "ciprofloxacin": 6865,
      "enterococcus": 6866,
      "actic": 6867,
      "copd": 6868,
      "viri": 6869,
      "rhizosphere": 6870,
      "pathic": 6871,
      "translocation": 6872,
      "universal": 6873,
      "parallel": 6874,
      "blue": 6875,
      "permeability": 6876,
      "dead": 6877,
      "colitis": 6878,
      "400": 6879,
      "pti": 6880,
      "onin": 6881,
      "maturation": 6882,
      "ulcer": 6883,
      "residue": 6884,
      "ww": 6885,
      "fetal": 6886,
      "aquatic": 6887,
      "poietic": 6888,
      "yi": 6889,
      "fall": 6890,
      "dermato": 6891,
      "exclusive": 6892,
      "hippo": 6893,
      "laser": 6894,
      "circu": 6895,
      "quantify": 6896,
      "diame": 6897,
      "reper": 6898,
      "ligands": 6899,
      "gall": 6900,
      "referred": 6901,
      "channel": 6902,
      "compens": 6903,
      "inactivated": 6904,
      "bodies": 6905,
      "bank": 6906,
      "a2": 6907,
      "embry": 6908,
      "bactam": 6909,
      "acine": 6910,
      "pancreatic": 6911,
      "resis": 6912,
      "sensors": 6913,
      "onazole": 6914,
      "fati": 6915,
      "potency": 6916,
      "starting": 6917,
      "cystic": 6918,
      "ental": 6919,
      "medicinal": 6920,
      "feasibility": 6921,
      "fusarium": 6922,
      "redox": 6923,
      "syphilis": 6924,
      "infecting": 6925,
      "commen": 6926,
      "concom": 6927,
      "spores": 6928,
      "unts": 6929,
      "movement": 6930,
      "foundation": 6931,
      "crops": 6932,
      "velope": 6933,
      "promin": 6934,
      "monocytes": 6935,
      "histopathological": 6936,
      "steroid": 6937,
      "shorter": 6938,
      "spot": 6939,
      "pivotal": 6940,
      "envelope": 6941,
      "letal": 6942,
      "sensory": 6943,
      "thirty": 6944,
      "enhances": 6945,
      "concomitant": 6946,
      "aps": 6947,
      "booster": 6948,
      "promise": 6949,
      "diagnoses": 6950,
      "regeneration": 6951,
      "bay": 6952,
      "%]": 6953,
      "probably": 6954,
      "enteric": 6955,
      "erythro": 6956,
      "cyclic": 6957,
      "instru": 6958,
      "italy": 6959,
      "hygiene": 6960,
      "ram": 6961,
      "itri": 6962,
      "egfr": 6963,
      "thin": 6964,
      "element": 6965,
      "causal": 6966,
      "intestine": 6967,
      "):": 6968,
      "verified": 6969,
      "buty": 6970,
      "proxim": 6971,
      "span": 6972,
      "replacement": 6973,
      "chymal": 6974,
      "transform": 6975,
      "illum": 6976,
      "compliance": 6977,
      "started": 6978,
      "teach": 6979,
      "volati": 6980,
      "tropic": 6981,
      "splic": 6982,
      "tidyl": 6983,
      "retri": 6984,
      "investigating": 6985,
      "nab": 6986,
      "challenged": 6987,
      "acinetobacter": 6988,
      "litis": 6989,
      "thor": 6990,
      "fatigue": 6991,
      "peg": 6992,
      "orial": 6993,
      "polysaccharides": 6994,
      ")/": 6995,
      "dysp": 6996,
      "engagement": 6997,
      "influences": 6998,
      "lepto": 6999,
      "ifer": 7000,
      "sting": 7001,
      "modulatory": 7002,
      "tf": 7003,
      "expanded": 7004,
      "survivors": 7005,
      "rescu": 7006,
      "gingival": 7007,
      "glycoprotein": 7008,
      "enteri": 7009,
      "aggressive": 7010,
      "htt": 7011,
      "disciplinary": 7012,
      "sities": 7013,
      "dp": 7014,
      "pairs": 7015,
      "homologous": 7016,
      "clearly": 7017,
      "soy": 7018,
      "cerebral": 7019,
      "ida": 7020,
      "genetics": 7021,
      "meanwhile": 7022,
      "depends": 7023,
      "colle": 7024,
      "cdi": 7025,
      "ofi": 7026,
      "prescri": 7027,
      "ultraso": 7028,
      "box": 7029,
      "probe": 7030,
      "addressing": 7031,
      "allele": 7032,
      "exce": 7033,
      "embase": 7034,
      "nsp": 7035,
      "fungic": 7036,
      "powerful": 7037,
      "protozo": 7038,
      "metagenomic": 7039,
      "dehydrogenase": 7040,
      "globin": 7041,
      "pollut": 7042,
      "failed": 7043,
      "addressed": 7044,
      "easily": 7045,
      "ultrasound": 7046,
      "ulating": 7047,
      "bioinformatics": 7048,
      "synthase": 7049,
      "retinal": 7050,
      "oxidi": 7051,
      "pel": 7052,
      "colorectal": 7053,
      "abol": 7054,
      "feri": 7055,
      "platforms": 7056,
      "ecosystem": 7057,
      "rous": 7058,
      "albumin": 7059,
      "exogenous": 7060,
      "myeloid": 7061,
      "scope": 7062,
      "ceptions": 7063,
      "wet": 7064,
      "suffer": 7065,
      "restriction": 7066,
      "list": 7067,
      "lifesty": 7068,
      "chemicals": 7069,
      "qs": 7070,
      "neigh": 7071,
      "express": 7072,
      "aes": 7073,
      "magnit": 7074,
      "dysbiosis": 7075,
      "biomedical": 7076,
      "junction": 7077,
      "randomi": 7078,
      "signalling": 7079,
      "dosing": 7080,
      "dimin": 7081,
      "swab": 7082,
      "frequencies": 7083,
      "theory": 7084,
      "h7": 7085,
      "t3": 7086,
      "validate": 7087,
      "transduction": 7088,
      "preli": 7089,
      "aggregation": 7090,
      "pneumococcal": 7091,
      "tp": 7092,
      "stranded": 7093,
      "philic": 7094,
      "symbi": 7095,
      "assisted": 7096,
      "perception": 7097,
      "ubiquitin": 7098,
      "oma": 7099,
      "protected": 7100,
      "create": 7101,
      "sludge": 7102,
      "eastern": 7103,
      "slightly": 7104,
      "iav": 7105,
      "xeno": 7106,
      "possess": 7107,
      "differentiated": 7108,
      "oride": 7109,
      "onella": 7110,
      "instead": 7111,
      "sn": 7112,
      "guidance": 7113,
      "start": 7114,
      "exercise": 7115,
      "conazole": 7116,
      "seems": 7117,
      "korea": 7118,
      "cavity": 7119,
      "decisions": 7120,
      "mucosa": 7121,
      "h1n1": 7122,
      "confer": 7123,
      "empirical": 7124,
      "luc": 7125,
      "educational": 7126,
      "funding": 7127,
      "cycling": 7128,
      "indicator": 7129,
      "establishment": 7130,
      "became": 7131,
      "precision": 7132,
      "reproduction": 7133,
      "prescribed": 7134,
      "zumab": 7135,
      "decreases": 7136,
      "supplement": 7137,
      "psychiatric": 7138,
      "alanine": 7139,
      "haplo": 7140,
      "bacteremia": 7141,
      "eso": 7142,
      "resolved": 7143,
      "prelimin": 7144,
      "buf": 7145,
      "gov": 7146,
      "dehyde": 7147,
      "ebola": 7148,
      "stronger": 7149,
      "guided": 7150,
      "residual": 7151,
      "remediation": 7152,
      "security": 7153,
      "cytoplasmic": 7154,
      "amplic": 7155,
      "improvements": 7156,
      "ancer": 7157,
      "entical": 7158,
      "congenital": 7159,
      "amounts": 7160,
      "latter": 7161,
      "encour": 7162,
      "onomy": 7163,
      "pure": 7164,
      "collagen": 7165,
      "resilience": 7166,
      "checkpoint": 7167,
      "preferred": 7168,
      "priv": 7169,
      "begin": 7170,
      "snps": 7171,
      "neck": 7172,
      "ibility": 7173,
      "destruc": 7174,
      "ethio": 7175,
      "limits": 7176,
      "bleeding": 7177,
      "llar": 7178,
      "mcs": 7179,
      "dispar": 7180,
      "parasito": 7181,
      "anticancer": 7182,
      "devi": 7183,
      "thema": 7184,
      "uninfected": 7185,
      "vig": 7186,
      "addi": 7187,
      "3p": 7188,
      "agic": 7189,
      "flic": 7190,
      "halo": 7191,
      "histone": 7192,
      "makes": 7193,
      "phosphatidyl": 7194,
      "ccr": 7195,
      "dominated": 7196,
      "uri": 7197,
      "ultra": 7198,
      "mixture": 7199,
      "cyste": 7200,
      "lli": 7201,
      "chlamy": 7202,
      "mediates": 7203,
      "rheu": 7204,
      "facility": 7205,
      "transcriptomic": 7206,
      "statistics": 7207,
      "clinics": 7208,
      "mda": 7209,
      "sna": 7210,
      "consisted": 7211,
      "romy": 7212,
      "drive": 7213,
      "bronchi": 7214,
      "wors": 7215,
      "p4": 7216,
      "µm": 7217,
      "clustering": 7218,
      "totic": 7219,
      "allergic": 7220,
      "arial": 7221,
      "periodon": 7222,
      "hematopoietic": 7223,
      "finan": 7224,
      "cultivation": 7225,
      "colonies": 7226,
      "malignancy": 7227,
      "constrain": 7228,
      "thick": 7229,
      "magnitude": 7230,
      "selectivity": 7231,
      "opi": 7232,
      "horiz": 7233,
      "impacted": 7234,
      "dilution": 7235,
      "tides": 7236,
      "elu": 7237,
      "ressing": 7238,
      "periodontal": 7239,
      "australia": 7240,
      "illustr": 7241,
      "inst": 7242,
      "formulations": 7243,
      "inib": 7244,
      "caro": 7245,
      "enabling": 7246,
      "ole": 7247,
      "bin": 7248,
      "derma": 7249,
      "topical": 7250,
      "stratified": 7251,
      "flage": 7252,
      "technological": 7253,
      "pyro": 7254,
      "trust": 7255,
      "delivered": 7256,
      "compatible": 7257,
      "mbl": 7258,
      "wu": 7259,
      "infiltr": 7260,
      "mellitus": 7261,
      "bacill": 7262,
      "nerve": 7263,
      "amous": 7264,
      "brief": 7265,
      "apoptotic": 7266,
      "generating": 7267,
      "loads": 7268,
      "clustered": 7269,
      "tcr": 7270,
      "hybri": 7271,
      "exper": 7272,
      "infusion": 7273,
      "communic": 7274,
      "worse": 7275,
      "building": 7276,
      "alcoho": 7277,
      "cyst": 7278,
      "gens": 7279,
      "ofluores": 7280,
      "interacting": 7281,
      "dn": 7282,
      "ema": 7283,
      "share": 7284,
      "prophylactic": 7285,
      "physicochemical": 7286,
      "managing": 7287,
      "aqueous": 7288,
      "transpor": 7289,
      "spore": 7290,
      "district": 7291,
      "streptomy": 7292,
      "ey": 7293,
      "enabled": 7294,
      "optical": 7295,
      "phases": 7296,
      "hybridi": 7297,
      "subject": 7298,
      "oxa": 7299,
      "lium": 7300,
      "//": 7301,
      "comprised": 7302,
      "tof": 7303,
      "restrictions": 7304,
      "measles": 7305,
      "shedding": 7306,
      "blind": 7307,
      "rub": 7308,
      "analyzing": 7309,
      "tobac": 7310,
      "owing": 7311,
      "alt": 7312,
      "distancing": 7313,
      "tein": 7314,
      "amplified": 7315,
      "traffic": 7316,
      "gradi": 7317,
      "harbo": 7318,
      "coron": 7319,
      "equipment": 7320,
      "nose": 7321,
      "bacteriaceae": 7322,
      "cysts": 7323,
      "institute": 7324,
      "attachment": 7325,
      "003": 7326,
      "themes": 7327,
      "landscape": 7328,
      "assembled": 7329,
      "cochr": 7330,
      "inity": 7331,
      "helmin": 7332,
      "designated": 7333,
      "proliferative": 7334,
      "fig": 7335,
      "adopted": 7336,
      "infectivity": 7337,
      "signature": 7338,
      "cochrane": 7339,
      "immobili": 7340,
      "biosynthetic": 7341,
      "excessive": 7342,
      "scenarios": 7343,
      "eosinophi": 7344,
      "ending": 7345,
      "degs": 7346,
      "toll": 7347,
      "eds": 7348,
      "3a": 7349,
      "ambi": 7350,
      "acr": 7351,
      "wounds": 7352,
      "://": 7353,
      "phenomenon": 7354,
      "bab": 7355,
      "friend": 7356,
      "fiber": 7357,
      "myx": 7358,
      "excluded": 7359,
      "sizes": 7360,
      "gfp": 7361,
      "bowel": 7362,
      "atories": 7363,
      "modern": 7364,
      "propag": 7365,
      "capability": 7366,
      "mammals": 7367,
      "rp": 7368,
      "para": 7369,
      "trauma": 7370,
      "tobacco": 7371,
      "cerebro": 7372,
      "immunosuppression": 7373,
      "heterologous": 7374,
      "financial": 7375,
      "accurately": 7376,
      "myocardial": 7377,
      "inin": 7378,
      "drain": 7379,
      "focuses": 7380,
      "obstruc": 7381,
      "sulfur": 7382,
      "ventric": 7383,
      "thyroid": 7384,
      "novo": 7385,
      "apped": 7386,
      "iu": 7387,
      "periodontitis": 7388,
      "false": 7389,
      "river": 7390,
      "saline": 7391,
      "125": 7392,
      "astruc": 7393,
      "ache": 7394,
      "revealing": 7395,
      "deposition": 7396,
      "blocking": 7397,
      "gels": 7398,
      "abilities": 7399,
      "substance": 7400,
      "amen": 7401,
      "glycerol": 7402,
      "surrounding": 7403,
      "tight": 7404,
      "loo": 7405,
      "fragment": 7406,
      "predictor": 7407,
      "sand": 7408,
      "ny": 7409,
      "gb": 7410,
      "ster": 7411,
      "socioeconomic": 7412,
      "e2": 7413,
      "uria": 7414,
      "foot": 7415,
      "restor": 7416,
      "infective": 7417,
      "planning": 7418,
      "sputum": 7419,
      "inside": 7420,
      "transporter": 7421,
      "graf": 7422,
      "ovari": 7423,
      "leg": 7424,
      "cros": 7425,
      "veterinary": 7426,
      "hic": 7427,
      "escape": 7428,
      "anemia": 7429,
      "nephro": 7430,
      "oni": 7431,
      "efflux": 7432,
      "laboratories": 7433,
      "upd": 7434,
      "hone": 7435,
      "canon": 7436,
      "drople": 7437,
      "lactamase": 7438,
      "mhc": 7439,
      "squamous": 7440,
      "label": 7441,
      "synaptic": 7442,
      "closed": 7443,
      "principal": 7444,
      "requirements": 7445,
      "insufficient": 7446,
      "plaque": 7447,
      "insertion": 7448,
      "diameter": 7449,
      "epidemics": 7450,
      "feasible": 7451,
      "resection": 7452,
      "insects": 7453,
      "spreading": 7454,
      "abscess": 7455,
      "subsets": 7456,
      "oneal": 7457,
      "2d": 7458,
      "arg": 7459,
      "antitumor": 7460,
      "cxcl": 7461,
      "lactate": 7462,
      "ested": 7463,
      "vascul": 7464,
      "nutrients": 7465,
      "comparisons": 7466,
      "leishmaniasis": 7467,
      "hormone": 7468,
      "monocyto": 7469,
      "crna": 7470,
      "mitochondria": 7471,
      "optimize": 7472,
      "crude": 7473,
      "kind": 7474,
      "atase": 7475,
      "ples": 7476,
      "proinflammatory": 7477,
      "worsen": 7478,
      "identical": 7479,
      "mutagen": 7480,
      "atcc": 7481,
      "prevented": 7482,
      "driving": 7483,
      "paed": 7484,
      "text": 7485,
      "mapping": 7486,
      "rabies": 7487,
      "inocul": 7488,
      "atypical": 7489,
      "vor": 7490,
      "opportunity": 7491,
      "commit": 7492,
      "faecalis": 7493,
      "coated": 7494,
      "osine": 7495,
      "purification": 7496,
      "hippocamp": 7497,
      "manage": 7498,
      "prominent": 7499,
      "timing": 7500,
      "1b": 7501,
      "monocytogenes": 7502,
      "excit": 7503,
      "encoun": 7504,
      "mmp": 7505,
      "indices": 7506,
      "ensive": 7507,
      "azi": 7508,
      "perspec": 7509,
      "motiv": 7510,
      "campa": 7511,
      "mtor": 7512,
      "return": 7513,
      "smaller": 7514,
      "versa": 7515,
      "cdc": 7516,
      "preliminary": 7517,
      "welling": 7518,
      "irradiation": 7519,
      "campaign": 7520,
      "fing": 7521,
      "perspectives": 7522,
      "gers": 7523,
      "prostate": 7524,
      "primers": 7525,
      "noso": 7526,
      "senes": 7527,
      "ries": 7528,
      "separate": 7529,
      "tap": 7530,
      "/-</": 7531,
      "team": 7532,
      "aur": 7533,
      "c3": 7534,
      "refract": 7535,
      "lost": 7536,
      "degrading": 7537,
      "separation": 7538,
      "adder": 7539,
      "mesen": 7540,
      "brown": 7541,
      "canonical": 7542,
      "image": 7543,
      "lior": 7544,
      "clones": 7545,
      "centre": 7546,
      "exact": 7547,
      "immediate": 7548,
      "enic": 7549,
      "echo": 7550,
      "discover": 7551,
      "prrsv": 7552,
      "mask": 7553,
      "conduct": 7554,
      "maize": 7555,
      "flavono": 7556,
      "tile": 7557,
      "applying": 7558,
      "switch": 7559,
      "ccl": 7560,
      "plc": 7561,
      "japanese": 7562,
      "noti": 7563,
      "fragments": 7564,
      "prompt": 7565,
      "nematode": 7566,
      "amelior": 7567,
      "scc": 7568,
      "woman": 7569,
      "kb": 7570,
      "performing": 7571,
      "bol": 7572,
      "trop": 7573,
      "pathophysiology": 7574,
      "carrier": 7575,
      "neonates": 7576,
      "topo": 7577,
      "conven": 7578,
      "dcs": 7579,
      "chim": 7580,
      "pota": 7581,
      "clostridium": 7582,
      "algae": 7583,
      "chb": 7584,
      "hard": 7585,
      "autom": 7586,
      "wood": 7587,
      "bilit": 7588,
      "hybridization": 7589,
      "nels": 7590,
      "penicillin": 7591,
      "inducible": 7592,
      "honey": 7593,
      "carbohydrate": 7594,
      "incorporated": 7595,
      "reflect": 7596,
      "decade": 7597,
      "cardiomyo": 7598,
      "immunized": 7599,
      "mally": 7600,
      "caregi": 7601,
      "interference": 7602,
      "fibroblasts": 7603,
      "academic": 7604,
      "sole": 7605,
      "ctomy": 7606,
      "aud": 7607,
      "ethiopia": 7608,
      "coagulation": 7609,
      "proportions": 7610,
      "preterm": 7611,
      "name": 7612,
      "immunohistochemistry": 7613,
      "zno": 7614,
      "mesenchymal": 7615,
      "attractive": 7616,
      "measuring": 7617,
      "clinicaltrials": 7618,
      "participate": 7619,
      "faction": 7620,
      "nitrate": 7621,
      "folds": 7622,
      "epithelium": 7623,
      "publications": 7624,
      "adenovirus": 7625,
      "phenolic": 7626,
      "v1": 7627,
      "immunofluores": 7628,
      "quarant": 7629,
      "drinking": 7630,
      "elicited": 7631,
      "mini": 7632,
      "ja": 7633,
      "medline": 7634,
      "tee": 7635,
      "arities": 7636,
      "demograph": 7637,
      "prev": 7638,
      "glia": 7639,
      "assessments": 7640,
      "ammonia": 7641,
      "denitri": 7642,
      "gbs": 7643,
      "3k": 7644,
      "atest": 7645,
      "polymorphism": 7646,
      "quine": 7647,
      "101": 7648,
      "elong": 7649,
      "fixed": 7650,
      "reductions": 7651,
      "quarti": 7652,
      "melanoma": 7653,
      "syl": 7654,
      "potato": 7655,
      "played": 7656,
      "triple": 7657,
      "dopa": 7658,
      "greatest": 7659,
      "langu": 7660,
      "aberr": 7661,
      "transmit": 7662,
      "facilitating": 7663,
      "easy": 7664,
      "edes": 7665,
      "nosocom": 7666,
      "refractory": 7667,
      "hypoxia": 7668,
      "transfusion": 7669,
      "ended": 7670,
      "febri": 7671,
      "alterna": 7672,
      "select": 7673,
      "ala": 7674,
      "disinfection": 7675,
      "mapk": 7676,
      "))": 7677,
      "unc": 7678,
      "market": 7679,
      "paired": 7680,
      "005": 7681,
      "severely": 7682,
      "algorithms": 7683,
      "hsct": 7684,
      "informed": 7685,
      "hed": 7686,
      "ahr": 7687,
      "k2": 7688,
      "nosocomial": 7689,
      "kd": 7690,
      "sched": 7691,
      "receiver": 7692,
      "somi": 7693,
      "techn": 7694,
      "nodes": 7695,
      "rain": 7696,
      "atitis": 7697,
      "immunomodulatory": 7698,
      "productivity": 7699,
      "febrile": 7700,
      "cytopenia": 7701,
      "ptic": 7702,
      "r1": 7703,
      "prescription": 7704,
      "winter": 7705,
      "ckd": 7706,
      "bif": 7707,
      "circular": 7708,
      "prioriti": 7709,
      "veness": 7710,
      "162": 7711,
      "pros": 7712,
      "toma": 7713,
      "oform": 7714,
      "nis": 7715,
      "obvious": 7716,
      "injected": 7717,
      "architecture": 7718,
      "lifestyle": 7719,
      "svr": 7720,
      "sediment": 7721,
      "generalized": 7722,
      "pid": 7723,
      "corneal": 7724,
      "pharmacokinetic": 7725,
      "penic": 7726,
      "remarkably": 7727,
      "friendly": 7728,
      "raised": 7729,
      "fermented": 7730,
      "itary": 7731,
      "loading": 7732,
      "priority": 7733,
      "bladder": 7734,
      "gol": 7735,
      "bilateral": 7736,
      "lored": 7737,
      "antho": 7738,
      "deterior": 7739,
      "defic": 7740,
      "larval": 7741,
      "lag": 7742,
      "prokaryo": 7743,
      "foods": 7744,
      "endocardi": 7745,
      "richness": 7746,
      "phone": 7747,
      "ucleo": 7748,
      "adily": 7749,
      "etc": 7750,
      "true": 7751,
      "adjusting": 7752,
      "rn": 7753,
      "qol": 7754,
      "univariate": 7755,
      "unexpected": 7756,
      "surge": 7757,
      "cysteine": 7758,
      "pest": 7759,
      "vax": 7760,
      "downregulation": 7761,
      "fluc": 7762,
      "simulated": 7763,
      "concep": 7764,
      "complementary": 7765,
      "parental": 7766,
      "ofl": 7767,
      "broth": 7768,
      "microscopic": 7769,
      "2008": 7770,
      "anda": 7771,
      "partner": 7772,
      "films": 7773,
      "pn": 7774,
      "kda": 7775,
      "\",": 7776,
      "somiasis": 7777,
      "inner": 7778,
      "omye": 7779,
      "machin": 7780,
      "metals": 7781,
      "sexually": 7782,
      "rota": 7783,
      "linking": 7784,
      "arrange": 7785,
      "continues": 7786,
      "psies": 7787,
      "immunos": 7788,
      "spac": 7789,
      "hair": 7790,
      "alleles": 7791,
      "signatures": 7792,
      "sahar": 7793,
      "jection": 7794,
      "dule": 7795,
      "glomer": 7796,
      "mediators": 7797,
      "amming": 7798,
      "trained": 7799,
      "mosis": 7800,
      "professional": 7801,
      "selectively": 7802,
      "fly": 7803,
      "cows": 7804,
      "tism": 7805,
      "willing": 7806,
      "ecology": 7807,
      "tia": 7808,
      "excess": 7809,
      "tous": 7810,
      "consideration": 7811,
      "tyros": 7812,
      "mouth": 7813,
      "eve": 7814,
      "nesses": 7815,
      "faster": 7816,
      "weekly": 7817,
      "phe": 7818,
      "bronch": 7819,
      "ping": 7820,
      "polymers": 7821,
      "lants": 7822,
      "flora": 7823,
      "forward": 7824,
      "functionally": 7825,
      "urg": 7826,
      "emotional": 7827,
      "broadly": 7828,
      "supplemented": 7829,
      "progr": 7830,
      "orus": 7831,
      "deoxy": 7832,
      "conservation": 7833,
      "coefficient": 7834,
      "cof": 7835,
      "pla": 7836,
      "resident": 7837,
      "conformational": 7838,
      "arte": 7839,
      "colum": 7840,
      "tlr4": 7841,
      "viol": 7842,
      "gous": 7843,
      "wid": 7844,
      "trees": 7845,
      "perceptions": 7846,
      "prescribing": 7847,
      "ips": 7848,
      "strict": 7849,
      "seeking": 7850,
      "lipopolysaccharide": 7851,
      "arterial": 7852,
      "confound": 7853,
      "programming": 7854,
      "ify": 7855,
      "discre": 7856,
      "proteomic": 7857,
      "barr": 7858,
      "infrared": 7859,
      "interplay": 7860,
      "bearing": 7861,
      "abundances": 7862,
      "conversely": 7863,
      "sides": 7864,
      "rank": 7865,
      "tensin": 7866,
      "2b": 7867,
      "argin": 7868,
      "demographics": 7869,
      "participated": 7870,
      "nia": 7871,
      "firmic": 7872,
      "weighted": 7873,
      "idazole": 7874,
      "saharan": 7875,
      "dered": 7876,
      "endocarditis": 7877,
      "solan": 7878,
      "deriv": 7879,
      "serves": 7880,
      "suspen": 7881,
      ">-/-</": 7882,
      "tyrosine": 7883,
      "flavi": 7884,
      "facilitated": 7885,
      "transmembrane": 7886,
      "cystis": 7887,
      "institutions": 7888,
      "feedback": 7889,
      "accounted": 7890,
      "division": 7891,
      "belonged": 7892,
      "tumori": 7893,
      "canada": 7894,
      "specialized": 7895,
      "disturb": 7896,
      "encodes": 7897,
      "nct0": 7898,
      "sb": 7899,
      "improves": 7900,
      "neither": 7901,
      "metr": 7902,
      "germany": 7903,
      "hydrolysis": 7904,
      "unced": 7905,
      "expert": 7906,
      "deploy": 7907,
      "author": 7908,
      "cortex": 7909,
      "record": 7910,
      "ah": 7911,
      "cyan": 7912,
      "wr": 7913,
      "satisfaction": 7914,
      "thoro": 7915,
      "corrhiz": 7916,
      "makers": 7917,
      "speed": 7918,
      "film": 7919,
      "beginning": 7920,
      "scenario": 7921,
      "alcoholic": 7922,
      "firmicutes": 7923,
      "closure": 7924,
      "catheter": 7925,
      "180": 7926,
      "tir": 7927,
      "programme": 7928,
      "cec": 7929,
      "vessel": 7930,
      "tube": 7931,
      "bot": 7932,
      "mediating": 7933,
      "hns": 7934,
      "standards": 7935,
      "always": 7936,
      "jour": 7937,
      "potenti": 7938,
      "clc": 7939,
      "correlates": 7940,
      "methane": 7941,
      "thorough": 7942,
      "becoming": 7943,
      "front": 7944,
      "psin": 7945,
      "symbiotic": 7946,
      "scarce": 7947,
      "consor": 7948,
      "157": 7949,
      "quinone": 7950,
      "square": 7951,
      "subcutaneous": 7952,
      "rdna": 7953,
      "dee": 7954,
      "skeletal": 7955,
      "homology": 7956,
      "immunofluorescence": 7957,
      "endophytic": 7958,
      "presu": 7959,
      "admissions": 7960,
      "1α": 7961,
      "saliv": 7962,
      "sk": 7963,
      "004": 7964,
      "optimum": 7965,
      "dysregulation": 7966,
      "cortical": 7967,
      "fertility": 7968,
      "functioning": 7969,
      "epstein": 7970,
      "acent": 7971,
      "conveni": 7972,
      "ylation": 7973,
      "disseminated": 7974,
      "cott": 7975,
      "artery": 7976,
      "aspir": 7977,
      "subgroups": 7978,
      "terr": 7979,
      "quartile": 7980,
      "obacter": 7981,
      "broil": 7982,
      "enterobacteriaceae": 7983,
      "experimentally": 7984,
      "appearance": 7985,
      "ull": 7986,
      "fill": 7987,
      "amus": 7988,
      "cdna": 7989,
      "accelerated": 7990,
      "immunosorb": 7991,
      "voc": 7992,
      "remodeling": 7993,
      "band": 7994,
      "sap": 7995,
      "ama": 7996,
      "wuhan": 7997,
      "llic": 7998,
      "galacto": 7999,
      "functionality": 8000,
      "twice": 8001,
      "250": 8002,
      "transcribed": 8003,
      "romonas": 8004,
      "hospitalizations": 8005,
      "ound": 8006,
      "ulum": 8007,
      "forty": 8008,
      "rifamp": 8009,
      "ref": 8010,
      "rem": 8011,
      "coring": 8012,
      "evident": 8013,
      "exhibiting": 8014,
      "braf": 8015,
      "infest": 8016,
      "discusses": 8017,
      "zhe": 8018,
      "immunosorbent": 8019,
      "stresses": 8020,
      "dramatically": 8021,
      "th1": 8022,
      "reactor": 8023,
      "cast": 8024,
      "gradually": 8025,
      "consists": 8026,
      "exploring": 8027,
      "μl": 8028,
      "remission": 8029,
      "removed": 8030,
      "exosomes": 8031,
      "sterile": 8032,
      "kett": 8033,
      "remote": 8034,
      "exploration": 8035,
      "sphing": 8036,
      "registry": 8037,
      "declined": 8038,
      "propen": 8039,
      "connected": 8040,
      "trich": 8041,
      "mrnas": 8042,
      "ulture": 8043,
      "cic": 8044,
      "tand": 8045,
      "modelling": 8046,
      "folding": 8047,
      "ford": 8048,
      "correlate": 8049,
      "103": 8050,
      "bcg": 8051,
      "aut": 8052,
      "uncertainty": 8053,
      "quad": 8054,
      "incorporation": 8055,
      "intact": 8056,
      "managed": 8057,
      "ime": 8058,
      "language": 8059,
      "predictions": 8060,
      "tium": 8061,
      "enterobacter": 8062,
      "coast": 8063,
      "plwh": 8064,
      "mononucle": 8065,
      "virological": 8066,
      "ever": 8067,
      "neurodegenerative": 8068,
      "notable": 8069,
      "offering": 8070,
      "abiotic": 8071,
      "cultur": 8072,
      "extreme": 8073,
      "ici": 8074,
      "concurrent": 8075,
      "fractions": 8076,
      "ices": 8077,
      "nin": 8078,
      "amoe": 8079,
      "dap": 8080,
      "flies": 8081,
      "profound": 8082,
      "predis": 8083,
      "ubiquito": 8084,
      "angiotensin": 8085,
      "activator": 8086,
      "proportional": 8087,
      "bei": 8088,
      "x1": 8089,
      "masks": 8090,
      "cruzi": 8091,
      "interacts": 8092,
      "commensal": 8093,
      "nematodes": 8094,
      "exists": 8095,
      "ubiquitous": 8096,
      "alysis": 8097,
      "items": 8098,
      "participation": 8099,
      "adjacent": 8100,
      "canine": 8101,
      "unte": 8102,
      "bloodstream": 8103,
      "aegy": 8104,
      "feces": 8105,
      "node": 8106,
      "indeed": 8107,
      "emul": 8108,
      "veget": 8109,
      "gained": 8110,
      "acceptance": 8111,
      "pipe": 8112,
      "skill": 8113,
      "carriage": 8114,
      "salivary": 8115,
      "harmful": 8116,
      "cities": 8117,
      "technical": 8118,
      "soybean": 8119,
      "automated": 8120,
      "ofloxacin": 8121,
      "processed": 8122,
      "sequential": 8123,
      "details": 8124,
      "concluded": 8125,
      "phosphatase": 8126,
      "summarizes": 8127,
      "implementing": 8128,
      "diets": 8129,
      "inflammasome": 8130,
      "aegypti": 8131,
      "murium": 8132,
      "stewards": 8133,
      "volunte": 8134,
      "spray": 8135,
      "chrome": 8136,
      "exposures": 8137,
      "romyces": 8138,
      "panic": 8139,
      "surpris": 8140,
      "capabilities": 8141,
      "stake": 8142,
      "ecto": 8143,
      "genotyping": 8144,
      "machinery": 8145,
      "tandem": 8146,
      "diffuse": 8147,
      "ders": 8148,
      "mee": 8149,
      "mention": 8150,
      "conflic": 8151,
      "seropositive": 8152,
      "agriculture": 8153,
      "similarities": 8154,
      "typhimurium": 8155,
      "oxidase": 8156,
      "categorized": 8157,
      "ectomy": 8158,
      "unpreced": 8159,
      "accessible": 8160,
      "habitats": 8161,
      "sclerosis": 8162,
      "campylo": 8163,
      "amox": 8164,
      "cytomegal": 8165,
      "wered": 8166,
      "substitution": 8167,
      "ovarian": 8168,
      "breath": 8169,
      "volatile": 8170,
      "unlike": 8171,
      "stewardship": 8172,
      "hydroxyl": 8173,
      "atg": 8174,
      "ione": 8175,
      "warran": 8176,
      "fier": 8177,
      "warranted": 8178,
      "prono": 8179,
      "pi3k": 8180,
      "acidic": 8181,
      "encomp": 8182,
      "virtual": 8183,
      "horses": 8184,
      "layers": 8185,
      "summarized": 8186,
      "scaven": 8187,
      "dt": 8188,
      "cotton": 8189,
      "sitis": 8190,
      "unprecedented": 8191,
      "110": 8192,
      "promotion": 8193,
      "thematical": 8194,
      "propensity": 8195,
      "mathematical": 8196,
      "onts": 8197,
      "discrimination": 8198,
      "disability": 8199,
      "reductase": 8200,
      "idin": 8201,
      "dog": 8202,
      "channels": 8203,
      "qrt": 8204,
      "sha": 8205,
      "cari": 8206,
      "arabidop": 8207,
      "curves": 8208,
      "arabidopsis": 8209,
      "genomics": 8210,
      "seiz": 8211,
      "accordingly": 8212,
      "routes": 8213,
      "omyelitis": 8214,
      "oa": 8215,
      "onate": 8216,
      "unusual": 8217,
      "questionnaires": 8218,
      "acceptable": 8219,
      "esis": 8220,
      "coagul": 8221,
      "establishing": 8222,
      "sche": 8223,
      "cycline": 8224,
      "scaffold": 8225,
      "households": 8226,
      "ania": 8227,
      "seem": 8228,
      "biopsies": 8229,
      "cade": 8230,
      "lncrnas": 8231,
      "amps": 8232,
      "bruce": 8233,
      "arrest": 8234,
      "syncy": 8235,
      "',": 8236,
      "expressions": 8237,
      "grain": 8238,
      "dressing": 8239,
      "obe": 8240,
      "asts": 8241,
      "randomised": 8242,
      "employing": 8243,
      "methano": 8244,
      "pak": 8245,
      "pollutants": 8246,
      "cytomegalovirus": 8247,
      "chikv": 8248,
      "x2": 8249,
      "illumina": 8250,
      "chitin": 8251,
      "neglec": 8252,
      "nlrp3": 8253,
      "propi": 8254,
      "exclusion": 8255,
      "600": 8256,
      ")]": 8257,
      "variance": 8258,
      "tetra": 8259,
      "approval": 8260,
      "ideal": 8261,
      "hub": 8262,
      "ofo": 8263,
      "aven": 8264,
      "lide": 8265,
      "chimeric": 8266,
      "metallo": 8267,
      "effort": 8268,
      "reversible": 8269,
      "digestion": 8270,
      "eyes": 8271,
      "bium": 8272,
      "acetic": 8273,
      "embed": 8274,
      "tolerant": 8275,
      "pronounced": 8276,
      "microglia": 8277,
      "monthly": 8278,
      "rhino": 8279,
      "reperto": 8280,
      "vised": 8281,
      "ctx": 8282,
      "dip": 8283,
      "referral": 8284,
      "papillomavirus": 8285,
      "gir": 8286,
      "retrieved": 8287,
      "coronaviruses": 8288,
      "glutath": 8289,
      "yields": 8290,
      "eliminate": 8291,
      "hcmv": 8292,
      "mosa": 8293,
      "preoperative": 8294,
      "6a": 8295,
      "categ": 8296,
      "medicines": 8297,
      "fumig": 8298,
      "5a": 8299,
      "2007": 8300,
      "phan": 8301,
      "pilot": 8302,
      "surfact": 8303,
      "fluoroquinol": 8304,
      "belief": 8305,
      "incident": 8306,
      "involve": 8307,
      "ammonium": 8308,
      "aedes": 8309,
      "visible": 8310,
      "transferred": 8311,
      "chloride": 8312,
      "penem": 8313,
      "cascade": 8314,
      ",\"": 8315,
      "incorporating": 8316,
      "atro": 8317,
      "grass": 8318,
      "sph": 8319,
      "glyc": 8320,
      "meric": 8321,
      "chip": 8322,
      "tomic": 8323,
      "transcript": 8324,
      "trajec": 8325,
      "prosthe": 8326,
      "allergy": 8327,
      "integrating": 8328,
      "brazili": 8329,
      "solved": 8330,
      "nir": 8331,
      "dosage": 8332,
      "motifs": 8333,
      "pon": 8334,
      "quarantine": 8335,
      "virals": 8336,
      "lb": 8337,
      "f3": 8338,
      "foodborne": 8339,
      "parameter": 8340,
      "phylum": 8341,
      "leak": 8342,
      "iness": 8343,
      "105": 8344,
      "sharing": 8345,
      "rickett": 8346,
      "keep": 8347,
      "goog": 8348,
      "cvd": 8349,
      "nb": 8350,
      "zolid": 8351,
      "operational": 8352,
      "spain": 8353,
      "exclusively": 8354,
      "agro": 8355,
      "stock": 8356,
      "roscle": 8357,
      "took": 8358,
      "pandemics": 8359,
      "fluctu": 8360,
      "aromatic": 8361,
      "google": 8362,
      "theast": 8363,
      "echino": 8364,
      "reservoirs": 8365,
      "cially": 8366,
      "transpos": 8367,
      "tolerated": 8368,
      "precursor": 8369,
      "orient": 8370,
      "filamen": 8371,
      "peer": 8372,
      "atheroscle": 8373,
      "cultural": 8374,
      "intention": 8375,
      "codon": 8376,
      "thrombosis": 8377,
      "error": 8378,
      "senescence": 8379,
      "cytoplasm": 8380,
      "lenti": 8381,
      "faecal": 8382,
      "pay": 8383,
      "absces": 8384,
      "differentiate": 8385,
      "gradient": 8386,
      "fda": 8387,
      "description": 8388,
      "filamentous": 8389,
      "(≥": 8390,
      "amplicon": 8391,
      "introduce": 8392,
      "facilitates": 8393,
      "ethylene": 8394,
      "malarial": 8395,
      "amf": 8396,
      "accounting": 8397,
      "substitutions": 8398,
      "tv": 8399,
      "inhal": 8400,
      "schistosomiasis": 8401,
      "elusive": 8402,
      "aplas": 8403,
      "ventricular": 8404,
      "calves": 8405,
      "amyloid": 8406,
      "private": 8407,
      "inpatient": 8408,
      "polarization": 8409,
      "bayes": 8410,
      "amongst": 8411,
      "reads": 8412,
      "drought": 8413,
      "drivers": 8414,
      "crine": 8415,
      "proteomics": 8416,
      "programmed": 8417,
      "code": 8418,
      "worms": 8419,
      "depressive": 8420,
      "proteome": 8421,
      "phyla": 8422,
      "restored": 8423,
      "cod": 8424,
      "amoxicillin": 8425,
      "obese": 8426,
      "sector": 8427,
      "simplex": 8428,
      "adjustment": 8429,
      "controver": 8430,
      "seasons": 8431,
      "island": 8432,
      "seedling": 8433,
      "limb": 8434,
      "glutathione": 8435,
      "trna": 8436,
      "fmd": 8437,
      "istan": 8438,
      "unya": 8439,
      "effectors": 8440,
      "reading": 8441,
      "rotavirus": 8442,
      "mutans": 8443,
      "eties": 8444,
      "cos": 8445,
      "zen": 8446,
      "updated": 8447,
      "oblas": 8448,
      "expensive": 8449,
      "plasticity": 8450,
      "finger": 8451,
      "multicenter": 8452,
      "enteritis": 8453,
      "chron": 8454,
      "promoters": 8455,
      "phyll": 8456,
      "tigo": 8457,
      "necessit": 8458,
      "amicin": 8459,
      "rely": 8460,
      "lymphoid": 8461,
      "wol": 8462,
      "give": 8463,
      "chains": 8464,
      "ix": 8465,
      "d2": 8466,
      "gv": 8467,
      "scales": 8468,
      "corrhizal": 8469,
      "bee": 8470,
      "cerevis": 8471,
      "opioid": 8472,
      "input": 8473,
      "ischemic": 8474,
      "coronary": 8475,
      "rf": 8476,
      "marg": 8477,
      "inef": 8478,
      "pharyngeal": 8479,
      "anticip": 8480,
      "cili": 8481,
      "reinfor": 8482,
      "hyth": 8483,
      "edema": 8484,
      "formal": 8485,
      "bifido": 8486,
      "shifts": 8487,
      "rumin": 8488,
      "activates": 8489,
      "elae": 8490,
      "cerevisiae": 8491,
      "130": 8492,
      "coa": 8493,
      "threats": 8494,
      "supernat": 8495,
      "proteases": 8496,
      "holder": 8497,
      "orted": 8498,
      "exha": 8499,
      "angiogenesis": 8500,
      "itself": 8501,
      "tailored": 8502,
      "aver": 8503,
      "helpful": 8504,
      "molar": 8505,
      "transporters": 8506,
      "structur": 8507,
      "attitude": 8508,
      "phosphorus": 8509,
      "meropenem": 8510,
      "db": 8511,
      "cerebrospinal": 8512,
      "surance": 8513,
      "tera": 8514,
      "pois": 8515,
      "provision": 8516,
      "shel": 8517,
      "ils": 8518,
      "stimuli": 8519,
      "sirna": 8520,
      "mediately": 8521,
      "ado": 8522,
      "ethical": 8523,
      "absent": 8524,
      "mechanistically": 8525,
      "labeled": 8526,
      "inadequate": 8527,
      "urgently": 8528,
      "meet": 8529,
      "covering": 8530,
      "mitigation": 8531,
      "paediatric": 8532,
      "cryptospori": 8533,
      "gland": 8534,
      "county": 8535,
      "electropho": 8536,
      "dependence": 8537,
      "contag": 8538,
      "pretreatment": 8539,
      "equivalent": 8540,
      "cac": 8541,
      "mycobacterial": 8542,
      "snp": 8543,
      "quickly": 8544,
      "pun": 8545,
      "recognize": 8546,
      "broader": 8547,
      ">®": 8548,
      "summer": 8549,
      "pfs": 8550,
      "uncommon": 8551,
      "telo": 8552,
      "eventually": 8553,
      "gentamicin": 8554,
      "recipient": 8555,
      "tracing": 8556,
      "dor": 8557,
      "mk": 8558,
      "constitute": 8559,
      "aquac": 8560,
      "ncy": 8561,
      "piglets": 8562,
      "epile": 8563,
      "hematological": 8564,
      "glial": 8565,
      "glycosylation": 8566,
      ">®</": 8567,
      "aberrant": 8568,
      "nv": 8569,
      "redi": 8570,
      "evolving": 8571,
      "nigeria": 8572,
      "task": 8573,
      "interesting": 8574,
      "fatality": 8575,
      "piper": 8576,
      "smar": 8577,
      "impo": 8578,
      "d4": 8579,
      "discharged": 8580,
      "ximab": 8581,
      "htlv": 8582,
      "efficac": 8583,
      "corticosteroids": 8584,
      "ectin": 8585,
      "orities": 8586,
      "stac": 8587,
      "agas": 8588,
      "bud": 8589,
      "english": 8590,
      "dian": 8591,
      "just": 8592,
      "platin": 8593,
      "commercially": 8594,
      "spectra": 8595,
      "pump": 8596,
      "cytochrome": 8597,
      "wnt": 8598,
      "immediately": 8599,
      "vap": 8600,
      "typed": 8601,
      "principles": 8602,
      "drop": 8603,
      "undertaken": 8604,
      "teaching": 8605,
      "probable": 8606,
      "produces": 8607,
      "nanoparticle": 8608,
      "herent": 8609,
      "proof": 8610,
      "aphi": 8611,
      "waves": 8612,
      "monocyte": 8613,
      "herpesvirus": 8614,
      "cosis": 8615,
      "hz": 8616,
      "arginine": 8617,
      "encephalo": 8618,
      "omp": 8619,
      "neighbor": 8620,
      "interrup": 8621,
      "anterior": 8622,
      "heli": 8623,
      "devast": 8624,
      "clarify": 8625,
      "lign": 8626,
      "imper": 8627,
      "quer": 8628,
      "matous": 8629,
      "vaccinations": 8630,
      "multidisciplinary": 8631,
      "schools": 8632,
      "dialysis": 8633,
      "electrochemical": 8634,
      "icip": 8635,
      "hepatocytes": 8636,
      "hall": 8637,
      "rc": 8638,
      "zyme": 8639,
      "hesit": 8640,
      "preference": 8641,
      "strengthen": 8642,
      "lm": 8643,
      "readily": 8644,
      "meeting": 8645,
      "historical": 8646,
      "fifty": 8647,
      "splicing": 8648,
      "minimize": 8649,
      "radiotherapy": 8650,
      "stop": 8651,
      "cores": 8652,
      "triggers": 8653,
      "peroxidase": 8654,
      "adding": 8655,
      "designing": 8656,
      "difficulties": 8657,
      "endome": 8658,
      "urea": 8659,
      "creatin": 8660,
      "equal": 8661,
      "c57": 8662,
      "za": 8663,
      "pyo": 8664,
      "campylobacter": 8665,
      "vege": 8666,
      "puts": 8667,
      "hemorrhagic": 8668,
      "prone": 8669,
      "chemokine": 8670,
      "lous": 8671,
      "doct": 8672,
      "collaboration": 8673,
      "linkage": 8674,
      "phthal": 8675,
      "wildlife": 8676,
      "hplc": 8677,
      "aquaculture": 8678,
      "termed": 8679,
      "mabs": 8680,
      "examining": 8681,
      "arming": 8682,
      "gues": 8683,
      "property": 8684,
      "rev": 8685,
      "massive": 8686,
      "partum": 8687,
      "104": 8688,
      "indigenous": 8689,
      "creatinine": 8690,
      "marke": 8691,
      "competitive": 8692,
      "emphasis": 8693,
      "oncogenic": 8694,
      "reaching": 8695,
      "microbiology": 8696,
      "subunits": 8697,
      "dden": 8698,
      "vill": 8699,
      "injuries": 8700,
      "tat": 8701,
      "tau": 8702,
      "arthro": 8703,
      "endpoint": 8704,
      "freshwater": 8705,
      "corro": 8706,
      "pent": 8707,
      "estimation": 8708,
      "minance": 8709,
      "ash": 8710,
      "france": 8711,
      "limitation": 8712,
      "competition": 8713,
      "lysine": 8714,
      "manipulation": 8715,
      "mentioned": 8716,
      "clades": 8717,
      "filtration": 8718,
      "maldi": 8719,
      "haemato": 8720,
      "retained": 8721,
      "organe": 8722,
      "examples": 8723,
      "cher": 8724,
      "positions": 8725,
      "bacilli": 8726,
      "follic": 8727,
      "bond": 8728,
      "municip": 8729,
      "140": 8730,
      "astructure": 8731,
      "segment": 8732,
      "ingredi": 8733,
      "suspic": 8734,
      "cephalo": 8735,
      "lasting": 8736,
      "trafficking": 8737,
      "transmis": 8738,
      "hot": 8739,
      "adic": 8740,
      "solic": 8741,
      "modulated": 8742,
      "eigh": 8743,
      "somatic": 8744,
      "shan": 8745,
      "diagnose": 8746,
      "cyp": 8747,
      "radiological": 8748,
      "habitat": 8749,
      "ham": 8750,
      "shri": 8751,
      "powder": 8752,
      "fg": 8753,
      "oce": 8754,
      "jak": 8755,
      "mcr": 8756,
      "papers": 8757,
      "evidenced": 8758,
      "clone": 8759,
      "experts": 8760,
      "streptomyces": 8761,
      "shell": 8762,
      "cultivated": 8763,
      "perin": 8764,
      "microbe": 8765,
      "mutagenesis": 8766,
      "rejection": 8767,
      "standing": 8768,
      "consequence": 8769,
      "sequelae": 8770,
      "zv": 8771,
      "seropositivity": 8772,
      "unvaccinated": 8773,
      "4a": 8774,
      "applicable": 8775,
      "env": 8776,
      "tii": 8777,
      "vacu": 8778,
      "diagnosing": 8779,
      "azithromycin": 8780,
      "wgs": 8781,
      "washing": 8782,
      "trypanosoma": 8783,
      "proton": 8784,
      "thail": 8785,
      "archaea": 8786,
      "heme": 8787,
      "thickness": 8788,
      "lyticus": 8789,
      "nacl": 8790,
      "mononuclear": 8791,
      "thailand": 8792,
      "practition": 8793,
      "thrombocytopenia": 8794,
      "capit": 8795,
      "icus": 8796,
      "transformed": 8797,
      "sporo": 8798,
      "coni": 8799,
      "thous": 8800,
      "germination": 8801,
      "thematic": 8802,
      "dark": 8803,
      "actual": 8804,
      "blotting": 8805,
      "tom": 8806,
      "administr": 8807,
      "probes": 8808,
      "goats": 8809,
      "calcit": 8810,
      "disrupted": 8811,
      "abc": 8812,
      "illnesses": 8813,
      "natal": 8814,
      "horizontal": 8815,
      "provinces": 8816,
      "elevation": 8817,
      "distant": 8818,
      "explores": 8819,
      "155": 8820,
      "tracking": 8821,
      "ngs": 8822,
      "alternatives": 8823,
      ",</": 8824,
      "hesitancy": 8825,
      "coinfection": 8826,
      "pping": 8827,
      "hm": 8828,
      "hat": 8829,
      "pertus": 8830,
      "phagocytosis": 8831,
      "sate": 8832,
      "kinases": 8833,
      "scopus": 8834,
      "concord": 8835,
      "lucifer": 8836,
      "exert": 8837,
      "stored": 8838,
      "pertussis": 8839,
      "responded": 8840,
      "chloroquine": 8841,
      "oct": 8842,
      "requirement": 8843,
      "experiencing": 8844,
      "prospectively": 8845,
      "note": 8846,
      "upstream": 8847,
      "ateral": 8848,
      "germ": 8849,
      "identifies": 8850,
      "offered": 8851,
      "fb": 8852,
      "aller": 8853,
      "suring": 8854,
      "uganda": 8855,
      "warr": 8856,
      "bayesian": 8857,
      "aci": 8858,
      "s2": 8859,
      "idity": 8860,
      "fruits": 8861,
      "anten": 8862,
      "suppressor": 8863,
      "olin": 8864,
      "contributions": 8865,
      "bil": 8866,
      "habilit": 8867,
      "swi": 8868,
      "vein": 8869,
      "portal": 8870,
      "ftir": 8871,
      "modalities": 8872,
      "indian": 8873,
      "sau": 8874,
      "pens": 8875,
      "pine": 8876,
      "tened": 8877,
      "ampicillin": 8878,
      "alteration": 8879,
      "2005": 8880,
      "thorac": 8881,
      "observe": 8882,
      "intended": 8883,
      "seeds": 8884,
      "survive": 8885,
      "fertili": 8886,
      "philus": 8887,
      "stat3": 8888,
      "tel": 8889,
      "eti": 8890,
      "pesticides": 8891,
      "inferi": 8892,
      "splen": 8893,
      "microbiomes": 8894,
      "g2": 8895,
      "relies": 8896,
      "inferior": 8897,
      "pts": 8898,
      "inations": 8899,
      "schol": 8900,
      "infar": 8901,
      "explan": 8902,
      "vivax": 8903,
      "alkaline": 8904,
      "oden": 8905,
      "pate": 8906,
      "caries": 8907,
      "flexible": 8908,
      "2024": 8909,
      "reversed": 8910,
      "wnv": 8911,
      "incubated": 8912,
      "why": 8913,
      "preservation": 8914,
      "toxoplasma": 8915,
      "temporary": 8916,
      "latency": 8917,
      "cens": 8918,
      "glycer": 8919,
      "opin": 8920,
      "106": 8921,
      "stimulate": 8922,
      "converting": 8923,
      "former": 8924,
      "peric": 8925,
      "ferro": 8926,
      "utilize": 8927,
      "zoster": 8928,
      "c57bl": 8929,
      "trait": 8930,
      "micrornas": 8931,
      "2006": 8932,
      "];": 8933,
      "detri": 8934,
      "rehabilit": 8935,
      "presentations": 8936,
      "emplo": 8937,
      "uniform": 8938,
      "hbe": 8939,
      "geneic": 8940,
      "vehic": 8941,
      "eradic": 8942,
      "niche": 8943,
      "eukaryotes": 8944,
      "mosaic": 8945,
      "rnai": 8946,
      "recover": 8947,
      "aminotransferase": 8948,
      "segments": 8949,
      "homa": 8950,
      "plasmosis": 8951,
      "parti": 8952,
      "hct": 8953,
      "mutated": 8954,
      "pathologic": 8955,
      "harboring": 8956,
      "matching": 8957,
      "grav": 8958,
      "anthropo": 8959,
      "holders": 8960,
      "cti": 8961,
      "rcts": 8962,
      "aerosol": 8963,
      "killer": 8964,
      "caregivers": 8965,
      "iled": 8966,
      "packaging": 8967,
      "sociodemographic": 8968,
      "chemically": 8969,
      "zon": 8970,
      "decay": 8971,
      "phageal": 8972,
      "confirming": 8973,
      "definition": 8974,
      "devastating": 8975,
      "iang": 8976,
      "a5": 8977,
      "guideline": 8978,
      "additive": 8979,
      "ologic": 8980,
      "surprisingly": 8981,
      "succ": 8982,
      "disparities": 8983,
      "spacer": 8984,
      "valve": 8985,
      "scat": 8986,
      "shor": 8987,
      "programmes": 8988,
      "antivirals": 8989,
      "blockade": 8990,
      "actively": 8991,
      "chaper": 8992,
      "coma": 8993,
      "zygous": 8994,
      "circuit": 8995,
      "prospec": 8996,
      "msc": 8997,
      "alzhe": 8998,
      "lst": 8999,
      "interquartile": 9000,
      "formula": 9001,
      "sclero": 9002,
      "zers": 9003,
      "alzheimer": 9004,
      "128": 9005,
      "category": 9006,
      "ndm": 9007,
      "tea": 9008,
      "excre": 9009,
      "diminished": 9010,
      "purposes": 9011,
      "separated": 9012,
      "nested": 9013,
      "immunocompetent": 9014,
      "fourth": 9015,
      "adapt": 9016,
      "expanding": 9017,
      "methanol": 9018,
      "hemoglobin": 9019,
      "cuc": 9020,
      "siveness": 9021,
      "116": 9022,
      "hydrogels": 9023,
      "chik": 9024,
      "treg": 9025,
      "attack": 9026,
      "lowering": 9027,
      "considerably": 9028,
      "anion": 9029,
      "follows": 9030,
      "entia": 9031,
      "trade": 9032,
      "personnel": 9033,
      "suppressing": 9034,
      "comorbidity": 9035,
      "lake": 9036,
      "β1": 9037,
      "digestive": 9038,
      "neglected": 9039,
      "occupational": 9040,
      "plantarum": 9041,
      ">(": 9042,
      "102": 9043,
      "captured": 9044,
      "chlamydia": 9045,
      "luciferase": 9046,
      "aly": 9047,
      "came": 9048,
      "fumigatus": 9049,
      "rheumato": 9050,
      "biodegradation": 9051,
      "volunteers": 9052,
      "iti": 9053,
      "reliability": 9054,
      "anam": 9055,
      "altogether": 9056,
      "dox": 9057,
      "user": 9058,
      "offspring": 9059,
      "thia": 9060,
      "analyse": 9061,
      "defect": 9062,
      "continuation": 9063,
      "coupling": 9064,
      "lipoprotein": 9065,
      "popular": 9066,
      "anatomic": 9067,
      "cefta": 9068,
      "big": 9069,
      "tmp": 9070,
      "facial": 9071,
      "pca": 9072,
      "carbapenemase": 9073,
      "lon": 9074,
      "coping": 9075,
      "calibr": 9076,
      "vio": 9077,
      "butyrate": 9078,
      "sediments": 9079,
      "producers": 9080,
      "006": 9081,
      "gonor": 9082,
      "libri": 9083,
      "teno": 9084,
      "din": 9085,
      "glucan": 9086,
      "cephalospor": 9087,
      "myc": 9088,
      "lev": 9089,
      "wean": 9090,
      "biocompatibility": 9091,
      "duoden": 9092,
      "fram": 9093,
      "characterised": 9094,
      "enterica": 9095,
      "districts": 9096,
      "quorum": 9097,
      "tency": 9098,
      "serology": 9099,
      "hazards": 9100,
      "composites": 9101,
      "reprogramming": 9102,
      "ferr": 9103,
      "evasion": 9104,
      "passive": 9105,
      "sic": 9106,
      "sew": 9107,
      "interfe": 9108,
      "lles": 9109,
      "served": 9110,
      "viremia": 9111,
      "peptido": 9112,
      "juni": 9113,
      "sick": 9114,
      "pis": 9115,
      "attribut": 9116,
      "lup": 9117,
      "ury": 9118,
      "spora": 9119,
      "cloned": 9120,
      "brazilian": 9121,
      "peritoneal": 9122,
      "ppi": 9123,
      "meaning": 9124,
      "leukocyte": 9125,
      "hun": 9126,
      "salinity": 9127,
      "mexico": 9128,
      "resto": 9129,
      "phylogen": 9130,
      "swe": 9131,
      "headache": 9132,
      "bats": 9133,
      "lysin": 9134,
      "160": 9135,
      "embryonic": 9136,
      "institutional": 9137,
      "syncytial": 9138,
      "scaffolds": 9139,
      "ku": 9140,
      "spon": 9141,
      "built": 9142,
      "faced": 9143,
      "adenocarcinoma": 9144,
      "defective": 9145,
      "consuming": 9146,
      "suspension": 9147,
      "locally": 9148,
      "o1": 9149,
      "encode": 9150,
      "extension": 9151,
      "move": 9152,
      "adenosine": 9153,
      "directions": 9154,
      "perturb": 9155,
      "charomyces": 9156,
      "biocontrol": 9157,
      "output": 9158,
      "https": 9159,
      "traumatic": 9160,
      "offic": 9161,
      "nationwide": 9162,
      "helicobacter": 9163,
      "stakeholders": 9164,
      "ppe": 9165,
      "ferment": 9166,
      "rose": 9167,
      "definitive": 9168,
      "comprehensively": 9169,
      "eni": 9170,
      "ethnicity": 9171,
      "foreign": 9172,
      "participant": 9173,
      "encountered": 9174,
      "config": 9175,
      "pct": 9176,
      "behind": 9177,
      "nsclc": 9178,
      "paradi": 9179,
      "carboxy": 9180,
      "bulk": 9181,
      "vulnerability": 9182,
      "physician": 9183,
      "rumen": 9184,
      "pad": 9185,
      "vales": 9186,
      "cultivars": 9187,
      "preparedness": 9188,
      "rehabilitation": 9189,
      "idetes": 9190,
      "fibr": 9191,
      "shrimp": 9192,
      "chromosomal": 9193,
      "intrac": 9194,
      "pil": 9195,
      "deb": 9196,
      "bacteriophage": 9197,
      "herd": 9198,
      "hemag": 9199,
      "monkey": 9200,
      "taiwan": 9201,
      "peptid": 9202,
      "spatio": 9203,
      "brafish": 9204,
      "convales": 9205,
      "zebrafish": 9206,
      "swelling": 9207,
      "efflu": 9208,
      "lanted": 9209,
      "acillin": 9210,
      "elicit": 9211,
      "apply": 9212,
      "cellul": 9213,
      "107": 9214,
      "seroconversion": 9215,
      "pluri": 9216,
      "arab": 9217,
      "bacteroidetes": 9218,
      "aml": 9219,
      "completion": 9220,
      "nitric": 9221,
      "hier": 9222,
      "illu": 9223,
      "collect": 9224,
      "pren": 9225,
      "tropho": 9226,
      "hemagglut": 9227,
      "suffering": 9228,
      "108": 9229,
      "describing": 9230,
      "batch": 9231,
      "pathologies": 9232,
      "satur": 9233,
      "posterior": 9234,
      "institution": 9235,
      "illustrate": 9236,
      "cxcr": 9237,
      "irrig": 9238,
      "confirmation": 9239,
      "esophageal": 9240,
      "assembl": 9241,
      "oblig": 9242,
      "latest": 9243,
      "repertoire": 9244,
      "certainty": 9245,
      "accumulated": 9246,
      "myocarditis": 9247,
      "daa": 9248,
      "smart": 9249,
      "detrimental": 9250,
      "sections": 9251,
      "mitis": 9252,
      "personalized": 9253,
      "believed": 9254,
      "metrics": 9255,
      "manifestation": 9256,
      "gingivalis": 9257,
      "metabolomics": 9258,
      "distributions": 9259,
      "ultras": 9260,
      "selves": 9261,
      "zones": 9262,
      "haem": 9263,
      "breakthrough": 9264,
      "hamp": 9265,
      "malay": 9266,
      "attending": 9267,
      "helper": 9268,
      "examinations": 9269,
      "nl": 9270,
      "abr": 9271,
      "vegf": 9272,
      "grouped": 9273,
      "blocks": 9274,
      "008": 9275,
      "developments": 9276,
      "modifying": 9277,
      "lial": 9278,
      "th17": 9279,
      "binary": 9280,
      "supe": 9281,
      "oils": 9282,
      "creating": 9283,
      "colonic": 9284,
      "007": 9285,
      "v3": 9286,
      "ira": 9287,
      "109": 9288,
      "gaba": 9289,
      "fixation": 9290,
      "spira": 9291,
      "asci": 9292,
      "unde": 9293,
      "publication": 9294,
      "vertical": 9295,
      "manufacturing": 9296,
      "adesh": 9297,
      "serial": 9298,
      "bnt": 9299,
      "hierarch": 9300,
      "embedded": 9301,
      "ensuring": 9302,
      "colonized": 9303,
      "aortic": 9304,
      "primer": 9305,
      "bioavailability": 9306,
      "omics": 9307,
      "drom": 9308,
      "unable": 9309,
      "deficits": 9310,
      "pedv": 9311,
      "ns1": 9312,
[...]
