<unk>	0
<s>	0
</s>	0
<pad>	0
[MASK]	0
.	-3.44236
,	-3.45151
▁the	-3.52158
▁of	-3.54842
▁and	-3.62882
▁in	-3.96202
-	-3.96233
▁	-4.05171
▁to	-4.16421
▁a	-4.37581
s	-4.52685
ing	-4.52721
ed	-4.67123
▁(	-4.67679
▁with	-4.85731
▁for	-4.87604
)	-5.03408
▁malaria	-5.07761
▁that	-5.20939
▁were	-5.31944
▁is	-5.32076
e	-5.40972
▁was	-5.46997
▁The	-5.56096
d	-5.57211
▁from	-5.5989
ly	-5.60391
▁by	-5.64029
▁on	-5.65783
▁P	-5.66871
▁be	-5.71427
▁dengue	-5.72221
▁as	-5.74754
al	-5.90823
▁are	-5.9504
▁study	-5.9621
n	-5.98327
▁We	-6.03753
▁an	-6.06026
:	-6.07067
▁we	-6.09611
▁data	-6.16945
▁this	-6.17607
▁at	-6.18351
▁infection	-6.20447
y	-6.2212
▁transmission	-6.24309
▁A	-6.27856
▁health	-6.28962
/	-6.33787
▁or	-6.35728
▁cases	-6.36484
▁falciparum	-6.43183
▁In	-6.47247
▁control	-6.47402
▁between	-6.48652
▁virus	-6.49045
\	-6.49316
▁Plasmodium	-6.49413
using	-6.49638
▁disease	-6.50319
▁hav	-6.54265
▁not	-6.54901
▁high	-6.57991
;	-6.58242
▁which	-6.58784
▁mosquito	-6.59133
▁risk	-6.59361
▁model	-6.60754
▁COVID	-6.6089
st	-6.66039
▁used	-6.67759
).	-6.71036
▁patients	-6.72506
1	-6.75658
▁can	-6.76908
▁more	-6.77245
▁children	-6.77394
▁parasite	-6.78208
▁show	-6.78997
▁vivax	-6.79234
en	-6.79412
▁during	-6.81452
▁analysis	-6.81773
▁compared	-6.83159
-19	-6.83472
▁C	-6.85529
▁these	-6.86734
▁blood	-6.87009
ir	-6.87542
▁vector	-6.88192
ve	-6.89696
▁but	-6.90103
▁among	-6.91146
▁infections	-6.91427
▁DENV	-6.9288
▁population	-6.93112
▁resistance	-6.95429
▁studies	-6.97259
▁than	-6.97678
▁human	-6.98793
▁p	-6.98885
▁incidence	-6.99117
_	-6.99314
▁S	-6.99403
cross	-6.99617
▁clinical	-6.99732
▁This	-6.99804
▁results	-6.99826
▁treatment	-6.99883
▁years	-7.01819
▁found	-7.03653
▁higher	-7.05058
▁use	-7.07014
▁had	-7.07389
▁two	-7.07509
▁mosquitoes	-7.07639
▁most	-7.08144
▁prevalence	-7.08293
▁factors	-7.08383
▁also	-7.08701
▁impact	-7.10379
▁low	-7.10541
▁parasites	-7.1119
▁time	-7.12146
▁models	-7.12705
▁CI	-7.13515
▁non	-7.1352
▁age	-7.13944
▁severe	-7.14766
▁other	-7.15683
▁different	-7.16404
ld	-7.16712
t	-7.17104
2	-7.17213
▁T	-7.17387
▁all	-7.18154
▁its	-7.18249
ic	-7.18674
▁Africa	-7.19478
based	-7.20136
▁public	-7.22053
▁fever	-7.22065
▁Zika	-7.226
▁species	-7.22697
▁cells	-7.23422
▁potential	-7.23517
es	-7.2408
▁cell	-7.25183
▁over	-7.25284
r	-7.25749
▁again	-7.26045
▁areas	-7.26506
▁levels	-7.26523
▁both	-7.26968
▁co	-7.27682
▁un	-7.28124
▁such	-7.29035
se	-7.29558
▁new	-7.30002
▁includ	-7.3106
▁ha	-7.31526
▁first	-7.32098
▁surveillance	-7.33199
▁3	-7.33344
▁it	-7.33658
▁number	-7.33862
▁after	-7.35207
▁under	-7.35415
▁drug	-7.3554
▁cou	-7.36164
▁one	-7.36387
has	-7.36414
▁95%	-7.36499
▁samples	-7.36646
▁significant	-7.37833
▁countries	-7.38068
▁well	-7.38704
▁may	-7.38716
▁protein	-7.39018
able	-7.39609
▁suggest	-7.3963
▁three	-7.39781
▁within	-7.40755
▁identified	-7.40967
▁vaccine	-7.41045
▁increased	-7.41341
▁associat	-7.42449
▁diseases	-7.42561
▁aegypti	-7.42677
▁associate	-7.42688
▁reported	-7.43022
▁Aedes	-7.43348
▁Our	-7.4352
▁through	-7.43864
▁case	-7.45372
ary	-7.45389
▁total	-7.46392
▁interventions	-7.46899
▁individuals	-7.47439
▁provide	-7.47498
▁mortality	-7.48075
▁B	-7.48084
▁those	-7.48097
▁evidence	-7.48416
▁viral	-7.48921
▁significantly	-7.48993
▁infected	-7.49374
▁=	-7.49569
}	-7.50201
▁identify	-7.50593
▁predict	-7.50635
▁conducted	-7.51324
▁regions	-7.51374
specific	-7.51992
▁findings	-7.52048
▁Dengue	-7.52121
▁rate	-7.52409
▁burden	-7.52453
▁into	-7.52634
▁whe	-7.53871
▁D	-7.54069
▁I	-7.54202
▁sub	-7.54714
▁development	-7.55278
▁re	-7.55551
▁E	-7.56547
our	-7.5662
A	-7.5671
▁important	-7.57824
▁cause	-7.57837
▁observed	-7.57872
▁no	-7.58305
▁where	-7.58656
▁present	-7.58666
▁respectively	-7.59203
▁Malaria	-7.59522
▁detection	-7.59921
▁who	-7.6008
▁settings	-7.60241
o	-7.60426
S	-7.60794
-2	-7.61019
▁target	-7.61236
a	-7.61639
▁per	-7.62327
19	-7.62547
▁host	-7.62936
▁strategies	-7.63438
▁large	-7.63452
p	-7.6412
le	-7.6424
▁1	-7.64569
▁F	-7.64596
▁R	-7.64776
▁lower	-7.64996
▁cross	-7.65058
ive	-7.66142
▁However	-7.66384
▁response	-7.67177
▁Health	-7.6821
▁outbreak	-7.68477
▁epidemic	-7.68502
▁dynamics	-7.68727
▁deaths	-7.69141
▁2	-7.69553
6	-7.7013
▁(95%	-7.70217
▁care	-7.70281
▁increase	-7.70371
▁there	-7.70915
▁Brazil	-7.70948
▁Methods	-7.71235
ous	-7.71735
▁will	-7.71778
on	-7.71828
▁assess	-7.72646
▁outcomes	-7.72825
▁only	-7.73331
▁community	-7.73332
▁level	-7.73885
each	-7.74061
▁outbreaks	-7.74246
▁local	-7.74436
▁test	-7.75007
▁gene	-7.75194
out	-7.75437
▁long	-7.75865
▁approach	-7.7642
▁region	-7.77085
▁months	-7.77724
▁populations	-7.77825
▁highly	-7.78201
▁positive	-7.78281
▁aim	-7.78616
▁effect	-7.78932
▁knowlesi	-7.79031
▁estimated	-7.79534
▁viruses	-7.79539
▁-	-7.79793
▁intervention	-7.79948
▁nets	-7.80288
▁du	-7.81282
▁up	-7.81297
▁sensitivity	-7.81626
▁Here	-7.8163
borne	-7.81632
▁spread	-7.81695
▁second	-7.8172
▁many	-7.81726
▁need	-7.81883
▁rates	-7.81919
er	-7.82108
{	-7.83385
▁acute	-7.83409
bout	-7.83571
▁effects	-7.83576
▁diagnostic	-7.84239
▁single	-7.8427
C	-7.84833
▁review	-7.85322
We	-7.85776
▁like	-7.85862
▁knowledge	-7.8602
▁multiple	-7.86035
▁temperature	-7.86046
▁collected	-7.86168
▁M	-7.86189
▁reveal	-7.8693
▁association	-7.86987
▁genetic	-7.87091
▁primary	-7.87101
▁global	-7.87596
l	-7.87828
▁available	-7.87893
▁participants	-7.87914
▁current	-7.88756
▁efficacy	-7.88842
▁[	-7.89415
▁prevention	-7.89785
▁support	-7.90093
▁anti	-7.904
▁people	-7.90649
3	-7.90687
▁based	-7.9073
▁effective	-7.90778
▁major	-7.91579
▁climate	-7.9161
▁system	-7.91659
▁genes	-7.91755
▁methods	-7.91764
ion	-7.92126
▁related	-7.92152
▁individual	-7.92318
▁group	-7.92716
while	-7.9277
▁vs	-7.93111
▁detected	-7.93977
CoV	-7.94034
▁genome	-7.94821
L	-7.94904
▁novel	-7.95504
▁role	-7.95598
▁To	-7.95827
▁groups	-7.96481
▁period	-7.96642
4	-7.96731
▁reduce	-7.96776
▁SARS	-7.96825
▁included	-7.96838
▁pre	-7.97034
▁develop	-7.97742
▁ZIKV	-7.98063
▁post	-7.98287
▁5	-7.99192
▁G	-7.99389
▁testing	-7.99635
▁trial	-7.99689
▁assay	-7.99701
▁Anopheles	-7.99756
▁m	-8.00029
▁developed	-8.00334
c	-8.00573
▁pandemic	-8.00831
i	-8.01067
▁rapid	-8.01402
in	-8.01434
▁complex	-8.01508
▁regression	-8.01792
▁insecticide	-8.0186
▁reduction	-8.01931
▁proteins	-8.02315
▁estimate	-8.02583
▁result	-8.02882
CI	-8.03745
ation	-8.03778
Saharan	-8.03786
▁distribution	-8.04017
▁did	-8.04102
micro	-8.04298
▁understanding	-8.04347
▁four	-8.04527
▁households	-8.04699
▁estimates	-8.04768
▁ovale	-8.0491
▁conditions	-8.05053
▁household	-8.05078
▁An	-8.05205
▁endemic	-8.05235
▁NS	-8.05403
▁effectiveness	-8.05457
▁demonstrate	-8.06022
▁diagnosis	-8.06027
▁essential	-8.06042
▁exposure	-8.06182
▁known	-8.06256
▁prevent	-8.06637
R	-8.06974
▁assessed	-8.06996
▁chikungunya	-8.07096
▁growth	-8.071
▁how	-8.07159
▁dose	-8.07757
▁days	-8.07859
▁women	-8.0822
▁follow	-8.08657
▁improve	-8.08922
▁following	-8.09093
▁gambiae	-8.09355
▁tool	-8.09724
▁urban	-8.09758
or	-8.09938
▁specific	-8.1009
▁common	-8.10292
▁design	-8.10529
▁antimalarial	-8.10768
▁variation	-8.10778
▁sever	-8.11442
P	-8.12281
DENV	-8.12722
▁highlight	-8.12885
▁tests	-8.13004
g	-8.13886
▁expression	-8.14247
▁LLINs	-8.14601
▁research	-8.14993
▁severity	-8.15258
▁variables	-8.15472
▁elimination	-8.15512
▁responses	-8.15521
▁relative	-8.15522
▁range	-8.15553
▁measures	-8.15727
▁vectors	-8.16002
▁survey	-8.16058
▁change	-8.16281
5	-8.16302
▁antibodies	-8.16543
▁country	-8.16575
▁symptoms	-8.16633
th	-8.16859
▁illness	-8.17554
▁6	-8.17736
level	-8.17775
▁RNA	-8.17837
▁performed	-8.18091
▁cost	-8.18596
▁recent	-8.18687
▁frequency	-8.19003
▁remains	-8.19233
-1	-8.19685
▁For	-8.19934
▁multi	-8.20417
▁infectious	-8.20451
▁vaccination	-8.20543
▁s	-8.21327
▁key	-8.21502
▁year	-8.21567
▁HIV	-8.21618
▁method	-8.21807
▁less	-8.22193
▁African	-8.22278
▁determine	-8.225
▁rural	-8.22793
▁critical	-8.22869
▁information	-8.2301
▁early	-8.23105
ular	-8.23199
▁vari	-8.23628
OR	-8.23938
▁immunity	-8.24107
▁management	-8.2414
▁some	-8.24141
▁healthcare	-8.24143
▁IgG	-8.24199
▁death	-8.24528
aOR	-8.24659
▁hospital	-8.24869
▁proportion	-8.24936
▁tested	-8.25398
▁antibody	-8.25437
▁facilities	-8.25439
▁highest	-8.25499
▁pyrethroid	-8.261
▁systems	-8.26724
▁further	-8.26779
▁laboratory	-8.26789
▁ratio	-8.27057
▁cluster	-8.2788
▁mean	-8.2814
▁before	-8.28158
=	-8.28176
stage	-8.28243
us	-8.28869
▁Ae	-8.29389
▁environmental	-8.29506
▁morbidity	-8.29653
▁sequencing	-8.29659
▁previously	-8.29733
▁area	-8.29809
▁analyses	-8.29921
▁humans	-8.30086
ther	-8.30218
]	-8.30253
▁five	-8.30268
▁sho	-8.30441
▁increasing	-8.31093
▁4	-8.32361
▁systematic	-8.3246
▁7	-8.32617
▁South	-8.32949
▁million	-8.32991
▁statistical	-8.33361
▁de	-8.33671
ul	-8.33688
▁molecular	-8.33874
▁activity	-8.33939
▁combined	-8.34117
▁density	-8.34266
▁similar	-8.3438
▁There	-8.34412
▁w	-8.35105
▁characteristics	-8.35385
▁2020	-8.35695
▁e	-8.35916
▁Background	-8.35957
m	-8.36111
▁strong	-8.36287
ian	-8.36307
▁sam	-8.36493
▁patterns	-8.36986
▁meta	-8.37012
▁arboviruses	-8.37065
middle	-8.37444
▁performance	-8.37473
ce	-8.37726
▁lead	-8.37829
▁2023	-8.37837
▁dot	-8.38443
▁epidemiological	-8.38452
▁protection	-8.38452
▁immune	-8.38691
▁combination	-8.3898
▁demonstrated	-8.38991
▁focus	-8.39005
▁access	-8.391
▁vaccines	-8.39168
▁coverage	-8.39857
▁status	-8.39861
▁N	-8.39912
▁2019	-8.39976
▁out	-8.40005
▁quality	-8.40041
ity	-8.40092
lasting	-8.40193
▁negative	-8.40296
▁r	-8.40975
▁changes	-8.40993
▁spp	-8.41416
▁especially	-8.41487
▁differences	-8.41812
▁male	-8.42382
▁U	-8.42755
▁investigate	-8.4283
LI	-8.42884
▁2021	-8.43033
▁natural	-8.43282
related	-8.43489
▁limited	-8.43607
▁network	-8.43697
▁median	-8.4383
▁patient	-8.44029
▁trials	-8.44449
▁detect	-8.44594
nAuthor	-8.44606
▁Tanzania	-8.44611
▁diversity	-8.44613
▁L	-8.44616
▁Author	-8.44655
▁average	-8.4475
▁spatial	-8.44918
▁work	-8.45086
▁sites	-8.45107
▁Us	-8.45229
▁female	-8.45374
ability	-8.45426
section	-8.4583
▁national	-8.45936
▁indicate	-8.45976
▁reduced	-8.45993
▁small	-8.46115
▁caus	-8.46165
▁affect	-8.46283
maximum	-8.46304
▁inform	-8.46423
▁O	-8.46528
▁approaches	-8.46573
▁poor	-8.46591
▁lea	-8.46912
▁Results	-8.47076
D	-8.47084
▁improved	-8.47265
▁ma	-8.4738
▁routine	-8.47919
▁account	-8.47933
▁Wolbachia	-8.47995
B	-8.48176
▁asymptomatic	-8.48201
▁analyzed	-8.48323
The	-8.4861
▁stages	-8.48765
ily	-8.49129
▁decrease	-8.4961
▁Kenya	-8.49691
▁efforts	-8.49796
▁particular	-8.49938
cell	-8.50144
▁understand	-8.50484
risk	-8.50485
▁Conclusions	-8.50487
▁do	-8.50795
T	-8.50999
▁influence	-8.51038
▁state	-8.51198
▁assays	-8.51247
▁pregnancy	-8.51337
▁entomological	-8.51346
▁microscopy	-8.51353
▁greater	-8.51369
▁evaluate	-8.51416
▁contribute	-8.51419
▁specificity	-8.51454
ies	-8.51528
u	-8.5172
ng	-8.52179
like	-8.5262
▁Asia	-8.52812
ative	-8.52994
▁them	-8.53556
▁Pf	-8.53913
▁genotype	-8.5397
▁adults	-8.53975
▁It	-8.53992
endemic	-8.54251
▁near	-8.54301
line	-8.54314
▁seasonal	-8.54745
▁geographical	-8.54771
if	-8.54821
▁insecticidal	-8.54881
▁worldwide	-8.54883
▁evaluated	-8.55506
PD	-8.5554
▁setting	-8.55835
▁education	-8.56706
▁presence	-8.56743
M	-8.56805
▁screening	-8.56876
▁10	-8.57078
▁confirmed	-8.57364
▁addition	-8.57517
▁adult	-8.5763
COVID	-8.57815
▁find	-8.57849
▁drugs	-8.57875
▁address	-8.57888
ual	-8.57889
to	-8.58164
▁reduc	-8.58212
RH	-8.58591
▁overall	-8.58614
LIO	-8.59025
▁structure	-8.59124
▁affected	-8.59595
▁12	-8.59737
▁function	-8.59868
as	-8.59877
▁provided	-8.60316
▁better	-8.60431
▁uptake	-8.60432
▁however	-8.60435
▁controlled	-8.60621
▁9	-8.61202
term	-8.61203
▁serotype	-8.61453
▁contain	-8.61457
▁tools	-8.61932
9	-8.61949
▁needed	-8.62029
▁previous	-8.62099
ither	-8.6215
▁Ghana	-8.62353
▁invasion	-8.62403
▁seroprevalence	-8.62407
▁around	-8.62591
▁monthly	-8.62595
SP	-8.62653
ite	-8.62742
▁IPTp	-8.6278
▁aged	-8.62808
oul	-8.63179
▁indicat	-8.6318
▁o	-8.63209
▁additional	-8.63436
▁toward	-8.63486
ry	-8.63783
▁net	-8.64192
▁few	-8.64236
▁Data	-8.64244
▁Uganda	-8.64314
▁strategy	-8.6432
▁apicoplast	-8.64331
▁given	-8.64425
▁day	-8.64501
▁artemisinin	-8.64671
▁markers	-8.64719
▁H	-8.64729
▁measured	-8.64843
▁context	-8.65382
▁require	-8.65419
▁main	-8.65467
▁value	-8.65528
0	-8.65737
▁child	-8.66318
▁genomic	-8.66725
▁stage	-8.6682
▁di	-8.66926
▁functional	-8.66954
▁malariae	-8.67148
b	-8.67263
▁six	-8.67277
ory	-8.67283
▁20	-8.67318
▁relationship	-8.67434
▁costs	-8.67735
▁us	-8.67746
▁phase	-8.67862
▁wide	-8.68017
▁b	-8.68284
▁importance	-8.68357
▁mice	-8.68371
▁general	-8.68395
▁anaemia	-8.68471
▁social	-8.68474
▁help	-8.68506
▁wh	-8.68513
▁15	-8.68938
▁life	-8.6894
▁currently	-8.68958
▁form	-8.69047
This	-8.69315
▁As	-8.69315
▁sample	-8.69451
▁lack	-8.69569
▁cohort	-8.69607
ally	-8.69617
▁field	-8.6962
▁intra	-8.69623
▁RT	-8.69843
▁challenge	-8.70122
▁allow	-8.70375
▁demographic	-8.70402
▁implementation	-8.70464
▁De	-8.7058
▁times	-8.70618
▁pooled	-8.70656
▁medical	-8.70818
▁targeting	-8.70888
▁random	-8.70988
▁pathogens	-8.71127
▁infect	-8.71157
▁required	-8.71186
▁framework	-8.71597
▁assessment	-8.71867
G	-8.72046
ge	-8.72087
▁explore	-8.72312
▁cycle	-8.72359
▁link	-8.72433
▁arbovirus	-8.72553
▁future	-8.7256
▁communities	-8.72566
▁selection	-8.72579
▁mixed	-8.72647
▁consistent	-8.72657
▁events	-8.7266
▁report	-8.72881
▁water	-8.7294
▁correlation	-8.7296
▁tropical	-8.73332
is	-8.73382
▁transmitt	-8.73575
O	-8.7364
very	-8.73695
▁protect	-8.74011
the	-8.74136
tic	-8.7424
▁represent	-8.74313
▁possible	-8.7482
▁accuracy	-8.74829
▁appear	-8.74853
▁past	-8.74871
▁even	-8.74912
LLINs	-8.74944
▁parameters	-8.7495
▁primaquine	-8.7518
▁India	-8.75203
▁variants	-8.75466
▁causes	-8.75512
8	-8.75529
▁determined	-8.75542
▁interactions	-8.75642
▁districts	-8.75693
▁{	-8.75757
▁outcome	-8.76035
▁birth	-8.7609
▁clusters	-8.76244
▁district	-8.76315
▁K	-8.76836
pyrimethamine	-8.76959
▁epidemiology	-8.76962
▁World	-8.77001
▁modelling	-8.77066
▁insight	-8.77163
▁real	-8.77354
▁epidemics	-8.77365
ince	-8.77417
▁involved	-8.77435
▁strains	-8.77782
▁reports	-8.77965
▁indoor	-8.78474
▁PCR	-8.78678
▁surveys	-8.78684
▁al	-8.78847
analysis	-8.78935
▁febrile	-8.79227
▁replication	-8.79235
▁delay	-8.79257
▁Nigeria	-8.79273
▁March	-8.79285
▁spraying	-8.79337
▁experience	-8.7938
▁pregnant	-8.79459
▁moderate	-8.79789
▁exist	-8.79814
ers	-8.7987
▁reporting	-8.80313
▁states	-8.80392
▁interaction	-8.8067
▁antigen	-8.80765
dds	-8.80928
re	-8.81137
▁capacity	-8.81552
▁therefore	-8.81553
▁still	-8.81556
▁identification	-8.8156
▁programs	-8.81921
▁concentrations	-8.82044
cause	-8.82338
▁sequence	-8.82639
▁measure	-8.82667
▁adjust	-8.82718
▁process	-8.82989
year	-8.83231
oxin	-8.8355
▁correlate	-8.83864
▁Organization	-8.83933
▁intensity	-8.83937
▁treated	-8.83966
▁healthy	-8.84058
▁Although	-8.84173
▁often	-8.84413
▁world	-8.84461
▁selected	-8.84536
▁Summary	-8.84639
▁independent	-8.84982
of	-8.85041
▁season	-8.85162
▁dataset	-8.8552
▁standard	-8.8584
7	-8.85851
F	-8.8599
ar	-8.86106
▁occurred	-8.8638
▁evaluation	-8.86469
▁sulfad	-8.86491
▁regard	-8.86526
▁comprehensive	-8.86545
ble	-8.86592
▁quantitative	-8.86685
▁LLIN	-8.86858
spit	-8.86975
▁SMC	-8.87052
up	-8.87085
▁structural	-8.87224
▁desp	-8.87244
▁investigated	-8.87296
▁14	-8.8746
EP	-8.87709
▁part	-8.87787
▁bias	-8.88006
▁membrane	-8.88061
▁strain	-8.88131
▁perform	-8.88253
▁shown	-8.88566
an	-8.88646
ial	-8.88678
▁direct	-8.88681
by	-8.88792
▁compare	-8.88804
▁Therefore	-8.88872
▁distinct	-8.88873
▁considered	-8.89173
published	-8.89177
▁2015	-8.8923
▁symptomatic	-8.89233
▁mass	-8.89622
cal	-8.89818
▁Whil	-8.89872
▁challenges	-8.8996
▁inhibit	-8.89998
(	-8.90028
▁c	-8.90256
▁pathway	-8.90516
▁size	-8.90656
▁limit	-8.90742
▁enhance	-8.9113
%,	-8.91221
▁usage	-8.91468
▁Hospital	-8.91481
▁carried	-8.91488
▁adverse	-8.91504
▁plasma	-8.91517
▁Cameroon	-8.91556
▁self	-8.91583
▁thus	-8.9159
▁offer	-8.91601
▁Southeast	-8.91668
▁practices	-8.91914
▁directly	-8.91958
▁city	-8.92022
▁randomized	-8.92086
▁8	-8.92199
▁18	-8.92659
▁serotypes	-8.92673
▁search	-8.93252
id	-8.93505
%	-8.93556
▁accurate	-8.93867
▁prior	-8.94008
▁duration	-8.94081
▁associations	-8.94095
▁More	-8.94108
▁serological	-8.94144
▁episodes	-8.94208
▁index	-8.94219
▁signs	-8.94234
▁Among	-8.94265
ight	-8.94273
▁geographic	-8.94319
▁learning	-8.9447
▁regional	-8.9448
▁generated	-8.94524
▁2022	-8.94952
▁concern	-8.94974
▁red	-8.95169
▁weight	-8.95504
▁comparison	-8.95816
RNA	-8.95851
▁numbers	-8.95852
▁via	-8.9605
▁point	-8.9605
▁old	-8.96053
▁16	-8.96294
time	-8.96432
▁controls	-8.9646
▁short	-8.96495
▁annual	-8.96689
▁30	-8.96713
age	-8.96739
▁crucial	-8.96771
▁entire	-8.96771
▁administration	-8.96817
▁half	-8.96833
▁2018	-8.96836
▁inhibition	-8.96838
▁u	-8.96846
thematic	-8.96904
▁workers	-8.96963
▁transcription	-8.97053
scale	-8.97085
▁DNA	-8.97102
▁emergence	-8.97113
▁serum	-8.97243
1)	-8.97255
▁alleles	-8.97265
▁normal	-8.97395
circulating	-8.97455
hydroartemisinin	-8.97458
▁peak	-8.97793
infection	-8.98267
▁females	-8.98304
▁Conclusion	-8.98797
ongo	-8.98859
▁RDTs	-8.98875
Malaria	-8.98972
degrees	-8.99095
▁decline	-8.99164
▁describe	-8.99506
▁activation	-8.99681
▁features	-8.99721
▁series	-8.99766
▁pathogen	-8.998
▁school	-8.99822
SQ	-8.9991
▁2016	-8.9995
▁mutations	-9.00025
<0.001)	-9.00141
▁resources	-9.00193
▁then	-9.00264
▁hosts	-9.00361
▁liv	-9.00408
▁economic	-9.00462
▁depend	-9.00625
▁sequences	-9.00641
▁da	-9.00846
▁resistan	-9.01121
▁produce	-9.0115
▁W	-9.01164
▁evolution	-9.01252
▁set	-9.01618
▁project	-9.01675
▁substantial	-9.02151
▁PfClpC	-9.02405
▁include	-9.02413
▁majority	-9.02471
▁sustain	-9.02496
▁planning	-9.02509
▁sampling	-9.02565
▁initial	-9.02567
▁capture	-9.02626
▁liver	-9.02727
▁services	-9.02798
▁studied	-9.02815
▁monitoring	-9.02823
treated	-9.0288
▁V	-9.02952
▁implemented	-9.03061
▁socio	-9.03143
▁t	-9.03242
▁types	-9.03332
▁scale	-9.03556
ance	-9.0378
▁<	-9.03975
f	-9.042
▁literature	-9.04275
▁candidate	-9.04404
▁sound	-9.04458
▁order	-9.04462
▁variant	-9.04513
▁reference	-9.04546
I	-9.04664
▁threat	-9.05119
▁examine	-9.0532
▁Ethiopia	-9.05347
▁municipalities	-9.05348
▁heterogeneity	-9.05352
LNS	-9.05371
▁indices	-9.05373
▁applied	-9.05392
▁biology	-9.05394
fold	-9.05409
▁Malawi	-9.0541
▁safety	-9.05414
AOR	-9.05461
▁power	-9.05482
▁vitro	-9.05485
▁does	-9.0558
▁biting	-9.05596
at	-9.05746
▁light	-9.05815
▁IFR	-9.05856
▁obtained	-9.05866
▁training	-9.05949
▁emerging	-9.05967
ST	-9.05969
▁binding	-9.05987
▁established	-9.06149
▁d	-9.06308
▁values	-9.06794
▁compar	-9.06959
▁problem	-9.07443
▁profile	-9.07532
▁vary	-9.07601
▁Co	-9.07669
▁likel	-9.07832
▁MethodsA	-9.08123
h	-9.08225
tubulin	-9.08379
▁contrast	-9.08382
▁mobility	-9.08384
▁activities	-9.08431
▁National	-9.08438
▁Colombia	-9.08439
▁private	-9.08453
▁Sub	-9.08467
▁All	-9.08563
▁isolates	-9.08599
▁visits	-9.08626
▁according	-9.08907
ri	-9.08984
▁mechanisms	-9.0902
▁feeding	-9.09382
▁On	-9.0942
▁WHO	-9.09589
▁circulation	-9.09849
▁becom	-9.1031
▁progress	-9.10407
▁Re	-9.10548
▁East	-9.10598
only	-9.10685
▁Region	-9.10694
▁wave	-9.1075
▁doses	-9.10895
▁reductions	-9.11025
▁insecticides	-9.11041
ent	-9.11149
▁end	-9.11285
▁experimental	-9.11296
▁complete	-9.11461
▁provid	-9.11477
▁albopictus	-9.11502
▁exhibit	-9.11502
▁unknown	-9.11519
▁semi	-9.11568
▁prevalent	-9.11578
▁temporal	-9.11638
▁recorded	-9.11724
▁CD	-9.11833
ctional	-9.11896
▁compounds	-9.11902
▁High	-9.11938
me	-9.11939
ty	-9.11944
▁increases	-9.12181
▁count	-9.12357
▁sex	-9.12425
▁travel	-9.12896
50	-9.13003
N	-9.13011
▁networks	-9.13311
▁rang	-9.13361
ment	-9.13615
▁implement	-9.13961
infected	-9.14403
▁propose	-9.14506
▁berghei	-9.14728
▁rainfall	-9.1473
▁chemoprevention	-9.14731
▁ensemble	-9.148
▁Most	-9.14801
▁useful	-9.14858
▁Overall	-9.1487
▁Bangladesh	-9.14881
▁Research	-9.14881
▁track	-9.149
▁recovery	-9.14902
▁yet	-9.14915
▁continue	-9.14934
▁availability	-9.1494
▁cure	-9.14948
▁generate	-9.14951
▁space	-9.14972
▁protecti	-9.15002
over	-9.15207
▁recommended	-9.15351
▁relevant	-9.1537
▁commonly	-9.15449
▁CHIKV	-9.15534
piperaquine	-9.1558
▁(3	-9.15639
US	-9.15937
▁By	-9.15995
▁h	-9.16097
▁summary	-9.1662
▁release	-9.1667
une	-9.16698
▁logistic	-9.1698
▁syndrome	-9.17085
▁decision	-9.17132
▁threshold	-9.17139
▁occur	-9.17244
ical	-9.17611
▁type	-9.17657
▁stress	-9.17756
▁synthesis	-9.17782
▁subsequent	-9.17795
1,	-9.17837
▁broad	-9.18008
Matrix	-9.18061
▁expansion	-9.18061
▁widespread	-9.18063
▁skin	-9.18065
▁deployment	-9.18069
▁reproduction	-9.18091
▁Chikungunya	-9.18117
▁timing	-9.18131
▁socioeconomic	-9.18141
wide	-9.1818
▁dosing	-9.18188
▁alone	-9.18193
▁appropriate	-9.18237
▁processes	-9.18253
▁gametocyte	-9.18278
▁whole	-9.18317
▁bites	-9.18481
▁hospitalization	-9.18498
▁therapy	-9.18543
▁recently	-9.18754
▁fatalit	-9.18859
▁targets	-9.19
llow	-9.19071
most	-9.19268
▁date	-9.1952
▁active	-9.19548
atic	-9.19826
▁interact	-9.20196
▁differential	-9.20271
▁receive	-9.20294
▁collection	-9.20596
▁class	-9.21096
▁mu	-9.21313
Seq	-9.21459
▁mansoni	-9.2151
▁heterogeneous	-9.21512
▁panel	-9.21513
▁good	-9.21537
▁survival	-9.21545
▁China	-9.21547
infections	-9.21573
▁family	-9.21585
▁genus	-9.21587
▁made	-9.21614
▁infants	-9.21626
▁determinants	-9.21707
▁young	-9.2171
▁every	-9.21725
▁facilitate	-9.21748
▁necessary	-9.21774
▁No	-9.21904
Princip	-9.21944
▁month	-9.21968
▁BackgroundThe	-9.21976
▁seen	-9.22007
transmission	-9.22115
▁RDT	-9.22176
value	-9.22667
▁third	-9.22707
erythrocyt	-9.22758
11	-9.22792
▁free	-9.22947
▁late	-9.23104
▁pro	-9.23512
▁call	-9.23578
ral	-9.23677
▁attend	-9.23749
▁inter	-9.23941
temporal	-9.23978
▁objective	-9.24123
▁application	-9.24134
▁therapeutic	-9.24141
▁difference	-9.24251
lactate	-9.24293
▁term	-9.24434
▁factor	-9.24439
▁insect	-9.24464
▁v	-9.24506
▁maternal	-9.24764
▁hospitalis	-9.25026
▁2014	-9.25042
▁Malaysia	-9.25081
▁neonatal	-9.25081
▁surface	-9.25081
▁failure	-9.25082
▁abundance	-9.25084
▁incorporat	-9.25109
▁classification	-9.25109
▁traditional	-9.25112
▁open	-9.25122
▁arbovir	-9.25141
▁100%	-9.25155
▁source	-9.25179
▁predominant	-9.25214
um	-9.25217
▁50	-9.25254
2)	-9.2526
▁expected	-9.25288
▁best	-9.25297
▁site	-9.25302
▁course	-9.25338
▁locations	-9.25372
▁clear	-9.2538
▁promis	-9.25466
▁IgM	-9.25523
▁proposed	-9.25595
▁CHMI	-9.25608
▁facility	-9.25634
▁n	-9.25681
▁ELISA	-9.25824
▁Further	-9.25868
PCR	-9.26199
▁seeking	-9.26446
▁datasets	-9.2645
▁vers	-9.26489
▁America	-9.26501
2,	-9.26505
▁25	-9.26696
mediated	-9.26715
▁ra	-9.26728
%)	-9.26809
▁Of	-9.26887
▁linea	-9.27341
H	-9.27488
▁CHW	-9.27865
▁improv	-9.28083
and	-9.28091
▁prediction	-9.28106
▁double	-9.28171
▁sporozoite	-9.28257
V	-9.28287
▁difficult	-9.28574
▁geo	-9.28598
▁temperatures	-9.28776
▁policy	-9.28783
://	-9.28792
▁southern	-9.28798
▁deep	-9.28843
▁mild	-9.28852
▁production	-9.28856
▁Peru	-9.28865
▁modeling	-9.28908
▁frequently	-9.28919
▁successful	-9.28953
▁2017	-9.28966
▁chloroquine	-9.28978
▁May	-9.29055
▁Methodology	-9.29193
▁enhanc	-9.29231
▁neur	-9.29265
▁sufficient	-9.2929
▁guide	-9.29319
▁breeding	-9.29354
sing	-9.29401
▁examined	-9.29419
▁remained	-9.29501
▁thresholds	-9.29821
▁differ	-9.30042
▁19	-9.30044
▁analyze	-9.30089
▁line	-9.30216
▁qPCR	-9.30464
▁PBO	-9.30613
▁so	-9.30625
est	-9.30835
▁coronavirus	-9.31624
▁trend	-9.31721
▁regimen	-9.31746
▁Findings	-9.31764
▁ITN	-9.32086
▁i	-9.3233
malarial	-9.32467
▁August	-9.32631
▁tormota	-9.32631
▁question	-9.32631
▁respondents	-9.32632
▁warning	-9.32636
▁baseline	-9.32636
▁cynomolgi	-9.32639
▁Additionally	-9.327
▁absence	-9.32712
▁diverse	-9.32733
▁lowest	-9.32738
▁play	-9.32802
▁probability	-9.32821
▁complications	-9.32827
driven	-9.3284
▁screened	-9.32886
▁weekly	-9.32893
▁ResultsThe	-9.32904
▁11	-9.32919
▁hours	-9.32942
▁pose	-9.32961
▁expressed	-9.32964
▁analysed	-9.32981
▁scenarios	-9.33126
▁techniques	-9.33163
▁along	-9.33164
▁attitudes	-9.33199
▁One	-9.33347
▁weeks	-9.33359
nderstanding	-9.33503
AS	-9.33508
▁DHF	-9.33589
ding	-9.33607
1-	-9.33803
▁counts	-9.33849
▁CHWs	-9.33869
▁17	-9.33904
▁remain	-9.34037
urthermore	-9.34193
▁ConclusionsThe	-9.34193
▁structures	-9.34569
▁functions	-9.34613
▁approximate	-9.34614
▁13	-9.34625
▁Unit	-9.35061
▁Final	-9.35278
▁behavior	-9.35475
E	-9.3548
▁culture	-9.35569
▁100	-9.35614
▁interval	-9.35709
▁paper	-9.35713
▁2013	-9.35738
▁enzyme	-9.35763
▁West	-9.35853
▁agent	-9.3587
▁origin	-9.36085
▁protocol	-9.36156
▁observation	-9.36157
▁conduct	-9.36227
▁resource	-9.36311
▁arm	-9.36377
▁With	-9.36593
hood	-9.36626
▁Children	-9.36631
▁software	-9.36631
▁susceptibility	-9.36631
▁excess	-9.36631
▁University	-9.36631
▁seropositivity	-9.36632
▁robust	-9.36633
▁criteria	-9.36633
▁quantify	-9.36644
pLDH	-9.36648
▁Thailand	-9.36715
▁respirator	-9.36716
▁done	-9.36748
▁funding	-9.36793
▁chain	-9.36874
▁diagnosed	-9.36935
▁delivery	-9.36946
▁habitats	-9.36981
▁substantially	-9.36997
mean	-9.371
▁expand	-9.37255
▁reactive	-9.37279
range	-9.37721
rom	-9.37753
▁globally	-9.3777
▁users	-9.37807
ern	-9.37823
▁profiles	-9.37849
▁face	-9.37957
▁pathways	-9.38094
▁antigens	-9.38221
▁here	-9.38293
low	-9.38352
cumulati	-9.38596
▁affects	-9.3895
▁phenotype	-9.39186
▁person	-9.39286
▁environment	-9.39584
less	-9.3975
for	-9.39802
▁transport	-9.3982
▁District	-9.39844
▁platelet	-9.39844
▁1,	-9.39854
▁variations	-9.39891
▁database	-9.39928
▁acid	-9.39992
▁Model	-9.40055
▁obtain	-9.40062
▁integrate	-9.40099
▁last	-9.40131
▁qualit	-9.40513
Pf	-9.40597
▁ownership	-9.40797
▁lockdown	-9.40798
▁efficiency	-9.408
▁flow	-9.40842
▁enrolled	-9.40847
▁alternative	-9.40875
;]	-9.4088
▁hybrid	-9.40883
▁climatic	-9.40888
▁percentage	-9.40891
▁interviews	-9.40907
mL	-9.40955
▁vivo	-9.40991
▁members	-9.41057
▁80%	-9.41068
▁estimation	-9.41178
▁contribution	-9.41203
▁introduced	-9.41276
▁employed	-9.41281
▁loads	-9.41372
▁domain	-9.41505
▁Pv	-9.41513
▁reflect	-9.41579
CR	-9.41594
▁Amazon	-9.41668
LLIN	-9.41787
▁ye	-9.41794
▁trends	-9.418
U	-9.41863
▁received	-9.41897
▁sources	-9.41928
▁compris	-9.42125
▁defined	-9.42147
▁60	-9.4229
▁forms	-9.42707
▁later	-9.42763
uly	-9.42804
▁experienc	-9.42882
▁correlat	-9.43038
▁partial	-9.43307
▁timely	-9.43316
▁treat	-9.43647
io	-9.43775
▁ResultsA	-9.44007
▁questionnaire	-9.44195
▁mechanism	-9.44224
▁concentration	-9.44228
▁repeat	-9.44404
▁estimat	-9.44697
▁start	-9.44874
ful	-9.44919
▁Clinical	-9.45036
▁awareness	-9.45146
▁opportunit	-9.45146
▁hundred	-9.45148
▁subset	-9.45149
▁conserved	-9.45165
▁bleeding	-9.45167
▁volunteers	-9.45173
▁classified	-9.45181
dependent	-9.45194
▁variability	-9.45197
▁Long	-9.45224
reactivity	-9.45225
▁diabetes	-9.45234
▁Analysis	-9.45242
▁allocation	-9.45317
▁longer	-9.45376
▁bacterial	-9.45448
▁indicators	-9.45464
▁programmes	-9.45467
▁Covid	-9.45504
▁predictors	-9.45561
▁discriminat	-9.45577
▁Ap	-9.45621
▁reach	-9.45639
▁70%	-9.45668
▁mete	-9.45686
▁benefits	-9.45903
ril	-9.46126
ought	-9.46244
host	-9.46292
▁23	-9.46328
▁gametocytes	-9.46443
▁SD	-9.46495
▁characterized	-9.46576
▁sensitive	-9.46604
▁detail	-9.46607
▁making	-9.46721
fter	-9.46862
▁train	-9.46928
w	-9.46992
ZIKV	-9.47147
ological	-9.47642
▁dependent	-9.47759
▁28	-9.48263
▁8-	-9.48291
▁US	-9.48351
Our	-9.48396
▁Introduction	-9.48631
sex	-9.48767
▁System	-9.48789
▁admission	-9.48859
▁marker	-9.48881
▁border	-9.48894
▁explain	-9.48966
▁relapse	-9.48967
▁erythrocyte	-9.48989
▁derive	-9.4901
ness	-9.49027
▁lag	-9.49251
▁maintain	-9.49312
▁genomes	-9.49316
version	-9.49391
▁way	-9.4952
lthough	-9.49533
4)	-9.49554
40	-9.49594
▁(5	-9.49643
▁Vietnam	-9.49691
▁little	-9.49691
▁manner	-9.49691
▁responsible	-9.49691
▁densities	-9.49691
▁yield	-9.49691
▁cholesterol	-9.49692
▁contact	-9.49692
▁midgut	-9.49692
▁humidity	-9.49693
▁chronic	-9.49695
▁schistosomiasis	-9.49703
▁UK	-9.49713
▁cities	-9.49716
▁urgent	-9.4973
▁longitudinal	-9.49786
▁piperonyl	-9.49786
▁butoxide	-9.49787
▁though	-9.49788
▁Study	-9.49845
▁2024	-9.49889
▁efficient	-9.49897
▁varie	-9.499
▁barriers	-9.49976
▁biomarkers	-9.49983
▁achieve	-9.50007
▁adherence	-9.50008
▁90%	-9.50042
▁seven	-9.50058
▁Care	-9.50117
AND	-9.50138
multivariate	-9.50207
▁occurrence	-9.5049
▁front	-9.50804
▁rapidly	-9.50831
RR	-9.5094
▁effectively	-9.50983
ayes	-9.50985
parasite	-9.51645
effectiveness	-9.51907
cr	-9.52023
▁males	-9.52449
exist	-9.52481
▁great	-9.52765
▁place	-9.52848
▁inoculation	-9.53333
▁partner	-9.53463
▁recurrence	-9.53582
▁metaboli	-9.53771
uch	-9.53847
▁periods	-9.53933
▁tru	-9.54267
▁RBC	-9.543
▁simple	-9.54384
▁variable	-9.54391
▁microcephaly	-9.54453
▁trigger	-9.54453
▁Piwi	-9.54453
▁fluid	-9.54454
▁machine	-9.54457
▁extent	-9.54458
▁biological	-9.54467
▁Central	-9.54471
▁establishment	-9.54472
▁therapies	-9.54487
▁What	-9.54489
▁priority	-9.54493
▁fitted	-9.54539
▁zoonotic	-9.54549
kg	-9.54562
▁mitigat	-9.54581
any	-9.54595
▁anemia	-9.54605
▁needs	-9.54624
▁ACT	-9.54626
▁ensure	-9.54629
▁genotyping	-9.54656
▁inclusion	-9.5466
▁saliva	-9.54691
▁drivers	-9.54719
▁residents	-9.54738
▁Vector	-9.54751
day	-9.54792
01	-9.54871
▁WNV	-9.55031
▁conventional	-9.55031
▁Apo	-9.55069
50%	-9.5518
tion	-9.55294
control	-9.55478
▁HRP	-9.55497
▁databases	-9.55525
▁step	-9.55668
▁make	-9.55721
horin	-9.55736
▁IRS	-9.55737
▁optimal	-9.55858
month	-9.56037
[	-9.56232
Dengue	-9.56319
7)	-9.56533
▁characteris	-9.56704
positive	-9.56836
adjust	-9.56955
median	-9.56959
five	-9.57138
RDTs	-9.57471
▁calibrat	-9.57609
▁practice	-9.57986
▁%	-9.5824
side	-9.58345
▁Control	-9.58364
▁mo	-9.58379
▁24	-9.58431
uring	-9.58451
▁tissue	-9.58464
▁adapt	-9.58536
▁allele	-9.5854
▁investigation	-9.58547
▁whil	-9.58558
▁radi	-9.58559
▁improvement	-9.58561
▁establish	-9.58626
▁introduction	-9.58683
▁confirm	-9.58685
▁1%	-9.58768
ized	-9.58945
▁Ma	-9.59312
malaria	-9.59344
▁gondii	-9.59453
▁remote	-9.59453
▁Mozambique	-9.59453
▁frequencies	-9.59453
▁Republic	-9.59456
▁fitness	-9.59457
▁acceptable	-9.59462
▁digit	-9.59467
▁covariates	-9.59483
ready	-9.59507
▁challenging	-9.59511
▁November	-9.59552
▁CDPK	-9.59553
5.1/	-9.59554
▁continuous	-9.59598
▁interest	-9.59598
▁articles	-9.596
▁closely	-9.59633
▁generaliz	-9.5988
▁fit	-9.60032
▁receiv	-9.60038
▁PMI	-9.60066
ization	-9.60116
ch	-9.60157
▁TB	-9.60211
resistan	-9.60284
▁http	-9.60318
▁environments	-9.60625
▁agents	-9.6064
▁scop	-9.60724
▁explored	-9.60726
use	-9.60837
ted	-9.60965
▁sounds	-9.61044
▁Bio	-9.61078
▁now	-9.61255
▁ex	-9.613
▁transcriptome	-9.6139
▁amplicon	-9.61425
▁malarial	-9.61477
▁births	-9.61583
falciparum	-9.6162
duced	-9.61824
▁parasit	-9.61885
3,	-9.61912
▁cycles	-9.61921
income	-9.61966
circulation	-9.62219
PBO	-9.62274
▁genotypes	-9.62288
▁Compar	-9.62355
▁f	-9.62355
weight	-9.62416
▁rain	-9.62516
▁share	-9.6268
▁millions	-9.62737
▁recurren	-9.62909
0{	-9.63218
▁fo	-9.63397
HAT	-9.63483
▁phylogenetic	-9.63625
▁mutation	-9.6385
▁integrat	-9.63884
til	-9.63956
▁meal	-9.6405
▁contribut	-9.64146
3%	-9.64297
fusion	-9.64376
ond	-9.64503
▁condition	-9.64627
ities	-9.64657
▁characterize	-9.64658
▁choice	-9.64716
▁properties	-9.64716
▁next	-9.64717
▁extreme	-9.64717
▁monkeypox	-9.64717
▁tailor	-9.64718
▁reverse	-9.64721
▁rash	-9.64722
▁conclusion	-9.64723
▁basic	-9.64723
seq	-9.64736
▁antiviral	-9.64783
▁seasonality	-9.64786
▁spots	-9.64794
▁guidelines	-9.64797
▁Participants	-9.64807
▁Sa	-9.6481
▁taken	-9.64839
▁wild	-9.64857
care	-9.64898
▁export	-9.64929
▁elements	-9.64946
▁October	-9.64952
led	-9.64978
▁containers	-9.65025
▁combin	-9.65071
sidual	-9.65099
▁nutrition	-9.65185
▁clients	-9.65196
▁localize	-9.65196
▁fully	-9.65322
▁predicti	-9.65365
▁ANC	-9.65384
▁action	-9.65451
k	-9.65459
▁decades	-9.65504
▁States	-9.65531
▁eight	-9.65583
▁YFV	-9.65632
▁FR	-9.6566
0,	-9.65662
▁arms	-9.65872
be	-9.65955
▁blocking	-9.6599
▁regimens	-9.66003
▁cultures	-9.66008
▁sampled	-9.66012
▁Americas	-9.66134
▁occurs	-9.66251
▁mRDT	-9.66281
▁indirect	-9.66539
RDT	-9.66776
▁ConclusionThe	-9.66885
nConclusions	-9.67419
▁working	-9.67514
▁induce	-9.67691
▁investigat	-9.67746
qPCR	-9.67784
▁middle	-9.67816
▁se	-9.68539
older	-9.69136
te	-9.69155
▁receptor	-9.69314
▁week	-9.69316
▁lineage	-9.69385
▁component	-9.69445
▁certain	-9.69499
▁register	-9.69507
rich	-9.69636
▁Under	-9.6973
▁avert	-9.69806
▁At	-9.69936
▁homolog	-9.70041
▁full	-9.70078
▁international	-9.70175
▁spatio	-9.70206
▁Recent	-9.70227
▁Survey	-9.70271
▁sugar	-9.70271
▁likelihood	-9.70274
▁dehydrogenase	-9.70277
▁basis	-9.70278
ying	-9.70313
▁potent	-9.70314
▁Human	-9.70359
▁minimum	-9.7038
▁susceptible	-9.7038
▁nucleotide	-9.7038
▁government	-9.70381
▁suspect	-9.70394
▁multiplex	-9.70398
▁iron	-9.70446
▁aspects	-9.70446
▁universal	-9.70478
▁transcripts	-9.70498
▁understood	-9.70522
▁campaigns	-9.7057
complicat	-9.70785
▁ARDS	-9.70805
▁LoD	-9.70811
▁preventi	-9.70953
▁pyriproxyfen	-9.70955
▁adopt	-9.71153
▁forecasts	-9.71172
▁maintained	-9.71188
▁30%	-9.71301
▁confiden	-9.71452
anu	-9.71483
▁erythrocytes	-9.71492
PDd	-9.71562
▁behaviors	-9.7159
▁Mean	-9.71883
nce	-9.7203
▁Febr	-9.72117
plus	-9.72182
ill	-9.72191
demographic	-9.72235
5%	-9.72398
▁hyper	-9.72497
▁bio	-9.72547
▁prim	-9.726
▁produc	-9.72692
NS	-9.72751
nt	-9.72755
▁primar	-9.72762
▁influenc	-9.72885
▁ITNs	-9.7316
▁translation	-9.73266
<0.0001)	-9.73691
▁larv	-9.73726
ence	-9.73874
▁26	-9.73908
com	-9.74013
▁emerge	-9.7419
▁monitor	-9.74435
▁preventing	-9.7448
-2)	-9.74566
▁block	-9.74569
characterization	-9.74732
▁behaviour	-9.74859
▁forecast	-9.74881
▁program	-9.74966
▁typical	-9.75062
▁ten	-9.75141
-17	-9.75261
▁merozoite	-9.75337
▁benefit	-9.75365
▁heat	-9.75477
▁Trial	-9.75487
tis	-9.75532
▁Ba	-9.75598
▁dis	-9.75631
5,	-9.75647
▁collect	-9.75716
▁evaluat	-9.75954
▁deliver	-9.75967
dical	-9.7597
▁safe	-9.76095
PfEMP	-9.76154
▁curtisi	-9.76154
▁emergency	-9.76154
▁peripher	-9.76154
▁abnormalities	-9.76155
▁Benin	-9.76155
▁movement	-9.76155
▁together	-9.76156
▁vulnerability	-9.76156
▁retrospective	-9.76157
▁TNF	-9.76157
▁mobile	-9.7616
▁memory	-9.7616
▁accompan	-9.76165
▁viremia	-9.76165
▁assembly	-9.76173
▁onset	-9.7618
▁recover	-9.76186
▁comparative	-9.762
▁experiments	-9.76202
▁transmit	-9.76206
▁nine	-9.7624
▁IFN	-9.76248
▁pathogenesis	-9.76262
▁fatigue	-9.76267
▁correct	-9.76268
▁differentiation	-9.76277
▁hospitalized	-9.76297
▁bound	-9.76308
▁computational	-9.76347
▁titres	-9.76363
▁Virus	-9.76364
▁lipid	-9.76374
▁marked	-9.76394
▁impacts	-9.76404
▁ResultsW	-9.76405
▁PBGD	-9.76414
▁Fever	-9.76434
▁imply	-9.76441
▁apply	-9.76442
▁inflammation	-9.76449
etween	-9.7654
▁rise	-9.76607
astern	-9.76625
▁requir	-9.76656
▁sleeping	-9.76661
▁New	-9.76704
▁rare	-9.76767
▁maps	-9.76783
▁statistics	-9.76822
▁vaccinated	-9.76911
▁mainly	-9.7695
▁repeated	-9.76958
▁heating	-9.76962
BackgroundDengue	-9.76994
▁simulations	-9.76995
▁achieved	-9.77031
▁deficiency	-9.77124
▁components	-9.77153
▁online	-9.77263
▁0.05)	-9.77323
haemorrhagic	-9.77503
▁auto	-9.77539
▁Previous	-9.77557
▁predictions	-9.77731
▁DF	-9.7785
wards	-9.77862
go	-9.77895
▁serve	-9.77917
▁risks	-9.77928
▁0.1	-9.77938
▁Mosquito	-9.77947
ue	-9.77984
▁far	-9.7813
ese	-9.78327
▁clonal	-9.78402
co	-9.78411
▁structured	-9.78523
▁mg	-9.78773
K	-9.78776
cy	-9.78788
▁vi	-9.7894
target	-9.79132
associat	-9.79466
IRR	-9.79572
de	-9.7974
▁clone	-9.79865
WHO	-9.79971
▁haplotype	-9.80067
▁wo	-9.80068
▁valu	-9.80277
mg	-9.80633
ta	-9.80675
,000	-9.80901
▁(2	-9.81026
▁Medic	-9.81096
▁alignment	-9.81272
stic	-9.81379
▁decade	-9.81477
▁attitude	-9.81499
rincipal	-9.81549
▁Si	-9.81578
▁village	-9.8159
▁(1	-9.81608
▁l	-9.81732
▁Q	-9.81878
▁persist	-9.81885
ique	-9.81928
▁chemical	-9.8206
▁prospective	-9.82141
▁diagnose	-9.82193
▁discover	-9.82208
▁Europe	-9.8237
aneiro	-9.82404
▁funestus	-9.82404
▁neutrophil	-9.82404
▁sequestration	-9.82404
▁Science	-9.82404
▁central	-9.82404
▁channel	-9.82405
▁draw	-9.82405
▁willingness	-9.82405
▁haemolysis	-9.82405
▁importation	-9.82406
▁dissemination	-9.82407
▁viraemia	-9.82407
▁extraction	-9.82413
▁tafenoquine	-9.82423
▁49	-9.82432
▁implications	-9.82441
▁oocysts	-9.82441
▁damage	-9.82459
▁undergo	-9.82463
▁grow	-9.82469
▁secret	-9.82482
▁progression	-9.82485
▁body	-9.82489
▁flaviviruses	-9.82495
▁extracted	-9.82496
▁coast	-9.8251
▁situation	-9.82517
▁September	-9.82523
▁Schistosoma	-9.82523
▁mechanistic	-9.82524
▁reliable	-9.82525
▁utility	-9.82525
▁nature	-9.82554
Significance	-9.8259
▁Effect	-9.82593
▁persistent	-9.82594
▁Rapi	-9.82609
▁professionals	-9.82621
▁sera	-9.82641
▁Institute	-9.82674
▁glycop	-9.82681
▁consequences	-9.82683
▁December	-9.82683
▁metrics	-9.82686
▁images	-9.82724
▁mothers	-9.82738
na	-9.82749
▁calculated	-9.82798
▁particles	-9.82801
▁monocytes	-9.82802
▁inhibitors	-9.82852
▁records	-9.82909
▁altered	-9.82972
▁neutralization	-9.82999
▁history	-9.83008
▁suitab	-9.83024
lying	-9.83063
rabie	-9.83072
x	-9.83148
▁generation	-9.83148
▁29	-9.83251
▁OR	-9.83258
vidence	-9.83301
▁houses	-9.83324
▁forecasting	-9.8336
▁MS	-9.83366
▁invasi	-9.8338
▁suggested	-9.83389
spatial	-9.83407
6)	-9.83433
▁lineages	-9.83471
▁degree	-9.83498
.1%	-9.83548
LIThe	-9.836
Clp	-9.83634
nique	-9.83646
ose	-9.83662
▁micro	-9.8368
▁observations	-9.83859
▁formation	-9.83891
▁pair	-9.83972
▁close	-9.83989
▁phenotypes	-9.84023
▁reproducti	-9.84131
0%)	-9.84232
▁attribut	-9.84312
▁SCD	-9.8432
5)	-9.84421
IV	-9.84442
▁score	-9.8469
▁sizes	-9.84731
▁advance	-9.84738
▁g	-9.85053
▁enter	-9.8517
one	-9.85197
▁projection	-9.85296
▁22	-9.85298
synthetic	-9.85411
▁relationships	-9.85463
▁ampli	-9.85672
▁Interpretation	-9.85818
▁21	-9.8615
▁Cost	-9.86164
effective	-9.86465
1,000	-9.86555
physical	-9.86577
▁2.	-9.8674
▁means	-9.86771
▁clinically	-9.86801
ied	-9.86822
▁analyse	-9.86894
ase	-9.8694
▁considerabl	-9.86967
tropical	-9.86977
ated	-9.8747
▁antimalarials	-9.87586
aemia	-9.87631
▁dri	-9.88054
▁ST	-9.88057
▁continent	-9.88073
▁example	-9.88075
▁outdoor	-9.88129
▁technique	-9.88142
▁island	-9.8817
▁simulation	-9.88226
▁service	-9.88268
▁load	-9.88271
▁select	-9.8849
▁45	-9.88502
▁men	-9.88604
antenatal	-9.8868
▁Un	-9.88692
▁40	-9.88808
▁Min	-9.8885
▁consider	-9.8891
19.	-9.88948
▁frequent	-9.88972
org	-9.89051
▁Bangkok	-9.8907
▁Surveillance	-9.8907
▁reservoir	-9.8907
▁stakeholders	-9.8907
▁vegetation	-9.8907
▁Zambia	-9.8907
▁cytoadherence	-9.89071
▁recombinant	-9.89071
▁communication	-9.89072
▁Development	-9.89072
▁complement	-9.89074
▁comorbidities	-9.89092
▁outside	-9.89097
▁residence	-9.89099
▁imported	-9.89101
▁relatedness	-9.89108
▁quantified	-9.89108
Barr	-9.89111
▁fraction	-9.89122
▁overcome	-9.89155
▁above	-9.89156
▁Thus	-9.89163
▁another	-9.89175
▁Review	-9.89176
▁LOD	-9.89196
▁descriptive	-9.89203
▁intermittent	-9.89203
▁false	-9.89204
▁occurring	-9.89212
▁examination	-9.89213
▁precipitation	-9.89214
▁outlets	-9.89239
▁adequate	-9.89243
▁recruited	-9.8925
▁acquired	-9.89262
▁caregivers	-9.89302
▁polymorphisms	-9.89307
▁selective	-9.89312
▁carry	-9.89351
▁loss	-9.89392
▁discovery	-9.89409
▁specifically	-9.89409
▁biases	-9.89436
oral	-9.89486
▁parasitemia	-9.89499
▁hypnozoites	-9.89666
▁administered	-9.89666
▁EPCR	-9.89813
▁animals	-9.89815
▁averted	-9.89844
▁assum	-9.89892
13	-9.89937
▁complexes	-9.89953
▁inflammat	-9.90074
▁Estimat	-9.90095
▁Y	-9.90108
▁3,	-9.90156
▁31	-9.90159
▁explained	-9.90162
▁ecological	-9.9017
▁enable	-9.9037
1.	-9.90391
8)	-9.9048
estation	-9.90485
In	-9.90487
▁admissions	-9.90528
▁papers	-9.90656
▁Asian	-9.90683
▁treatments	-9.90858
▁27	-9.90878
▁BL	-9.90927
▁PPF	-9.90942
AUC	-9.91114
▁positively	-9.91209
nsis	-9.91376
▁connect	-9.91503
iRBC	-9.91559
▁fast	-9.92158
rological	-9.92338
▁leads	-9.92582
▁Chi	-9.9265
4%	-9.92908
19-	-9.9307
ified	-9.93136
rain	-9.93311
more	-9.93434
throughput	-9.9346
00	-9.93499
severe	-9.93556
discharge	-9.93677
associate	-9.93742
third	-9.93745
▁resid	-9.93746
ok	-9.94042
▁Sever	-9.94223
▁live	-9.94251
▁combine	-9.94258
ium	-9.94278
▁3%	-9.94299
▁Bo	-9.9452
esidual	-9.94536
▁pool	-9.94639
▁immuno	-9.94649
ex	-9.94672
▁ca	-9.94942
▁65	-9.9504
Us	-9.95139
▁room	-9.9517
▁platform	-9.95197
▁mixture	-9.95236
▁perspective	-9.95246
▁pattern	-9.95283
▁scenario	-9.95284
▁compound	-9.95289
▁gap	-9.95315
3)	-9.95355
▁neuro	-9.95385
▁official	-9.95395
ABS	-9.95432
▁State	-9.95444
▁down	-9.95465
▁neurologic	-9.95567
▁regulate	-9.95648
▁house	-9.95674
▁reinfection	-9.95757
▁Combin	-9.95869
▁usual	-9.95919
▁extensive	-9.95944
▁bite	-9.95977
▁(7	-9.95987
▁Demo	-9.96065
▁CQ	-9.96079
▁bacteria	-9.96126
▁elucidate	-9.96201
▁vulnerab	-9.9621
▁overlap	-9.96212
▁Poisson	-9.96213
▁Salmonella	-9.96213
▁histolytica	-9.96213
▁neonates	-9.96213
▁quantification	-9.96213
▁dominant	-9.96213
AIDS	-9.96217
▁Lanka	-9.96217
▁bilirubin	-9.96217
▁intermediate	-9.96218
▁Antimalarial	-9.96218
▁excellen	-9.96219
▁uncertainty	-9.9622
▁immunogenicity	-9.9622
▁coefficient	-9.96222
▁unclear	-9.96222
▁signature	-9.96225
▁underestimation	-9.96227
▁combat	-9.9623
▁weather	-9.96233
carnitine	-9.96233
▁utilization	-9.96235
ag	-9.96247
▁depression	-9.96249
▁categories	-9.96254
▁secretion	-9.96255
▁epitopes	-9.96257
▁catalytic	-9.96267
Z	-9.96278
▁inadequate	-9.96286
▁Project	-9.96288
▁beneficial	-9.9635
▁metabol	-9.96385
▁0	-9.96419
▁diagnostics	-9.96427
▁Community	-9.96457
▁researchers	-9.96484
▁modelled	-9.96493
▁chlorfenapyr	-9.96534
-3	-9.96586
▁introduce	-9.96705
▁typhoid	-9.96716
▁validated	-9.96791
▁hotspots	-9.96812
▁extra	-9.96845
een	-9.96852
▁annually	-9.96944
▁purpose	-9.96974
▁zones	-9.97041
phosphate	-9.97087
▁35	-9.97093
▁inferences	-9.971
▁Congo	-9.97141
▁optimiz	-9.97157
▁Association	-9.97218
▁fail	-9.97239
15	-9.9726
testin	-9.9727
▁randomised	-9.97322
▁Poc	-9.97372
per	-9.97377
▁approv	-9.9746
AB	-9.97498
▁expos	-9.97516
▁improvements	-9.97584
▁LDH	-9.97732
microscopic	-9.97759
▁relapses	-9.97762
▁merozoites	-9.97874
▁ever	-9.97891
▁described	-9.97906
▁33	-9.9793
▁decisions	-9.9828
▁aid	-9.9839
ick	-9.98502
▁48	-9.98563
lived	-9.98614
▁4.	-9.98667
ter	-9.98868
▁view	-9.99006
▁seasons	-9.99153
NTS	-9.99515
4,	-9.9952
▁decreas	-9.9955
species	-9.99624
70	-9.99658
▁express	-9.99718
bility	-9.99825
20	-9.99937
rious	-9.99999
▁forest	-10.0007
human	-10.002
▁detecting	-10.0028
▁kill	-10.0047
10	-10.0061
ur	-10.0066
Plasmodium	-10.0068
▁Ri	-10.0082
2%)	-10.0109
cycle	-10.0126
▁promote	-10.0127
SARS	-10.0128
95	-10.0141
economic	-10.0141
making	-10.0142
sensitive	-10.0144
▁Demograph	-10.0148
RD	-10.0156
sin	-10.0161
▁coupl	-10.0181
ine	-10.0183
▁confer	-10.0262
▁employ	-10.0263
ferred	-10.0266
▁va	-10.0276
not	-10.0285
▁apicomplexan	-10.0287
thel	-10.0288
▁symptom	-10.0295
▁mutant	-10.0296
▁guid	-10.0303
▁seek	-10.0308
ting	-10.0311
▁recommend	-10.0312
viral	-10.0334
▁describ	-10.0359
▁MethodsTh	-10.0364
▁historical	-10.0364
▁artificial	-10.0373
▁nucle	-10.0378
▁code	-10.0379
▁fed	-10.0382
rmal	-10.0383
▁retail	-10.0389
▁neutrali	-10.039
PROSPERO	-10.0391
pvcrt	-10.0391
▁Pbgd	-10.0391
▁Zanzibar	-10.0391
▁amount	-10.0391
▁Second	-10.0391
▁elicit	-10.0391
▁organelle	-10.0391
▁transition	-10.0391
▁stunting	-10.0391
▁Province	-10.0391
▁congenital	-10.0391
▁arrest	-10.0391
▁malnutrition	-10.0391
▁STAT	-10.0391
▁municipality	-10.0391
▁coordination	-10.0391
▁Risk	-10.0391
▁accumulation	-10.0391
▁technologies	-10.0391
github	-10.0391
▁antimicrobial	-10.0391
▁leucas	-10.0391
▁Index	-10.0391
▁terti	-10.0391
▁attention	-10.0392
▁content	-10.0392
▁entry	-10.0392
▁validation	-10.0393
▁electronic	-10.0393
▁proliferation	-10.0394
▁Nile	-10.0394
tude	-10.0395
▁defor	-10.0397
▁adaptation	-10.0398
▁adaptive	-10.0398
▁parasitaemia	-10.0399
▁south	-10.0399
▁arthropod	-10.0403
▁admitted	-10.0404
▁identity	-10.0405
▁0.4	-10.0407
rotein	-10.0407
▁complexity	-10.0407
▁simultaneously	-10.0409
▁hand	-10.0409
▁eggs	-10.041
▁Prevalence	-10.0412
▁sick	-10.0412
▁inference	-10.0413
▁gain	-10.0415
▁2,	-10.0415
▁2025	-10.0416
▁genetically	-10.0417
▁Ab	-10.0417
▁isolated	-10.0418
▁restrictions	-10.0418
IL	-10.0418
binom	-10.0419
▁length	-10.0424
▁NPIs	-10.0424
▁Slf	-10.0424
▁disorders	-10.0425
▁cage	-10.0426
▁European	-10.043
▁Seasonal	-10.0432
▁stable	-10.0438
▁outpatient	-10.0438
▁hrp	-10.044
▁assumptions	-10.044
▁LSTM	-10.0445
▁City	-10.0445
▁SNT	-10.0449
▁Ig	-10.045
▁mono	-10.046
▁Whe	-10.0461
▁1000	-10.0463
▁positives	-10.0464
▁products	-10.0483
istic	-10.049
▁pools	-10.0496
▁pay	-10.0499
1).	-10.05
▁IQR	-10.0506
enous	-10.0506
▁10-	-10.0513
▁drive	-10.0515
▁CM	-10.0515
▁completed	-10.0516
▁villages	-10.0523
▁Art	-10.0527
▁give	-10.0533
▁arise	-10.0546
▁Test	-10.0547
amino	-10.0547
▁gains	-10.0553
ac	-10.0557
▁ab	-10.056
▁intervals	-10.0574
▁signal	-10.0583
droxychloroquine	-10.0589
▁Parasite	-10.059
▁MDA	-10.0592
▁sporozoites	-10.0592
▁deficient	-10.0598
▁III	-10.0611
iotic	-10.0612
Y	-10.0614
all	-10.0618
▁BackgroundIn	-10.062
▁optimize	-10.0627
▁KAP	-10.0629
articularly	-10.0636
▁go	-10.0647
▁var	-10.0649
▁alter	-10.0651
▁RBCs	-10.0659
Global	-10.066
RS	-10.0662
5.1	-10.0674
▁create	-10.0676
▁processing	-10.0681
▁FindingsW	-10.0681
emia	-10.0715
▁SUMMARY	-10.0717
▁bed	-10.072
wo	-10.0729
▁HAT	-10.0737
life	-10.0753
rs	-10.0755
▁Out	-10.0755
▁filter	-10.0779
▁pan	-10.0789
2{	-10.0793
▁Individual	-10.0805
v	-10.0814
▁analyz	-10.0826
▁na	-10.0826
▁involve	-10.084
nMethods	-10.0873
usual	-10.088
SD	-10.0924
▁500	-10.0933
rug	-10.0948
reported	-10.0953
ou	-10.0953
PY	-10.0955
LAMP	-10.0966
resolution	-10.097
KAP	-10.0973
onsidering	-10.0973
▁ne	-10.0974
SCD	-10.0974
density	-10.0976
▁add	-10.0976
▁peri	-10.0985
DF	-10.0985
ma	-10.0997
▁underwe	-10.0997
ligible	-10.1009
▁North	-10.1013
▁IN	-10.1017
▁beca	-10.1024
▁infer	-10.1036
IC	-10.1048
GT	-10.108
active	-10.1095
▁steril	-10.1115
aminoquinoline	-10.1118
▁schistosome	-10.1121
▁antibiotic	-10.1124
▁medicine	-10.1129
▁Disease	-10.1129
▁animal	-10.1131
▁effort	-10.1131
▁42	-10.1131
▁fold	-10.1139
▁zone	-10.1142
▁probabl	-10.115
▁goal	-10.1152
▁cover	-10.1153
CT	-10.116
▁map	-10.1167
▁numer	-10.1168
▁head	-10.1169
1/	-10.1176
▁home	-10.1185
▁Public	-10.1186
▁underscore	-10.1193
years	-10.1196
rising	-10.1202
▁dynamic	-10.1203
▁hepati	-10.1212
▁endo	-10.1215
▁methaemoglobin	-10.1224
▁Pakistan	-10.1224
▁glideosome	-10.1224
▁policies	-10.1224
▁synergist	-10.1224
▁volume	-10.1224
Wellcome	-10.1224
▁plasmablast	-10.1224
▁pressure	-10.1224
▁dramatic	-10.1224
▁provision	-10.1224
▁display	-10.1224
▁superior	-10.1224
▁parallel	-10.1224
nMethodology	-10.1224
▁minority	-10.1225
▁Spain	-10.1225
▁gender	-10.1225
▁injury	-10.1225
▁Modelling	-10.1225
▁immature	-10.1225
gov	-10.1225
rfMDA	-10.1225
▁shock	-10.1226
▁specimen	-10.1226
cutaneous	-10.1226
poiesis	-10.1226
▁price	-10.1226
▁summaryDengue	-10.1227
▁haemoglobin	-10.1229
▁final	-10.1229
▁remarkable	-10.1229
▁Valley	-10.123
▁80	-10.123
▁category	-10.123
▁proper	-10.1231
▁relation	-10.1234
copy	-10.1234
▁younger	-10.1235
▁HCWs	-10.1237
▁cyto	-10.1237
▁housing	-10.1238
▁HLA	-10.1239
▁scientific	-10.1239
▁fibrosis	-10.1239
▁accessibility	-10.1239
▁utilisation	-10.124
▁wealth	-10.1241
▁missed	-10.1243
▁eave	-10.1244
▁sector	-10.1244
▁integration	-10.1245
▁positivity	-10.1247
▁neighbor	-10.1252
▁metabolites	-10.1254
14	-10.1254
▁belong	-10.1255
▁influenza	-10.1258
▁seem	-10.1259
▁resting	-10.1261
▁namely	-10.1263
▁autophagy	-10.1268
▁departments	-10.127
▁reaction	-10.1276
ltitude	-10.1277
▁vertebrate	-10.128
▁st	-10.1281
▁20%	-10.1283
▁measurements	-10.1286
▁medications	-10.1288
▁arrivals	-10.1295
▁allelic	-10.1295
ations	-10.1296
▁interpret	-10.1297
▁Hsp	-10.1308
▁involv	-10.131
▁errors	-10.1311
▁compartmental	-10.1313
▁goals	-10.1319
ential	-10.1333
▁eliminate	-10.1338
▁recrudescence	-10.135
▁SMA	-10.1352
▁reinfections	-10.1352
▁restrict	-10.1364
-49	-10.1365
▁HM	-10.1377
▁force	-10.1385
-6-	-10.1404
▁supplement	-10.1416
▁ubiquitylat	-10.1418
ellow	-10.1425
])	-10.1428
▁consist	-10.1432
▁collections	-10.1461
▁insects	-10.1473
▁problems	-10.1493
▁effector	-10.1494
▁MA	-10.1495
ze	-10.1509
90	-10.1513
▁sero	-10.1515
▁peaks	-10.1519
▁once	-10.1544
▁perceive	-10.1547
▁sets	-10.1549
▁Be	-10.1552
▁Th	-10.1553
gressive	-10.1559
▁regulator	-10.1564
▁bi	-10.1569
pon	-10.1573
▁ages	-10.158
▁fa	-10.159
current	-10.1593
▁automat	-10.1629
yo	-10.1641
complicate	-10.1643
W	-10.1645
tudies	-10.1654
▁TMP	-10.1671
▁slow	-10.1679
Mean	-10.1686
direct	-10.171
▁neutraliz	-10.1725
ious	-10.1745
1%	-10.1749
▁surveyed	-10.1758
▁dead	-10.1761
ling	-10.1762
▁performances	-10.1765
▁prevented	-10.1767
▁PfG	-10.1768
2-	-10.1789
▁clustering	-10.179
response	-10.1793
▁Epidemiologic	-10.1795
/2	-10.1802
ome	-10.1803
=0.001)	-10.1821
▁(9	-10.1838
type	-10.184
▁scan	-10.1843
88%	-10.1844
▁sy	-10.1853
Start	-10.1854
ook	-10.1862
source	-10.1868
III	-10.1879
▁Go	-10.1879
generation	-10.1881
medication	-10.1881
seeking	-10.1881
PPF	-10.1882
SMC	-10.1882
▁1.2	-10.1894
itis	-10.1897
defined	-10.1903
▁construct	-10.1906
ITNs	-10.1919
ile	-10.1922
dose	-10.1926
▁con	-10.1933
wa	-10.194
ovid	-10.1942
et	-10.197
test	-10.2009
▁schizont	-10.2018
▁reviewed	-10.2023
▁disrupt	-10.203
▁booster	-10.2035
▁lncRNA	-10.2036
▁Island	-10.2036
▁error	-10.2039
▁preced	-10.2055
▁driv	-10.2065
▁Main	-10.2065
▁continu	-10.2069
▁(4	-10.2073
▁spreading	-10.2094
▁define	-10.2106
=0.0	-10.2108
▁ecolog	-10.2119
atellite	-10.2122
▁genetics	-10.2124
▁respect	-10.2129
▁probabili	-10.2132
▁(8	-10.2132
▁percent	-10.2132
▁Mexico	-10.2133
▁Remoscope	-10.2133
▁adolescents	-10.2133
▁antipyretic	-10.2133
▁chabaudi	-10.2133
▁divergent	-10.2133
▁mefloquine	-10.2133
▁Trends	-10.2133
▁proxy	-10.2133
▁Guinea	-10.2133
▁reliably	-10.2133
▁myelo	-10.2133
▁sanitation	-10.2133
▁Mixed	-10.2133
▁sperm	-10.2133
▁serology	-10.2133
▁Diagnostic	-10.2133
▁agreement	-10.2133
▁connectivity	-10.2133
▁competition	-10.2133
▁pipeline	-10.2134
▁integrity	-10.2134
▁anxiety	-10.2134
▁Sin	-10.2134
AQ	-10.2134
▁families	-10.2135
▁neglect	-10.2135
▁assign	-10.2135
genic	-10.2135
▁Northern	-10.2136
▁slight	-10.2137
▁flavivirus	-10.2138
▁inconsistent	-10.2138
ivity	-10.2139
▁Together	-10.214
CN	-10.214
mplications	-10.2141
ntomological	-10.2141
▁putative	-10.2142
HCV	-10.2144
▁hence	-10.2145
▁segment	-10.2146
ereb	-10.2147
▁discussions	-10.2148
▁33%	-10.2148
▁night	-10.2149
▁kinetics	-10.2149
▁stratified	-10.215
▁Interestingly	-10.215
▁SLEV	-10.215
▁glucose	-10.215
▁3-	-10.2151
▁methodology	-10.2153
▁locus	-10.2153
▁exit	-10.2154
▁deletions	-10.2156
▁PQ	-10.2158
▁2010	-10.216
▁centres	-10.2165
▁mapping	-10.2167
▁conclude	-10.2171
▁thought	-10.2173
▁IBD	-10.2174
▁cancer	-10.2175
▁PMV	-10.2176
▁plant	-10.218
▁gold	-10.2181
▁twi	-10.2191
▁aqua	-10.2191
▁own	-10.2192
.4%	-10.2193
▁MG	-10.2194
▁advantages	-10.2201
▁Mali	-10.2202
▁ide	-10.2203
▁deployed	-10.2204
▁peptides	-10.2211
▁4-	-10.2212
▁land	-10.2216
▁organisms	-10.2218
▁issues	-10.2219
tained	-10.2221
▁Pacific	-10.2222
▁DRC	-10.2223
▁0.	-10.2224
▁accurately	-10.2228
▁SES	-10.2229
▁10%	-10.2236
▁documented	-10.2236
▁0.8	-10.2237
▁Diseases	-10.2238
▁5%	-10.2249
▁impose	-10.2257
▁outdoors	-10.2265
▁considering	-10.2274
long	-10.2276
▁income	-10.2296
▁diabetic	-10.2306
▁fatal	-10.2323
.3%)	-10.2337
▁deficienc	-10.2342
2/	-10.2347
▁remaining	-10.2349
prone	-10.2359
▁myo	-10.2365
▁user	-10.2366
▁40%	-10.2375
▁operation	-10.2379
▁Pow	-10.2379
▁therapeutics	-10.2383
▁1.	-10.2389
▁Objective	-10.2391
▁Assess	-10.2397
▁waves	-10.2409
▁ACTs	-10.2435
▁Funding	-10.2436
volving	-10.2441
▁3.	-10.2445
▁lines	-10.2448
▁nutrient	-10.2451
esistance	-10.2459
▁rich	-10.2461
▁concerns	-10.2464
▁option	-10.2478
▁evolve	-10.2481
▁underw	-10.2483
ectin	-10.2484
▁threaten	-10.2491
ions	-10.2504
national	-10.2504
ared	-10.2524
net	-10.2526
▁promot	-10.253
▁cohorts	-10.2564
3).	-10.2568
▁experiences	-10.2573
IRS	-10.258
▁si	-10.258
▁(13	-10.2626
▁internal	-10.2628
▁14%	-10.2633
ating	-10.2638
▁died	-10.2638
▁coinfection	-10.2663
olar	-10.2665
RT	-10.2666
▁pa	-10.2669
▁influences	-10.267
▁severely	-10.2696
▁dual	-10.2701
vid	-10.2702
▁2-	-10.2723
un	-10.2751
ven	-10.2757
protein	-10.2775
▁bra	-10.2782
▁wall	-10.2783
mosquito	-10.2783
▁Hepat	-10.281
clinical	-10.2821
treatment	-10.2824
being	-10.2844
burden	-10.2847
ne	-10.2849
amoeb	-10.2854
urban	-10.287
hospital	-10.2873
deficient	-10.2873
▁modifie	-10.2874
MDA	-10.2876
randomized	-10.2877
optimal	-10.2877
CHIKV	-10.2879
Pow	-10.288
▁parameter	-10.288
DHF	-10.2881
mental	-10.289
feeding	-10.2896
▁characterise	-10.2915
▁incorporate	-10.2933
otably	-10.2938
▁regulat	-10.2939
od	-10.2947
stern	-10.2954
=1	-10.2964
▁analytic	-10.2965
▁significance	-10.2975
▁clinic	-10.2975
▁phenotyp	-10.2982
,500	-10.2988
immune	-10.2989
HRP	-10.2991
▁visit	-10.2994
▁utiliz	-10.2999
rench	-10.301
▁dr	-10.301
PI	-10.3014
▁cere	-10.3026
.7%)	-10.3029
▁disadvantage	-10.3031
▁anopheline	-10.3035
▁client	-10.304
▁roles	-10.3041
phase	-10.3042
▁sleep	-10.3045
▁issue	-10.3046
▁mRNA	-10.3051
▁chaperone	-10.3053
▁deploy	-10.3053
Other	-10.3056
▁message	-10.306
▁z	-10.3064
derive	-10.3068
▁others	-10.3086
8%)	-10.3088
▁facilitat	-10.3094
▁boost	-10.3102
▁predictor	-10.3104
▁except	-10.3108
▁Age	-10.3113
▁learn	-10.3113
▁habitat	-10.3115
wi	-10.3127
transmitt	-10.3128
ra	-10.3129
▁commercial	-10.3132
▁immediate	-10.3133
Spearman	-10.3133
▁Paulo	-10.3133
▁Senegal	-10.3133
▁aptamer	-10.3133
▁eradication	-10.3133
▁fundamental	-10.3133
▁keratinocytes	-10.3133
▁magnitude	-10.3133
▁megakaryo	-10.3133
▁minimiz	-10.3133
▁poverty	-10.3133
▁procedure	-10.3133
▁kHz	-10.3133
▁correspond	-10.3133
progenitor	-10.3133
▁switch	-10.3133
▁probabilities	-10.3133
▁Culex	-10.3133
▁caveolin	-10.3133
▁knockdown	-10.3133
▁Center	-10.3133
▁propagation	-10.3134
▁medium	-10.3134
▁metabolism	-10.3134
▁spleen	-10.3134
▁plastid	-10.3134
▁contagio	-10.3134
▁solution	-10.3135
▁14.8%	-10.3135
▁Centre	-10.3135
▁unit	-10.3135
▁suppression	-10.3135
▁trajectories	-10.3135
▁team	-10.3135
▁tuberculosis	-10.3136
▁fatalities	-10.3137
▁km	-10.3138
▁Latin	-10.3139
▁carriers	-10.3139
▁regular	-10.3141
▁mitigation	-10.3141
▁preference	-10.3141
▁controll	-10.3143
▁composition	-10.3144
▁metabolomic	-10.3147
▁nM	-10.3148
7,	-10.3148
▁participated	-10.3149
▁minutes	-10.3151
▁validate	-10.3151
▁cattle	-10.3151
▁reasons	-10.3151
▁spatiotemporal	-10.3152
▁Genomic	-10.3153
▁actual	-10.3156
▁speed	-10.3157
▁fact	-10.3157
▁Currently	-10.3163
▁MV	-10.3163
▁subtropic	-10.3164
▁student	-10.3165
▁technology	-10.3171
▁endemicity	-10.3174
▁Biosensor	-10.3178
.3%	-10.3178
▁donors	-10.3179
ard	-10.318
▁simulat	-10.3181
▁2012	-10.3182
▁IntroductionThe	-10.3182
▁NK	-10.3184
▁requirements	-10.3189
▁limitations	-10.3191
▁prioritized	-10.3191
▁behavioral	-10.3192
▁strategic	-10.3192
▁Chin	-10.3195
▁ADRs	-10.3197
▁If	-10.3199
▁First	-10.32
WTP	-10.3202
▁EBV	-10.3204
▁feed	-10.3204
▁Blood	-10.3205
▁SSA	-10.3206
▁smears	-10.3209
AF	-10.3212
▁subsequently	-10.3217
▁signaling	-10.322
▁consideration	-10.322
▁messages	-10.323
▁principal	-10.3237
▁transcriptomic	-10.3238
=0.03	-10.3244
▁Time	-10.3251
9).	-10.3256
▁turn	-10.3257
▁skill	-10.3262
▁utilized	-10.3265
▁gaps	-10.3267
rimary	-10.3274
ked	-10.3277
▁orthoflavivirus	-10.3279
▁characteriz	-10.3281
1{	-10.3281
▁Cross	-10.3282
logical	-10.3284
opathy	-10.3284
▁clones	-10.3292
▁provider	-10.3295
▁2000	-10.3297
▁32	-10.3298
▁fine	-10.3309
actors	-10.3321
▁15%	-10.3327
▁sequenced	-10.3334
.7%	-10.3336
▁resolution	-10.3338
▁initiat	-10.3344
▁circum	-10.3348
▁yearly	-10.336
NG	-10.3378
▁BackgroundP	-10.3381
▁Vaccine	-10.3388
BA	-10.3399
arly	-10.3408
▁wasting	-10.3409
▁1)	-10.3416
▁acetyl	-10.3416
▁k	-10.3419
▁match	-10.3421
▁70	-10.3437
ekong	-10.3458
▁personal	-10.3459
▁readi	-10.346
▁Ent	-10.3461
▁1.3	-10.347
▁dispens	-10.3487
▁greate	-10.3489
▁discharge	-10.3505
▁ResultsF	-10.3513
▁modifi	-10.3515
▁points	-10.352
und	-10.3526
5-	-10.3535
334	-10.3537
▁couple	-10.3544
▁sa	-10.3546
▁modulate	-10.3552
sufficient	-10.3566
▁generat	-10.3581
▁Up	-10.3582
▁parts	-10.3617
▁1.5	-10.3617
▁hetero	-10.3617
▁ER	-10.362
timi	-10.3625
formation	-10.3629
ame	-10.3641
matical	-10.3664
▁ag	-10.369
sis	-10.3695
ease	-10.3708
▁larva	-10.3711
▁round	-10.3716
0%	-10.3726
▁side	-10.3745
▁exo	-10.3767
▁0.99	-10.3769
▁FindingsTh	-10.3784
24	-10.3789
adapted	-10.3812
loci	-10.3812
orthern	-10.3824
▁me	-10.3829
▁hy	-10.3836
▁additi	-10.3847
▁Predict	-10.3849
sed	-10.3862
▁Add	-10.3868
square	-10.3875
tamin	-10.3876
rine	-10.3882
▁hi	-10.3882
▁0.5	-10.3885
▁proportions	-10.3886
▁trap	-10.3889
▁Ser	-10.3899
ll	-10.3917
▁vir	-10.3922
▁62	-10.3923
▁Patient	-10.3924
▁200	-10.3927
ACT	-10.3932
12	-10.3948
known	-10.3956
ortal	-10.3963
patient	-10.3966
minute	-10.3968
genome	-10.397
front	-10.397
▁res	-10.3978
confirmed	-10.3983
▁AS	-10.3983
IPTp	-10.3985
elimination	-10.3985
world	-10.3989
▁trans	-10.399
▁(6	-10.4005
25	-10.4006
▁wal	-10.4014
0,000	-10.4016
▁transfer	-10.4046
7.1%	-10.4046
-4	-10.4051
▁Di	-10.4054
anua	-10.4055
▁update	-10.4065
gle	-10.4066
▁screen	-10.4081
ap	-10.4081
▁manage	-10.4085
4%)	-10.4092
▁measur	-10.4105
▁Method	-10.4118
▁Mo	-10.4121
▁seropositive	-10.4128
▁equivalent	-10.4137
▁mammal	-10.4138
▁micronutrient	-10.4142
▁transfusion	-10.4144
off	-10.4145
▁Infection	-10.4146
▁division	-10.4147
▁shift	-10.4147
▁package	-10.4149
▁expert	-10.4149
ET	-10.4149
▁hotspot	-10.415
genous	-10.4158
▁2)	-10.4159
▁55	-10.416
▁arrival	-10.4164
▁document	-10.4164
▁curve	-10.4165
▁algorithm	-10.4166
▁location	-10.4169
▁neutral	-10.417
=0.	-10.417
▁air	-10.418
tial	-10.4184
21	-10.4185
▁presentation	-10.419
days	-10.4192
▁peptide	-10.4196
▁optimis	-10.4202
▁schedule	-10.4205
poses	-10.4205
▁empirical	-10.4214
erra	-10.4215
▁success	-10.4216
▁simultaneous	-10.4218
▁suit	-10.4223
▁publication	-10.4226
termin	-10.4226
65	-10.4229
ii	-10.4233
▁Gu	-10.4237
▁equal	-10.4238
▁reviews	-10.4239
▁stochastic	-10.4241
▁lethal	-10.4242
▁apparent	-10.4244
akarta	-10.4244
▁Council	-10.4244
▁Polynesia	-10.4244
▁Sabah	-10.4244
▁chromosome	-10.4244
▁infrastructure	-10.4244
▁sessions	-10.4244
▁storage	-10.4244
▁substitution	-10.4244
▁sweep	-10.4244
▁Network	-10.4244
▁consensus	-10.4244
▁encephalitis	-10.4244
▁landscape	-10.4244
▁longevity	-10.4244
▁Korea	-10.4244
▁material	-10.4244
▁Trust	-10.4244
▁Faso	-10.4244
▁Next	-10.4244
▁inhabitants	-10.4244
▁danger	-10.4244
▁authorities	-10.4244
▁nationwide	-10.4244
gHb	-10.4244
▁carriage	-10.4244
▁cytotoxic	-10.4244
TDV	-10.4245
▁staff	-10.4245
▁circumcision	-10.4245
▁spike	-10.4245
▁facade	-10.4245
▁recombination	-10.4245
▁hinder	-10.4245
▁participation	-10.4246
▁degradation	-10.4246
▁seroconversion	-10.4246
▁morphological	-10.4246
▁documentation	-10.4247
▁trade	-10.4247
▁airway	-10.4247
▁begin	-10.4248
▁retin	-10.4248
▁profiling	-10.4248
▁transferred	-10.4249
▁sharp	-10.4249
▁vesicle	-10.4249
▁44	-10.4249
▁correction	-10.425
▁newborn	-10.4251
▁compromised	-10.4252
▁viability	-10.4252
▁perception	-10.4252
GIA	-10.4254
▁Instead	-10.4254
▁fight	-10.4255
▁uncover	-10.4256
▁transporter	-10.4256
▁hum	-10.4257
▁Department	-10.4257
▁marginal	-10.4258
▁Outbreak	-10.4259
▁adhesion	-10.426
▁hepatocytes	-10.4262
▁phosphorylation	-10.4263
▁nor	-10.4263
▁EWS	-10.4264
▁LSM	-10.4264
▁TRAP	-10.4264
▁artemether	-10.4264
▁winter	-10.4264
▁Indonesia	-10.4264
▁2002	-10.4265
▁PubMed	-10.4266
MRI	-10.4266
▁lost	-10.4267
▁94%	-10.4267
▁distributed	-10.4268
▁Western	-10.4269
▁parent	-10.427
▁hardw	-10.4271
ged	-10.4271
LIA	-10.4272
▁10,000	-10.4274
▁Over	-10.4277
friendly	-10.4278
▁unlike	-10.428
▁archiv	-10.4281
ediatric	-10.4282
DFx	-10.4283
end	-10.4284
▁subjects	-10.4285
▁26%	-10.4286
mer	-10.4286
▁2030	-10.4287
▁regulation	-10.4287
stead	-10.4287
▁declining	-10.4288
THO	-10.429
▁measles	-10.4293
▁VMWs	-10.4293
▁prospectively	-10.4293
▁RACD	-10.4294
▁provinces	-10.4295
▁disruption	-10.4296
▁HCT	-10.4297
CU	-10.43
▁extended	-10.4302
▁75%	-10.4303
worm	-10.4305
▁bind	-10.4306
▁monkeys	-10.4308
▁Dar	-10.4309
):	-10.4311
ousehold	-10.4312
▁Target	-10.4312
▁stem	-10.4318
oma	-10.432
▁stephensi	-10.4324
▁centers	-10.4327
19%	-10.4327
▁Me	-10.4332
mpact	-10.4333
▁away	-10.4335
▁elevate	-10.4336
▁Al	-10.4339
▁units	-10.434
▁determining	-10.4341
▁PMC	-10.4347
▁composit	-10.4349
ach	-10.435
▁publications	-10.4355
▁mAbs	-10.4356
it	-10.436
▁BackgroundS	-10.4371
▁medicines	-10.4374
ong	-10.4383
▁YF	-10.4385
▁mutants	-10.4386
▁promise	-10.4393
orb	-10.4393
ometric	-10.4393
CQR	-10.4395
▁web	-10.4402
▁Non	-10.4402
AP	-10.4435
MR	-10.4436
▁spatially	-10.4437
▁doubl	-10.4438
▁respond	-10.4438
▁93	-10.4443
lso	-10.4452
▁testes	-10.4463
▁investigations	-10.4467
▁Follow	-10.4471
▁why	-10.4475
▁2.1	-10.4498
▁questionnaires	-10.45
representative	-10.45
▁36	-10.4519
-19)	-10.4528
STH	-10.4528
▁PV	-10.4529
▁vaccinees	-10.453
ference	-10.4555
▁applications	-10.4557
▁Case	-10.4571
▁dimensional	-10.4573
<0.05)	-10.4577
▁none	-10.4583
with	-10.4584
0)	-10.459
LF	-10.459
ray	-10.4591
.9%)	-10.4596
▁GT	-10.4605
▁scal	-10.4606
Arboviruses	-10.4614
▁dorman	-10.4617
63	-10.462
▁candidates	-10.4624
/-}0.	-10.4627
5%)	-10.4628
▁(14	-10.4642
red	-10.4666
▁ResultsO	-10.4666
▁replicate	-10.4676
▁Man	-10.4678
▁Rt	-10.4686
▁focuse	-10.4688
▁linke	-10.4693
haplotypes	-10.4707
8,	-10.4709
▁ill	-10.4729
▁Improv	-10.4736
▁lacking	-10.4741
▁deca	-10.475
▁raise	-10.4751
▁assessments	-10.4773
ired	-10.4786
.6%)	-10.4788
▁RA	-10.479
▁phases	-10.4796
▁equi	-10.4798
nC	-10.4812
soni	-10.4828
▁FFR	-10.4829
ematical	-10.4857
▁demographics	-10.4863
▁BackgroundT	-10.4866
rthern	-10.4885
OF	-10.4888
statistical	-10.4903
▁deriv	-10.4915
17	-10.492
istry	-10.4921
43	-10.4952
▁erythrocyt	-10.4957
ky	-10.4958
▁vertic	-10.4959
9%	-10.4974
▁combinations	-10.4976
▁400	-10.4982
▁sh	-10.4982
▁ultimate	-10.4983
ised	-10.4986
▁Wh	-10.5001
1%)	-10.5007
▁operate	-10.501
▁curat	-10.5023
▁Sant	-10.5042
▁Mar	-10.5043
deriv	-10.5068
develop	-10.5069
▁pyrethroids	-10.5078
▁read	-10.5083
▁micros	-10.5084
population	-10.5084
▁proportional	-10.5085
=3	-10.5088
▁recogni	-10.5094
effect	-10.51
▁compute	-10.5101
ssessment	-10.5106
man	-10.5114
<	-10.5117
▁ultra	-10.5132
run	-10.5147
▁2017.	-10.515
gate	-10.5157
vector	-10.5157
=1.	-10.5162
▁0.02	-10.5162
07	-10.5162
▁leverage	-10.5165
▁Through	-10.5173
▁63	-10.5189
AL	-10.5189
sample	-10.5198
▁84	-10.5215
Rs	-10.5225
LDH	-10.5226
null	-10.5226
▁wet	-10.5226
da	-10.523
lumefantrine	-10.5231
primaquine	-10.5234
▁ranges	-10.5235
relevant	-10.5238
▁shap	-10.524
ART	-10.5245
TMP	-10.5258
▁MR	-10.5259
▁disseminate	-10.5266
ts	-10.5307
2.	-10.5309
Anopheles	-10.5313
CNS	-10.5328
-6	-10.5329
50)	-10.5334
▁th	-10.5335
▁Ag	-10.534
state	-10.5352
▁isolate	-10.5356
TM	-10.5359
za	-10.5363
▁30-	-10.5366
▁60%	-10.5368
ystematic	-10.538
▁demand	-10.5382
▁competen	-10.5388
ier	-10.5389
▁ookinete	-10.5394
▁participant	-10.5398
▁smear	-10.5399
▁advantage	-10.5399
▁organism	-10.54
▁measurement	-10.5405
BS	-10.5406
▁equation	-10.5407
▁closure	-10.5411
▁exceed	-10.5417
▁vit	-10.5418
gestation	-10.5421
fective	-10.5426
▁elevat	-10.5427
▁indicator	-10.5431
▁extend	-10.5445
infectious	-10.5449
▁locat	-10.5454
▁DU	-10.5455
▁programme	-10.5462
▁resolve	-10.547
▁react	-10.5475
▁He	-10.5475
▁helminth	-10.5478
▁simp	-10.5479
▁Microscop	-10.5484
▁building	-10.5485
lv	-10.5492
8%	-10.5493
▁Gaussian	-10.5494
perennial	-10.5494
quinquefasciatus	-10.5494
▁Ascaris	-10.5494
▁Bolivar	-10.5494
▁CCHFV	-10.5494
▁Yogyakarta	-10.5494
▁acoustic	-10.5494
▁consecutive	-10.5494
▁darlingi	-10.5494
▁distancing	-10.5494
▁feasibility	-10.5494
▁haematobium	-10.5494
▁lifespan	-10.5494
▁mellitus	-10.5494
▁personnel	-10.5494
▁repertoire	-10.5494
▁resurgence	-10.5494
▁carboxy	-10.5494
▁Nepal	-10.5494
▁Peruvian	-10.5494
▁distress	-10.5494
▁Material	-10.5494
▁TgELC	-10.5494
▁hamper	-10.5494
▁psychosis	-10.5494
▁prompt	-10.5494
▁Regard	-10.5494
▁infodemic	-10.5494
▁eSPT	-10.5494
▁loop	-10.5494
▁administrative	-10.5494
▁Investigati	-10.5495
▁Leone	-10.5495
▁telemedicine	-10.5495
▁invade	-10.5495
▁catchment	-10.5495
▁married	-10.5495
▁plasmodium	-10.5495
▁output	-10.5495
▁hierarch	-10.5495
▁Error	-10.5495
▁efficacious	-10.5495
▁lung	-10.5495
▁replacement	-10.5495
▁innovati	-10.5495
▁suitability	-10.5496
▁phenomenon	-10.5496
▁Population	-10.5496
▁unlock	-10.5496
ric	-10.5496
▁market	-10.5496
ABV	-10.5496
▁geography	-10.5497
▁attendance	-10.5497
▁sterility	-10.5497
▁clearance	-10.5498
▁Preto	-10.5498
▁constrain	-10.5498
ww	-10.5499
▁lumb	-10.5499
▁vill	-10.5499
▁quickly	-10.55
▁earlier	-10.55
PfHop	-10.55
harmaceutical	-10.55
▁travelers	-10.55
▁EPI	-10.55
▁impair	-10.5501
▁urbanization	-10.5502
▁PAN	-10.5502
▁100,000	-10.5502
▁constraints	-10.5503
▁meet	-10.5504
▁piRNA	-10.5504
▁dispersal	-10.5505
▁bednet	-10.5505
ensitivity	-10.5506
▁130	-10.5506
▁Northeast	-10.5507
▁startle	-10.5508
eak	-10.5508
▁Epidemic	-10.5509
▁underweight	-10.5512
▁birds	-10.5514
▁separately	-10.5515
▁drop	-10.5516
▁explicit	-10.5516
▁cytometry	-10.5517
30	-10.5517
▁diagnosing	-10.5517
▁hazard	-10.5518
▁AMM	-10.5518
▁stability	-10.5519
▁route	-10.5519
▁vascula	-10.552
talk	-10.5522
ork	-10.5522
dRP	-10.5522
▁rank	-10.5523
▁underestimate	-10.5523
▁Climate	-10.5524
▁nowcasting	-10.5525
▁hypothesize	-10.5526
▁manifestations	-10.5527
▁consultations	-10.5528
▁recommendations	-10.5528
▁insurance	-10.5528
▁tracing	-10.5533
▁poly	-10.5535
▁reticulocytes	-10.5537
▁ligands	-10.554
▁behavioural	-10.5545
▁center	-10.5546
▁52%	-10.5547
cial	-10.5547
▁protease	-10.5548
▁Venezuela	-10.555
▁RVP	-10.555
▁ENSO	-10.555
▁contributor	-10.555
▁PDMC	-10.555
▁PLHIV	-10.555
▁Burkina	-10.5551
▁Ke	-10.5554
eral	-10.5558
▁constant	-10.5559
orient	-10.556
▁take	-10.556
▁strengthening	-10.5561
▁resolved	-10.5565
▁EVEs	-10.5571
Aedes	-10.5571
▁II	-10.5577
▁Gene	-10.5578
▁tolerance	-10.5581
hen	-10.5581
▁12%	-10.5582
ital	-10.5583
▁permethrin	-10.5585
▁product	-10.5588
ROC	-10.5594
▁Cell	-10.5596
▁13%	-10.5599
▁packages	-10.5604
virus	-10.5609
▁AIP	-10.5617
▁AHME	-10.562
thrombocytopenia	-10.562
▁3.4%	-10.5622
▁subgroup	-10.5628
▁instance	-10.5633
▁circumcised	-10.5636
▁Thre	-10.5639
▁73	-10.5642
▁illnesses	-10.5644
▁clinics	-10.5657
▁causal	-10.5661
}5%	-10.567
date	-10.5671
LD	-10.5672
▁base	-10.5678
olecular	-10.568
RIM	-10.5686
▁adjuvant	-10.569
▁hypothesis	-10.5692
▁maint	-10.5694
▁compet	-10.5698
▁ja	-10.57
solut	-10.5701
▁exac	-10.5701
▁And	-10.5709
▁fift	-10.5711
▁easi	-10.5714
▁Structural	-10.5718
.0%	-10.5723
▁41	-10.573
medical	-10.5741
▁Low	-10.5752
▁medication	-10.5758
rough	-10.5764
▁theory	-10.5768
1.7%	-10.5771
▁prioritize	-10.5771
▁notable	-10.5776
▁23%	-10.5779
▁treating	-10.5785
▁creat	-10.5793
planned	-10.5793
▁Districts	-10.5798
▁CSP	-10.5799
eroprevalence	-10.5799
▁et	-10.5802
▁enzymes	-10.5811
nonymous	-10.5826
tatistical	-10.5826
▁prescrib	-10.5832
▁cardi	-10.5835
▁actions	-10.5848
▁preserve	-10.5868
188	-10.5875
▁Pa	-10.588
▁Regions	-10.5881
ck	-10.5882
▁roll	-10.5888
▁mosquitos	-10.5889
▁responsive	-10.592
▁termina	-10.5922
rin	-10.5935
▁finding	-10.5938
American	-10.5944
TE	-10.5947
idual	-10.5954
▁Du	-10.5961
▁scales	-10.5962
▁exists	-10.5966
▁Male	-10.5977
▁CT	-10.5986
▁operat	-10.599
▁psych	-10.5991
35%	-10.6006
▁(15	-10.6006
nal	-10.601
oronavirus	-10.601
▁Report	-10.6013
ift	-10.6016
▁Significant	-10.6021
▁foundation	-10.6026
▁Spatio	-10.6028
▁0.001)	-10.6031
ible	-10.6039
▁pharmaci	-10.6044
▁1.1	-10.6051
▁Area	-10.6065
98	-10.6078
83%	-10.6082
▁Multi	-10.6086
isclassification	-10.6086
adic	-10.6095
▁evolutionar	-10.6107
▁urin	-10.611
▁constitute	-10.6118
cidal	-10.6123
▁anticipate	-10.6156
Ra	-10.6156
sm	-10.6163
▁mature	-10.6176
▁relie	-10.6177
▁distinguish	-10.6194
▁inhibitor	-10.6199
genomic	-10.6201
FFRs	-10.6207
▁demonstrat	-10.6216
49	-10.6217
FN	-10.6229
35	-10.6261
ana	-10.6266
inked	-10.6282
▁emphasize	-10.6316
HM	-10.6336
16	-10.6339
ring	-10.6345
0.0%	-10.6348
he	-10.6382
52	-10.6386
▁tak	-10.6402
18	-10.6406
45	-10.6411
=2	-10.6412
▁Pro	-10.6418
▁automate	-10.642
4-1	-10.6421
▁cur	-10.6442
▁BackgroundC	-10.6443
metric	-10.6451
data	-10.6481
▁2.5	-10.6482
born	-10.6497
▁47	-10.6509
▁Take	-10.6509
ture	-10.6515
▁piperaquine	-10.6533
high	-10.6538
▁Con	-10.6541
▁stag	-10.6543
TH	-10.6549
▁thin	-10.6553
-1)	-10.6556
city	-10.6565
log	-10.6567
nced	-10.6568
YD	-10.6578
mo	-10.6579
two	-10.6582
site	-10.6584
super	-10.6599
▁achiev	-10.6602
80	-10.6604
162	-10.6605
libr	-10.6614
relative	-10.6615
▁topic	-10.6623
li	-10.6627
UI	-10.6633
structural	-10.6636
person	-10.6636
depth	-10.6641
free	-10.6642
tive	-10.6647
pyrethroid	-10.6647
▁formal	-10.6648
▁ga	-10.6648
expression	-10.6656
DBS	-10.6661
Myanmar	-10.6661
water	-10.6663
occurrence	-10.6663
http	-10.6668
YFV	-10.6669
CSP	-10.6673
▁lympho	-10.6674
domain	-10.6676
IFR	-10.6676
▁Med	-10.6677
emerging	-10.6679
AI	-10.6683
serum	-10.6686
users	-10.6693
ca	-10.6717
tal	-10.6719
▁Ya	-10.6727
characterized	-10.6729
▁inverse	-10.673
▁enabl	-10.6735
ake	-10.6754
ia	-10.6755
effects	-10.6756
▁record	-10.6763
ited	-10.6764
ide	-10.6765
nThe	-10.6776
inflammat	-10.6782
▁11,	-10.6792
9,	-10.6809
▁(0.8	-10.6809
oth	-10.6813
▁investment	-10.6816
▁repellent	-10.6818
▁lymphocyte	-10.6821
▁endpoint	-10.6821
▁website	-10.6823
▁occupation	-10.6824
▁definition	-10.6825
▁visualization	-10.6826
▁metagenomic	-10.6827
▁assumption	-10.6828
▁barrier	-10.6829
▁feature	-10.6829
▁member	-10.6829
▁particle	-10.6831
▁monocyte	-10.6831
▁proliferat	-10.6833
owing	-10.6834
▁le	-10.6839
▁eukaryot	-10.6843
ny	-10.6857
prim	-10.6858
elian	-10.6865
▁worker	-10.6869
months	-10.687
illa	-10.6873
▁collate	-10.6876
ik	-10.6885
▁Descripti	-10.6885
lo	-10.6887
▁anthropo	-10.689
▁PMR	-10.6892
▁ground	-10.6893
▁hour	-10.6893
▁imag	-10.6898
cord	-10.6901
▁Base	-10.6902
▁Heterogene	-10.6905
▁mediat	-10.6906
▁bou	-10.691
▁organiz	-10.6913
deficiency	-10.6914
▁eviden	-10.6921
script	-10.6922
▁align	-10.6922
▁surro	-10.6923
SMARRT	-10.6923
TalkiiS	-10.6923
dehydroemetine	-10.6923
ishuangbanna	-10.6923
▁Cambodia	-10.6923
▁Caribbean	-10.6923
▁Iquitos	-10.6923
▁Kinshasa	-10.6923
▁acquisition	-10.6923
▁apparatus	-10.6923
▁azithromycin	-10.6923
▁biosynthesis	-10.6923
▁chloroplasts	-10.6923
▁defects	-10.6923
▁feasible	-10.6923
▁gambiense	-10.6923
▁histidine	-10.6923
▁leakage	-10.6923
▁metronidazole	-10.6923
▁multigravidae	-10.6923
▁pragmatic	-10.6923
▁prognostic	-10.6923
▁proteasome	-10.6923
▁Antibody	-10.6923
▁MEDLINE	-10.6923
▁Shield	-10.6923
▁encompass	-10.6923
▁encounter	-10.6923
▁resuscitation	-10.6923
▁histories	-10.6923
▁licens	-10.6923
▁CRISPR	-10.6923
▁Guangzhou	-10.6923
▁fluorescen	-10.6923
Pfcsp	-10.6923
▁Forecast	-10.6923
▁benchmark	-10.6923
▁commodities	-10.6923
▁bloodmeal	-10.6923
▁conflict	-10.6923
▁convalescent	-10.6923
▁fixed	-10.6923
▁arbovirosis	-10.6923
▁resilience	-10.6923
▁proximity	-10.6923
▁Flavivirus	-10.6923
▁calprotectin	-10.6923
▁intensities	-10.6923
▁surround	-10.6923
=0.007)	-10.6923
▁symbiont	-10.6923
▁progeny	-10.6923
▁laboratories	-10.6923
▁avoidance	-10.6924
▁transcutaneous	-10.6924
▁reliability	-10.6924
▁unexpected	-10.6924
▁PyC	-10.6924
▁modification	-10.6924
▁innate	-10.6924
▁codon	-10.6924
▁hypertension	-10.6924
▁Scale	-10.6924
▁agricultural	-10.6925
▁speciation	-10.6925
▁supply	-10.6925
▁reconstruction	-10.6925
▁Transmission	-10.6925
▁Local	-10.6925
▁Arabi	-10.6926
▁notification	-10.6927
▁causality	-10.6927
▁[95%	-10.6927
▁suicide	-10.6927
▁upregulation	-10.6928
▁interferon	-10.6928
▁interface	-10.6929
▁diminished	-10.693
▁prophylaxis	-10.6931
▁evo	-10.6931
NMPs	-10.6932
▁complicat	-10.6932
▁southeast	-10.6932
▁policymakers	-10.6932
pharm	-10.6932
▁apprais	-10.6932
fed	-10.6934
▁readmission	-10.6935
▁gut	-10.6935
UTR	-10.6935
▁Single	-10.6939
▁deplet	-10.6941
▁Multiple	-10.6942
▁Host	-10.6942
▁Current	-10.6943
▁identi	-10.6944
▁Sput	-10.6944
ssRNA	-10.6944
▁representation	-10.6945
▁2008	-10.6946
▁kinases	-10.6946
▁consent	-10.6947
▁bodies	-10.6948
▁microhaplotypes	-10.6948
▁ChAd	-10.6948
▁Salaam	-10.6948
▁gradient	-10.6949
reatment	-10.6949
▁polymerase	-10.695
descent	-10.695
▁ARIMA	-10.6951
▁120	-10.6951
▁Important	-10.6951
▁CCS	-10.6952
rchitect	-10.6953
▁purifi	-10.6956
▁initiatives	-10.6961
▁immunoassays	-10.6961
stranded	-10.6961
▁Prediction	-10.6962
▁list	-10.6962
▁removed	-10.6964
▁attenuated	-10.6965
SPSS	-10.6966
▁hyperendemic	-10.6969
▁hypnozoite	-10.6969
▁CNVs	-10.6971
▁misdiagnosed	-10.6972
▁calculation	-10.6972
classical	-10.6974
HMIS	-10.6975
▁historically	-10.6975
▁exploit	-10.6976
▁cytokines	-10.6976
▁Neut	-10.6977
=108	-10.6978
▁artesunate	-10.6978
▁differentiated	-10.6982
NT	-10.6982
▁0.2%	-10.6984
▁chemo	-10.6984
▁discussed	-10.6986
▁Knowledge	-10.6988
▁motifs	-10.699
▁sharing	-10.6996
2.8	-10.6999
▁trees	-10.7
▁engineer	-10.7002
▁underscor	-10.7007
▁Qualit	-10.7007
▁Direct	-10.7007
▁coincide	-10.7009
▁plans	-10.7009
▁HDs	-10.7011
▁Evaluati	-10.7018
9-3	-10.7026
▁Tfh	-10.7027
▁ATSB	-10.7028
▁MMV	-10.7028
▁stay	-10.7036
ola	-10.7044
ater	-10.7045
▁curves	-10.7047
▁experts	-10.7048
▁shifts	-10.7051
▁divisions	-10.7051
ether	-10.7051
▁54%	-10.7055
ant	-10.7056
oxoplasm	-10.7056
▁1.21	-10.7056
SignificanceThe	-10.7057
▁0.0	-10.7063
▁scans	-10.7067
HTM	-10.7067
▁insecurity	-10.7068
dentification	-10.7072
▁latent	-10.7074
▁AU	-10.7078
▁DP	-10.7078
▁Islands	-10.7081
▁position	-10.7082
▁eliminat	-10.7087
▁providers	-10.709
ut	-10.7094
▁NTDs	-10.7096
ogistic	-10.7097
▁1.02	-10.7098
▁landing	-10.7104
▁dys	-10.7107
mitted	-10.711
▁covering	-10.7122
▁immunos	-10.7122
▁perspectives	-10.7126
▁started	-10.7129
▁reasonabl	-10.7135
ABSWh	-10.7146
pecifically	-10.7148
il	-10.716
▁north	-10.7164
▁Simulation	-10.7166
▁blocks	-10.7166
ning	-10.7168
icity	-10.7168
▁scores	-10.717
▁seasonally	-10.7174
ocysti	-10.7175
▁<1.	-10.7184
▁Sero	-10.7185
▁receptors	-10.7186
▁Myanmar	-10.7191
▁0.64	-10.7196
▁Fu	-10.7197
▁mis	-10.7208
3{	-10.7238
▁cultur	-10.7238
▁pass	-10.7241
▁crosses	-10.7241
▁MethodsT	-10.7247
▁upregulat	-10.7248
TS	-10.7264
▁platelets	-10.7277
bey	-10.7291
2003	-10.7292
▁protocols	-10.7293
▁0.7	-10.7296
▁contract	-10.7298
▁0.50	-10.73
▁DB	-10.7313
▁0.01	-10.7319
land	-10.7322
▁tri	-10.7325
▁objectives	-10.7338
▁act	-10.7347
nomi	-10.7348
▁gre	-10.7354
▁98	-10.7363
▁searched	-10.7364
▁fund	-10.7366
▁hyperbilirubin	-10.7371
▁lactat	-10.7378
uture	-10.7379
PK	-10.7382
▁quarter	-10.7389
ure	-10.7399
▁releases	-10.74
GB	-10.7404
▁indi	-10.7405
ave	-10.7406
▁Mas	-10.7413
▁loc	-10.7415
▁media	-10.7418
▁(12	-10.7418
▁specializ	-10.742
▁ConclusionTh	-10.7433
ner	-10.7438
genetic	-10.7461
63)	-10.7466
▁synchron	-10.7471
1.5%)	-10.7472
nConclusion	-10.7479
variable	-10.749
▁(25	-10.7493
▁interfere	-10.7502
▁ar	-10.7507
▁incentive	-10.7511
SS	-10.7512
▁Societ	-10.7532
arily	-10.7544
▁comp	-10.7548
▁calibrate	-10.7549
▁AL	-10.7555
40%	-10.756
28	-10.757
▁Increasing	-10.7584
negative	-10.7592
▁sort	-10.76
33	-10.7602
▁statistic	-10.7603
▁72	-10.7615
os	-10.7627
▁2.0	-10.7628
▁IRR	-10.7631
ood	-10.7632
170	-10.7651
CH	-10.7652
▁fewe	-10.766
▁contexts	-10.7661
Cas	-10.7667
▁ResultsP	-10.7671
84	-10.768
erbat	-10.768
▁activate	-10.7682
Cross	-10.769
den	-10.7714
ate	-10.773
les	-10.7732
▁Program	-10.774
26	-10.7742
oides	-10.7747
▁KE	-10.7769
▁meio	-10.7784
▁identifie	-10.7787
IF	-10.7792
idence	-10.7795
▁silence	-10.7803
7.5%	-10.7806
▁0.18	-10.7808
▁sensitiz	-10.7817
100	-10.7828
Ne	-10.7831
93	-10.7859
-1,	-10.7878
▁break	-10.7882
round	-10.7886
atients	-10.7889
▁cap	-10.7891
old	-10.7907
19,	-10.792
36%)	-10.7924
<0.05	-10.7934
▁advanc	-10.7953
57	-10.7957
ctive	-10.7975
ummaryDengue	-10.798
28%	-10.798
que	-10.7984
enetic	-10.7985
▁RNAs	-10.7996
alytical	-10.8001
ins	-10.8001
▁Ho	-10.801
▁Emerg	-10.8013
▁(28	-10.802
ING	-10.8022
87	-10.8043
▁lock	-10.8045
▁cor	-10.8045
train	-10.8052
sured	-10.8064
▁possibl	-10.8071
threatening	-10.8074
▁synchroniz	-10.8087
PV	-10.8099
base	-10.8107
ably	-10.8109
▁Bas	-10.8111
▁haematolog	-10.8123
7%)	-10.8146
14,	-10.8155
ten	-10.8159
plex	-10.8162
▁la	-10.8174
cRNA	-10.8175
▁pr	-10.819
SNP	-10.8205
▁30,	-10.8211
ors	-10.8212
▁deal	-10.8217
proved	-10.8222
aching	-10.8231
CM	-10.8233
intervention	-10.8245
Africa	-10.8252
TEM	-10.8257
IM	-10.8258
▁sp	-10.826
ypically	-10.8263
▁mon	-10.8264
▁(27	-10.8278
ELISA	-10.8302
primary	-10.8305
▁1.06	-10.8306
Zika	-10.8311
dimensional	-10.8313
regions	-10.8322
box	-10.8325
27	-10.8328
adjuvant	-10.8329
facility	-10.8329
binding	-10.8329
breeding	-10.8329
CHMI	-10.8331
recrudescence	-10.8331
randomised	-10.8332
▁calculat	-10.8333
IQR	-10.8333
correlation	-10.8334
Poc	-10.8335
therapy	-10.8336
2000	-10.8338
invasi	-10.8339
resource	-10.834
reactive	-10.834
▁0.97	-10.8343
studied	-10.8343
selected	-10.8349
structured	-10.8358
ving	-10.836
▁1,2	-10.8366
▁complet	-10.8367
7%	-10.8379
CO	-10.8387
Rins	-10.8387
.1)	-10.8393
conventional	-10.8394
▁0.71	-10.8396
▁1-	-10.8404
ural	-10.8405
part	-10.8406
▁Se	-10.8417
4.5%	-10.8421
▁VE	-10.8425
▁BackgroundE	-10.8426
91	-10.8427
taining	-10.8428
▁199	-10.8444
ro	-10.845
many	-10.8466
creasingly	-10.8467
▁ribbon	-10.8472
teen	-10.8477
▁Tool	-10.8478
▁virion	-10.8479
security	-10.8486
▁monkey	-10.8491
ABSE	-10.8492
▁department	-10.8494
meter	-10.8495
▁episode	-10.8495
▁campaign	-10.8495
▁mAb	-10.8495
ID	-10.8496
▁characteristic	-10.8499
▁requirement	-10.8502
▁spray	-10.8503
▁SP	-10.8506
▁discuss	-10.851
▁strengthen	-10.8511
iatric	-10.8512
▁0.70	-10.8514
blind	-10.8515
▁mix	-10.8515
▁limitation	-10.8516
▁mother	-10.8518
▁98.	-10.8526
▁driver	-10.8537
▁container	-10.8539
▁build	-10.8541
▁Phas	-10.8544
Mac	-10.8553
▁Niger	-10.8553
▁7,	-10.856
ropical	-10.8564
▁lab	-10.8567
▁passive	-10.8568
▁tree	-10.8568
▁determin	-10.8569
▁societ	-10.8569
▁resident	-10.8575
▁observe	-10.8577
6%)	-10.8578
omen	-10.8579
▁assume	-10.8581
nom	-10.8585
▁suppress	-10.8586
▁flexib	-10.8589
▁uncertain	-10.8589
▁temperat	-10.8589
DWS	-10.8589
communicable	-10.8589
▁Dhaka	-10.8589
▁Efficacy	-10.8589
▁Interventions	-10.8589
▁Philippines	-10.8589
▁Protocol	-10.8589
▁Sigmoid	-10.8589
▁Taiwan	-10.8589
▁academic	-10.8589
▁attempt	-10.8589
▁century	-10.8589
▁chambers	-10.8589
▁convergent	-10.8589
▁farnesyl	-10.8589
▁gametogenesis	-10.8589
▁hallmark	-10.8589
▁manuscript	-10.8589
▁pigment	-10.8589
▁rEDIII	-10.8589
▁retriev	-10.8589
▁sulfasalazine	-10.8589
▁toolkit	-10.8589
▁trypanosomiasis	-10.8589
▁undiagnosed	-10.8589
▁virulent	-10.8589
▁Explor	-10.8589
▁daughter	-10.8589
▁detoxification	-10.8589
▁guardians	-10.8589
▁language	-10.8589
▁pilot	-10.8589
▁prokaryotic	-10.8589
▁Poverty	-10.8589
▁supplies	-10.8589
CorV	-10.8589
23580	-10.8589
▁rodent	-10.8589
Vaxplorer	-10.8589
CUIMC	-10.8589
▁discard	-10.8589
▁possess	-10.8589
▁glycolysis	-10.8589
▁reinforc	-10.8589
▁Huh	-10.8589
▁EHT	-10.8589
▁polyclonal	-10.859
▁plausib	-10.859
▁summarize	-10.859
▁Design	-10.859
▁stock	-10.859
▁34.6%	-10.859
▁stratify	-10.859
▁haplo	-10.859
▁left	-10.859
▁serostatus	-10.859
▁haematocrit	-10.859
▁absent	-10.859
RMSE	-10.859
▁southwest	-10.859
▁Italy	-10.859
▁dialogue	-10.859
HbAA	-10.859
▁outreach	-10.859
▁stool	-10.859
▁Guang	-10.859
▁anchor	-10.859
=0.006)	-10.859
▁validity	-10.859
/100,000	-10.8591
▁isolation	-10.8591
▁migration	-10.8591
▁biosynthetic	-10.8591
▁Coverage	-10.8591
▁Hub	-10.8591
FIG	-10.8591
▁attractant	-10.8591
▁items	-10.8591
▁bivariate	-10.8591
▁triage	-10.8591
▁steady	-10.8592
▁involvement	-10.8592
cidin	-10.8592
▁subjective	-10.8592
▁geographies	-10.8592
▁Southwest	-10.8592
▁incident	-10.8592
Vac	-10.8592
▁How	-10.8593
▁drastic	-10.8593
▁underreporting	-10.8593
mp	-10.8594
▁Expand	-10.8594
▁randomization	-10.8594
escalation	-10.8594
▁unvaccinated	-10.8595
▁comorbidity	-10.8595
▁stopp	-10.8595
▁chance	-10.8596
▁Anti	-10.8597
▁manufacturer	-10.8597
plenis	-10.8597
▁avoid	-10.8597
hylogenetic	-10.8597
▁height	-10.8597
▁Monitoring	-10.8599
▁primates	-10.8599
▁Short	-10.86
▁indeed	-10.86
▁Lungs	-10.86
▁merosomes	-10.86
▁confirmation	-10.8601
▁Assay	-10.8601
▁66%	-10.8602
▁Yet	-10.8603
▁permit	-10.8606
▁intention	-10.8607
▁muco	-10.8607
▁trust	-10.8607
▁Cox	-10.8608
▁warranted	-10.8612
▁phone	-10.8612
▁Effective	-10.8612
=16)	-10.8612
▁precise	-10.8613
▁adjustment	-10.8613
▁elevation	-10.8614
▁CDC	-10.8614
▁exclud	-10.8615
▁El	-10.8615
▁glands	-10.8616
▁budgets	-10.8617
▁macaques	-10.8617
▁zero	-10.8618
anagement	-10.8618
▁Part	-10.8619
▁Socio	-10.8619
▁MAYV	-10.8619
▁MUAC	-10.8619
▁batch	-10.8619
▁Tororo	-10.862
▁spillover	-10.862
▁domestic	-10.862
▁shorter	-10.862
▁PCINet	-10.862
▁capillar	-10.862
▁political	-10.8621
▁Rcase	-10.8622
<0.01)	-10.8623
▁2007	-10.8624
cents	-10.8625
▁right	-10.8626
▁Amp	-10.8626
IRF	-10.8627
66	-10.8629
▁referral	-10.863
▁saving	-10.863
▁walk	-10.863
▁45%	-10.8632
versely	-10.8632
▁imper	-10.8633
culture	-10.8634
▁windows	-10.8635
▁preprints	-10.8635
▁neighborhoods	-10.8635
SOC	-10.8635
ronou	-10.8637
▁GH	-10.8641
▁TER	-10.8643
▁Litt	-10.8644
▁RO	-10.8647
▁proof	-10.8648
▁accelerated	-10.8649
ULV	-10.865
▁excluded	-10.8652
▁thousands	-10.8653
▁2}=9	-10.8655
▁incomplete	-10.8655
▁Gran	-10.8657
▁extensively	-10.8657
▁(-)-	-10.866
▁equally	-10.8661
▁65%	-10.8662
▁depressi	-10.8663
▁dimensions	-10.8666
▁spectrum	-10.8667
▁contamination	-10.8668
▁synchronous	-10.8669
4/	-10.8669
▁HMC	-10.8669
313	-10.867
▁mid	-10.8672
▁differentiate	-10.8672
ometers	-10.8674
tical	-10.8675
▁IFA	-10.8676
▁Recently	-10.8677
tan	-10.8678
▁Change	-10.8682
▁USD	-10.8683
▁ResultsIn	-10.8685
hemoglobin	-10.8686
▁fill	-10.8688
DE	-10.869
duction	-10.8691
▁difficulty	-10.8691
reater	-10.8692
▁None	-10.8694
Here	-10.8695
▁numerical	-10.8706
▁definitions	-10.8707
▁occupations	-10.8707
▁metagenomics	-10.8707
▁visualizations	-10.8707
▁1.10	-10.8711
▁Four	-10.8712
▁SNPs	-10.8714
▁GWAS	-10.8715
▁Last	-10.8717
▁1.7	-10.8717
▁assist	-10.8719
▁traps	-10.8725
▁joint	-10.8725
▁buildings	-10.8726
▁180	-10.8727
36	-10.873
ndemic	-10.8734
▁Adult	-10.8739
488	-10.8742
sporozoite	-10.8747
▁visited	-10.8749
▁1.0	-10.8753
ptic	-10.8756
▁agree	-10.876
▁anophelines	-10.8761
▁chaperones	-10.8761
▁MIZ	-10.8763
▁FOI	-10.8763
434	-10.8766
vs	-10.8767
▁Herein	-10.877
)-	-10.8773
▁implicat	-10.8775
▁0.20	-10.8775
▁0.06	-10.8781
▁standardized	-10.8783
▁Ros	-10.8785
uris	-10.8785
▁rais	-10.8787
▁Genome	-10.879
▁Rp	-10.8799
ipe	-10.8806
▁forests	-10.8807
10186-	-10.8807
179	-10.8812
▁qua	-10.8816
=6)	-10.8816
▁reached	-10.8822
outhern	-10.8825
▁amplifi	-10.8826
▁Aim	-10.8826
▁officials	-10.8827
26)	-10.883
▁mixtures	-10.8833
▁participat	-10.8834
sacchar	-10.8848
▁segregat	-10.885
▁box	-10.8852
▁Ank	-10.8859
▁manual	-10.8861
ward	-10.8871
▁warm	-10.8876
▁Tg	-10.8878
king	-10.8879
▁DALYs	-10.8884
▁Rica	-10.8885
▁0.28	-10.8886
▁edit	-10.8889
▁degrad	-10.889
▁lymph	-10.8891
MC	-10.8895
z	-10.8899
Gr	-10.8907
SIVE	-10.8909
▁dense	-10.8911
▁cry	-10.8926
sh	-10.8928
▁br	-10.8936
▁11%	-10.8938
▁Experiment	-10.8945
▁lncRNAs	-10.8952
▁0.00	-10.8956
nd	-10.8957
▁lumefantrine	-10.8959
▁250	-10.8966
34	-10.8966
9{	-10.8969
▁mapp	-10.8972
▁fac	-10.8976
▁Modeling	-10.8976
disability	-10.8999
ever	-10.9002
22	-10.9011
hub	-10.9011
clonal	-10.9017
▁prove	-10.9022
photo	-10.9024
▁persons	-10.9033
▁51	-10.9041
inf	-10.9047
▁eligib	-10.9061
▁waste	-10.9065
▁separate	-10.9084
▁standing	-10.9084
▁exp	-10.9087
localization	-10.9094
▁Parameter	-10.9104
▁methodologi	-10.9105
▁fall	-10.9106
ompared	-10.9109
▁0.03	-10.9121
▁preserv	-10.9124
circulate	-10.9125
ountries	-10.9126
▁Sind	-10.9132
3.	-10.9137
▁necessitat	-10.9141
pical	-10.9149
▁LAMP	-10.9151
omparative	-10.9159
9%)	-10.9165
▁foc	-10.9172
▁Discussion	-10.919
▁argu	-10.9195
68	-10.9195
ocytosis	-10.9196
PHC	-10.9202
▁declines	-10.9202
acceptability	-10.9209
▁orders	-10.9211
LC	-10.9211
/-}	-10.9212
=0.001).	-10.9215
cidence	-10.9223
▁SmS	-10.9233
105	-10.9235
▁Critical	-10.9238
AU	-10.9238
▁physical	-10.9245
▁comparisons	-10.9248
▁conferr	-10.925
▁intens	-10.9267
▁300	-10.9268
▁sole	-10.9269
▁lay	-10.9279
UP	-10.9286
▁76%	-10.929
288	-10.9291
ntenatal	-10.9304
▁standards	-10.9308
▁BackgroundR	-10.9314
32	-10.9329
000	-10.9336
GRP	-10.9339
uk	-10.9345
▁4%	-10.9348
▁addressed	-10.9349
mal	-10.9354
3-	-10.9362
▁hu	-10.9373
down	-10.9374
▁Po	-10.9375
door	-10.9375
▁subtype	-10.9378
▁86	-10.938
iled	-10.9381
▁54	-10.9382
1.3%	-10.9384
▁Spati	-10.9389
native	-10.9396
}0	-10.9396
▁balance	-10.9403
▁Integrat	-10.9406
3%)	-10.9414
▁(10	-10.9428
▁del	-10.943
east	-10.9432
▁Ear	-10.9441
standing	-10.9452
ast	-10.9468
To	-10.9477
TION	-10.9477
▁Insecticid	-10.9478
▁ID	-10.9489
▁9%	-10.9518
▁64	-10.9526
counting	-10.9548
formed	-10.9573
uses	-10.9578
▁emphasis	-10.958
▁HMG	-10.9585
arid	-10.9588
volution	-10.96
SMA	-10.9601
.6%	-10.9602
Ae	-10.9613
39	-10.9617
69	-10.9622
opolit	-10.9626
▁surviv	-10.9631
el	-10.9634
translational	-10.964
▁CR	-10.9652
q	-10.9654
sian	-10.9654
▁2.3	-10.9655
pkeep	-10.9659
0.01%	-10.9662
PL	-10.9667
▁tyr	-10.9675
▁(0	-10.9675
▁Not	-10.9676
▁0.2	-10.9679
▁differently	-10.9685
▁53	-10.9699
▁fin	-10.9701
▁top	-10.9725
ntil	-10.973
2%	-10.9738
let	-10.9759
▁activat	-10.9786
▁(2)	-10.9789
artemisinin	-10.979
▁complicate	-10.9791
credi	-10.9802
sy	-10.9806
▁prob	-10.9814
▁BackgroundA	-10.9815
from	-10.9816
▁Tho	-10.9827
▁explor	-10.9828
quantit	-10.9829
▁quantit	-10.9843
dengue	-10.9853
▁cla	-10.9854
▁pos	-10.9861
TP	-10.9869
56	-10.9873
▁devis	-10.9887
95%	-10.9904
71	-10.9906
.9%	-10.9915
tailed	-10.9919
▁Daw	-10.9932
▁Access	-10.9935
▁77	-10.9937
1000	-10.9944
▁conf	-10.9947
inter	-10.9951
TR	-10.9955
productive	-10.9957
▁Ro	-10.9961
HE	-10.9979
▁0.6	-11.0002
BI	-11.0005
▁2.6	-11.0011
ons	-11.0019
tended	-11.0024
way	-11.0025
▁wit	-11.0039
can	-11.0041
.8%	-11.0073
ternational	-11.0076
light	-11.0078
▁0.11	-11.0091
model	-11.0093
▁Quantif	-11.0106
7.0%	-11.0113
▁met	-11.0115
read	-11.0125
typical	-11.0126
65)	-11.0131
induce	-11.0132
▁mainl	-11.0134
▁ward	-11.0135
symptomatic	-11.0148
▁ser	-11.0149
▁hep	-11.0149
=0.000	-11.0173
▁Pre	-11.0175
BR	-11.0176
llumina	-11.0178
▁encod	-11.0196
▁(40	-11.0199
BL	-11.0204
▁62%	-11.0204
=3.1	-11.0206
0).	-11.021
overnment	-11.0221
regression	-11.0221
district	-11.0229
▁ones	-11.0238
▁circulat	-11.024
pro	-11.0243
Gam	-11.0244
izing	-11.0245
makers	-11.0255
emographic	-11.0262
hes	-11.0274
▁relat	-11.0275
PC	-11.0276
ero	-11.0276
uantitative	-11.0281
used	-11.0282
stag	-11.0284
nous	-11.0284
DT	-11.0293
challenge	-11.03
▁(0.01	-11.03
6]	-11.0308
analyses	-11.031
effector	-11.0312
supplement	-11.0314
recipients	-11.0315
▁12-	-11.0315
00,000	-11.0315
quantitative	-11.0317
infect	-11.0319
affected	-11.032
emergence	-11.0323
established	-11.0326
stream	-11.0326
protocol	-11.0327
ANC	-11.0328
pyriproxyfen	-11.0329
.2%	-11.0329
IgM	-11.0329
DHS	-11.033
chemical	-11.033
WNV	-11.0331
PMI	-11.0332
18)	-11.0334
YF	-11.0335
DALYs	-11.0339
vaccinated	-11.0341
play	-11.0342
retro	-11.0343
environmental	-11.0344
DNA	-11.0346
▁ObjectiveT	-11.0348
killed	-11.0351
▁su	-11.0354
HR	-11.0355
▁Stat	-11.0355
nformation	-11.0355
CQ	-11.0358
▁Cali	-11.0369
89	-11.037
▁mode	-11.0371
cost	-11.0371
circumcised	-11.0373
64	-11.0378
64)	-11.0383
ways	-11.0387
late	-11.0401
▁Dr	-11.0408
vast	-11.0409
iv	-11.0412
▁uns	-11.0419
step	-11.0424
▁interpretation	-11.0428
▁stri	-11.043
warm	-11.0435
such	-11.0436
verage	-11.0439
▁Ampli	-11.0445
ists	-11.0446
iko	-11.0451
=0.6	-11.0454
▁Ratio	-11.046
46	-11.0467
▁ovitrap	-11.0472
▁explanation	-11.0472
▁background	-11.0474
bo	-11.0474
▁manipulation	-11.0475
▁ConclusionA	-11.0477
▁Dire	-11.048
▁macrophage	-11.0482
.01)	-11.0482
.5%)	-11.0483
▁dominate	-11.0483
cute	-11.0487
▁quantile	-11.0489
▁doctor	-11.0489
▁extension	-11.0489
curred	-11.0491
▁1990	-11.0492
▁NTD	-11.0493
▁motif	-11.0494
▁pediatric	-11.0494
▁disorder	-11.0495
▁biomarker	-11.0495
▁element	-11.0495
▁province	-11.0497
▁kit	-11.05
▁donor	-11.0501
▁complication	-11.0502
ometer	-11.0504
ACTs	-11.0506
▁ADR	-11.0507
21/	-11.052
▁hypnozoit	-11.0521
SL	-11.0522
▁relaps	-11.0522
cyte	-11.0523
▁proteomic	-11.0526
NO	-11.0531
▁serologic	-11.0536
▁buil	-11.0537
▁optim	-11.0538
9)	-11.0551
▁Conv	-11.0552
▁kil	-11.0554
▁know	-11.0555
nvironmental	-11.0556
BO	-11.056
▁image	-11.0562
▁hard	-11.0568
▁sequential	-11.0574
▁strength	-11.0575
▁Additional	-11.0577
▁epidemiologic	-11.0582
morbidities	-11.0583
afenoquine	-11.0583
ematopoie	-11.0584
mplementation	-11.0584
▁referr	-11.0584
▁abundan	-11.0587
▁consequence	-11.0587
▁trajector	-11.0587
rocess	-11.0588
▁immunogenic	-11.0588
eight	-11.0588
▁imperfect	-11.0589
▁Giemsa	-11.0589
disciplin	-11.0589
▁Accurate	-11.0589
▁Altogether	-11.0589
▁Australia	-11.0589
▁Bamenda	-11.0589
▁Campinas	-11.0589
▁English	-11.0589
▁Euroimmun	-11.0589
▁Foundation	-11.0589
▁Kisumu	-11.0589
▁Madeira	-11.0589
▁Portugal	-11.0589
▁bandwidth	-11.0589
▁believe	-11.0589
▁citizen	-11.0589
▁deprivation	-11.0589
▁diarrhea	-11.0589
▁disparities	-11.0589
▁entomology	-11.0589
▁eradicate	-11.0589
▁gastro	-11.0589
▁homeostasis	-11.0589
▁hygiene	-11.0589
▁keywords	-11.0589
▁leishmaniasis	-11.0589
▁mitochondria	-11.0589
▁pneumonia	-11.0589
▁reactogenicity	-11.0589
▁reestablishment	-11.0589
▁relevance	-11.0589
▁sepsis	-11.0589
▁sequelae	-11.0589
▁themselves	-11.0589
▁toxoplasmosis	-11.0589
▁trichiura	-11.0589
▁wMel	-11.0589
▁Component	-11.0589
▁Ensemble	-11.0589
▁opinion	-11.0589
OROV	-11.0589
consuming	-11.0589
▁Indicator	-11.0589
▁Member	-11.0589
▁harbour	-11.0589
▁inequities	-11.0589
▁trimester	-11.0589
▁quench	-11.0589
▁Gambia	-11.0589
▁Texas	-11.0589
▁Parasitology	-11.0589
▁microvascula	-11.0589
▁pathophysiolog	-11.0589
moebiasis	-11.0589
pulldown	-11.0589
<0,0	-11.0589
▁dominance	-11.0589
VLP	-11.059
▁purification	-11.059
▁BMI	-11.059
▁applicability	-11.059
▁embedd	-11.059
▁poisoning	-11.059
▁tetra	-11.059
▁Kano	-11.059
▁unchanged	-11.059
▁delineate	-11.059
▁ultrasonography	-11.059
▁Small	-11.059
▁census	-11.059
▁emetine	-11.059
▁enough	-11.059
▁finger	-11.059
▁attack	-11.059
▁expertise	-11.059
▁Flaviviridae	-11.059
▁outweigh	-11.059
▁Carlo	-11.059
▁PRISM	-11.059
▁Socioeconomic	-11.059
▁matter	-11.059
▁engagement	-11.059
▁repair	-11.059
▁maturation	-11.059
▁enrichment	-11.059
▁Effectiveness	-11.059
▁acceptance	-11.059
▁Zone	-11.059
▁overlapping	-11.059
▁seronegative	-11.059
gamma	-11.059
▁ResultsOverall	-11.059
▁headache	-11.059
COV	-11.059
▁subunit	-11.0591
▁extinction	-11.0591
▁Vertical	-11.0591
▁erythro	-11.0591
▁supervision	-11.0591
ANKA	-11.0591
▁urbanisation	-11.0591
▁epidermis	-11.0591
▁northwest	-11.0591
PvDBPII	-11.0591
▁Thai	-11.0592
▁capital	-11.0592
▁Ko	-11.0592
▁prioritization	-11.0592
▁strata	-11.0592
▁push	-11.0592
▁suffer	-11.0593
▁completeness	-11.0593
▁River	-11.0593
▁thereafter	-11.0593
▁cough	-11.0593
▁antigenically	-11.0593
▁Resource	-11.0593
▁Oman	-11.0593
▁soil	-11.0593
▁patches	-11.0594
▁Six	-11.0594
▁programmatic	-11.0594
▁Epidemiology	-11.0595
▁communicated	-11.0595
▁surge	-11.0596
▁98%	-11.0596
▁rechallenge	-11.0596
▁peer	-11.0597
▁subsidized	-11.0597
▁Noma	-11.0597
▁never	-11.0597
=0.016)	-11.0598
▁Median	-11.0598
▁Box	-11.0599
landin	-11.0599
▁2000-2013	-11.0599
▁stalled	-11.06
▁Modul	-11.06
MyoA	-11.0601
▁maximise	-11.0601
▁counterparts	-11.0602
99%	-11.0602
▁Besides	-11.0602
▁bioinformatics	-11.0602
210,	-11.0603
▁conceptual	-11.0604
immunofluorescen	-11.0605
▁hospitalisation	-11.0605
▁counties	-11.0605
▁compensate	-11.0605
nockdown	-11.0606
▁globe	-11.0607
/-}1.	-11.0608
▁actin	-11.0609
▁0.65	-11.0609
▁hemorrhag	-11.0611
▁mimick	-11.0611
▁chose	-11.0611
▁minimally	-11.0611
▁splen	-11.0612
▁choos	-11.0612
ml	-11.0612
▁lifetime	-11.0613
hile	-11.0614
crude	-11.0614
▁pharmacy	-11.0615
▁society	-11.0616
▁localised	-11.0617
▁returned	-11.0617
▁sequentially	-11.0617
▁0.87	-11.062
kdr	-11.062
▁accelerate	-11.062
▁incorporation	-11.0621
▁37	-11.0621
▁confounding	-11.0622
▁26.4%	-11.0622
xia	-11.0622
▁Atlas	-11.0623
▁interrupt	-11.0623
▁Laos	-11.0623
▁orthologs	-11.0623
▁deformations	-11.0624
▁devices	-11.0624
▁cubes	-11.0624
60	-11.0624
▁look	-11.0625
▁sparse	-11.0626
▁FSGS	-11.0626
▁sfRNA	-11.0626
▁NCDs	-11.0626
▁DBPRII	-11.0626
▁claim	-11.0627
▁atmospher	-11.0627
▁deltamethrin	-11.0627
▁Ethics	-11.0627
▁DEN	-11.0627
▁infestation	-11.0627
▁SARIMA	-11.0628
▁Genotyp	-11.0628
▁disaggregated	-11.063
▁EDS	-11.063
▁filaria	-11.063
▁nations	-11.063
4,000	-11.063
▁Andes	-11.0631
▁modest	-11.0631
aIRR	-11.0632
▁inactivat	-11.0632
▁43%	-11.0632
▁Reaction	-11.0634
gence	-11.0634
▁procure	-11.0634
urprisingly	-11.0635
▁96%	-11.0635
▁evolving	-11.0636
ITT	-11.0636
▁green	-11.0636
▁essentiality	-11.0636
▁organs	-11.0638
▁inactivation	-11.0638
▁SEA	-11.0639
<0.00)	-11.064
▁presum	-11.064
▁TPR	-11.064
▁(6.4%	-11.0641
ELC	-11.0642
creased	-11.0642
▁standardised	-11.0644
rimaquine	-11.0644
▁eukaryotes	-11.0644
OAT	-11.0648
▁organization	-11.0648
▁simpler	-11.0648
▁classify	-11.0649
▁exception	-11.0649
▁hits	-11.065
MMD	-11.0651
▁maximized	-11.0651
▁SummaryS	-11.0654
▁render	-11.0654
▁recognized	-11.0654
▁Burma	-11.0655
▁tight	-11.0655
telli	-11.0659
▁duplicate	-11.066
gun	-11.0661
▁dB	-11.0664
▁lysosome	-11.0664
▁institutions	-11.0664
ON	-11.0666
▁0.55	-11.0668
▁ecosystems	-11.0668
▁authors	-11.0669
▁payments	-11.067
▁repellenc	-11.067
▁inspect	-11.0673
▁97%	-11.0674
44%	-11.0674
▁Geographical	-11.0674
▁32%	-11.0675
HBR	-11.0675
mol	-11.0675
▁keep	-11.068
▁Challenges	-11.0683
▁Delta	-11.0684
▁NTBC	-11.0685
▁ingredient	-11.0685
▁SARDDE	-11.0685
▁2.10	-11.0686
Infectious	-11.0686
IS	-11.0688
▁MMS	-11.0688
▁extensions	-11.069
▁annotat	-11.0691
▁proteomics	-11.0691
▁doctors	-11.0691
▁mechanical	-11.0701
▁89	-11.0702
▁practical	-11.0703
▁stre	-11.0704
▁shapes	-11.0704
▁11-	-11.0707
▁0.6%	-11.0707
tropics	-11.0707
▁Is	-11.0709
▁searches	-11.0709
200	-11.0712
▁3.0%	-11.0715
▁34%	-11.0718
=4)	-11.0722
▁placental	-11.0723
ntibodies	-11.0724
▁misdiagnos	-11.0727
tinel	-11.0727
PoC	-11.0729
▁sequest	-11.073
other	-11.0732
=8	-11.0734
▁websites	-11.0736
▁possib	-11.0738
offs	-11.0744
▁95	-11.0744
▁pain	-11.0744
▁equations	-11.0746
▁onwards	-11.0746
TB	-11.0747
▁iCCM	-11.0749
6,	-11.0752
▁informative	-11.0753
▁helminths	-11.0756
.2%)	-11.0759
aka	-11.0761
ivax	-11.0763
sociodemographic	-11.0764
▁broadly	-11.0766
ka	-11.0766
iolacein	-11.077
ung	-11.0771
▁mediate	-11.0777
▁tr	-11.0777
▁hut	-11.078
▁algorithms	-11.0781
NIRS	-11.0781
ashboard	-11.0782
▁Infections	-11.0783
▁74	-11.0785
▁log	-11.0787
methyl	-11.0787
▁(1)	-11.0787
▁Eb	-11.0791
▁ookinetes	-11.0795
ack	-11.08
.47{	-11.0804
▁oxidati	-11.0806
im	-11.0807
▁5.3	-11.0816
▁County	-11.0818
▁30.9	-11.0819
▁back	-11.0821
▁proteome	-11.0822
▁Emergenc	-11.0827
▁msp	-11.0828
▁PMRs	-11.0831
▁17%	-11.0832
▁BackgroundL	-11.0834
▁incidences	-11.0837
▁stimul	-11.0839
▁rabi	-11.084
=0.005)	-11.0847
▁antibiotics	-11.0848
▁homes	-11.085
▁Can	-11.0853
ensity	-11.0854
▁2.4	-11.0858
▁fear	-11.0863
ep	-11.0863
▁metric	-11.0865
▁expect	-11.0867
▁stream	-11.0868
▁ClinicalTrial	-11.0869
▁defin	-11.087
▁attracti	-11.0871
▁Late	-11.0873
▁increment	-11.088
▁Z	-11.0881
46)	-11.0883
▁persisted	-11.0885
▁gestation	-11.0886
ore	-11.0888
▁Do	-11.0889
▁Peptide	-11.0889
▁heritab	-11.0895
▁Physic	-11.0899
▁manag	-11.0902
▁refine	-11.0911
▁examples	-11.0916
▁1.9	-11.092
▁released	-11.0922
4{	-11.0932
icidal	-11.0941
endors	-11.0943
▁18%	-11.0947
▁fe	-11.0956
▁miss	-11.0965
▁updat	-11.0966
put	-11.0969
▁Kay	-11.0978
▁supervise	-11.0979
22.0	-11.0983
▁ge	-11.0985
▁83%	-11.0987
▁lives	-11.0998
▁DBS	-11.1003
7{	-11.1018
▁encourag	-11.1021
▁tissues	-11.1028
▁lags	-11.1034
▁FundingTh	-11.1039
▁Predicti	-11.104
▁HR	-11.1047
▁Net	-11.1049
▁recurrences	-11.105
24%	-11.1056
▁imp	-11.1057
▁Statement	-11.1061
▁Speci	-11.1071
ouse	-11.1074
▁uninfect	-11.1079
▁Soci	-11.108
▁polari	-11.1081
▁direction	-11.1088
▁acids	-11.1092
CRP	-11.1094
▁Bi	-11.1098
▁9,	-11.1099
▁initiate	-11.1102
▁Mapp	-11.1108
▁regulated	-11.1114
▁CONT	-11.1117
▁simulate	-11.1131
▁carrie	-11.1135
▁expo	-11.1136
▁progressed	-11.114
96	-11.1144
▁careful	-11.1146
▁replac	-11.1149
ants	-11.115
rove	-11.1157
6%	-11.1161
▁divid	-11.1165
ecological	-11.1169
▁60%)	-11.1175
▁plan	-11.1176
EAR	-11.1186
IE	-11.1191
Year	-11.1198
▁So	-11.1204
/76)	-11.1207
▁pharmacologic	-11.1211
sk	-11.1218
▁afford	-11.1222
15{	-11.1223
▁119	-11.1224
▁Special	-11.1231
25%)	-11.1248
22)	-11.1259
=7	-11.1259
▁5-	-11.1263
▁populat	-11.1266
▁explo	-11.127
▁weak	-11.1277
aji	-11.1279
KS	-11.1281
.0%)	-11.1281
▁2.7	-11.1283
▁emulat	-11.1285
openia	-11.1292
▁Measure	-11.1305
HP	-11.1309
ab	-11.1317
assive	-11.1328
▁triple	-11.133
▁Optimiz	-11.133
▁ro	-11.1337
▁burdens	-11.1339
▁concerning	-11.134
ole	-11.1351
bait	-11.1352
ver	-11.1352
▁Od	-11.1356
▁PCI	-11.1362
▁categoris	-11.1365
odium	-11.1366
▁reproducib	-11.137
▁Sequenc	-11.1377
▁reli	-11.1377
▁Significance	-11.1379
pi	-11.1385
▁undert	-11.1403
▁pave	-11.1409
vary	-11.1412
▁patholog	-11.1416
▁translate	-11.142
2:	-11.1428
EMR	-11.143
▁fina	-11.1431
sus	-11.1446
no	-11.1454
▁34	-11.1458
2/3	-11.1459
-4%)	-11.146
rought	-11.1468
fec	-11.147
▁membranes	-11.1475
▁seri	-11.1478
▁immunosuppress	-11.1481
meric	-11.1483
ested	-11.1484
▁circulate	-11.1495
▁biased	-11.1503
▁Detecti	-11.1506
tun	-11.1507
gu	-11.1509
▁(0.0	-11.1513
▁trace	-11.152
▁Le	-11.1523
▁Trans	-11.1524
▁Appl	-11.153
▁emphasiz	-11.1533
2.4%	-11.1545
4.1%)	-11.1547
▁Gui	-11.1582
230	-11.1583
▁La	-11.1583
fication	-11.1589
ional	-11.159
pression	-11.159
torial	-11.1606
▁dia	-11.1607
arm	-11.1608
▁VA	-11.1621
▁Apicomplexan	-11.1625
3.6%	-11.163
nthropometric	-11.1633
wel	-11.1637
iso	-11.1638
▁4.7	-11.164
▁handle	-11.1647
▁pharmacogene	-11.1654
cipro	-11.1655
5.8%	-11.1661
lla	-11.1674
▁wasted	-11.1678
▁hydro	-11.1688
sion	-11.1689
▁compli	-11.1689
▁prov	-11.1692
rm	-11.1695
73)	-11.1701
induc	-11.1717
▁stabilize	-11.1718
rior	-11.1723
ni	-11.1724
▁registration	-11.1725
▁her	-11.1728
du	-11.1744
revention	-11.1748
▁induc	-11.1754
▁seed	-11.1756
▁plann	-11.1768
osin	-11.1779
▁0.04	-11.1782
▁silenc	-11.1785
▁come	-11.1801
78	-11.1805
▁0.05	-11.1816
2.88	-11.1822
▁illustrate	-11.1828
cer	-11.1831
ay	-11.1852
nResults	-11.1869
▁Eliminat	-11.1873
gated	-11.1876
ua	-11.1879
action	-11.1883
ho	-11.1884
.,	-11.1885
▁2%	-11.1887
ss	-11.1889
▁Pan	-11.1891
7.3%	-11.1897
8.5%	-11.1907
flu	-11.1917
bone	-11.1931
▁mal	-11.1934
▁ei	-11.194
▁summaryA	-11.1945
▁carbo	-11.195
1.9%	-11.1955
▁1.6	-11.1966
alve	-11.1966
▁sensitivit	-11.1973
1:1	-11.1977
12,	-11.1982
▁ignor	-11.1984
▁Prote	-11.199
=1.9	-11.1992
ncidence	-11.2001
▁chang	-11.2007
come	-11.2009
tified	-11.2014
▁DALY	-11.2018
▁ring	-11.2019
▁3.6%	-11.2024
62)	-11.2031
▁deadl	-11.2031
▁113	-11.2033
▁CRT	-11.2034
SAEs	-11.2037
▁Approach	-11.2041
IRD	-11.2043
ried	-11.2046
▁0.88	-11.2062
tting	-11.207
▁interfer	-11.2086
-14	-11.2107
0.000	-11.211
37	-11.2112
ust	-11.2113
▁Odd	-11.2116
▁39	-11.2119
▁Fc	-11.2133
▁38.6	-11.2137
▁Auto	-11.2141
=2.1	-11.2141
▁64%	-11.2147
59	-11.2151
▁replicat	-11.2167
▁156	-11.2171
▁7.57	-11.2182
▁ver	-11.2189
ternal	-11.22
hing	-11.2208
▁3.5	-11.2221
regulated	-11.2237
LN	-11.225
▁indication	-11.2252
indi	-11.2256
58	-11.2271
Pic	-11.2276
▁realis	-11.2279
illion	-11.2293
form	-11.2296
119	-11.23
genesis	-11.2307
▁librar	-11.2318
▁separat	-11.2321
center	-11.2322
▁450	-11.2324
▁ama	-11.2347
574	-11.235
UC	-11.2356
BP	-11.2362
10,	-11.2366
▁categor	-11.2379
▁1.4	-11.2381
holds	-11.2387
LIW	-11.2399
atory	-11.2406
RBCs	-11.2415
▁3.0	-11.242
▁adds	-11.2455
def	-11.247
▁2020)	-11.2492
Among	-11.2493
linea	-11.2493
non	-11.2509
sive	-11.2547
▁mala	-11.2548
▁dissect	-11.2563
81,	-11.2568
etical	-11.2577
▁Geo	-11.2586
▁exposures	-11.2595
▁rest	-11.2599
sistance	-11.2606
09	-11.2609
▁Inter	-11.2609
SES	-11.2618
▁<0.001)	-11.262
})	-11.2625
▁dimension	-11.2638
▁capab	-11.2643
▁(2.6	-11.2643
▁Identif	-11.2652
▁par	-11.2653
among	-11.2657
▁rheumat	-11.2662
▁productive	-11.267
11)	-11.2676
score	-11.2679
impact	-11.2703
ustainab	-11.2705
▁pandemics	-11.2705
erior	-11.2711
surveillance	-11.2713
face	-11.2722
ich	-11.2724
▁polymorph	-11.2725
MIS	-11.2729
where	-11.2741
Health	-11.2746
For	-11.2748
ended	-11.2751
we	-11.2755
habit	-11.2764
second	-11.2765
ITN	-11.2768
MS	-11.2771
CFP	-11.2781
tility	-11.2785
country	-11.2785
ell	-11.2787
Net	-11.2792
HIV	-11.2795
ctic	-11.2799
dynamic	-11.2802
CrI	-11.2804
appreciated	-11.2804
ophosphate	-11.2805
arboviruses	-11.2806
128	-11.2807
group	-11.2808
field	-11.2812
reference	-11.2812
Findings	-11.2812
pregnant	-11.2813
change	-11.2813
▁3.3	-11.2814
▁7%	-11.2815
▁Fac	-11.2815
condition	-11.2816
asymptomatic	-11.2816
school	-11.2818
County	-11.2819
ClinicalTrial	-11.2819
pathogen	-11.2819
▁SE	-11.2819
payment	-11.282
recommended	-11.282
generate	-11.2821
methods	-11.2821
transcriptomic	-11.2823
standardized	-11.2823
MIZ	-11.2824
FOI	-11.2824
089	-11.2824
motile	-11.2826
lncRNAs	-11.2826
AHME	-11.2827
limited	-11.2827
Pacific	-11.2827
Hsp	-11.2828
msp	-11.2828
forecast	-11.2828
history	-11.2828
LoD	-11.2829
blocking	-11.283
ARDS	-11.2832
▁(20	-11.2833
DRC	-11.2834
▁Objectives	-11.2835
Concern	-11.2835
biased	-11.2835
expand	-11.284
back	-11.2841
EPCR	-11.2845
▁Differentia	-11.2848
Pv	-11.2851
br	-11.2856
}4	-11.2858
-7	-11.2859
8.1%	-11.2862
lated	-11.2862
Congo	-11.2863
reviewed	-11.2865
four	-11.2868
isation	-11.2871
SCPLOW	-11.2882
Previous	-11.2884
arbo	-11.2886
▁Qua	-11.2887
995	-11.2891
contain	-11.2893
post	-11.2894
▁ho	-11.2897
▁0.3	-11.2898
llowing	-11.2904
▁pul	-11.2907
8-1.	-11.2907
training	-11.2908
MethodsW	-11.2913
2.0%	-11.2919
lag	-11.2922
even	-11.2928
development	-11.293
ike	-11.2953
ba	-11.2959
▁accessib	-11.2961
▁oligo	-11.2963
70%	-11.2964
protection	-11.2965
▁format	-11.2969
perceive	-11.2972
▁prescription	-11.2972
AIP	-11.2977
▁Result	-11.2978
Data	-11.2982
▁workflow	-11.2982
▁see	-11.2982
▁placenta	-11.2982
IZPs	-11.2982
▁bro	-11.2984
EIR	-11.2986
class	-11.2986
58)	-11.2988
▁author	-11.2988
▁ecosystem	-11.2989
▁subject	-11.2989
▁thousand	-11.2991
▁barcode	-11.2992
▁ligand	-11.2994
▁caregiver	-11.2994
▁determinant	-11.2995
▁professional	-11.2996
▁infant	-11.2996
▁distance	-11.2997
▁ven	-11.2999
▁restriction	-11.3008
ster	-11.3011
▁titre	-11.3013
▁BackgroundZ	-11.3013
▁metabolite	-11.3014
▁recruit	-11.3015
81	-11.302
-1.	-11.3021
▁Multiplex	-11.3022
▁annua	-11.3022
strand	-11.3023
▁institution	-11.3032
LV	-11.3039
▁cytokine	-11.304
▁polymorphism	-11.3041
▁onward	-11.3044
▁trait	-11.3046
34,	-11.3048
BB	-11.3056
▁accept	-11.3057
37.9	-11.3059
▁Tw	-11.306
ph	-11.3061
▁minimal	-11.3062
▁dispers	-11.3062
▁regime	-11.3062
FKB	-11.3062
lacental	-11.3066
▁maximize	-11.3067
emporal	-11.3068
42	-11.3069
▁remove	-11.3069
▁Valle	-11.307
▁bin	-11.3072
▁earlie	-11.3077
sense	-11.3081
chistosomiasis	-11.3082
yndrome	-11.3082
uberculosis	-11.3082
ongitudinal	-11.3082
lucose	-11.3083
▁apprecia	-11.3086
gradua	-11.3087
▁summaris	-11.3088
▁minor	-11.3088
oonotic	-11.3089
▁typho	-11.3089
omics	-11.3089
Hybrid	-11.3089
▁244,246	-11.3089
oxygen	-11.3089
▁business	-11.3089
▁favor	-11.3089
FGDs	-11.3089
IMASIDA	-11.3089
SIDIAP	-11.3089
ophthalmologist	-11.3089
▁Battor	-11.3089
▁Beijing	-11.3089
▁Cauca	-11.3089
▁Classifier	-11.3089
▁Committee	-11.3089
▁Context	-11.3089
▁Cordoba	-11.3089
▁Cucuta	-11.3089
▁Deltamethrin	-11.3089
▁EMBASE	-11.3089
▁Eswatini	-11.3089
▁Group	-11.3089
▁Immunization	-11.3089
▁Kwale	-11.3089
▁Leishmania	-11.3089
▁Lihir	-11.3089
▁Madagascar	-11.3089
▁Micronesia	-11.3089
▁Morocco	-11.3089
▁OMOP	-11.3089
▁Ouagadougou	-11.3089
▁Patterns	-11.3089
▁Pernambuco	-11.3089
▁Pyriproxyfen	-11.3089
▁Scenario	-11.3089
▁Trypanosom	-11.3089
▁TwinsUK	-11.3089
▁atovaquone	-11.3089
▁dIvoire	-11.3089
▁destruction	-11.3089
▁deterioration	-11.3089
▁dilution	-11.3089
▁economies	-11.3089
▁fixation	-11.3089
▁guarantee	-11.3089
▁irregular	-11.3089
▁livestock	-11.3089
▁officers	-11.3089
▁postnatal	-11.3089
▁practitioner	-11.3089
▁preparation	-11.3089
▁scAlign	-11.3089
▁spectrometry	-11.3089
▁trophozoite	-11.3089
▁trypanolysis	-11.3089
▁vacuole	-11.3089
▁vomiting	-11.3089
▁Angola	-11.3089
▁Kingdom	-11.3089
▁Mayaro	-11.3089
▁circumstances	-11.3089
▁dollars	-11.3089
▁melanogaster	-11.3089
▁myalgia	-11.3089
▁prenatal	-11.3089
▁prophyla	-11.3089
▁scatter	-11.3089
▁surpass	-11.3089
▁thioester	-11.3089
scPDSI	-11.3089
▁4/74	-11.3089
▁Cochran	-11.3089
▁DABA	-11.3089
▁chymase	-11.3089
▁expectancy	-11.3089
▁taxa	-11.3089
▁Artemisinin	-11.3089
pocket	-11.3089
▁crisis	-11.3089
▁phosphoproteome	-11.3089
▁picture	-11.3089
HTES	-11.3089
▁transaminases	-11.3089
CSSB	-11.3089
ebook	-11.3089
▁Initiative	-11.3089
▁matrix	-11.3089
IHME	-11.3089
▁Busia	-11.3089
▁shelter	-11.3089
▁Penang	-11.3089
▁Accra	-11.3089
▁migrant	-11.3089
▁Life	-11.3089
▁homozygo	-11.3089
▁Greece	-11.3089
HIRA	-11.3089
patent	-11.3089
▁Stress	-11.3089
▁offset	-11.3089
▁Scot	-11.3089
▁isopent	-11.309
▁oviposit	-11.309
▁identities	-11.309
▁rescue	-11.309
▁coherence	-11.309
▁enlarge	-11.309
▁nasopharyn	-11.309
PMNs	-11.309
▁Interval	-11.309
▁2015-2017	-11.309
▁latitude	-11.309
▁repurpos	-11.309
▁methemoglobin	-11.309
▁shield	-11.309
▁partnership	-11.309
▁reproducibility	-11.309
▁homophobia	-11.309
▁depict	-11.309
DNAemia	-11.309
▁uniform	-11.309
▁obvious	-11.309
▁Nino	-11.309
▁cytometer	-11.309
1,016	-11.309
=0.004)	-11.309
▁Registration	-11.309
▁enrich	-11.309
bott	-11.309
=0.002)	-11.309
=0.048)	-11.309
▁commercialised	-11.3091
▁checklist	-11.3091
▁plasmid	-11.3091
▁film	-11.3091
▁unexplored	-11.3091
SeT	-11.3091
atocytes	-11.3091
▁undetected	-11.3091
▁toxicity	-11.3091
▁Engineering	-11.3091
▁implies	-11.3091
▁France	-11.3091
▁pharmacokinetic	-11.3091
▁2000-2018	-11.3091
▁BGM	-11.3091
▁Laboratory	-11.3091
▁2015-2016	-11.3091
▁HDC	-11.3091
▁PfHsp	-11.3091
▁counsel	-11.3092
▁(0.46	-11.3092
▁elderly	-11.3092
▁conceiv	-11.3092
▁ascend	-11.3092
▁Lima	-11.3092
▁kind	-11.3092
▁else	-11.3092
▁necessity	-11.3092
▁Application	-11.3092
▁pfc	-11.3092
▁writ	-11.3092
▁DENG	-11.3092
PfPGP	-11.3092
▁worms	-11.3093
=15)	-11.3093
▁modulation	-11.3093
▁libraries	-11.3093
▁COL	-11.3093
▁insertion	-11.3093
ynamics	-11.3093
▁Medicine	-11.3093
▁harm	-11.3094
▁conservation	-11.3094
▁unavailable	-11.3094
aeg	-11.3095
▁undertaken	-11.3095
▁Rico	-11.3096
GPT	-11.3096
▁Point	-11.3096
▁priorities	-11.3096
▁0.94	-11.3096
▁Severity	-11.3096
thrin	-11.3098
▁Serotype	-11.3098
▁Living	-11.3098
▁SummaryMalaria	-11.3098
wire	-11.3098
pull	-11.3098
DY	-11.3099
▁Bali	-11.3099
▁Response	-11.31
agos	-11.31
▁understudied	-11.31
urnal	-11.3101
▁Basin	-11.3102
▁condens	-11.3103
▁definite	-11.3103
▁immunological	-11.3103
4.	-11.3104
▁Level	-11.3105
▁1980	-11.3105
▁suboptimal	-11.3105
008-1	-11.3105
▁clinicians	-11.3106
▁Develop	-11.3107
▁Hence	-11.3108
▁anopheles	-11.3108
▁dermatologi	-11.3108
=0.041)	-11.3109
▁Eva	-11.3109
▁gradual	-11.3109
▁Niem	-11.311
▁concurrently	-11.311
▁modify	-11.311
hosphoregulation	-11.3111
aggregated	-11.3112
▁Residual	-11.3113
▁centre	-11.3114
▁worse	-11.3114
RSV	-11.3115
ncho	-11.3116
▁envelope	-11.3116
▁eventual	-11.3118
GAM	-11.3118
▁discrimination	-11.3118
▁(20%)	-11.3118
CAGR	-11.3118
zing	-11.312
▁Forest	-11.312
▁furthermore	-11.3121
177	-11.3121
0.17-0.	-11.3123
▁0.98	-11.3123
EPG	-11.3123
lers	-11.3125
outine	-11.3126
/180)	-11.3126
▁vesic	-11.3126
▁answer	-11.3127
▁charts	-11.3127
▁0.73	-11.3129
charge	-11.3129
▁editor	-11.313
2.5-3	-11.3132
▁titers	-11.3132
PfCSP	-11.3132
ouche	-11.3133
ot	-11.3134
▁quintiles	-11.3135
▁DI	-11.3135
▁ribosom	-11.3135
▁interruptions	-11.3136
▁shortages	-11.3136
=0.43	-11.3136
▁Strong	-11.3137
▁CZS	-11.3137
▁2004	-11.3137
▁Vgsc	-11.3137
▁ABDs	-11.3137
▁PASC	-11.3137
cod	-11.3137
▁transcribed	-11.3138
iddle	-11.3138
▁Dengvaxia	-11.3138
05	-11.3138
▁CoronaVac	-11.3138
▁Artemether	-11.3138
▁MinorityReport	-11.3138
▁compliance	-11.3139
▁Standard	-11.3139
▁outline	-11.314
▁metropoli	-11.314
▁clean	-11.3141
=0.000)	-11.3141
▁visualiz	-11.3142
▁DBPII	-11.3142
▁93%	-11.3142
▁Eight	-11.3145
▁fragment	-11.3145
▁USA	-11.3146
▁1.03	-11.3146
▁Generaliz	-11.3149
▁Within	-11.3151
▁ConclusionsD	-11.3152
nHere	-11.3153
▁safer	-11.3154
▁Cx	-11.3155
microbial	-11.3155
▁CER	-11.3155
▁MVA	-11.3156
▁QU	-11.3156
▁ethnic	-11.3156
▁pick	-11.3157
WRA	-11.3159
▁inexpensive	-11.316
▁neighbour	-11.3161
CFR	-11.3161
▁respective	-11.3161
▁7.7	-11.3161
▁interviewed	-11.3163
▁horizons	-11.3164
▁bottlenecks	-11.3164
▁phosphatases	-11.3164
▁heatwaves	-11.3164
▁Kit	-11.3166
nResultsThe	-11.3167
▁Hop	-11.3168
▁2011	-11.317
TTN	-11.317
STAND	-11.3171
▁DiscussionThe	-11.3172
▁FindingsA	-11.3177
=5)	-11.3177
▁2014-19	-11.3179
▁reside	-11.3179
ns	-11.318
llocation	-11.3181
▁OST	-11.3181
▁inject	-11.3183
mplicon	-11.3185
▁204	-11.3186
domina	-11.3187
▁distances	-11.3187
lected	-11.319
▁labell	-11.3192
▁finally	-11.3192
▁2018-202	-11.3192
▁pau	-11.3192
▁Autoregressi	-11.3193
eza	-11.3195
▁Adjust	-11.3195
lence	-11.3196
ically	-11.3196
▁Cluster	-11.3201
Pathogen	-11.3203
2-5	-11.3204
▁viol	-11.3205
▁Goal	-11.3207
▁perip	-11.3207
469	-11.3207
▁rule	-11.3212
▁29%	-11.3212
▁LMICs	-11.3213
▁conclusive	-11.3215
▁HCMC	-11.3215
▁2.8	-11.3215
aking	-11.3215
▁Olyset	-11.3215
▁summer	-11.3215
▁ethic	-11.3217
TND	-11.3218
▁concept	-11.3219
▁PRNT	-11.322
▁interference	-11.3221
▁nerv	-11.3222
▁quantiles	-11.3222
▁burst	-11.3223
▁validat	-11.3226
▁President	-11.3228
1261	-11.3228
▁cleav	-11.323
▁hit	-11.323
▁AIRD	-11.3231
▁seroconvert	-11.3234
▁optimised	-11.3243
dominated	-11.3247
rl	-11.3249
▁exceeded	-11.3256
suicid	-11.3258
▁Vaccination	-11.326
17.7%	-11.3261
neutralization	-11.3261
▁43	-11.3267
▁allocat	-11.3267
▁payment	-11.3267
▁0.86	-11.3268
▁reads	-11.3271
▁east	-11.3271
osphoerythronate	-11.3271
▁Setting	-11.3271
amba	-11.3278
▁0.45	-11.3279
▁solu	-11.3281
▁lymphocytes	-11.3281
MBR	-11.3282
▁endpoints	-11.3282
▁bacter	-11.3291
▁Article	-11.3292
▁x	-11.3293
alaria	-11.3294
▁Delphi	-11.3294
▁formulation	-11.3299
▁Term	-11.3299
erto	-11.33
quite	-11.3304
27,	-11.3305
stratification	-11.3307
▁chi	-11.3307
▁summarise	-11.3307
▁0.89	-11.3308
▁closures	-11.3311
▁perfusion	-11.3312
eCCM	-11.3314
▁elucidated	-11.3315
EBR	-11.3321
quart	-11.3323
▁larvae	-11.3324
CCM	-11.3328
▁event	-11.3333
9.7%	-11.3336
its	-11.3336
think	-11.3336
▁transfusions	-11.3341
▁micronutrients	-11.3341
▁RCT	-11.3342
▁25%	-11.3346
▁infecti	-11.3347
▁0.24	-11.3348
▁experimentally	-11.3348
▁amodiaquine	-11.3351
▁recycl	-11.3352
▁physiologic	-11.3355
MethodsIn	-11.3356
panning	-11.3357
▁presentations	-11.3361
▁Rc	-11.3361
pa	-11.3361
▁(<	-11.3362
DTR	-11.3363
▁motile	-11.3364
▁Nam	-11.3365
ivariate	-11.3366
2.9%	-11.3367
Mosquito	-11.3367
▁photo	-11.3369
▁disadvantages	-11.3371
▁mRNAs	-11.3371
prM	-11.3372
=0.34	-11.3372
SEIR	-11.3372
▁Characteris	-11.3373
▁180-	-11.3376
vent	-11.3382
0.	-11.3383
▁Stand	-11.3384
549	-11.3387
RO	-11.3388
ortality	-11.3388
dona	-11.3388
position	-11.3392
▁ResultsOu	-11.3393
▁(17	-11.3393
.6)	-11.3394
▁oxid	-11.3395
tometry	-11.3398
▁prop	-11.3402
▁boosters	-11.3403
▁progressive	-11.3406
▁herd	-11.3408
▁broaden	-11.3413
▁retro	-11.3424
▁larvicide	-11.3428
aving	-11.3441
▁Ki	-11.3442
▁DHS	-11.3449
▁NI	-11.3452
▁52	-11.3452
23	-11.3452
IPV	-11.3458
▁According	-11.3458
inel	-11.3459
▁22.	-11.3463
▁transmissi	-11.3467
127	-11.3468
▁recipients	-11.347
azine	-11.347
▁57	-11.3472
▁ve	-11.3473
=2.5	-11.3481
emory	-11.3485
9.1%	-11.3485
▁differentiat	-11.3486
▁platforms	-11.3489
▁polymorphi	-11.349
west	-11.3495
▁2021)	-11.3496
timate	-11.3497
Rapi	-11.3498
ositive	-11.35
▁registers	-11.35
▁UC	-11.3506
41	-11.3508
▁Neu	-11.3509
▁retain	-11.3513
▁continents	-11.3513
▁fitt	-11.3517
▁1.8	-11.3517
▁SR	-11.3519
▁parameterize	-11.3521
▁dur	-11.3523
▁shape	-11.353
▁849	-11.3535
heart	-11.3541
omparison	-11.3549
alities	-11.3551
724	-11.3553
▁generations	-11.3561
=1.8	-11.3561
6.54	-11.3566
aged	-11.3568
▁sen	-11.3569
pies	-11.3573
▁Govern	-11.3579
▁prot	-11.3589
▁productiv	-11.3595
si	-11.3597
heli	-11.3598
▁clon	-11.3599
139	-11.3605
▁poten	-11.3607
▁put	-11.3608
90.	-11.3609
▁Protecti	-11.3609
▁Bu	-11.3619
ety	-11.3619
-35	-11.3624
TING	-11.3628
▁im	-11.363
▁depth	-11.3634
▁DT	-11.3636
ield	-11.364
bilit	-11.3644
classes	-11.3648
umb	-11.3652
▁(2.3	-11.3655
▁42.7	-11.366
am	-11.3662
▁Toward	-11.3664
61,000)	-11.3665
▁hydr	-11.3671
=0.10	-11.3677
▁18,	-11.3677
▁epicent	-11.3681
▁sun	-11.3682
▁summaryO	-11.3684
▁tre	-11.3686
▁partners	-11.3687
nding	-11.3692
}9%	-11.3696
▁ART	-11.37
gen	-11.3702
▁0.60	-11.3704
▁16.0	-11.3706
gam	-11.3708
31%)	-11.3708
▁scaled	-11.371
▁introductions	-11.3712
▁Systems	-11.3714
▁Pu	-11.3715
arge	-11.3718
▁born	-11.3722
vari	-11.3727
5.6%	-11.373
IN	-11.3734
▁Pb	-11.3735
PHD	-11.3735
▁favourabl	-11.3736
▁Su	-11.3756
pes	-11.3762
▁killed	-11.3763
5.9%	-11.3764
▁interl	-11.3765
places	-11.377
▁necessar	-11.3778
VA	-11.3793
unya	-11.3794
▁Reg	-11.3794
▁hepat	-11.3796
▁phenotypi	-11.3798
▁SIR	-11.38
▁generalis	-11.3801
ER	-11.3804
pped	-11.3812
▁leverag	-11.3833
rd	-11.384
por	-11.384
▁findingsW	-11.3843
94	-11.3845
▁78	-11.3856
▁Cr	-11.3858
▁Ni	-11.3863
▁pyr	-11.3868
▁Ka	-11.3869
▁car	-11.3871
hole	-11.3876
534	-11.3883
▁genotyp	-11.389
ising	-11.3893
lts	-11.3894
ti	-11.3896
localize	-11.3899
▁es	-11.3899
▁possibilit	-11.3906
487	-11.3908
tozoa	-11.3919
sible	-11.3921
=0.70	-11.3925
amastigote	-11.395
lico	-11.3951
▁Bit	-11.3956
▁Structure	-11.3963
▁BackgroundM	-11.3964
▁he	-11.3968
▁syndromes	-11.3971
▁sense	-11.3973
▁gravi	-11.3976
▁cyst	-11.3976
ented	-11.3976
▁4.6	-11.3977
▁AR	-11.3981
▁Bou	-11.3988
vity	-11.3992
▁inversion	-11.3998
55%	-11.4005
▁0.35	-11.4009
▁0.77	-11.4009
▁pharmac	-11.4012
hou	-11.4012
▁0.715	-11.4017
▁zon	-11.402
▁6.0	-11.4026
lav	-11.4027
upe	-11.4033
wed	-11.4034
596	-11.4038
▁91	-11.4046
tl	-11.4051
ologists	-11.4069
▁1{	-11.4079
▁274	-11.4082
unctional	-11.4087
▁pepti	-11.4091
bang	-11.4101
ORs	-11.4102
▁0.80	-11.4108
▁tho	-11.4126
po	-11.4142
▁epit	-11.4146
▁purchase	-11.4148
preced	-11.4149
▁Ye	-11.4155
▁extrapolate	-11.4156
=0.04	-11.4159
CC	-11.416
ogl	-11.4166
▁Ne	-11.4175
rogenit	-11.4192
ala	-11.4194
▁ways	-11.4195
▁predic	-11.4197
▁tend	-11.4198
▁hold	-11.4203
au	-11.421
▁hemorrhage	-11.4211
▁ba	-11.4228
▁expose	-11.4234
▁archi	-11.4241
66)	-11.4243
onuclea	-11.4243
▁mus	-11.4257
▁col	-11.4265
ltimately	-11.4274
locking	-11.4279
01-	-11.4279
▁mi	-11.4282
▁shar	-11.4296
4.9	-11.4302
▁fol	-11.4305
ately	-11.431
51	-11.4318
rop	-11.4319
▁Hor	-11.4322
.7)	-11.4326
▁visc	-11.4329
20)	-11.4331
▁stringen	-11.4336
37)	-11.4341
163	-11.4349
rogramme	-11.4357
TO	-11.4358
}0%	-11.4363
10-	-11.4365
▁applie	-11.4367
▁oppos	-11.4369
der	-11.4369
▁emerg	-11.438
sche	-11.4388
ci	-11.4398
By	-11.4414
▁(23	-11.4416
▁Associat	-11.4422
tensive	-11.4428
35)	-11.4438
▁survivors	-11.4439
▁2.2	-11.4439
▁manipulat	-11.4442
▁NG	-11.4451
RCT	-11.4454
ration	-11.4456
ollaborati	-11.446
▁Then	-11.4464
2,000	-11.4465
▁frameworks	-11.4466
▁sent	-11.4468
atural	-11.4471
pel	-11.4472
stry	-11.4473
▁Optim	-11.4484
All	-11.4484
4.2%	-11.4491
▁8,	-11.4495
▁Different	-11.4509
0.8%	-11.4517
▁indoors	-11.4525
72,	-11.4526
link	-11.4532
42%	-11.4533
▁(3)	-11.4534
▁TE	-11.4544
Section	-11.4545
sistant	-11.4547
ece	-11.4551
orthwest	-11.4554
eticulocyte	-11.4567
▁immun	-11.4571
UV	-11.4579
aggregation	-11.4581
▁St	-11.4592
BSTR	-11.4596
▁tw	-11.4604
55	-11.4605
▁prefer	-11.4615
emorrhagic	-11.4624
7.32	-11.4627
▁just	-11.4631
-97%	-11.4632
▁General	-11.4635
lation	-11.4636
126	-11.4642
lic	-11.4642
-10	-11.4647
▁abnormal	-11.4655
▁Mel	-11.4676
▁Invasi	-11.4685
85	-11.4688
▁attract	-11.4694
=1.3	-11.4706
▁(0.00	-11.4711
▁pla	-11.4712
38	-11.4717
4.4%)	-11.472
onversely	-11.4723
▁(1-	-11.4733
5.1%	-11.4737
▁heterogen	-11.4738
▁Correct	-11.4742
▁Prem	-11.4748
▁Subsequent	-11.4751
9.5%	-11.4752
▁102	-11.4761
estern	-11.4761
▁71	-11.4763
ls	-11.4771
vi	-11.4772
▁perme	-11.4775
▁(24	-11.4786
▁7.5	-11.4793
cumulat	-11.4794
2.4%)	-11.4794
▁172	-11.4799
▁pu	-11.4807
▁propel	-11.4809
istribution	-11.4814
▁travell	-11.4822
▁21,	-11.4827
▁morph	-11.4832
▁union	-11.4833
▁intr	-11.4873
ational	-11.4883
HC	-11.4911
54	-11.4919
RBC	-11.492
▁Serologic	-11.4934
▁Strateg	-11.4939
=0.9	-11.4953
DS	-11.4959
}2	-11.4971
▁die	-11.4975
epi	-11.4978
▁foo	-11.498
ass	-11.4987
rgency	-11.4987
78%	-11.4995
quality	-11.5003
=1)	-11.5006
4.8%)	-11.5006
▁6.5	-11.5007
HD	-11.5007
▁(195	-11.5016
▁Pr	-11.5026
4%,	-11.5028
▁Month	-11.503
▁(35	-11.5044
▁Medi	-11.5044
REN	-11.5061
tional	-11.5062
RA	-11.5066
▁port	-11.5104
▁Progress	-11.5107
▁(50	-11.5109
radic	-11.5127
ere	-11.5128
▁58	-11.5132
6.8%	-11.5142
temporally	-11.5149
6.0	-11.5161
.4%)	-11.5166
erum	-11.5177
▁Vi	-11.518
▁passe	-11.5182
▁ou	-11.5185
New	-11.5187
▁voluntar	-11.5192
500	-11.5193
ye	-11.5206
▁0.37	-11.5212
440	-11.5214
▁Nd	-11.5217
intra	-11.524
5.	-11.5245
▁94	-11.5248
ism	-11.5256
▁scalab	-11.526
alized	-11.5266
nternational	-11.5276
ents	-11.5276
,565	-11.5277
=0.09	-11.5282
gi	-11.5283
cceptability	-11.5284
ility	-11.5286
▁analyt	-11.5293
▁0.38	-11.5294
67%	-11.5297
93)	-11.5306
▁muta	-11.5321
DL	-11.5321
bet	-11.5324
▁Da	-11.5341
parasitemia	-11.5342
=1.1	-11.5342
omatic	-11.5349
▁(69	-11.5351
▁89%	-11.5354
view	-11.5365
dium	-11.5365
▁capabilit	-11.5369
▁Meta	-11.5377
▁mar	-11.5381
▁4,8	-11.5387
▁Inhibiti	-11.5391
=0.5	-11.5401
▁Homo	-11.5416
icate	-11.5429
▁83	-11.5429
▁vaccinations	-11.5441
AR	-11.5443
▁Sta	-11.5449
yltransferase	-11.546
PE	-11.5484
▁illustrat	-11.5484
▁formula	-11.5486
▁Ven	-11.5489
facto	-11.5499
▁(39.	-11.5502
▁7.2	-11.5514
▁comprise	-11.5523
tative	-11.5527
coil	-11.5531
ice	-11.5547
▁(30	-11.5547
ultivariate	-11.5553
▁prioritiz	-11.5561
/11	-11.5563
▁hear	-11.5579
dh	-11.5582
well	-11.5589
directly	-11.5591
▁16,	-11.5592
evere	-11.5594
▁Improve	-11.5608
health	-11.561
▁fat	-11.563
▁Analy	-11.5631
▁favour	-11.5641
▁Amazonia	-11.5648
▁big	-11.5649
▁get	-11.565
▁ubiquity	-11.5651
32,	-11.5659
▁hypothe	-11.5671
▁46	-11.5673
encod	-11.5711
umba	-11.5712
linke	-11.5718
▁CHA	-11.572
=3.	-11.5725
ides	-11.5728
4.9%	-11.5736
but	-11.5745
.5%	-11.5751
2-1.1	-11.5752
disease	-11.5756
▁persisten	-11.5767
otal	-11.5771
onal	-11.5772
▁ConclusionO	-11.5775
xposed	-11.5776
▁Per	-11.5787
SO	-11.5791
▁59	-11.5792
rval	-11.5794
oney	-11.5798
▁examin	-11.5799
aught	-11.5804
orr	-11.5804
which	-11.5808
7.46	-11.582
▁recip	-11.5827
▁202	-11.5832
▁({	-11.5835
art	-11.5835
bi	-11.585
cluster	-11.5852
1:	-11.5859
▁Arbovirus	-11.5867
▁hypothesise	-11.5867
321	-11.5867
▁CO	-11.5869
▁MethodsRe	-11.5873
▁modulat	-11.5877
▁distributions	-11.5884
▁compartment	-11.5889
blood	-11.5898
▁recurr	-11.5902
2.09	-11.5903
▁circula	-11.5905
lp	-11.5911
▁ConclusionW	-11.5914
▁hea	-11.5915
▁31%	-11.5916
exame	-11.5916
102	-11.5918
5.2%)	-11.5919
EST	-11.5921
hu	-11.5924
resistance	-11.5924
▁Tes	-11.5927
imulations	-11.5928
lar	-11.5932
▁matche	-11.5937
toxic	-11.5937
▁negativ	-11.5938
chi	-11.5944
ICE	-11.595
▁sign	-11.5952
▁declar	-11.5952
public	-11.5953
▁RES	-11.5958
▁urbaniz	-11.5959
nyl	-11.5966
region	-11.5967
port	-11.5967
90%	-11.5971
VE	-11.5972
▁Mete	-11.5979
▁attribute	-11.5981
:30	-11.5982
point	-11.5984
4;	-11.5995
▁probe	-11.5998
▁interacti	-11.5999
found	-11.6004
8.6%	-11.6005
▁MO	-11.6007
anding	-11.6014
Ox	-11.602
▁standardis	-11.6022
perma	-11.6025
3.9%	-11.603
=0.005	-11.6036
su	-11.6036
▁implicate	-11.6038
hypnozoite	-11.6039
8-45	-11.6041
significance	-11.6043
identified	-11.6047
bank	-11.6053
▁influen	-11.6054
assays	-11.6058
▁FindingsThi	-11.606
prevent	-11.6062
23,	-11.6065
cular	-11.607
efficacy	-11.6071
.5	-11.6075
liver	-11.6081
morbidity	-11.6081
pandemic	-11.6083
cting	-11.6084
SIS	-11.6087
▁Colle	-11.6089
DR	-11.6099
▁87	-11.6101
inclusive	-11.6104
LLINEUP	-11.6109
QAACTs	-11.6109
men	-11.6109
operation	-11.611
essential	-11.6111
60%	-11.6113
drug	-11.6114
IgG	-11.6114
▁3.4	-11.6121
▁evolv	-11.6121
microhaplotype	-11.6122
▁corroborate	-11.6125
▁interview	-11.6127
POC	-11.6132
173	-11.6133
tolerated	-11.6133
epidemiological	-11.6138
reporting	-11.6139
restrict	-11.6144
Term	-11.6144
Delphi	-11.6144
perfusion	-11.6147
nutrition	-11.6148
▁Quanti	-11.6148
neutraliz	-11.6148
necessary	-11.6148
course	-11.6149
joint	-11.615
%]	-11.615
amodiaquine	-11.6152
border	-11.6152
CHWs	-11.6154
GWAS	-11.6155
ney	-11.6155
series	-11.6157
administered	-11.6157
permethrin	-11.6158
stephensi	-11.6158
ATSB	-11.6158
NTDs	-11.6158
MMV	-11.6159
Blood	-11.6159
=0.02	-11.6159
LSTM	-11.6159
Tfh	-11.616
EBV	-11.616
boost	-11.616
learning	-11.6162
schedule	-11.6166
▁1,5	-11.6166
typhoid	-11.6166
iCCM	-11.6166
Covid	-11.6169
sophil	-11.6169
▁giv	-11.6169
vertebrate	-11.6169
-34	-11.6169
Cell	-11.617
availability	-11.617
tolerance	-11.6171
PMC	-11.6171
SNT	-11.6173
▁conduc	-11.6173
▁0.9	-11.6173
First	-11.6177
SSA	-11.6178
hrp	-11.6182
Care	-11.6184
SE	-11.6188
▁ME	-11.6188
label	-11.6189
merozoites	-11.619
▁willing	-11.6198
▁(59	-11.6199
home	-11.62
▁coincid	-11.6203
bite	-11.6203
house	-11.6206
▁Ch	-11.6214
▁Count	-11.6215
max	-11.6222
edge	-11.6224
allelic	-11.6225
HO	-11.6231
event	-11.6234
tri	-11.624
iving	-11.6244
iting	-11.6248
membrane	-11.6252
▁Institut	-11.6258
PM	-11.6264
▁confi	-11.6266
▁insignificant	-11.6267
▁locate	-11.6272
plasm	-11.6275
▁princip	-11.6277
▁amplifie	-11.6278
lipid	-11.6287
▁88.	-11.6292
Vector	-11.6292
▁cleave	-11.6294
▁valid	-11.6297
ector	-11.6298
loss	-11.6301
▁Use	-11.6302
▁2.9	-11.6303
▁lifestyle	-11.6305
▁concordan	-11.6308
▁archetype	-11.6319
▁bottleneck	-11.632
▁phosphatase	-11.632
▁heatwave	-11.632
▁horizon	-11.632
▁citation	-11.6321
sequencing	-11.6322
▁originate	-11.6322
▁Challenge	-11.6323
▁gamete	-11.6323
▁window	-11.6324
▁preprint	-11.6324
▁immunoassay	-11.6325
▁manifestation	-11.6326
▁gather	-11.6326
▁measle	-11.6328
▁neighborhood	-11.6328
▁deletion	-11.6328
425	-11.633
▁egg	-11.6331
▁Ga	-11.6331
▁outlet	-11.6332
▁nowcast	-11.6333
▁viru	-11.6335
mediat	-11.6336
▁NPI	-11.6336
FD	-11.634
creening	-11.6342
▁recommendation	-11.6343
nMethodsA	-11.6344
▁initiative	-11.6346
social	-11.6348
▁aspect	-11.6349
▁MethodsD	-11.6351
▁administer	-11.6352
UE	-11.6352
▁situat	-11.6354
ican	-11.6358
▁0.002	-11.6363
▁(0.2	-11.6371
ginal	-11.6372
▁66	-11.6372
44	-11.6372
estimation	-11.6375
▁spo	-11.6376
vaccinate	-11.638
▁Specific	-11.6382
▁ConclusionS	-11.6384
Ag	-11.6387
▁Similar	-11.6393
▁Em	-11.6397
▁article	-11.6398
,000)	-11.6398
▁concurrent	-11.6399
▁catch	-11.6404
▁Open	-11.6405
▁arriv	-11.6405
▁(0.17	-11.6405
emperature	-11.6408
▁task	-11.6408
erformance	-11.6408
▁Reduc	-11.6409
▁Biotech	-11.6412
ort	-11.6413
▁AM	-11.6413
▁eco	-11.6414
irculation	-11.6414
▁knock	-11.6415
▁floo	-11.6415
▁4.4	-11.6416
alciparum	-11.6418
mmature	-11.6418
▁Utiliz	-11.6419
▁prospect	-11.6419
▁reposit	-11.6419
hemoprevention	-11.6419
▁leuc	-11.6419
▁schizo	-11.6419
hronic	-11.642
azard	-11.642
latelet	-11.642
▁fingerpri	-11.6421
obili	-11.6422
ithub	-11.6422
▁traffic	-11.6422
▁Domin	-11.6422
Phosphate	-11.6423
▁disulfide	-11.6423
▁stiffening	-11.6423
Unicamp	-11.6423
avanna	-11.6423
convalescence	-11.6423
cysticercosis	-11.6423
kappa	-11.6423
ohdsi	-11.6423
▁Actellic	-11.6423
▁Anxiety	-11.6423
▁Bamako	-11.6423
▁Behaviour	-11.6423
▁Belgium	-11.6423
▁Blantyre	-11.6423
▁Campaigns	-11.6423
▁Chokwe	-11.6423
▁Correlation	-11.6423
▁Djibouti	-11.6423
▁Duffy	-11.6423
▁Electronic	-11.6423
▁Epstein	-11.6423
▁GPRG	-11.6423
▁HEALTH	-11.6423
▁Iguacu	-11.6423
▁Islamabad	-11.6423
▁Kinondoni	-11.6423
▁Measles	-11.6423
▁Metropoli	-11.6423
▁Netherlands	-11.6423
▁Piura	-11.6423
▁PlasmoCount	-11.6423
▁Prophet	-11.6423
▁Qdenga	-11.6423
▁Recife	-11.6423
▁School	-11.6423
▁Shanghai	-11.6423
▁Software	-11.6423
▁Sussundenga	-11.6423
▁Wuhan	-11.6423
▁alleviati	-11.6423
▁anthropophilic	-11.6423
▁appointments	-11.6423
▁biopsies	-11.6423
▁chicken	-11.6423
▁coagulation	-11.6423
▁coluzzii	-11.6423
▁decipher	-11.6423
▁dihydrochloride	-11.6423
▁elongated	-11.6423
▁energy	-11.6423
▁fosmidomycin	-11.6423
▁golgicid	-11.6423
▁iodine	-11.6423
▁leprosy	-11.6423
▁macrolide	-11.6423
▁nanoinjection	-11.6423
▁neutropenia	-11.6423
▁phylodynamic	-11.6423
▁porphyria	-11.6423
▁pseudotype	-11.6423
▁quinine	-11.6423
▁rhythm	-11.6423
▁science	-11.6423
▁tagging	-11.6423
▁territories	-11.6423
▁thrombo	-11.6423
▁tropism	-11.6423
ANOVA	-11.6423
Biocredit	-11.6423
FDMN	-11.6423
dougou	-11.6423
▁Practice	-11.6423
▁elusive	-11.6423
▁tandem	-11.6423
GLMM	-11.6423
iTRAQ	-11.6423
▁Markov	-11.6423
▁Pilot	-11.6423
▁fraud	-11.6423
▁glutathione	-11.6423
▁mentorship	-11.6423
▁voltage	-11.6423
▁2012-2014	-11.6423
▁marrow	-11.6423
homeodomain	-11.6423
▁biosensor	-11.6423
▁deformability	-11.6423
▁description	-11.6423
▁Pathway	-11.6423
▁Susceptible	-11.6423
▁Tainan	-11.6423
Muleba	-11.6423
▁Animal	-11.6423
▁divergence	-11.6423
▁Panama	-11.6423
▁afflict	-11.6423
▁dawn	-11.6423
CBHI	-11.6423
▁Ocean	-11.6423
▁Policy	-11.6423
▁Permanet	-11.6423
▁incubat	-11.6423
▁narrow	-11.6423
▁permissive	-11.6423
▁vulnerabilities	-11.6423
itonavir	-11.6423
▁gliding	-11.6423
▁Service	-11.6423
▁2013-2014	-11.6423
▁download	-11.6423
▁porph	-11.6423
▁prominent	-11.6423
▁ENU	-11.6423
▁horses	-11.6423
▁satisf	-11.6423
▁mitosis	-11.6423
▁rainforest	-11.6423
▁(18.8%)	-11.6423
▁emergencies	-11.6423
▁educators	-11.6423
▁fresh	-11.6423
▁TBEV	-11.6423
▁prevail	-11.6423
▁Innovati	-11.6423
▁Membrane	-11.6423
▁transient	-11.6423
▁Antigen	-11.6423
NMEP	-11.6423
▁trafficking	-11.6423
▁decomposition	-11.6423
▁feedback	-11.6423
▁Yemen	-11.6423
aminase	-11.6423
▁tanks	-11.6423
▁figures	-11.6423
▁flexibility	-11.6423
▁envelopment	-11.6423
▁hemizygo	-11.6423
▁eligibility	-11.6423
▁weakness	-11.6423
bulin	-11.6424
▁underpin	-11.6424
▁demography	-11.6424
▁painful	-11.6424
▁possibilities	-11.6424
▁sheets	-11.6424
▁belief	-11.6424
▁overconsumption	-11.6424
▁boys	-11.6424
▁tablets	-11.6424
▁83.4%	-11.6424
▁Space	-11.6424
▁diarrhoea	-11.6424
▁upload	-11.6424
▁attendants	-11.6424
▁healers	-11.6424
▁equipment	-11.6424
▁transfection	-11.6424
▁phylogenies	-11.6424
▁latter	-11.6424
▁ophthalmoscop	-11.6424
▁Square	-11.6424
▁placebo	-11.6424
▁Clinician	-11.6424
▁mobilization	-11.6424
▁spher	-11.6424
▁macro	-11.6424
=0.026)	-11.6425
▁Neutrali	-11.6425
▁GDP	-11.6425
▁timeframe	-11.6425
GPS	-11.6425
1,534	-11.6425
▁swab	-11.6425
=0.018)	-11.6425
▁germ	-11.6425
▁synthesize	-11.6425
▁Corp	-11.6425
▁Excel	-11.6425
▁apex	-11.6425
▁fetal	-11.6425
▁Lagos	-11.6425
▁affordability	-11.6426
▁(44%)	-11.6426
▁extr	-11.6426
DASS	-11.6426
▁ventric	-11.6426
▁glycoprotein	-11.6426
ISH	-11.6426
▁8.8%	-11.6426
▁2022-2023	-11.6426
▁durability	-11.6426
95%:3	-11.6426
HPPD	-11.6427
▁Infer	-11.6427
▁Agency	-11.6428
▁(11%)	-11.6428
reduct	-11.6428
▁shops	-11.6428
▁FIB	-11.6428
▁zygote	-11.6428
▁caution	-11.6428
▁modules	-11.6428
▁fuel	-11.6428
culo	-11.6428
faceted	-11.6429
▁Block	-11.6429
▁DHIS	-11.6429
▁property	-11.6429
▁plateau	-11.6429
▁wildlife	-11.6429
▁Whereas	-11.6429
▁Fais	-11.6429
▁univariate	-11.6429
▁ALT	-11.643
▁modifiers	-11.643
ARIA	-11.643
▁datapoints	-11.643
uyu	-11.643
▁lethality	-11.6431
▁rigorous	-11.6431
▁conven	-11.6431
nogen	-11.6431
Pan	-11.6432
▁Endo	-11.6432
5,600	-11.6432
▁cryo	-11.6432
Value	-11.6432
▁exert	-11.6432
▁inherent	-11.6433
▁37,000	-11.6433
▁lifecycle	-11.6433
▁TRIs	-11.6433
▁undermine	-11.6433
▁reposition	-11.6433
▁Kara	-11.6433
▁10.8%	-11.6434
▁IntroductionH	-11.6434
▁GAP	-11.6434
▁ancestry	-11.6434
▁2006-20	-11.6435
Diptera	-11.6435
▁1969	-11.6435
▁attainment	-11.6435
▁modifiable	-11.6435
▁ORF	-11.6435
▁immunization	-11.6435
▁2006	-11.6436
▁modular	-11.6436
▁node	-11.6436
▁segmentation	-11.6437
▁supplementation	-11.6437
=1.78	-11.6438
▁urbanistic	-11.6438
▁overestimated	-11.6438
zia	-11.6438
92.8%	-11.6439
rivate	-11.6439
▁Coast	-11.6439
▁perturbation	-11.644
▁Capi	-11.644
▁intersection	-11.644
agong	-11.644
92.5%	-11.6441
▁Linea	-11.6442
▁advancement	-11.6443
▁cynomolg	-11.6444
SRCD	-11.6444
▁9.1	-11.6444
haracteristics	-11.6445
▁transaction	-11.6445
▁cues	-11.6445
▁motivation	-11.6445
utoregressi	-11.6446
▁raw	-11.6447
▁(15%)	-11.6447
▁y	-11.6447
▁journals	-11.6447
▁leukocytes	-11.6447
▁(76%)	-11.6448
urope	-11.6448
▁0.96	-11.6448
▁sustainability	-11.6449
▁1.07	-11.6449
raction	-11.6449
▁pupae	-11.6449
▁Variation	-11.6449
▁audit	-11.645
;]5	-11.645
▁Fund	-11.6452
▁Addition	-11.6452
=27	-11.6453
▁arthritis	-11.6453
▁Similarly	-11.6454
▁downregulated	-11.6454
ARD	-11.6454
▁epiderm	-11.6454
▁vita	-11.6454
▁ConclusionC	-11.6455
▁virtu	-11.6455
▁csp	-11.6455
lateau	-11.6456
PEV	-11.6457
▁2,0	-11.6457
▁creation	-11.6458
=3.27	-11.6459
actate	-11.646
udicious	-11.646
▁preferential	-11.6461
▁concer	-11.6461
▁ATP	-11.6461
▁fluctuation	-11.6461
pproximate	-11.6461
Peptide	-11.6461
▁diet	-11.6462
1.2%	-11.6462
▁inequalities	-11.6462
▁overdose	-11.6463
4.64	-11.6464
}6%	-11.6464
▁abstract	-11.6466
▁(11.1	-11.6466
EFV	-11.6467
▁consistency	-11.6467
ished	-11.6467
▁87%	-11.6468
kb	-11.6469
AK	-11.6471
FDA	-11.6472
▁25{	-11.6473
▁247	-11.6474
clusion	-11.6477
▁Lockdown	-11.6477
▁equine	-11.6477
▁6,3	-11.6477
▁sensor	-11.6478
MCV	-11.6479
▁virological	-11.6479
eroconversion	-11.6479
▁immunog	-11.6479
▁ahead	-11.648
Alpha	-11.648
alidation	-11.6481
CNN	-11.6481
▁researcher	-11.6483
apan	-11.6483
▁0.74	-11.6483
10-12	-11.6484
▁formulate	-11.6485
▁Randomized	-11.6485
tronic	-11.6486
▁Importance	-11.6486
▁2.55	-11.6487
▁ticks	-11.6488
▁(0-1-6	-11.6488
▁scientists	-11.6489
▁settlements	-11.6489
▁derivatives	-11.6489
▁cutoffs	-11.6489
))	-11.6489
ker	-11.649
=0.003)	-11.649
▁CKD	-11.6491
IRC	-11.6491
▁CAV	-11.6491
▁NMFI	-11.6491
▁tetanus	-11.6492
▁Search	-11.6492
▁hmmIBD	-11.6492
▁physically	-11.6492
▁Loreto	-11.6492
▁augment	-11.6492
▁Limitations	-11.6492
▁160	-11.6494
aba	-11.6494
▁Country	-11.6495
rror	-11.6495
▁Epi	-11.6495
▁substrate	-11.6496
▁Bioassay	-11.6497
AFI	-11.6498
▁bond	-11.6498
▁PPR	-11.6498
▁LMIC	-11.6499
▁Dro	-11.6499
▁PVD	-11.65
▁thermo	-11.6502
▁cloth	-11.6502
▁consultation	-11.6502
▁extracts	-11.6503
5-14	-11.6503
lactat	-11.6505
▁ResultsBase	-11.6506
▁THD	-11.6506
▁PER	-11.6507
▁mandat	-11.6507
▁inaccurate	-11.6508
EIP	-11.6509
▁91%	-11.6509
▁0.91	-11.6509
▁CCC	-11.651
▁deficit	-11.651
pap	-11.6511
vate	-11.6511
▁losses	-11.6512
▁untreated	-11.6512
▁1.92	-11.6514
SSU	-11.6514
▁hot	-11.6516
▁BTMs	-11.6516
▁upper	-11.6517
▁ITS	-11.6519
▁aware	-11.652
▁Difference	-11.652
▁Reduction	-11.6521
▁cef	-11.6523
item	-11.6524
▁empirically	-11.6525
▁mining	-11.6527
▁citations	-11.6527
itant	-11.6528
▁gathering	-11.6528
▁tables	-11.6528
VAR	-11.6528
70-1	-11.6529
3/3	-11.6529
▁AT	-11.6529
▁nodes	-11.653
▁37%	-11.653
▁tasks	-11.6531
▁11.5%	-11.6531
▁(70%)	-11.6531
CDSA	-11.6531
DOR	-11.6532
▁Post	-11.6532
▁ii	-11.6533
▁Ku	-11.6534
845	-11.6536
▁ConclusionsS	-11.6537
▁popula	-11.6538
▁irr	-11.6539
▁Aden	-11.654
▁concordant	-11.654
phen	-11.654
UHC	-11.6541
los	-11.6541
▁ASR	-11.6542
iger	-11.6543
▁insomnia	-11.6543
▁0.000)	-11.6544
oids	-11.6544
1979	-11.6545
;]1	-11.6547
▁assembled	-11.6552
iker	-11.6553
▁collated	-11.6553
▁Concurrent	-11.6554
▁traits	-11.6554
▁decomp	-11.6554
▁aff	-11.6555
3-6	-11.6557
▁agar	-11.6557
▁ML	-11.6558
▁plasm	-11.6558
0.004	-11.656
▁ideas	-11.6562
▁reactivat	-11.6562
sation	-11.6564
▁premature	-11.6565
DTN	-11.6571
▁strict	-11.6573
▁IZP	-11.6573
ffs	-11.6574
▁workflows	-11.6574
▁versa	-11.6574
stone	-11.6575
pread	-11.6577
▁barcodes	-11.6577
86%	-11.6577
iense	-11.6578
ulldo	-11.658
MMC	-11.6581
▁label	-11.6581
ferential	-11.6582
▁homology	-11.6583
▁(21	-11.6584
3061	-11.6586
▁Sch	-11.6587
▁DTA	-11.659
688	-11.6593
▁lipop	-11.6598
▁Fin	-11.66
emark	-11.66
▁supportive	-11.6601
ensation	-11.6601
▁Rot	-11.6601
▁pyre	-11.6602
▁utilize	-11.6604
▁kits	-11.6605
▁KEMRI	-11.6605
▁38	-11.6605
▁promastigote	-11.6606
▁MOR	-11.6608
otoxic	-11.6608
▁sexes	-11.6609
▁informant	-11.6611
▁GBS	-11.6615
▁macrophages	-11.6617
ography	-11.6621
protecti	-11.6626
▁simulates	-11.6627
BHD	-11.6627
▁DV	-11.6636
tomati	-11.6637
alogue	-11.6643
▁His	-11.6643
ha	-11.6645
▁AD	-11.6646
▁fluctuat	-11.6646
▁ECM	-11.6647
Dan	-11.6648
20-50	-11.6649
▁endosome	-11.6651
▁RN	-11.6653
▁[0.7	-11.6653
▁66.7%	-11.666
Crimea	-11.6661
▁fog	-11.6661
-0.8	-11.6662
auti	-11.6662
▁(1.6	-11.6663
▁advocat	-11.6665
7,000	-11.6669
▁Trac	-11.6671
▁glass	-11.6672
Po	-11.6672
lu	-11.6675
▁56	-11.6677
▁dev	-11.6678
▁concluded	-11.6679
Americans	-11.668
75)	-11.6689
masked	-11.6693
ovirus	-11.6695
▁repellents	-11.6702
▁investments	-11.6703
flux	-11.6705
nConclusionThe	-11.6707
▁gametes	-11.6708
OD	-11.6712
▁17.8	-11.6712
25-	-11.6712
▁168	-11.6715
-995	-11.6718
lly	-11.6721
▁14-	-11.6727
▁bead	-11.6727
MoH	-11.6728
▁Thirt	-11.6729
=0.05	-11.6729
patial	-11.6737
▁Sul	-11.6738
▁toxic	-11.6742
▁coded	-11.6743
▁CE	-11.6745
▁88	-11.6745
▁(100	-11.6747
▁DIS	-11.6749
▁workplace	-11.675
▁tolerated	-11.6751
ale	-11.6752
▁0.92	-11.6755
HIS	-11.6756
▁bo	-11.6757
1.25)	-11.676
▁656	-11.6763
ophils	-11.6764
▁pure	-11.6768
Seasonal	-11.6768
▁Mul	-11.6769
redness	-11.6771
ovascula	-11.6778
grant	-11.6783
▁cut	-11.6786
▁9.9	-11.6786
▁mammals	-11.6789
▁HC	-11.679
▁equivalents	-11.679
▁Tests	-11.6795
dence	-11.6798
mend	-11.6804
▁stressor	-11.6805
▁BackgroundW	-11.6807
▁<0.05	-11.6815
asone	-11.6818
96.7%)	-11.6821
▁Mus	-11.6822
▁methodological	-11.6826
gencies	-11.6826
▁74%	-11.6827
▁pairs	-11.6831
▁Inde	-11.6832
▁(95	-11.6832
▁Like	-11.6833
qui	-11.6835
helia	-11.6837
▁CrI	-11.6837
▁bar	-11.6838
▁appreciated	-11.6839
▁158	-11.6839
▁resolutions	-11.684
TED	-11.6841
▁dependenc	-11.6843
demographics	-11.6864
▁span	-11.6866
▁ru	-11.6866
OLD	-11.6867
▁tRNA	-11.6873
▁Fun	-11.6875
▁mine	-11.6876
kness	-11.6879
rantin	-11.6882
atabase	-11.6883
=0.2	-11.6885
HI	-11.6885
▁concentrat	-11.6887
olu	-11.6888
▁1.17	-11.6889
Trials	-11.6891
▁tra	-11.6892
▁Men	-11.6892
=0.011	-11.6892
4,8	-11.6898
tron	-11.6901
fit	-11.6906
▁Ox	-11.6907
afen	-11.691
3.2	-11.6912
21%	-11.6912
▁immuniz	-11.6913
aminoquinolines	-11.6919
▁406	-11.6925
▁schistosomes	-11.6926
▁declare	-11.6929
▁Ethic	-11.693
-98	-11.6931
▁Cycl	-11.6937
▁county	-11.694
▁SNP	-11.6946
260	-11.6946
▁TO	-11.6949
transpos	-11.6949
▁60-80	-11.6951
▁Influen	-11.6957
▁vis	-11.6959
Study	-11.696
▁alpha	-11.6966
ol	-11.6967
1-3	-11.6971
1-4	-11.6972
▁li	-11.6974
arning	-11.6979
caca	-11.6981
▁ResultsThi	-11.6984
▁conservati	-11.6988
▁85%	-11.6988
strain	-11.6989
adoxi	-11.6997
▁rooms	-11.6999
▁monitored	-11.7001
rane	-11.7002
▁Af	-11.7005
petiti	-11.7006
(6	-11.7007
▁(89.	-11.7017
17,	-11.7028
▁regionally	-11.703
valuation	-11.703
▁fans	-11.7032
-0.99	-11.7036
▁Mont	-11.7039
tested	-11.7045
eterogeneity	-11.7045
icular	-11.7047
▁rheumato	-11.705
otropic	-11.7052
▁5,2	-11.7056
.59)	-11.7057
▁fung	-11.7058
lus	-11.7059
/14	-11.7063
▁influ	-11.7074
▁islands	-11.7075
956	-11.7079
▁Equ	-11.7084
▁spann	-11.7086
ases	-11.7089
▁2005	-11.7091
inity	-11.7094
pyr	-11.7103
▁(67	-11.7103
▁Imag	-11.7105
▁typed	-11.7106
▁rhe	-11.7121
6.9%	-11.7122
▁hypothes	-11.7126
▁analyser	-11.7126
iji	-11.7131
▁recapitulate	-11.7133
Rt	-11.7138
▁reco	-11.7144
▁behaviours	-11.7147
▁Cy	-11.7151
AG	-11.7157
layer	-11.7158
▁(22	-11.7158
9.2%	-11.7162
etection	-11.717
▁meals	-11.7172
▁rises	-11.7173
=0.04)	-11.7184
▁75	-11.7186
▁[0.	-11.7191
lay	-11.7199
▁Ra	-11.7199
015)	-11.7203
▁342	-11.7205
ox	-11.7211
Characterization	-11.7215
▁nano	-11.7216
24)	-11.7221
▁original	-11.7227
utum	-11.7228
ancer	-11.7228
muscul	-11.7232
▁1.01-1.	-11.7233
▁dono	-11.7242
ackgroundMalaria	-11.7245
▁Mz	-11.7247
▁PM	-11.725
▁titr	-11.7253
▁ResultsB	-11.7253
10)	-11.7254
▁(61.	-11.7254
▁BackgroundU	-11.7256
achine	-11.7259
▁198	-11.7262
▁foll	-11.7262
LE	-11.7266
lock	-11.7274
nent	-11.728
uang	-11.7282
valent	-11.7287
▁former	-11.7293
▁environmentally	-11.7301
▁collaps	-11.7302
990	-11.7305
▁collaborat	-11.7315
ise	-11.732
ari	-11.732
▁Vari	-11.7322
ggest	-11.7323
Infected	-11.7323
▁2022)	-11.7326
6{	-11.7327
▁1.20	-11.7332
did	-11.7337
eterminants	-11.7339
ehydrogenase	-11.7348
mbia	-11.7355
▁inactive	-11.7356
80%)	-11.7358
▁18-2	-11.7372
concept	-11.7378
▁1,6	-11.738
▁Ver	-11.7381
--	-11.7381
hip	-11.7383
lipop	-11.7384
.1%)	-11.7386
-2.	-11.7392
mon	-11.7394
▁CY	-11.7398
271	-11.7416
3.5%)	-11.7429
construction	-11.7438
/-}2	-11.7441
PMD	-11.7443
02	-11.7446
665	-11.7452
IU	-11.746
lapse	-11.746
tor	-11.7463
8{	-11.7463
▁Interpretations	-11.7471
▁calculate	-11.7478
▁411	-11.7479
▁AN	-11.7489
-23	-11.7493
13.4%	-11.7497
coronaviruses	-11.751
▁amoebi	-11.7519
TT	-11.7522
▁1.04	-11.7528
-2.3	-11.7531
mi	-11.7532
serve	-11.7532
6.4%	-11.7534
▁25.	-11.7546
mic	-11.7552
)]	-11.7552
=1.4	-11.7552
hod	-11.7554
▁<1	-11.7561
▁Char	-11.7562
icroscopy	-11.7565
9-	-11.7566
ara	-11.7567
307	-11.757
ind	-11.7571
▁72%	-11.7575
▁ConclusionsW	-11.759
▁Observ	-11.7591
611	-11.7598
2.3%)	-11.7603
▁37.	-11.7611
19)	-11.7616
ath	-11.763
.8%)	-11.7645
recedes	-11.7645
▁fr	-11.7649
era	-11.766
raining	-11.7665
▁Sample	-11.7666
▁Neg	-11.7672
687	-11.7673
▁idea	-11.7676
▁inequalit	-11.7678
▁devo	-11.7682
▁specialis	-11.7683
52,	-11.7685
▁table	-11.7686
.51%	-11.7693
▁comput	-11.7693
▁bu	-11.7703
somnia	-11.7706
▁(73.	-11.7708
▁shee	-11.7711
▁predi	-11.7715
,244	-11.772
▁109	-11.7735
rate	-11.7736
hal	-11.7741
▁0.34	-11.7756
▁(57	-11.7759
ef	-11.7763
aye	-11.7765
gan	-11.7773
▁NC	-11.7791
▁Tai	-11.7792
▁539	-11.7801
▁eas	-11.7811
▁(18.5	-11.7812
▁03-	-11.7831
▁microscope	-11.7835
itness	-11.784
▁Cou	-11.7841
▁section	-11.786
EWEs	-11.7863
▁hemat	-11.7864
▁Kou	-11.7866
▁viremi	-11.7868
=0	-11.7876
▁1.09-1.	-11.7884
▁prioritise	-11.7886
▁(16	-11.7903
nA	-11.7906
▁bl	-11.7908
;]40	-11.792
ummaryIn	-11.7924
▁Gam	-11.7931
▁Conf	-11.7938
▁(1.1	-11.7942
iagnosis	-11.7943
tes	-11.7953
ocal	-11.796
AST	-11.7967
itable	-11.7972
productively	-11.7975
900	-11.7978
ps	-11.7991
aster	-11.7995
▁1,14	-11.7996
▁ju	-11.7997
▁(32	-11.8007
▁Mini	-11.8012
▁aging	-11.8019
1.1	-11.8021
hydration	-11.8022
regnant	-11.8022
7.4%	-11.8037
72	-11.8043
▁throughput	-11.8044
}3	-11.8044
fr	-11.8058
ontrolled	-11.8067
iremia	-11.8071
▁5.9	-11.8077
▁MethodsI	-11.8079
=0.4	-11.8103
379	-11.8105
▁313	-11.8113
=2.	-11.8116
▁0.006	-11.8127
▁Fro	-11.8128
}7	-11.8131
aemoglobin	-11.8133
/21	-11.814
▁151	-11.8142
▁[1	-11.8152
ECM	-11.8152
keep	-11.8154
oung	-11.8159
yes	-11.8162
CRTs	-11.8168
tensi	-11.8179
▁ti	-11.8181
▁equip	-11.8185
▁sync	-11.8187
▁0.01)	-11.8188
▁ignore	-11.8195
▁amplif	-11.82
inc	-11.8237
▁Res	-11.8242
▁(69.	-11.8257
surance	-11.8262
▁consolidate	-11.8266
/-}8	-11.8267
▁grade	-11.8267
=16	-11.8274
▁bioma	-11.8287
lots	-11.8304
oinformatic	-11.8304
27.8	-11.8311
73,	-11.8313
▁onto	-11.8313
108	-11.8317
6.1%	-11.8318
-1.94	-11.8337
la	-11.8344
tory	-11.8344
▁PA	-11.835
13,	-11.836
Base	-11.8373
Ma	-11.8377
spir	-11.8379
sts	-11.8384
ith	-11.8387
006	-11.839
13)	-11.8406
▁BA	-11.8413
ain	-11.8414
1]	-11.8415
PSL	-11.8418
08	-11.8429
▁Mad	-11.8433
▁ke	-11.8437
sate	-11.8441
▁incom	-11.8471
▁5-14	-11.8484
res	-11.8484
=1.6	-11.8487
0.3%	-11.8497
=12	-11.8506
=1.5	-11.8508
table	-11.8525
angio	-11.8532
j	-11.8532
▁worked	-11.8544
fied	-11.8553
.66	-11.8557
quara	-11.8558
nMethodsW	-11.8559
▁17,	-11.8564
og	-11.8566
▁197	-11.8567
▁1.58	-11.8571
1/2	-11.8586
▁epi	-11.8602
▁disaggregat	-11.861
CS	-11.8629
▁0.055	-11.864
Non	-11.8642
0.24	-11.8647
▁remodel	-11.8647
South	-11.8649
call	-11.8649
▁Plas	-11.8659
▁po	-11.8664
-69	-11.8681
fatal	-11.8683
are	-11.8691
0.48	-11.8693
uted	-11.8696
▁Lo	-11.8708
=5.	-11.8713
dL	-11.8718
RP	-11.8733
4.3%	-11.8733
▁pharmaco	-11.8757
lat	-11.8762
▁Numer	-11.8766
=10	-11.8783
1.27)	-11.8794
limination	-11.8799
IR	-11.8799
▁aggregate	-11.8801
white	-11.8802
1.13,	-11.8804
▁commit	-11.8819
149	-11.8823
self	-11.8829
MAL	-11.883
▁ObjectivesTh	-11.885
ught	-11.8853
informatic	-11.8853
▁1.38	-11.886
▁impede	-11.886
▁gametocyto	-11.8879
DI	-11.888
2.6%)	-11.8885
▁pron	-11.8892
yon	-11.8892
loses	-11.8903
0.64	-11.8904
AT	-11.8908
lies	-11.8912
bilirubinaemia	-11.8917
▁29.	-11.8917
ngue	-11.892
ceeded	-11.8934
362,	-11.8949
16%	-11.8957
▁(1.	-11.8962
▁Associate	-11.8969
-0.9	-11.8972
▁neutralize	-11.8973
▁suspen	-11.8982
▁confound	-11.8983
2.46	-11.8984
▁(26	-11.8991
1.9%)	-11.9004
▁85	-11.9005
ordin	-11.9005
31)	-11.9014
One	-11.9016
9.6%)	-11.9028
▁balanc	-11.9047
▁4,	-11.9056
04	-11.9056
AGE	-11.9058
▁MI	-11.9059
▁DE	-11.9083
nance	-11.909
act	-11.909
aps	-11.9098
nkana	-11.9105
termittent	-11.9106
▁Cha	-11.911
▁ask	-11.9111
▁Cru	-11.9115
▁3.6	-11.913
▁0.48	-11.9131
6.7%)	-11.9137
▁Ber	-11.9139
▁1.12	-11.9139
▁(56	-11.9152
dar	-11.9168
▁mm	-11.9182
bis	-11.9191
PP	-11.9192
150	-11.9194
erip	-11.9197
eferral	-11.9224
ction	-11.9243
ko	-11.9246
matic	-11.9247
▁SFP	-11.9251
feed	-11.9254
yl	-11.9258
ries	-11.9258
▁FindingsI	-11.9262
▁Random	-11.9263
▁incentiv	-11.9265
▁faste	-11.9269
prevalence	-11.9274
▁0.33	-11.9279
0.5	-11.9283
▁works	-11.9286
East	-11.929
Significantly	-11.9293
om	-11.9296
▁string	-11.9297
40)	-11.9302
EN	-11.9303
410	-11.9305
PH	-11.9308
▁806	-11.9309
fa	-11.9313
▁Diagnos	-11.9316
44)	-11.9341
016	-11.9344
vice	-11.9346
immunis	-11.9353
immun	-11.9359
here	-11.9362
GS	-11.9362
▁(0.	-11.9363
▁3.8	-11.9366
ross	-11.9368
ametocytogenesis	-11.9371
-59	-11.9383
▁79	-11.9385
sight	-11.9386
043	-11.9405
=1.7	-11.9415
▁move	-11.9416
▁User	-11.9418
▁wa	-11.9421
▁uni	-11.9435
ey	-11.944
09)	-11.9441
▁(5)	-11.9452
▁handl	-11.9453
▁Wa	-11.9454
tt	-11.9456
tran	-11.9484
then	-11.9496
▁16-	-11.9503
amplicons	-11.9504
▁manipulate	-11.9507
125	-11.9512
▁38%	-11.9517
di	-11.9526
NK	-11.9543
▁Vir	-11.9547
▁BI	-11.9547
▁pathogenic	-11.956
5.2	-11.9568
▁[3	-11.957
iversity	-11.957
▁trialed	-11.9573
▁97	-11.9574
▁Na	-11.958
▁molecule	-11.958
.84)	-11.9582
penia	-11.9584
onthly	-11.9585
tra	-11.959
ndocytosis	-11.9592
▁spectra	-11.9593
59-	-11.9594
fluenza	-11.9595
plication	-11.9596
▁j	-11.9607
171	-11.9614
ria	-11.9621
ang	-11.9623
sG	-11.9648
113	-11.9653
▁probab	-11.9662
▁203	-11.9667
▁Randomiz	-11.967
75,	-11.967
fully	-11.9675
▁special	-11.9676
dual	-11.969
▁press	-11.9692
▁Municipal	-11.9693
▁Related	-11.9695
▁replica	-11.9698
▁15-	-11.9701
hel	-11.9702
▁cycl	-11.9702
tu	-11.9706
ku	-11.9707
7.7%	-11.9727
▁subtyp	-11.9734
4201	-11.9739
▁0.95	-11.9746
▁reproduc	-11.9764
▁TH	-11.9771
▁Wy	-11.9778
0.0	-11.9784
ION	-11.9786
▁soma	-11.9789
-12	-11.9796
▁6.2	-11.9798
▁unt	-11.9801
qual	-11.9824
▁275	-11.9831
.0-96.	-11.9839
00)	-11.9865
▁14.0	-11.9871
▁(10.3	-11.9881
▁176	-11.9882
▁(15.	-11.9889
5.4%	-11.9892
teractions	-11.992
caus	-11.9922
rea	-11.9928
psin	-11.9938
▁Urban	-11.9954
▁Multivaria	-11.9955
imited	-11.9965
meth	-11.9968
▁para	-11.9972
=-0.	-11.9977
ela	-11.9978
SR	-11.9982
▁6.1	-11.9985
▁211	-11.9994
}9	-12.0002
287	-12.0008
oz	-12.0018
▁risky	-12.0026
▁1.15	-12.005
ining	-12.0051
▁tract	-12.0054
▁declin	-12.0063
▁inoculat	-12.0065
2018	-12.0089
rang	-12.0093
ained	-12.0103
study	-12.0108
rus	-12.0114
=0.7	-12.0117
▁68	-12.0124
grade	-12.0125
op	-12.0127
rounds	-12.0128
▁13.0	-12.0135
08)	-12.0138
band	-12.0139
ewed	-12.0141
▁applicab	-12.0151
763	-12.0156
(4)	-12.0156
▁123	-12.0163
Vaccines	-12.0166
.57%	-12.0169
▁swa	-12.0174
▁microbio	-12.018
▁educat	-12.0186
Ke	-12.0193
HS	-12.0195
▁Sun	-12.0197
▁holi	-12.0202
393	-12.0205
ocial	-12.0213
▁stabil	-12.0223
:0.	-12.0224
▁brea	-12.0231
1-5	-12.0235
DAS	-12.0236
5.4%)	-12.0237
▁discord	-12.0239
▁67	-12.0243
▁PY	-12.0247
har	-12.0249
posed	-12.025
75%	-12.0254
▁Mi	-12.0259
▁encourage	-12.026
.55	-12.0265
▁90	-12.028
236	-12.0281
specified	-12.0289
=0.00	-12.0291
23%	-12.0302
0-5	-12.0312
1.1%	-12.0316
▁2-3	-12.0334
144	-12.0338
79%	-12.0344
435	-12.0345
tably	-12.035
32.9%	-12.035
▁inferr	-12.0352
▁recapitulat	-12.036
vis	-12.0364
Q	-12.0366
▁hypercoagula	-12.0366
NA	-12.0368
0.69	-12.0379
take	-12.0384
.1]	-12.0385
▁supervis	-12.0398
11%	-12.0401
thma	-12.0401
polaris	-12.0408
▁1.09-	-12.041
▁lot	-12.0412
▁(31	-12.0413
▁topolog	-12.0414
▁mor	-12.0419
ei	-12.042
▁Eve	-12.0425
21)	-12.0427
-2.0	-12.0428
lomb	-12.0431
dministration	-12.0432
▁underli	-12.044
=0.01	-12.0442
mRDTs	-12.0446
99	-12.0449
▁solve	-12.047
fall	-12.0473
▁broade	-12.0476
.85)	-12.0477
▁reason	-12.0478
▁Rap	-12.0485
▁Ex	-12.0503
3.7%	-12.0512
▁Uni	-12.0527
cut	-12.0528
▁Parasit	-12.0528
▁microneutrali	-12.0537
6-9	-12.054
▁164	-12.0547
Bio	-12.0547
tching	-12.0555
ficiency	-12.0567
▁divide	-12.057
06	-12.0572
▁Probabili	-12.0594
▁1.14	-12.0595
▁SummaryIn	-12.06
▁wor	-12.0606
LIS	-12.0613
70-	-12.0624
90%)	-12.0626
▁follows	-12.0635
Rxiv	-12.0636
las	-12.0638
04,	-12.064
molecule	-12.0643
medicate	-12.0646
children	-12.0649
▁lo	-12.0657
distribution	-12.0666
tivity	-12.0669
071	-12.0674
▁serv	-12.0678
med	-12.068
▁normaliz	-12.0686
lli	-12.0688
▁ultraso	-12.0697
▁concentrate	-12.0699
stable	-12.0716
7,34	-12.0726
▁Mb	-12.0728
▁Seve	-12.073
urb	-12.0731
TL	-12.0737
▁0.72	-12.074
idal	-12.0752
RC	-12.0753
elihood	-12.0754
420	-12.0769
▁6.	-12.0772
RI	-12.0772
▁lose	-12.0775
ectropho	-12.0775
DM	-12.0775
ya	-12.0779
kel	-12.0779
▁creatin	-12.0781
16)	-12.0785
ger	-12.0788
athol	-12.0794
▁comprehen	-12.0798
.0	-12.0803
local	-12.0805
▁les	-12.0809
▁Advance	-12.0813
▁(91.	-12.0815
biting	-12.0816
▁pent	-12.0818
CE	-12.082
orm	-12.0824
▁Haema	-12.0834
factors	-12.0836
norm	-12.0843
=6	-12.0844
size	-12.0845
▁ResultsH	-12.0847
tune	-12.0854
▁categori	-12.0855
▁IC	-12.0858
5.0%	-12.0861
▁13.	-12.0861
▁104	-12.0862
.18)	-12.087
/33	-12.0879
▁conclud	-12.0881
▁emit	-12.0881
▁unfavo	-12.0883
complete	-12.0891
through	-12.0895
both	-12.0898
.00	-12.0903
clear	-12.0909
412	-12.0914
0.12	-12.0916
after	-12.0921
ess	-12.0933
includ	-12.0935
De	-12.0938
▁elucidat	-12.0938
▁underl	-12.0938
▁str	-12.0939
tation	-12.0946
▁captur	-12.0947
efficient	-12.0948
-0.97	-12.0949
87)	-12.0952
method	-12.0954
introduction	-12.0955
ple	-12.0958
indoor	-12.0959
analytic	-12.0962
ality	-12.0966
total	-12.0968
observation	-12.097
community	-12.0972
▁BackgroundMa	-12.0972
available	-12.098
went	-12.098
▁spac	-12.0983
▁War	-12.0993
LMIC	-12.0994
▁summaryW	-12.0995
gametocyte	-12.0997
week	-12.1
▁800	-12.1004
centre	-12.1006
▁LR	-12.1008
}5	-12.1009
0.2	-12.1009
▁Highe	-12.101
IMC	-12.1012
Like	-12.1018
collected	-12.102
ME	-12.1021
MA	-12.1021
998	-12.1026
▁Fort	-12.1026
052	-12.1028
6.3%	-12.103
treat	-12.1031
▁accumulat	-12.1032
chloroquine	-12.1035
KN	-12.1038
proteome	-12.1039
EVE	-12.104
glass	-12.1045
ctivation	-12.1047
frequency	-12.1047
initiat	-12.1047
perform	-12.1051
ello	-12.1052
ando	-12.1052
trophi	-12.1054
dihydroartemisin	-12.1055
mRDT	-12.1055
multi	-12.1059
▁spor	-12.1059
▁(45	-12.1059
Apicomplexans	-12.1061
gene	-12.1063
lists	-12.1063
olici	-12.1067
▁propos	-12.1067
wenty	-12.1067
fluent	-12.1068
million	-12.1073
performance	-12.1074
▁184	-12.1076
▁Strategi	-12.1078
phenotype	-12.108
▁dec	-12.1083
arbovirus	-12.1085
Wolbachia	-12.1087
86	-12.1088
Kenya	-12.1088
especially	-12.1089
Vaccination	-12.1089
terpretationThe	-12.1091
analyze	-12.1098
standard	-12.11
<0.0001	-12.1103
cohort	-12.1103
▁spreads	-12.1105
resident	-12.1106
GenBank	-12.1107
antigen	-12.1107
shrink	-12.1108
ethnicity	-12.1109
fNR	-12.1109
phospho	-12.1112
check	-12.1113
Time	-12.1114
chain	-12.1115
constant	-12.1117
sampling	-12.1122
adherence	-12.1122
analyzed	-12.1124
Research	-12.1126
transcription	-12.1126
Bangladesh	-12.1126
conferr	-12.1127
vitro	-12.1131
promastigote	-12.1131
gametes	-12.1132
▁Profess	-12.1133
KEMRI	-12.1133
phenyl	-12.1133
appropriate	-12.1133
occur	-12.1133
probability	-12.1134
Cameroon	-12.1134
purpose	-12.1138
six	-12.1138
introduced	-12.1139
vivo	-12.1139
consultation	-12.1139
dead	-12.114
parasit	-12.1141
index	-12.1142
summer	-12.1142
power	-12.1142
Olyset	-12.1143
conclusive	-12.1144
interference	-12.1144
October	-12.1144
HCMC	-12.1145
understood	-12.1145
PRNT	-12.1146
Stand	-12.1146
delivery	-12.1146
December	-12.1147
FST	-12.1148
SARDDE	-12.1148
Febr	-12.1148
ign	-12.1149
ingredient	-12.1149
62,	-12.115
NTBC	-12.115
PBGD	-12.115
contamination	-12.115
trials	-12.115
chlorfenapyr	-12.1151
Delta	-12.1151
European	-12.1151
Knowledge	-12.1152
spectrum	-12.1152
Biosensor	-12.1152
county	-12.1153
Burkina	-12.1153
IBD	-12.1153
documented	-12.1154
consequence	-12.1154
PLHIV	-12.1154
ENSO	-12.1155
namely	-12.1155
RACD	-12.1155
Overall	-12.1155
glycop	-12.1156
Slf	-12.1156
Fever	-12.1156
RVP	-12.1157
VMWs	-12.1157
mAbs	-12.1157
Venezuela	-12.1157
AIRD	-12.1157
utilized	-12.1158
autophagy	-12.1158
length	-12.1159
MMS	-12.1159
PMV	-12.116
CD	-12.1161
inflammation	-12.1162
PDMC	-12.1162
depressi	-12.1164
IFA	-12.1164
GBS	-12.1164
▁flavivir	-12.1164
Ent	-12.1165
▁resist	-12.1167
annual	-12.1167
▁(55	-12.1168
DV	-12.1168
▁sta	-12.117
peptide	-12.117
synchroniz	-12.117
HCT	-12.1171
Art	-12.1172
provider	-12.1173
-2022	-12.1173
projection	-12.1173
fara	-12.1175
cancer	-12.1178
}6	-12.1178
evidence	-12.118
▁rela	-12.1182
synchronous	-12.1183
chang	-12.1185
Recent	-12.1188
eth	-12.1194
mise	-12.1197
Apo	-12.1198
ylpyr	-12.1198
correct	-12.1199
RM	-12.12
PMRs	-12.12
8.7	-12.1204
▁(90	-12.1205
Asian	-12.1205
No	-12.1205
head	-12.1206
▁ensur	-12.1207
principal	-12.1208
MG	-12.1209
prioritiz	-12.1209
aEIR	-12.1211
▁coil	-12.1212
products	-12.1212
▁Sh	-12.1213
USD	-12.1214
Community	-12.1215
▁Sha	-12.1217
▁Ve	-12.1219
▁extract	-12.1226
▁computation	-12.1226
genotypes	-12.1228
phi	-12.1229
organ	-12.123
respective	-12.1231
▁Ev	-12.1231
▁friendl	-12.1236
technology	-12.1239
▁sens	-12.1239
nResult	-12.1242
llelic	-12.1247
classify	-12.1251
limit	-12.1255
DTA	-12.1257
gold	-12.1257
EVEs	-12.1257
Although	-12.1264
▁Mult	-12.1266
expensive	-12.1267
▁BackgroundDe	-12.1268
LM	-12.1269
9.3	-12.127
▁cont	-12.1271
▁ubiquit	-12.1272
reinfection	-12.1273
▁remov	-12.1274
1-2	-12.1276
eporting	-12.1276
ANCE	-12.1279
▁Plan	-12.1279
mas	-12.1283
transmissi	-12.1284
rtesunate	-12.1284
▁GYP	-12.1284
modiaquine	-12.1285
egypti	-12.1285
06)	-12.1287
527	-12.1287
bas	-12.1287
dherence	-12.129
Combin	-12.129
Fc	-12.1293
single	-12.1294
cardi	-12.1294
▁Typh	-12.1295
ccuracy	-12.1295
▁Interacti	-12.1295
▁4)	-12.1296
GEN	-12.1297
lgorithm	-12.13
afety	-12.1301
5-20	-12.1302
task	-12.1303
▁(18.	-12.1303
rtificial	-12.1303
▁supernatant	-12.1305
▁obstacle	-12.1305
ception	-12.1306
▁serosurvey	-12.1306
▁scheme	-12.1306
lternative	-12.1307
451	-12.1309
▁ConclusionDe	-12.1311
ssage	-12.1311
typic	-12.1313
union	-12.1313
Ab	-12.1314
▁Profes	-12.1316
▁cutoff	-12.1316
▁scientist	-12.1316
▁settlement	-12.1317
specificity	-12.1317
▁quintile	-12.132
674	-12.132
▁Summar	-12.1321
▁visualize	-12.1322
former	-12.1322
95%:	-12.1323
▁releas	-12.1324
▁ortholog	-12.1324
▁macaque	-12.1324
▁budget	-12.1324
▁kinase	-12.1325
▁derivative	-12.1326
pay	-12.1326
▁hepatocyte	-12.1326
▁Ge	-12.1327
sibling	-12.1327
▁device	-12.1328
▁HCW	-12.1329
tiani	-12.133
indoors	-12.133
▁titer	-12.1332
▁purpos	-12.1332
▁interruption	-12.1333
rthropod	-12.1334
▁CNV	-12.1334
▁accord	-12.1335
▁reticulocyte	-12.1336
▁Atla	-12.1336
▁gland	-12.1337
ively	-12.1337
phagy	-12.1338
ECTION	-12.1339
▁bird	-12.1339
▁(11	-12.1342
▁bri	-12.1342
▁discussion	-12.1342
▁return	-12.1343
▁warrant	-12.1344
▁cube	-12.1344
ONG	-12.1345
apid	-12.1345
▁deformation	-12.1346
▁chart	-12.1347
9,9	-12.1348
▁maximiz	-12.1348
▁prepare	-12.135
▁enroll	-12.1352
12/	-12.1352
▁Rain	-12.1352
▁guideline	-12.1359
hydroxy	-12.1359
▁1.00	-12.1359
▁engag	-12.136
Integrat	-12.136
▁acquir	-12.1361
▁shortage	-12.1361
0-1-6	-12.1361
▁mimic	-12.1361
▁spot	-12.1362
▁envelop	-12.1362
▁attenuat	-12.1362
Adjust	-12.1363
▁ConclusionsH	-12.1364
HDs	-12.1364
nzyme	-12.1364
conomic	-12.1365
▁perm	-12.1366
teau	-12.1367
▁damag	-12.1368
▁ResultsS	-12.1368
▁514	-12.137
▁tick	-12.1371
▁scarc	-12.1372
dhesion	-12.1373
▁incur	-12.1374
221	-12.1374
▁Anthropo	-12.1375
SSION	-12.1376
▁App	-12.1376
▁tolerate	-12.1377
▁cataly	-12.1377
URO	-12.1378
populations	-12.1378
▁maxim	-12.1379
▁Apicomplexa	-12.1381
regulator	-12.1382
bad	-12.1383
spatiotemporally	-12.1383
ste	-12.1387
ula	-12.1388
▁modeled	-12.1389
▁eye	-12.1393
▁perturb	-12.1395
▁manufacture	-12.1395
▁heterozygo	-12.1396
MIT	-12.1396
▁quick	-12.1397
competen	-12.1397
-2.6	-12.1397
▁Clinic	-12.1398
▁9.4	-12.1399
imba	-12.14
▁Esse	-12.1402
tainment	-12.1403
arked	-12.1403
mmunity	-12.1405
▁ventilat	-12.1405
▁Ninet	-12.1405
▁escalat	-12.1405
▁succ	-12.1405
▁6.8	-12.1406
▁distribute	-12.1407
ct	-12.1408
▁patch	-12.1409
ytokine	-12.1411
▁Anophel	-12.1411
▁accomp	-12.1412
ersistent	-12.1412
terans	-12.1412
▁custom	-12.1414
haperone	-12.1414
otential	-12.1414
HA	-12.1414
obus	-12.1414
▁organ	-12.1415
▁milli	-12.1415
▁phenomen	-12.1415
MH	-12.1416
▁substantia	-12.1416
rajectories	-12.1416
aemorrhagic	-12.1417
▁ResultsT	-12.1418
rythro	-12.1418
lycop	-12.1418
icronutrient	-12.1418
tilisation	-12.1418
ierarch	-12.1418
▁fell	-12.1418
ircumcision	-12.1419
Dialog	-12.1419
▁extinct	-12.1419
▁consult	-12.1419
ilirubin	-12.1419
ategory	-12.1419
fforts	-12.1419
▁Scop	-12.142
ooled	-12.142
▁reconstruct	-12.142
▁municipal	-12.142
ravel	-12.142
omprehensive	-12.142
▁ophthalm	-12.142
ramework	-12.142
etabolomic	-12.142
▁Volta	-12.1421
8.4%	-12.1421
ommunication	-12.1421
taneous	-12.1421
▁sanita	-12.1422
osphere	-12.1422
643	-12.1422
▁Mozambi	-12.1422
chloro	-12.1423
ISRCTN	-12.1423
recombin	-12.1423
SCPCAP	-12.1423
▁Artemisi	-12.1423
(3,44	-12.1423
SIGN	-12.1423
opinavir	-12.1423
▁Kassena	-12.1423
▁cytoskelet	-12.1423
▁glomerul	-12.1423
▁rapamycin	-12.1423
Nachingwea	-12.1423
habdovir	-12.1423
▁Territory	-12.1423
▁deliberate	-12.1423
.2015-1076	-12.1423
12329760	-12.1423
17047661	-12.1423
42019146592	-12.1423
58155	-12.1423
675968	-12.1423
96570)	-12.1423
=1.25-3.	-12.1423
Argentina	-12.1423
DHIMS	-12.1423
DWoWS	-12.1423
Dakar	-12.1423
Documentation	-12.1423
ECTIVET	-12.1423
Explorer	-12.1423
GORE	-12.1423
INLINEFIG	-12.1423
Kappa	-12.1423
LRGV	-12.1423
Lumefantrine	-12.1423
NtAbs	-12.1423
Ownership	-12.1423
Piperaquine	-12.1423
Stegomyia	-12.1423
Strengths	-12.1423
WLZ	-12.1423
WWARN	-12.1423
albumin	-12.1423
dazolopiperazine	-12.1423
diphtheria	-12.1423
lizab	-12.1423
midwives	-12.1423
omyia	-12.1423
orchestrate	-12.1423
oxazole	-12.1423
resurfaced	-12.1423
rhoea	-12.1423
ruritus	-12.1423
▁Acoustic	-12.1423
▁Afghanistan	-12.1423
▁Aniolam	-12.1423
▁Antipyretic	-12.1423
▁Belarus	-12.1423
▁Burundi	-12.1423
▁Caregiver	-12.1423
▁Chipata	-12.1423
▁Colombo	-12.1423
▁Commission	-12.1423
▁Concentration	-12.1423
▁Contribute	-12.1423
▁Denpasar	-12.1423
▁Dissemination	-12.1423
▁Exposure	-12.1423
▁FACTORS	-12.1423
▁GHANA	-12.1423
▁GTPase	-12.1423
▁HOSPITAL	-12.1423
▁Histidine	-12.1423
▁IMPROVE	-12.1423
▁Illovo	-12.1423
▁Kilifi	-12.1423
▁Korail	-12.1423
▁Mammal	-12.1423
▁Mobile	-12.1423
▁Moniquira	-12.1423
▁Namibia	-12.1423
▁Number	-12.1423
▁Odisha	-12.1423
▁POLG	-12.1423
▁Permethrin	-12.1423
▁Pokhara	-12.1423
▁Recommendation	-12.1423
▁Spraying	-12.1423
▁Turkana	-12.1423
▁Zimbabwe	-12.1423
▁apoptosis	-12.1423
▁biosignature	-12.1423
▁boluses	-12.1423
▁cascade	-12.1423
▁catabolis	-12.1423
▁cirrhosis	-12.1423
▁coffee	-12.1423
▁disagreement	-12.1423
▁economy	-12.1423
▁enzymopathy	-12.1423
▁exercise	-12.1423
▁haemotransfus	-12.1423
▁happen	-12.1423
▁impractical	-12.1423
▁infiltrati	-12.1423
▁intercept	-12.1423
▁nomenclature	-12.1423
▁occasion	-12.1423
▁offspring	-12.1423
▁opacities	-12.1423
▁pacific	-12.1423
▁paradigm	-12.1423
▁potassium	-12.1423
▁precursors	-12.1423
▁receptacle	-12.1423
▁reemerge	-12.1423
▁repellant	-12.1423
▁scholar	-12.1423
▁shutdowns	-12.1423
▁stratifiers	-12.1423
▁streptococcus	-12.1423
▁symptomatology	-12.1423
▁tachyzoites	-12.1423
▁taxonom	-12.1423
▁thorax	-12.1423
▁valley	-12.1423
▁vicinity	-12.1423
▁workshop	-12.1423
2015/2016	-12.1423
AWED	-12.1423
NCMPs	-12.1423
VMWR	-12.1423
▁electrophoresis	-12.1423
14.3-29.	-12.1423
RESULTS	-12.1423
anthropophily	-12.1423
▁1.01-2.9	-12.1423
▁Avisoft	-12.1423
▁CLINIC	-12.1423
▁Sugar	-12.1423
▁catastroph	-12.1423
▁committee	-12.1423
▁cpmp	-12.1423
▁curricul	-12.1423
▁enteropathogen	-12.1423
▁herbalist	-12.1423
▁job	-12.1423
▁reminder	-12.1423
▁template	-12.1423
-1.07]	-12.1423
688262	-12.1423
PBMCs	-12.1423
PGEforge	-12.1423
junction	-12.1423
▁Axx	-12.1423
▁VIRUS	-12.1423
▁anamnes	-12.1423
▁confusa	-12.1423
▁reagents	-12.1423
▁rigidi	-12.1423
▁stunted	-12.1423
Chiapas	-12.1423
IBMs	-12.1423
PABAK	-12.1423
▁INCREAS	-12.1423
▁Partnership	-12.1423
▁crystall	-12.1423
▁nephro	-12.1423
DWW	-12.1423
▁HbSS	-12.1423
▁sunset	-12.1423
▁tenuous	-12.1423
EDCTP	-12.1423
IPTsc	-12.1423
LALA	-12.1423
RIPS	-12.1423
vessel	-12.1423
▁Diabet	-12.1423
▁Governorate	-12.1423
▁LitCLONGCOVID	-12.1423
▁fulfil	-12.1423
▁inevitabl	-12.1423
▁mosaic	-12.1423
▁overlook	-12.1423
EGY	-12.1423
▁1.25-1.3	-12.1423
▁Allerg	-12.1423
▁cessation	-12.1423
▁religion	-12.1423
77/13	-12.1423
▁37340	-12.1423
▁ITU	-12.1423
▁Resilien	-12.1423
▁diversification	-12.1423
▁harbor	-12.1423
▁leucocytes	-12.1423
▁empower	-12.1423
escence	-12.1423
▁Manaus	-12.1423
IFNAR	-12.1423
UHK	-12.1423
▁Accessibility	-12.1423
▁Common	-12.1423
▁Limatus	-12.1423
▁pollut	-12.1423
-15.7)	-12.1423
Mengla	-12.1423
osinophils	-12.1423
▁Abuja	-12.1423
▁request	-12.1423
▁Annotation	-12.1423
▁Question	-12.1423
AIMDP	-12.1423
▁photoperiod	-12.1423
DEMIC	-12.1423
▁pursu	-12.1423
▁wAu	-12.1423
▁sterco	-12.1423
▁Scheme	-12.1423
▁cheap	-12.1423
▁preparedness	-12.1423
▁avidity	-12.1423
▁mouth	-12.1423
▁(0.75	-12.1423
▁1.00-1.	-12.1423
▁logger	-12.1423
istopatholog	-12.1423
DRNNs	-12.1423
▁Sudan	-12.1423
▁poleward	-12.1423
▁Cardi	-12.1423
▁Criteri	-12.1423
scape	-12.1423
kobo	-12.1423
22,479	-12.1423
▁Confirm	-12.1423
90-1.3	-12.1423
OWN	-12.1423
▁2012-2022	-12.1423
adesh	-12.1423
▁0.62-0.	-12.1423
▁Leuco	-12.1423
▁View	-12.1423
▁Sohan	-12.1423
▁accru	-12.1423
▁secure	-12.1423
95845)	-12.1423
▁avenue	-12.1423
pppy	-12.1423
▁<20%	-12.1423
▁invited	-12.1423
▁disappear	-12.1423
▁polarized	-12.1423
▁enrolment	-12.1423
▁disturbance	-12.1423
▁histological	-12.1423
-10.6)	-12.1423
.0-16	-12.1423
▁Library	-12.1423
▁graft	-12.1423
IGHT	-12.1423
▁Mbara	-12.1423
▁Transient	-12.1423
▁(20.8%)	-12.1423
inghong	-12.1423
▁isoprenoid	-12.1423
▁weakened	-12.1423
▁Domingo	-12.1423
▁weekends	-12.1423
▁1.08-1.	-12.1423
/1663	-12.1423
▁advice	-12.1423
▁neighbourhoods	-12.1423
▁1.79-	-12.1423
DMSO	-12.1423
▁digestion	-12.1424
▁heritability	-12.1424
▁ailment	-12.1424
guard	-12.1424
▁Coordinati	-12.1424
helix	-12.1424
▁Deletion	-12.1424
▁3.47%	-12.1424
▁Reveal	-12.1424
▁road	-12.1424
▁Pregnancy	-12.1424
▁bypasse	-12.1424
▁drink	-12.1424
▁mobiliz	-12.1424
▁draft	-12.1424
iosyn	-12.1424
▁pupation	-12.1424
▁2007-2019	-12.1424
▁Attitude	-12.1424
▁0.65-0.	-12.1424
▁uncontrolled	-12.1424
▁sports	-12.1424
OUR	-12.1424
SVM	-12.1424
▁puncture	-12.1424
2,636	-12.1424
▁cultivation	-12.1424
EBN	-12.1424
ospori	-12.1424
▁effic	-12.1424
significanceE	-12.1424
▁microbiome	-12.1424
▁Cxx	-12.1425
▁History	-12.1425
▁marriage	-12.1425
▁semester	-12.1425
▁niche	-12.1425
8/107)	-12.1425
▁quasi	-12.1425
0.999)	-12.1425
▁brick	-12.1425
.4-38.	-12.1425
420234	-12.1425
PPQ	-12.1425
POMs	-12.1425
▁Voltage	-12.1425
▁bottle	-12.1425
▁Zam	-12.1425
▁repackage	-12.1425
▁polyprotein	-12.1425
=0.015)	-12.1425
normocyte	-12.1425
PCLV	-12.1425
▁GYPB	-12.1425
compatibility	-12.1425
ESM	-12.1425
▁morbi	-12.1425
▁clim	-12.1425
▁rebound	-12.1426
▁physico	-12.1426
▁Municipality	-12.1426
▁(0-1-2	-12.1426
/336)	-12.1426
▁12.7	-12.1426
0400	-12.1426
▁6-59	-12.1426
▁imperfections	-12.1426
undred	-12.1426
▁(47%)	-12.1426
▁Scopus	-12.1426
▁35.7%	-12.1426
▁Depression	-12.1426
▁Lineage	-12.1426
▁2-4.5	-12.1426
AoY	-12.1426
18-86	-12.1426
PNC	-12.1426
▁ResultsOver	-12.1426
▁cruzii	-12.1426
▁microregions	-12.1426
HAD	-12.1426
negligible	-12.1426
FORMA	-12.1427
aundice	-12.1427
▁2014-2017	-12.1427
▁Match	-12.1427
scillat	-12.1427
▁registry	-12.1427
▁17.1-	-12.1427
▁fingerprint	-12.1427
▁Fifty	-12.1427
▁ObjectivesM	-12.1427
=0.0001)	-12.1427
buffer	-12.1427
▁monomeric	-12.1427
▁breakpoint	-12.1427
IIT	-12.1427
▁3.87)	-12.1427
▁Sept	-12.1427
▁Lead	-12.1428
▁remodelling	-12.1428
▁Crypt	-12.1428
▁MethodsTwenty	-12.1428
▁Egg	-12.1428
95%:8	-12.1428
technician	-12.1428
83.37	-12.1428
▁div	-12.1428
▁(45%)	-12.1428
elfare	-12.1428
henoplasm	-12.1428
ommer	-12.1428
▁emb	-12.1428
lumin	-12.1428
▁2005-201	-12.1428
▁Utilization	-12.1429
▁2011-2019	-12.1429
▁shading	-12.1429
▁Acre	-12.1429
4.36	-12.1429
966	-12.1429
▁magnif	-12.1429
topha	-12.1429
▁commence	-12.1429
MENA	-12.1429
▁Decision	-12.1429
▁12.5%	-12.143
▁tryp	-12.143
/-}5.	-12.143
▁(26%)	-12.143
=75,	-12.143
▁NAT	-12.1431
▁Down	-12.1431
=2.7	-12.1431
lish	-12.1431
▁analogy	-12.1431
▁ELIS	-12.1431
cystein	-12.1431
▁settle	-12.1431
▁reintroduction	-12.1432
MES	-12.1432
9.86	-12.1432
▁electro	-12.1432
mooth	-12.1432
▁humid	-12.1432
cturer	-12.1433
:15.8-	-12.1433
GBM	-12.1433
▁worth	-12.1433
▁descend	-12.1433
▁harmonize	-12.1433
icides	-12.1433
▁contrary	-12.1433
▁sustainab	-12.1433
▁IntroductionLa	-12.1434
▁appropriateness	-12.1434
yrimethamine	-12.1434
▁Phil	-12.1435
▁1988	-12.1435
/-}0.72	-12.1435
▁exclusively	-12.1435
▁servers	-12.1435
▁infrequently	-12.1435
▁Pyrethroid	-12.1435
Dialogue	-12.1435
▁(99.8	-12.1435
roviders	-12.1435
▁predominated	-12.1435
nIMPORTANCE	-12.1436
▁2023-24	-12.1436
=[1.	-12.1436
▁histone	-12.1436
▁Nano	-12.1436
▁0.161	-12.1436
▁0.39	-12.1436
AoI	-12.1436
▁traversal	-12.1437
▁IntroductionE	-12.1437
otaxi	-12.1437
079	-12.1437
4202015	-12.1438
KV	-12.1438
▁intersect	-12.1438
▁stochasticity	-12.1438
liter	-12.1438
Contain	-12.1438
▁files	-12.1438
0.50-0.84	-12.1438
2.2-3	-12.1439
▁park	-12.1439
terminus	-12.1439
▁retailers	-12.1439
QIT	-12.1439
VIR	-12.1439
▁BiP	-12.1439
▁4,7	-12.1439
▁Lake	-12.1439
tage	-12.1441
▁Dashboard	-12.1441
Facility	-12.1441
▁22.9%	-12.1441
▁1.27-	-12.1441
▁aspirator	-12.1441
=0.47	-12.1442
▁MethodsHere	-12.1442
▁Drought	-12.1442
▁Chap	-12.1443
VPDs	-12.1443
▁succeed	-12.1443
▁impairment	-12.1444
IDI	-12.1444
=4.43	-12.1444
▁ventilator	-12.1444
▁speculat	-12.1444
▁organisation	-12.1444
KO	-12.1445
10-3)	-12.1445
▁(34.7%	-12.1445
bric	-12.1445
▁visitation	-12.1446
76.6%	-12.1446
99.	-12.1446
ssential	-12.1447
9-0.87	-12.1447
▁epista	-12.1447
▁Ninety	-12.1447
▁decent	-12.1447
▁FindingsE	-12.1448
▁undercounting	-12.1448
▁functionalities	-12.1448
rado	-12.1448
▁removal	-12.1448
▁consolidation	-12.1449
▁uneven	-12.1449
▁yeast	-12.1449
dverse	-12.1449
▁collective	-12.145
▁observ	-12.145
SECTI	-12.145
▁heterozygote	-12.145
▁(61%)	-12.145
ETS	-12.1451
▁Prof	-12.1451
▁catches	-12.1452
▁flu	-12.1452
lderly	-12.1452
55.2%	-12.1452
▁restore	-12.1452
▁-3.6	-12.1452
RVF	-12.1452
OpenMalaria	-12.1453
▁containment	-12.1453
▁fruits	-12.1453
partic	-12.1453
▁infectiousness	-12.1454
Ref	-12.1454
5.7-	-12.1454
HRMS	-12.1454
▁Where	-12.1455
▁59.6	-12.1456
▁Camp	-12.1456
▁underway	-12.1456
=0.18	-12.1456
▁(2.5%)	-12.1456
▁conversely	-12.1457
▁parity	-12.1457
▁assurance	-12.1457
Borne	-12.1458
ect	-12.1458
▁emissions	-12.1459
=1.17	-12.1459
inverted	-12.1459
▁silent	-12.1459
▁6.6%	-12.146
▁collectively	-12.146
▁Purpose	-12.146
▁1.97	-12.146
▁ubiquitous	-12.146
censoring	-12.1461
▁PfU	-12.1461
94;	-12.1461
raditional	-12.1461
▁Order	-12.1462
MINA	-12.1462
ologi	-12.1462
VSA	-12.1462
▁discret	-12.1462
▁simpl	-12.1463
▁Volu	-12.1463
comfort	-12.1463
▁wind	-12.1464
▁(124/1	-12.1464
oost	-12.1464
stru	-12.1464
▁Ense	-12.1464
▁DiscussionN	-12.1464
▁3.7	-12.1465
-10.2	-12.1465
▁slums	-12.1465
;]15	-12.1465
▁slides	-12.1466
▁glycans	-12.1466
▁agendas	-12.1466
▁consumables	-12.1467
▁scaffolds	-12.1467
▁smartphones	-12.1467
▁Guidelines	-12.1467
▁2010-201	-12.1467
▁knockouts	-12.1467
=37	-12.1467
2.2-6	-12.1467
▁heme	-12.1467
▁1.06-1.2	-12.1467
▁97.4%	-12.1467
23/15	-12.1468
▁bioassays	-12.1468
▁customers	-12.1468
▁trips	-12.1468
xtensive	-12.1468
▁TRANSMI	-12.1469
▁(38%)	-12.1469
info	-12.147
▁Unique	-12.147
▁66.2%	-12.1471
=0.23	-12.1471
▁Wave	-12.1472
=2.98	-12.1472
▁Power	-12.1473
-50	-12.1473
▁Front	-12.1474
Fws	-12.1474
▁<0.1	-12.1474
=-0.47	-12.1474
▁27%	-12.1474
ATS	-12.1475
=0.15	-12.1475
▁mito	-12.1475
▁hypo	-12.1478
▁ConclusionCOVID	-12.1478
=0.13	-12.1478
<30%	-12.1478
▁scarce	-12.1478
ohn	-12.1478
▁transformed	-12.1478
▁Decade	-12.1478
▁16.9%	-12.1479
oxidant	-12.148
ource	-12.1481
asso	-12.1481
▁denote	-12.1481
69.4)	-12.1481
3.9	-12.1482
URF	-12.1482
quo	-12.1483
▁boxes	-12.1483
_50)	-12.1483
-100%)	-12.1484
OES	-12.1484
▁EFF	-12.1485
ritic	-12.1486
▁engage	-12.1487
=129	-12.1487
DN	-12.1488
029	-12.1488
▁phylogen	-12.1489
▁CHI	-12.149
ehydroisoemetine	-12.149
200/	-12.149
▁foster	-12.149
CPT	-12.1491
▁countrywide	-12.1491
poor	-12.1493
ocytes	-12.1493
clin	-12.1493
▁IFNA	-12.1493
▁leaders	-12.1494
▁1.36	-12.1495
▁glycoly	-12.1495
▁Lao	-12.1495
▁29.1	-12.1496
echnology	-12.1497
▁Satellite	-12.1498
▁But	-12.1498
▁2-4	-12.1498
▁Colo	-12.1499
force	-12.1499
HPS	-12.15
▁PDR	-12.15
CESSI	-12.15
dermis	-12.1501
▁panic	-12.1501
▁Observation	-12.1501
▁8%	-12.1501
▁aborti	-12.1502
▁cytosol	-12.1503
▁stop	-12.1504
}1%	-12.1504
▁transparent	-12.1505
▁69.	-12.1506
Four	-12.1506
/-}4.	-12.1507
LIOptim	-12.1507
▁(2020	-12.1507
▁91.7%	-12.1507
▁BackgroundRel	-12.1508
▁didnt	-12.1509
=5.4	-12.1509
▁undertak	-12.151
▁(11/1	-12.151
▁(14%)	-12.151
▁1.67	-12.1511
▁narr	-12.1511
NHIS	-12.1511
▁0.005	-12.1512
▁Sam	-12.1513
▁floor	-12.1513
▁donation	-12.1513
▁1982	-12.1513
859)	-12.1514
AmpSeq	-12.1514
nown	-12.1515
otypes	-12.1516
▁audi	-12.1516
OG	-12.1518
▁Dant	-12.1519
HSA	-12.1519
siblings	-12.152
▁Immuno	-12.152
1356	-12.152
0.59)	-12.152
▁summaryS	-12.152
zation	-12.152
▁0.32	-12.1522
=32)	-12.1522
▁-18	-12.1523
▁lytic	-12.1524
▁(<5	-12.1525
6-3.4	-12.1526
obust	-12.1526
▁2017-2019	-12.1529
96.4%	-12.1529
0.1-3	-12.153
myo	-12.153
▁1.29	-12.1531
92.8	-12.1531
osquitoes	-12.1532
CAM	-12.1534
▁34/	-12.1535
▁Aff	-12.1536
▁OUT	-12.1537
DLI	-12.1538
▁ambiguous	-12.1538
▁Forty	-12.1538
▁1.24-	-12.1539
▁Attend	-12.1539
IMCI	-12.154
▁NVP	-12.154
▁schemes	-12.1541
▁obstacles	-12.1541
▁serosurveys	-12.1541
KDHS	-12.1541
▁Availability	-12.1542
▁passively	-12.1542
▁0.16	-12.1542
ibu	-12.1542
▁integrin	-12.1543
▁homogeneous	-12.1543
▁rearing	-12.1543
▁supernatants	-12.1544
▁GAD	-12.1544
▁conjugate	-12.1544
▁KNWD	-12.1545
-67)	-12.1545
▁NHPs	-12.1545
851	-12.1545
▁ADCC	-12.1545
▁literacy	-12.1545
▁Roraima	-12.1545
▁CONCLUSION	-12.1545
hypercholesterol	-12.1546
▁STATEMENT	-12.1546
▁Pearson	-12.1546
0.016)	-12.1546
nc	-12.1546
▁47%	-12.1547
SNPs	-12.1548
VI	-12.1548
▁2.08	-12.1549
▁NPS	-12.1549
LY	-12.1549
ainfall	-12.1549
5-39	-12.1549
▁MOI	-12.1549
▁eyes	-12.155
NGS	-12.155
FLU	-12.1551
▁EPA	-12.1551
naemia	-12.1551
▁incorrect	-12.1552
▁VTM	-12.1552
▁dispersion	-12.1552
▁HDL	-12.1553
▁RoB	-12.1553
▁0.002)	-12.1554
▁Ob	-12.1554
phor	-12.1554
▁NPV	-12.1555
NFKB	-12.1555
MalariaGEN	-12.1555
▁2.32	-12.1555
Com	-12.1555
▁Matr	-12.1556
portion	-12.1557
Model	-12.1558
▁SAM	-12.1559
SUR	-12.156
cially	-12.1561
mann	-12.1561
▁Argonautes	-12.1562
informatics	-12.1562
GYPA	-12.1562
▁MethodsMo	-12.1562
PCA	-12.1563
4.48	-12.1564
▁Child	-12.1564
TDA	-12.1565
▁3.40	-12.1567
▁MethodsG	-12.1567
▁2.18	-12.1567
▁2-10	-12.1567
pub	-12.1571
▁30-70%	-12.1571
▁0.21-0.	-12.1572
9.2%)	-12.1573
▁bil	-12.1574
▁autop	-12.1574
ceptions	-12.1574
mNGS	-12.1575
airs	-12.1578
chite	-12.1582
solation	-12.1582
▁IMP	-12.1585
tology	-12.1586
▁(65.2%	-12.1587
▁1.8%	-12.1587
▁programm	-12.1588
▁Outcomes	-12.1589
▁4.5	-12.159
▁goo	-12.1593
▁Cons	-12.1593
=28)	-12.1593
▁.000	-12.1594
ysfunction	-12.1594
odd	-12.1594
llated	-12.1596
▁squared	-12.1597
▁conti	-12.1597
▁eukaryote	-12.1599
3194	-12.16
▁4.23	-12.16
▁coll	-12.1601
nConclusionsPr	-12.1601
nuclease	-12.1601
▁Symptom	-12.1602
▁0.57	-12.1602
▁transfect	-12.1602
▁392	-12.1602
▁679	-12.1603
▁Tol	-12.1605
vian	-12.1605
▁Divis	-12.1605
ogoro	-12.1606
:1.	-12.1606
PATI	-12.1606
▁BE	-12.1607
▁bug	-12.1608
▁manif	-12.1609
83)	-12.161
ikelihood	-12.1612
TSS	-12.1614
monthly	-12.1616
▁2100	-12.1617
▁Threshold	-12.1618
▁lifestyles	-12.1618
/53	-12.162
75	-12.162
=0.014	-12.1621
Selection	-12.1623
▁archetypes	-12.1624
▁EVE	-12.1626
95%:2	-12.1626
Carnitine	-12.1628
9.0%	-12.1628
SSP	-12.1633
Characteris	-12.1634
▁DETE	-12.1635
▁Kam	-12.1635
=60	-12.1636
ITY	-12.1636
prenyl	-12.1637
wait	-12.1639
▁wk	-12.164
039)	-12.1641
▁Multiplexed	-12.1642
common	-12.1642
Establishment	-12.1643
▁MSP	-12.1643
▁1.73	-12.1643
programme	-12.1644
NI	-12.1645
▁agnostic	-12.1645
▁exploration	-12.1647
CID	-12.1649
Exposed	-12.1651
▁0.03)	-12.1651
RAT	-12.1652
▁root	-12.1652
seven	-12.1653
▁rational	-12.1654
▁shade	-12.1655
▁inefficient	-12.1656
[0.3	-12.1656
GMS	-12.1657
lysis	-12.1658
▁compartments	-12.1658
▁(5.1%)	-12.1659
▁priori	-12.1659
translat	-12.166
▁BackgroundD	-12.166
BC	-12.166
676	-12.1662
ductive	-12.1664
▁Mu	-12.1665
MIP	-12.1666
2000-2022	-12.1666
▁(61.5%	-12.1666
▁(14.6%	-12.1667
▁timescale	-12.167
▁59%	-12.1671
-97	-12.1676
58%	-12.1677
ctively	-12.1677
ARE	-12.1677
▁travers	-12.1678
-94.6	-12.1678
1.11-	-12.168
▁House	-12.1681
ptive	-12.1683
HSS	-12.1684
mated	-12.1684
▁inducibl	-12.1684
▁insert	-12.1685
▁mark	-12.1686
60%)	-12.1687
0.05)	-12.1689
▁ResultsC	-12.1691
▁phospho	-12.1692
PDC	-12.1692
▁artificially	-12.1692
▁PPV	-12.1692
▁intensifie	-12.1692
420212	-12.1694
lach	-12.1694
1.6-6	-12.1694
▁prescriptions	-12.1695
Da	-12.1696
▁sur	-12.1696
▁(25%)	-12.1697
▁17.0	-12.1697
blinded	-12.1699
cultural	-12.17
improved	-12.17
▁134	-12.17
▁0.61	-12.1703
▁(34.1%	-12.1705
.42)	-12.1705
▁intensiv	-12.1706
▁2021-	-12.1709
▁coloni	-12.1711
8.9)	-12.1714
▁Revers	-12.1714
▁oligomer	-12.1716
▁hematologic	-12.1717
▁inversions	-12.1717
terin	-12.1718
=-0.4	-12.1718
▁diversifi	-12.1722
▁Every	-12.1722
▁parasitological	-12.1726
,914	-12.1727
70)	-12.1728
▁122	-12.1728
3391	-12.1732
(2)	-12.1734
▁217	-12.1736
01).	-12.174
▁check	-12.174
▁fNR	-12.1746
▁shrink	-12.1747
▁GenBank	-12.1748
▁gl	-12.175
▁divert	-12.175
▁ethnicity	-12.1752
PSAC	-12.1752
ication	-12.1753
Gen	-12.1755
▁(57/	-12.1756
etiologies	-12.1758
▁crt	-12.1758
▁(20%	-12.1763
▁fla	-12.1763
157)	-12.1766
▁backgrounds	-12.1767
UND	-12.1768
▁Te	-12.1769
▁183	-12.177
▁IMC	-12.1772
▁ovitraps	-12.1773
▁pediatrics	-12.1773
▁explanations	-12.1773
SIT	-12.1774
xpression	-12.1774
=3.6	-12.1775
▁manipulations	-12.1775
ist	-12.1777
▁repeatedly	-12.1779
transc	-12.1781
▁96	-12.1782
▁GF	-12.1784
▁subsidi	-12.1784
firm	-12.1788
=0.03)	-12.179
▁grounds	-12.1791
▁quali	-12.1792
56%	-12.1792
Di	-12.1794
0.77%	-12.1795
428	-12.1798
42.85%	-12.1799
▁town	-12.1799
▁internationally	-12.18
899	-12.1804
preserve	-12.1805
▁ref	-12.1806
informative	-12.1808
utonom	-12.1809
▁entr	-12.1814
▁92.9%	-12.1814
ories	-12.1816
319	-12.1816
▁Aims	-12.1821
▁Publication	-12.1822
▁hypertensi	-12.1822
nded	-12.1822
39)	-12.1822
NH	-12.1824
cycling	-12.1826
▁127	-12.1828
674)	-12.1828
1391	-12.1828
▁microhaplotype	-12.1831
77%	-12.1834
Abnormal	-12.1834
▁En	-12.1835
▁acc	-12.1837
Twenty	-12.1837
.78	-12.1843
▁PRO	-12.1843
▁LM	-12.1844
▁Limit	-12.1844
▁=0.8	-12.1844
▁Sulfado	-12.1844
▁Tools	-12.1848
▁(78.2	-12.1849
▁ribbons	-12.185
arasitemia	-12.185
▁FST	-12.1851
▁Radi	-12.1851
HMC	-12.1853
IMD	-12.1857
▁conv	-12.186
▁dying	-12.1862
HSD	-12.1863
ontinuous	-12.1864
chromat	-12.1865
rush	-12.1865
lands	-12.1866
▁virions	-12.1868
▁desir	-12.1869
▁1:	-12.1879
▁bimo	-12.1879
velo	-12.1887
▁(12/	-12.1896
22.3%	-12.1896
▁TED	-12.1898
▁compatib	-12.1899
ification	-12.1901
49.5%	-12.1902
YA	-12.1905
ESS	-12.1905
▁max	-12.1908
uple	-12.1909
SCPLOWO	-12.1911
ranscriptome	-12.1913
▁ancestr	-12.1915
BEN	-12.1916
1/3	-12.1918
nteract	-12.1921
▁(64	-12.1922
▁747	-12.1925
DVI	-12.1925
▁(52	-12.1926
-21)	-12.1926
mulat	-12.1926
▁corroborat	-12.1928
▁0.72%	-12.1929
▁0.85	-12.1931
▁0.25	-12.1937
nSignificance	-12.1939
▁Need	-12.1941
oss	-12.1941
027	-12.1942
plates	-12.1942
922	-12.1944
lets	-12.1946
espi	-12.1947
lue	-12.1947
MBA	-12.195
▁(2.5	-12.1951
olic	-12.1953
reach	-12.1954
49/	-12.1955
ship	-12.1955
▁POC	-12.1955
▁QAACTs	-12.1956
▁LLINEUP	-12.1957
6-12	-12.1962
▁institut	-12.1963
ak	-12.1965
▁microne	-12.1966
ights	-12.1969
88	-12.197
▁inclusive	-12.1971
▁398	-12.1972
4.8%	-12.1974
ail	-12.1976
▁wane	-12.1977
▁Elev	-12.198
27%)	-12.198
42024	-12.1982
pred	-12.1982
▁demands	-12.1987
▁unin	-12.1989
ika	-12.1991
▁HD	-12.1993
assi	-12.1997
▁circa	-12.1997
▁6.4%	-12.1998
2340	-12.1998
2.3%	-12.1998
cycles	-12.2001
▁recognize	-12.2001
▁synthesise	-12.2001
▁nurse	-12.2004
Pa	-12.2005
MoI	-12.2006
▁0.78	-12.2008
▁maternally	-12.2011
▁(32-	-12.2012
▁80.	-12.2013
4-7	-12.2016
Climate	-12.2019
▁173	-12.2025
▁101	-12.2025
nea	-12.203
gestion	-12.2032
AID	-12.2033
▁boosted	-12.2033
▁60-	-12.2037
emoved	-12.2039
▁persiste	-12.2043
▁faec	-12.2043
0390	-12.2045
xperience	-12.2047
BART	-12.2048
▁prote	-12.2049
▁Combination	-12.2049
▁3.9	-12.2055
▁metabolom	-12.2058
13%	-12.2061
ad	-12.2061
▁phenotyping	-12.2062
▁2027	-12.2063
easing	-12.2067
▁Advanc	-12.2072
▁34.1	-12.2072
▁multiply	-12.2076
3/30	-12.2079
▁107	-12.208
andemic	-12.208
.44)	-12.2083
▁gran	-12.2085
▁schedules	-12.2087
pods	-12.2088
▁Particularly	-12.209
▁en	-12.2091
▁seropositives	-12.2092
(42	-12.2092
alone	-12.2094
▁HE	-12.2095
REA	-12.2097
dama	-12.2098
ollectively	-12.2103
▁elo	-12.2103
Immuno	-12.2103
▁bank	-12.2107
▁Automat	-12.2107
inform	-12.2111
▁27.7	-12.2111
FOR	-12.2112
La	-12.2116
▁1,4	-12.2118
-0.65	-12.212
▁smalle	-12.2121
2.11	-12.2124
▁Compa	-12.2124
acceptabl	-12.2129
Prevalence	-12.2132
▁lists	-12.2134
▁beds	-12.2138
ocon	-12.2139
welling	-12.2142
-91	-12.2143
742	-12.2149
8.3-	-12.2149
Current	-12.2149
LB	-12.2155
oly	-12.2156
▁Vol	-12.2157
▁unmask	-12.2159
▁appe	-12.2159
▁CFP	-12.2163
3.04	-12.2165
respond	-12.2166
▁sin	-12.2166
outs	-12.2167
isentangl	-12.2169
onical	-12.2172
▁pairing	-12.2174
=1.56	-12.2175
▁initiati	-12.2175
lade	-12.2177
▁det	-12.2179
=-	-12.2185
calibrat	-12.2193
3.0%	-12.2193
mell	-12.2202
▁906	-12.2203
▁Bm	-12.2209
7:	-12.2221
ARC	-12.2223
993	-12.2225
▁76	-12.2227
▁folding	-12.2228
hic	-12.2229
=0.92	-12.223
ransfusion	-12.2231
▁schizonts	-12.224
}43	-12.224
anga	-12.2245
jac	-12.2245
-65.	-12.2247
2.0	-12.2252
▁transl	-12.2258
▁steriliz	-12.2263
▁stand	-12.2264
431	-12.2266
=48	-12.2271
▁0.86)	-12.2273
protect	-12.2274
edRxiv	-12.2275
2,98	-12.2279
280	-12.2279
▁gas	-12.228
▁band	-12.2281
▁acet	-12.2286
▁heads	-12.229
ENT	-12.2292
rely	-12.2293
icilli	-12.2293
ndices	-12.2295
▁2/3	-12.2299
▁(36	-12.2299
41-0.6	-12.2301
▁(1,1	-12.2305
▁practiced	-12.2311
redictors	-12.2336
5144	-12.2336
nted	-12.2346
81)	-12.2351
others	-12.2359
(1)	-12.2364
(7)	-12.2365
0.53	-12.2367
pair	-12.2381
▁q	-12.2382
▁spe	-12.2384
▁15.9	-12.2388
GA	-12.2391
insured	-12.2395
▁Administrati	-12.2398
0.76	-12.2405
▁Giv	-12.2406
▁(46.	-12.2415
57%)	-12.2416
equity	-12.2418
▁bas	-12.2419
34)	-12.2419
=0.57	-12.2426
▁(83.	-12.2431
▁Affect	-12.244
▁0.42-	-12.244
▁researches	-12.2449
ved	-12.2452
hosts	-12.2452
gus	-12.2452
-78%)	-12.2453
845)	-12.2458
▁103	-12.2463
According	-12.2464
nger	-12.2465
rong	-12.2466
▁quantifie	-12.2478
MEA	-12.2478
▁makers	-12.2478
uan	-12.2481
ys	-12.2489
▁1.56	-12.2495
approv	-12.25
▁SummaryA	-12.2501
ke	-12.2505
hap	-12.2505
MD	-12.2506
▁16.	-12.2512
-9.1	-12.2515
▁try	-12.2526
ined	-12.2528
▁10.1	-12.2531
▁14.3	-12.2532
figur	-12.2533
▁196	-12.2534
2020-2022	-12.2536
17{	-12.2537
85)	-12.2537
▁(46	-12.2541
ru	-12.2546
MethodsAn	-12.2547
ighlights	-12.255
▁aetiolog	-12.2551
▁17.	-12.2559
▁8.3	-12.2561
▁Thir	-12.2561
647	-12.2566
5.8)	-12.2567
▁0.93	-12.2576
4-9	-12.2579
▁Dis	-12.2579
▁Mis	-12.2581
▁attain	-12.2585
▁ris	-12.2586
▁ch	-12.2591
CK	-12.2591
rty	-12.2592
▁orally	-12.2593
He	-12.2599
▁hypercoagulab	-12.26
winter	-12.26
▁camp	-12.2603
ediment	-12.2604
Nearly	-12.2609
7,8	-12.2611
zygot	-12.2615
▁chemicals	-12.2616
13.6%	-12.2621
▁summaryFo	-12.2627
phobi	-12.2628
nResultsA	-12.2629
7.8%	-12.2631
▁alignments	-12.2634
357	-12.2637
autonom	-12.2637
ema	-12.264
▁(6%	-12.2641
▁Ta	-12.2648
0.66	-12.2649
▁5,5	-12.2652
▁trac	-12.2653
▁79.	-12.2656
▁swath	-12.2662
▁1.90	-12.2663
▁0-0.	-12.2665
EL	-12.2667
reated	-12.2667
cin	-12.2667
GM	-12.2668
istered	-12.2677
▁Plasm	-12.2679
Mon	-12.2684
▁adv	-12.2684
1626	-12.2684
▁leave	-12.2687
-4.	-12.2689
▁UN	-12.2696
▁rel	-12.2696
pregulation	-12.2717
ental	-12.2718
▁com	-12.272
▁15-27	-12.2723
▁am	-12.2723
=1.40	-12.2723
minate	-12.2725
▁%)	-12.2726
IB	-12.2731
=0.01)	-12.2733
creasing	-12.2739
meters	-12.274
▁proxim	-12.2745
▁rea	-12.275
.85%	-12.2751
▁illu	-12.2752
▁interspeci	-12.2753
3]	-12.2755
1.14)	-12.2768
▁ConclusionsMo	-12.277
2.45	-12.2787
KSS	-12.2795
▁Met	-12.2795
▁Par	-12.2797
▁1-4	-12.28
▁Force	-12.2802
CoE	-12.2806
▁11.3	-12.2811
704	-12.2813
glycol	-12.2815
arra	-12.2825
inde	-12.2826
/6	-12.2828
han	-12.2829
everag	-12.2832
▁addi	-12.2832
splines	-12.2837
▁ul	-12.2837
ew	-12.2848
8.9%	-12.285
▁Fi	-12.2856
▁17)	-12.2862
TIRS	-12.2862
▁phylogenetics	-12.2863
tream	-12.2865
opy	-12.2869
60-	-12.2869
80)	-12.2869
345	-12.287
▁AI	-12.2873
▁InterpretationI	-12.2878
▁0.097	-12.288
tern	-12.2886
lt	-12.2886
elected	-12.2889
etrospective	-12.2889
-70%)	-12.289
▁62%)	-12.2891
-33	-12.2894
▁Day	-12.2895
▁null	-12.2897
ICIPA	-12.2907
▁BackgroundN	-12.2912
▁74,	-12.2925
▁shorten	-12.2925
▁1.26	-12.2925
factor	-12.293
▁84.	-12.2938
cation	-12.2951
931	-12.2951
▁Regula	-12.2952
cilla	-12.2952
▁Myo	-12.2959
▁minute	-12.296
(100%	-12.2966
▁inoculate	-12.2981
,062	-12.2982
9.4%	-12.2987
2000-2010	-12.2987
▁mot	-12.2991
▁remarkabl	-12.2994
:20	-12.2995
▁name	-12.3001
▁Fa	-12.3003
iver	-12.3004
▁Cul	-12.3011
:1	-12.3015
▁Ca	-12.3016
ish	-12.3019
sp	-12.3021
▁87.	-12.3029
▁precis	-12.3029
-0.73	-12.3034
▁inoculations	-12.3037
transportation	-12.3047
dequate	-12.3053
863	-12.3056
real	-12.3061
▁pupa	-12.3063
80%	-12.3065
▁technic	-12.3071
▁Registr	-12.3075
60.	-12.3079
ntine	-12.3083
30%	-12.3089
▁RM	-12.3093
iro	-12.3098
▁Fo	-12.3103
ignificanceThe	-12.3104
▁Sm	-12.3111
▁borders	-12.3113
7.6%	-12.3114
Out	-12.312
57/1	-12.3123
499	-12.3131
=5	-12.3131
▁Cal	-12.3133
▁fra	-12.3141
▁man	-12.3141
6:	-12.3147
udi	-12.3147
7.9%	-12.315
▁fu	-12.315
earning	-12.3156
van	-12.3161
ks	-12.3163
▁Pregnan	-12.3168
▁0.12	-12.3173
▁pe	-12.3184
▁summaryE	-12.3197
osoph	-12.32
iological	-12.32
ildlife	-12.3202
mia	-12.3206
medicat	-12.3207
▁234	-12.3216
▁square	-12.3216
▁3.09	-12.3216
SIR	-12.3218
eep	-12.3222
transferase	-12.3224
▁95.	-12.3228
SC	-12.3231
▁formulat	-12.3242
-0.99)	-12.3247
▁player	-12.3249
}89	-12.3249
▁IntroductionT	-12.3253
▁verifi	-12.3255
▁CS	-12.3256
aire	-12.3264
-37	-12.3267
▁od	-12.3273
▁hol	-12.3273
langa	-12.3274
76/1	-12.3276
▁92	-12.3281
▁bill	-12.3288
5.5%)	-12.3292
,066	-12.3294
▁ste	-12.3298
upplement	-12.3306
aeus	-12.3308
7.0	-12.3308
Estimation	-12.3321
ped	-12.3323
▁invest	-12.3324
▁den	-12.3327
ron	-12.3334
▁IntroductionNo	-12.3339
lpha	-12.3339
HMG	-12.3347
eath	-12.335
malarials	-12.3357
30.	-12.3362
506	-12.3364
▁2-11	-12.338
▁scann	-12.338
ecu	-12.3384
destin	-12.3386
▁coordinate	-12.3388
pac	-12.3388
▁haemato	-12.3395
ozoa	-12.3397
idae	-12.3401
▁Replicati	-12.341
NMC	-12.3412
▁33-	-12.3415
evolutionar	-12.3419
▁recognise	-12.342
ann	-12.3431
uill	-12.3431
onous	-12.3439
-24	-12.3447
5-6	-12.3451
valu	-12.3464
▁transform	-12.3469
▁(86	-12.3474
riet	-12.3481
0.1%	-12.3484
▁classifie	-12.3491
unicipalities	-12.3496
69.4%	-12.3502
LIRea	-12.3514
47,	-12.3517
▁2,4	-12.3518
6.5%)	-12.3522
▁1.19	-12.3522
▁17:	-12.3525
Over	-12.3527
▁12,	-12.3534
ator	-12.354
98)	-12.3544
24-	-12.3545
▁overc	-12.3546
dimer	-12.3549
Penta	-12.3561
▁50.	-12.3564
espirator	-12.3568
183	-12.3571
▁moder	-12.3574
▁6-1	-12.3577
equired	-12.3578
▁peaked	-12.3581
etagenomic	-12.3582
OST	-12.3582
comes	-12.3585
icida	-12.3585
-43	-12.3592
▁pres	-12.3595
Sal	-12.3602
▁ban	-12.3603
urposive	-12.3607
142	-12.3608
=4	-12.3612
orous	-12.3614
em	-12.3614
▁Transcript	-12.3618
disproportionate	-12.3625
▁(-)	-12.3626
silence	-12.3629
angi	-12.3629
assa	-12.3637
MENT	-12.3639
oxa	-12.3645
.32	-12.3646
.6-100%)	-12.3664
▁Distr	-12.3671
▁[0.5	-12.3671
▁6.3	-12.3673
II	-12.3675
EAL	-12.3676
▁individually	-12.3677
89%)	-12.3697
Sub	-12.3697
sustain	-12.3699
572	-12.3702
▁(22.	-12.3712
cated	-12.3714
▁localiz	-12.3726
pu	-12.3729
15,	-12.373
▁logistics	-12.3738
later	-12.374
29.6%	-12.3741
▁Hepati	-12.3758
▁envi	-12.3758
390	-12.376
232	-12.3762
▁0.36	-12.3766
his	-12.3769
▁4,82	-12.3776
ans	-12.3794
50.	-12.3801
derstanding	-12.3805
▁urg	-12.3806
▁(90%	-12.3806
▁stimulat	-12.3808
0.08,	-12.381
▁FindingsM	-12.3815
▁NA	-12.3818
▁inher	-12.3827
gly	-12.3831
38-4	-12.3839
▁multipl	-12.3854
▁Contrar	-12.3855
▁Hal	-12.3861
▁visi	-12.3861
-31.	-12.3866
8/	-12.3872
299	-12.3886
▁16.9	-12.3892
trib	-12.3898
precipitat	-12.39
gible	-12.3903
▁3-11	-12.3903
▁indicati	-12.3911
.43)	-12.3911
▁99.	-12.3914
2.25	-12.3915
▁app	-12.3924
▁today	-12.3927
stand	-12.3929
3/2	-12.3932
▁mov	-12.3935
▁subclass	-12.3951
69,	-12.3964
▁crossing	-12.3969
▁yo	-12.3969
rico	-12.3971
▁afterward	-12.3971
/)	-12.3981
iti	-12.3985
47	-12.3999
▁antise	-12.4002
=2)	-12.4003
56)	-12.402
5{	-12.4025
=93	-12.4025
▁spectr	-12.4028
ses	-12.4031
nConclusionA	-12.4032
ntic	-12.4053
▁familia	-12.4053
Support	-12.4058
▁(83	-12.4059
▁literatures	-12.4061
ces	-12.4078
▁pf	-12.4085
llo	-12.4087
▁encode	-12.4089
93/1	-12.4095
ABSW	-12.4103
dr	-12.4109
▁(85.2	-12.4113
.3	-12.4116
Pregnan	-12.4124
344	-12.4128
▁(19	-12.4136
53	-12.4143
served	-12.4144
ito	-12.4149
▁Lu	-12.4154
▁references	-12.4157
ophag	-12.4173
Last	-12.4175
▁Vers	-12.4177
▁2021-20	-12.4177
SFPs	-12.4178
match	-12.418
6-6.	-12.4194
vision	-12.4195
PRT	-12.4199
add	-12.4204
▁parasiti	-12.4211
nfluenza	-12.4211
▁Ac	-12.4221
▁4.8	-12.4226
LIN	-12.4228
rogression	-12.424
ntermittent	-12.4251
▁(65.	-12.4258
mans	-12.4263
18,	-12.4265
383	-12.4271
▁937	-12.4276
▁forty	-12.4282
ination	-12.4307
.4)	-12.4313
=2.0	-12.4315
nResultsM	-12.4319
ams	-12.4321
ceptor	-12.4329
eldin	-12.4336
dah	-12.4337
60)	-12.4338
3.8	-12.4339
▁2023)	-12.4344
pica	-12.435
▁98.4	-12.4351
lmon	-12.4352
131	-12.4354
urin	-12.4362
▁Major	-12.4362
/3	-12.4363
▁0.365	-12.4374
▁premi	-12.4378
▁34,	-12.4384
▁BackgroundVir	-12.4385
ridge	-12.4391
▁assembl	-12.4392
45)	-12.4393
▁Nove	-12.4398
elative	-12.4402
▁cr	-12.4406
11-	-12.4413
▁underlin	-12.4426
rous	-12.4427
747	-12.4429
new	-12.4433
oid	-12.4433
83	-12.4438
▁Wo	-12.4438
ens	-12.4445
▁SAE	-12.4448
.64	-12.446
▁308	-12.4469
-78%	-12.448
3.6	-12.4481
246	-12.4501
▁0.10	-12.4502
founders	-12.4511
elf	-12.4516
azi	-12.4518
ama	-12.4518
ounce	-12.4522
ford	-12.4524
quant	-12.4539
64%)	-12.454
87,	-12.4549
2,79	-12.4555
camp	-12.4555
ager	-12.4572
▁cam	-12.4579
AN	-12.4584
▁ingest	-12.4585
▁exc	-12.4592
▁Distribut	-12.4594
euro	-12.4603
ced	-12.4605
interpolation	-12.4607
-7.	-12.4618
;]4.	-12.4625
01)	-12.4634
<5	-12.4647
0.98	-12.4648
▁(57.6	-12.4652
▁Repe	-12.4653
3-0.9	-12.4665
707	-12.4674
-3)	-12.468
▁ConclusionsTh	-12.4688
tality	-12.4696
▁utilis	-12.4706
hatching	-12.4712
▁ter	-12.4716
ctivity	-12.4724
aternal	-12.473
▁cancel	-12.473
ompt	-12.4736
=0.027	-12.4741
▁0.56	-12.475
▁1,0	-12.4751
62	-12.4765
▁(0.02	-12.4766
0/3	-12.4789
tomic	-12.4791
mous	-12.4795
sec	-12.4798
▁syn	-12.4801
▁BackgroundAn	-12.4817
0.035)	-12.4827
▁(76	-12.4833
1-6	-12.4842
▁blot	-12.487
Amp	-12.4872
arkers	-12.4873
-18.4	-12.4879
ght	-12.489
9/1	-12.4891
precede	-12.4897
=62	-12.4898
▁5.6	-12.4902
2.4)	-12.4905
9.6%	-12.4915
106	-12.4921
913	-12.4924
ugal	-12.4927
erv	-12.4929
▁resi	-12.493
▁<0.0001)	-12.4938
hat	-12.4945
ull	-12.4945
3.44	-12.4949
cyto	-12.4952
=29	-12.4963
3-4.	-12.4969
▁opti	-12.4975
▁(82.4	-12.4982
loid	-12.4985
nci	-12.4994
▁relate	-12.501
▁propagate	-12.5023
24-0.	-12.5024
OI	-12.5043
ates	-12.5045
▁1,12	-12.5048
▁insufficien	-12.5048
6.15	-12.5049
SINA	-12.5053
▁(53	-12.5059
▁univers	-12.5067
▁100-	-12.5071
388,	-12.5073
▁initia	-12.5081
243	-12.5086
nteractions	-12.5087
ig	-12.5087
69%)	-12.509
=20	-12.5094
hin	-12.5094
▁emphasise	-12.5098
69)	-12.5099
▁BackgroundRe	-12.5103
1.25	-12.5122
pri	-12.5123
elatedness	-12.5123
0.93).	-12.5134
▁whi	-12.5139
▁(0.6	-12.5152
pt	-12.5153
pecies	-12.5166
▁fields	-12.5166
▁28-	-12.5169
2.9%)	-12.5169
PBS	-12.5173
lk	-12.5182
imag	-12.5187
▁3-7	-12.5191
4998	-12.5199
0.047	-12.5201
▁mat	-12.5206
rt	-12.5209
▁(141	-12.5211
▁(18	-12.5219
sides	-12.5221
EM	-12.5227
▁Adapt	-12.523
ylo	-12.5231
▁proliferate	-12.5239
▁(<1	-12.5257
seen	-12.5261
35,	-12.528
orkers	-12.5283
placement	-12.5283
ResultsU	-12.5293
30,	-12.5306
▁11.1	-12.5308
▁justifi	-12.5309
do	-12.531
AM	-12.5321
264	-12.5326
▁midge	-12.5329
▁Flu	-12.5344
391	-12.5345
▁distinguishe	-12.5355
redi	-12.5359
▁cit	-12.5361
abies	-12.5375
85%	-12.5376
▁stagna	-12.5378
▁Ten	-12.5388
▁FundingN	-12.5396
ndar	-12.5406
oyal	-12.5409
spo	-12.541
▁devise	-12.5414
alibrati	-12.5426
gon	-12.5429
▁0.54-	-12.5431
▁matur	-12.5435
oc	-12.5469
itation	-12.5475
▁Preventi	-12.5476
rum	-12.5479
79,	-12.5481
▁Integr	-12.5485
▁Sing	-12.5492
▁ac	-12.5495
Associat	-12.5517
203	-12.5518
ased	-12.5518
Meta	-12.5526
elled	-12.5528
▁approximat	-12.554
erial	-12.5564
ALYS	-12.5567
▁154	-12.5572
▁cra	-12.5575
6.0%	-12.5585
▁registrationTh	-12.5596
RIA	-12.5607
Bas	-12.5612
ogenous	-12.5618
possibl	-12.5618
isol	-12.5628
88,	-12.5632
iz	-12.5636
13.7	-12.5637
-119	-12.5642
vel	-12.5644
▁findingsT	-12.5651
-5	-12.5657
,000-	-12.566
etami	-12.5667
22,	-12.5678
=9	-12.5679
▁LD	-12.5693
▁IntroductionA	-12.5694
▁suicid	-12.5695
nsurance	-12.5696
Ri	-12.5713
▁ki	-12.5715
▁constitut	-12.5718
=4.	-12.5724
▁2022-	-12.5726
eli	-12.573
rapies	-12.5767
48)	-12.5772
ough	-12.5773
164	-12.5775
filters	-12.5776
etting	-12.5778
morph	-12.5786
▁Que	-12.5786
▁assur	-12.5786
wer	-12.5789
Kol	-12.5789
eris	-12.5797
ros	-12.5798
▁anticipat	-12.5803
lays	-12.5805
997	-12.5806
omic	-12.5811
▁hal	-12.5812
-75%	-12.5815
793	-12.5829
1.61	-12.5833
▁inf	-12.584
awa	-12.5841
71-	-12.5844
603	-12.5846
.79%	-12.5846
▁displace	-12.5849
regulation	-12.5852
plac	-12.5854
▁carb	-12.5865
▁Contr	-12.5866
lower	-12.5884
dian	-12.5898
▁0.49	-12.5911
▁assembli	-12.5935
998)	-12.5947
trav	-12.5951
TRI	-12.5952
]=	-12.596
residu	-12.5964
so	-12.5968
MIC	-12.5969
composed	-12.5973
matche	-12.5974
36.2	-12.5978
▁sixt	-12.5979
vasion	-12.5983
MATE	-12.5985
IPD	-12.5991
▁(88.	-12.6003
mid	-12.6005
▁interpolat	-12.6011
▁IntroductionM	-12.6013
▁cer	-12.6014
1.5%	-12.6021
eAm	-12.6023
inal	-12.6025
BN	-12.6031
ABST	-12.6045
hree	-12.6047
▁Manage	-12.6049
▁subsid	-12.6065
Case	-12.6065
.67%	-12.6067
▁lat	-12.607
visi	-12.6071
utin	-12.6082
nkan	-12.6101
izer	-12.6114
veral	-12.6116
nversely	-12.6127
▁(13.	-12.6133
1.8-	-12.6142
3/22	-12.6143
-0.78	-12.6152
elve	-12.6154
termina	-12.6158
gue	-12.616
▁PI	-12.6164
lum	-12.6174
solic	-12.6185
nophen	-12.6189
▁Inf	-12.6209
▁commen	-12.6212
hy	-12.6213
▁<2	-12.6223
epeat	-12.6232
▁((	-12.625
▁89.0	-12.6265
af	-12.6271
]2	-12.6293
▁spect	-12.6295
ctin	-12.6303
▁don	-12.6304
traction	-12.6316
▁Nat	-12.632
gm	-12.6324
▁50-	-12.6325
eceptor	-12.6327
uce	-12.6353
elimina	-12.6359
▁misclassifi	-12.6364
▁6,	-12.6374
▁SummaryNe	-12.6374
fatalit	-12.638
▁Appe	-12.6391
edical	-12.6396
mmunosuppression	-12.6416
▁15-4	-12.6419
▁gra	-12.6456
▁Typical	-12.6459
▁hemato	-12.647
6.3%)	-12.6471
▁localis	-12.6471
▁NP	-12.6474
▁(8.5%	-12.6498
rbanization	-12.6499
=1.2	-12.6502
▁scor	-12.6502
phag	-12.6508
7])	-12.651
▁Past	-12.6514
.8	-12.6516
▁stimulate	-12.6527
▁233	-12.6527
▁Recurr	-12.653
pping	-12.6536
-2019	-12.6546
▁similarit	-12.6558
▁(0.000	-12.6558
▁compos	-12.657
munoprecipitat	-12.6576
▁hyperparasit	-12.6588
▁24.5	-12.66
IH	-12.6618
themat	-12.6618
3.8)	-12.6623
unc	-12.663
silenc	-12.6633
AZ	-12.6638
cov	-12.6654
NGE	-12.666
▁San	-12.666
▁famili	-12.6663
lative	-12.6665
bra	-12.6673
ogenesis	-12.6678
-90	-12.6685
▁Mai	-12.669
808	-12.6692
refe	-12.6693
gs	-12.6701
▁extrapolat	-12.672
▁0.30	-12.6731
▁Transi	-12.6733
▁20-	-12.6733
▁Ar	-12.6739
▁technologi	-12.6741
zi	-12.6746
▁purchas	-12.6747
▁differe	-12.6757
/313	-12.6764
▁susp	-12.677
▁Confi	-12.6776
operati	-12.6781
were	-12.6784
▁WI	-12.6784
eference	-12.6789
▁Des	-12.6793
nning	-12.6796
poli	-12.681
0.29	-12.6811
employ	-12.6816
▁bre	-12.6817
▁5.	-12.682
7.7	-12.6826
▁Work	-12.6834
▁(69%	-12.6835
74)	-12.6843
asked	-12.6843
▁aggregat	-12.6847
▁5.5	-12.6852
▁grad	-12.6879
▁psycho	-12.6884
nthly	-12.6891
bal	-12.6897
▁EWE	-12.69
SSR	-12.6911
pper	-12.6929
▁254	-12.6939
▁inclu	-12.6944
▁3000	-12.6969
ear	-12.6974
▁slo	-12.6993
557	-12.6996
DP	-12.7003
▁Transf	-12.7011
▁notifi	-12.7018
▁utilise	-12.702
▁Bor	-12.7043
0.05	-12.7043
enyl	-12.7044
her	-12.705
▁popul	-12.706
uco	-12.7061
ajority	-12.7072
▁388	-12.7084
Wide	-12.7097
ode	-12.7108
rolong	-12.7108
▁Regressi	-12.7117
wan	-12.7119
▁patho	-12.7122
lonal	-12.7126
▁prioritis	-12.7129
7.8%)	-12.7139
api	-12.7152
prof	-12.7165
▁Fe	-12.7167
jar	-12.7173
ology	-12.7174
82.7%	-12.7175
cision	-12.7185
eta	-12.7201
▁gro	-12.7215
nar	-12.7234
52.2%	-12.7242
▁respons	-12.725
▁3.1	-12.7258
▁disproportiona	-12.7259
▁4-1	-12.7263
▁competit	-12.7283
Ba	-12.7285
cra	-12.7291
aries	-12.7291
CPD	-12.7297
GRA	-12.7298
▁Gate	-12.7303
1,000)	-12.7334
7.	-12.734
▁135	-12.7344
Nep	-12.7347
▁medi	-12.7348
18.4%	-12.7361
2.28	-12.7372
▁sul	-12.7373
ospitalization	-12.7375
quarters	-12.7386
equal	-12.7387
varian	-12.7393
carb	-12.7396
0(	-12.7401
laria	-12.7402
amples	-12.7404
▁techn	-12.7407
SignificanceW	-12.7414
ConclusionU	-12.7428
649	-12.7432
36-6	-12.7435
▁(6.2	-12.7436
-80	-12.7467
▁necessitate	-12.7469
▁expe	-12.7482
8-	-12.7489
5/	-12.7497
mating	-12.7507
▁(4.	-12.7507
92)	-12.7512
▁Minim	-12.7516
ept	-12.7529
aza	-12.7534
▁264	-12.7541
▁realize	-12.7542
4.75	-12.7557
rac	-12.756
(83%	-12.7567
bserved	-12.758
az	-12.759
05)	-12.7597
▁coordinat	-12.7597
▁illustrati	-12.76
▁affordab	-12.76
▁stabiliz	-12.7603
Plus	-12.7612
.2-3	-12.7615
74	-12.7621
guide	-12.7622
▁filt	-12.7623
propri	-12.7628
ja	-12.7638
▁theor	-12.7643
hyperparasitaemi	-12.7646
reas	-12.7648
9-52	-12.7649
▁intri	-12.7652
▁0.67	-12.7652
Predict	-12.7653
▁Frequen	-12.7663
▁(7.	-12.7663
trico	-12.7672
alibrat	-12.7676
1.0	-12.7697
nant	-12.7698
:-0.	-12.7703
▁Depend	-12.7709
▁terminat	-12.7714
CF	-12.773
▁weake	-12.7734
raft	-12.775
mulation	-12.7754
va	-12.777
itive	-12.7784
POT	-12.7785
sal	-12.7802
3.4%	-12.7808
ideal	-12.7812
▁ObjectiveTh	-12.7813
ervic	-12.7832
ICT	-12.7837
▁pyro	-12.7877
▁Wild	-12.788
▁(9.2%	-12.788
ert	-12.7889
ceived	-12.7915
86%)	-12.7944
45.5%	-12.7948
▁(34.4	-12.7949
▁Adequa	-12.7957
▁Tak	-12.7958
66,	-12.7985
▁biome	-12.7991
cally	-12.7991
SI	-12.7991
annot	-12.8009
.73)	-12.8013
▁IntroductionDe	-12.8017
▁Tog	-12.8022
358	-12.8034
leishmani	-12.8044
anti	-12.805
▁0.43	-12.8057
edian	-12.8057
/-}2.	-12.8061
tors	-12.8079
15)	-12.8082
TPR	-12.8096
▁Cor	-12.8103
383,	-12.811
Co	-12.8115
▁Indo	-12.8119
sera	-12.8128
9-5	-12.813
ement	-12.813
27)	-12.8134
▁FindingsH	-12.8139
▁porta	-12.8154
▁43.	-12.8168
50.5%	-12.817
isting	-12.8185
▁(92.	-12.8197
▁Increas	-12.821
066)	-12.8212
(3	-12.8215
▁CON	-12.822
669	-12.8225
482	-12.824
335)	-12.8243
▁(33	-12.8247
scope	-12.8249
▁(6.9	-12.8251
HbA	-12.8259
.9-52	-12.8265
8.7%	-12.8268
lled	-12.829
LIMa	-12.8292
▁1.34	-12.8298
▁(17.	-12.8319
pos	-12.832
8.0%	-12.8336
▁infl	-12.834
▁spec	-12.8344
▁collaborati	-12.8346
DH	-12.8349
▁collapse	-12.8375
elief	-12.8387
▁Suc	-12.8405
▁191	-12.8409
▁49.8	-12.841
99)	-12.8412
▁Mic	-12.8416
▁95.0	-12.8417
.7-4.	-12.8421
;]0.	-12.8428
ES	-12.8428
ock	-12.8432
▁moderat	-12.8439
expos	-12.8442
musc	-12.8443
▁bino	-12.8448
▁[(	-12.8456
▁StatementM	-12.8458
▁61	-12.8465
5-70%	-12.847
1.64	-12.8473
Sent	-12.8475
pecificity	-12.8484
picomplexans	-12.8487
▁-0.	-12.8494
▁transf	-12.8495
540	-12.8501
.2	-12.8504
0.70-0.	-12.8509
driv	-12.851
▁spline	-12.8519
▁15-2	-12.853
7-2	-12.8532
▁7.8	-12.8535
.63)	-12.8542
IA	-12.8573
▁72.	-12.8574
▁cau	-12.8581
291	-12.8586
1.6%	-12.8588
▁deposit	-12.8588
022	-12.8588
565	-12.8604
▁beh	-12.8605
ie	-12.8608
analyte	-12.8609
▁1.01-	-12.8615
llicle	-12.8627
▁(48	-12.8631
▁bear	-12.8633
65.0%	-12.8633
ec	-12.867
▁35-4	-12.867
4.0%	-12.8693
82,	-12.8709
▁arb	-12.8717
▁58,	-12.873
estimated	-12.8742
patients	-12.8758
nResultsMe	-12.8766
800	-12.8784
2313	-12.8786
,82	-12.8786
squi	-12.8793
diabetics	-12.8799
▁5.1	-12.8807
▁77.3	-12.881
▁0.000	-12.8815
52%	-12.8816
UNI	-12.8821
▁que	-12.8831
65.1%	-12.8835
ophobi	-12.8846
3-2.	-12.8854
535	-12.8855
▁Som	-12.8858
▁34.	-12.8863
0.01,	-12.8873
▁Mill	-12.8874
▁humanize	-12.8875
mone	-12.8878
▁overw	-12.8883
ldin	-12.8883
▁195	-12.8893
Hb	-12.8896
62.	-12.8896
73	-12.8902
LR	-12.8907
con	-12.8907
▁24.4	-12.8912
arasites	-12.8912
▁Ad	-12.8912
51%	-12.8923
,62	-12.8944
▁muc	-12.8951
ient	-12.8951
uc	-12.8951
▁(85	-12.8957
57)	-12.8985
61%	-12.8988
▁Wha	-12.899
▁1.09	-12.9006
▁geos	-12.9019
fi	-12.9049
dex	-12.9055
RESE	-12.9059
1.4%	-12.9075
▁1.08	-12.909
▁BackgroundUnder	-12.9102
zes	-12.9109
-15	-12.9121
▁Lac	-12.9124
vas	-12.9127
cay	-12.9134
▁Continu	-12.9135
hose	-12.9136
amo	-12.9142
abel	-12.9145
clone	-12.9145
int	-12.915
pot	-12.9164
37,	-12.9165
merging	-12.9169
netic	-12.9172
nts	-12.9176
▁2000-201	-12.9178
▁65.9	-12.9179
ESTI	-12.918
tag	-12.9191
rne	-12.9191
(90%)	-12.9192
0.9	-12.9207
▁116	-12.9208
equalities	-12.9215
▁mask	-12.9215
ssa	-12.9222
significant	-12.9231
▁2014-20	-12.9241
.9	-12.9243
▁Cos	-12.9243
▁zoite	-12.9246
398	-12.9247
(2	-12.9256
ff	-12.9258
59,	-12.9259
-5.8	-12.9263
modifie	-12.9274
▁71.	-12.9278
143	-12.9293
pathy	-12.9294
▁Nation	-12.9297
EC	-12.9305
746	-12.9317
0.9%	-12.9318
▁ANA	-12.9324
acchar	-12.9328
▁SummaryDe	-12.9334
geo	-12.9345
1,5	-12.9348
diagnosis	-12.9349
▁disc	-12.9353
▁0%	-12.9358
▁intimat	-12.9364
5.3%	-12.9367
rthoflaviviruses	-12.937
groups	-12.9374
5-44	-12.939
Protect	-12.9398
▁SummaryD	-12.94
28)	-12.9405
involv	-12.9407
▁introduc	-12.9411
▁sali	-12.9414
0-9	-12.942
▁38.	-12.942
8.5%)	-12.9423
905	-12.9427
▁segregati	-12.9434
▁ConclusionsC	-12.9437
▁Pas	-12.9437
▁fl	-12.9445
cases	-12.9448
prot	-12.9458
oding	-12.946
There	-12.9486
ulicid	-12.9492
1,4	-12.95
ective	-12.9511
nHigh	-12.9511
62/2	-12.9512
▁Nor	-12.9514
lm	-12.9518
pul	-12.9521
pe	-12.9523
▁4.6%	-12.9527
▁58.	-12.9529
▁capa	-12.953
SAS	-12.9535
pl	-12.9541
▁alphavir	-12.9543
SignificanceTh	-12.9547
hospitalizations	-12.9549
▁0.42	-12.9549
4202	-12.9565
255	-12.9566
▁mer	-12.9567
exploit	-12.9575
(7	-12.9586
Col	-12.959
7.0-	-12.9597
%-81	-12.9598
087	-12.9602
93/	-12.9618
eme	-12.962
ounc	-12.9627
enable	-12.9649
2016)	-12.9663
nately	-12.9663
1/16	-12.9666
▁larvicid	-12.9682
▁2011-20	-12.9692
▁valua	-12.9695
nexpected	-12.97
ugg	-12.9713
▁0.44	-12.9714
metry	-12.9718
pm	-12.9718
3_10	-12.9725
468	-12.9726
▁pot	-12.9729
FRO	-12.9733
▁2000-20	-12.9734
▁Sal	-12.974
▁Feb	-12.9743
mentation	-12.9767
▁rep	-12.9771
▁adopti	-12.9774
entangl	-12.9787
▁too	-12.9794
▁285	-12.9802
▁315	-12.9805
lve	-12.9816
imi	-12.9822
rift	-12.9827
▁anthropometr	-12.9831
3.3	-12.9839
essed	-12.9844
Control	-12.9847
cho	-12.9848
chia	-12.985
1,845	-12.9852
▁MethodologyO	-12.9856
406)	-12.9859
▁educate	-12.986
77,	-12.9862
▁revi	-12.9867
▁Prim	-12.9869
rigin	-12.9877
▁analy	-12.9878
▁2020-202	-12.9879
9.7	-12.9882
apilla	-12.9883
nae	-12.9887
ncy	-12.9895
▁participa	-12.99
6.	-12.9906
▁summaryMos	-12.9914
▁transcript	-12.9915
acceptab	-12.992
mD	-12.9937
mark	-12.9938
Vi	-12.9941
ded	-12.9941
ific	-12.9944
,794	-12.9944
institute	-12.9957
▁1.70	-12.9961
▁loca	-12.9961
▁bacteri	-12.9962
▁sol	-12.9972
compared	-12.9977
033	-12.9979
erit	-12.9981
iruses	-12.9982
vivax	-12.9989
Haplotyp	-12.999
projects	-13.0003
▁SummaryL	-13.0004
▁(38	-13.0005
SEA	-13.0005
kin	-13.001
-0.3	-13.0011
▁Eliminate	-13.0028
ove	-13.0037
recovere	-13.0043
2020	-13.0052
658	-13.0056
▁nurs	-13.0082
014	-13.0087
fits	-13.0089
option	-13.0089
▁multivaria	-13.0105
▁uninform	-13.0105
positivity	-13.0106
esp	-13.0106
▁1.35	-13.0108
43%)	-13.0114
▁increas	-13.0128
show	-13.013
▁Qu	-13.0139
%-1.	-13.0146
incidence	-13.0153
mu	-13.0157
rn	-13.0161
▁4.0	-13.0164
olacein	-13.0167
0]	-13.0168
▁Divers	-13.0168
▁TRE	-13.017
▁transferrin	-13.0177
▁25.3	-13.0184
▁5-1	-13.0192
llows	-13.0198
▁practic	-13.0203
break	-13.0207
function	-13.0208
oticeabl	-13.0212
23)	-13.0217
8])	-13.0217
map	-13.0226
156	-13.0229
LIC	-13.0234
▁7-	-13.0239
2021	-13.0246
higher	-13.025
36.3%	-13.0251
62%)	-13.0252
olds	-13.0261
liv	-13.0265
▁57%	-13.0265
ler	-13.0266
funder	-13.0268
own	-13.0268
▁promoti	-13.027
▁ancest	-13.0271
0.4	-13.0277
under	-13.0297
-93	-13.03
ren	-13.031
▁MethodsFo	-13.031
culate	-13.0319
stimulate	-13.0335
during	-13.0335
▁summaryVi	-13.0335
win	-13.0338
gnanc	-13.034
val	-13.0341
▁star	-13.0345
6/3	-13.0345
743	-13.0348
diagnostic	-13.0352
▁7.8%	-13.0364
dic	-13.0365
9.9)	-13.0366
▁339	-13.0372
rise	-13.0394
With	-13.0395
qua	-13.0397
aria	-13.0407
fever	-13.0412
RTA	-13.042
Ker	-13.0427
0.05-0.	-13.0435
▁155	-13.044
regarded	-13.0442
RAD	-13.0463
2.40	-13.0464
▁advoca	-13.0466
▁dispensa	-13.0468
▁anonym	-13.0469
studies	-13.0469
nflammat	-13.0471
first	-13.0472
-1.9	-13.0473
(12	-13.0481
Characteriz	-13.0482
tational	-13.0485
▁129	-13.0485
iable	-13.0492
▁physiolog	-13.0499
vaccine	-13.0502
eading	-13.0502
▁Sulf	-13.0508
▁intensif	-13.0514
par	-13.0515
▁endosom	-13.0519
aegypti	-13.0523
emo	-13.0526
▁recogniz	-13.0528
ntitative	-13.053
▁intensifi	-13.0539
graphy	-13.0544
nvasion	-13.0546
48%	-13.0548
ery	-13.0548
ocation	-13.0551
three	-13.0554
ucher	-13.0563
case	-13.0574
aya	-13.0575
LISA	-13.0577
chro	-13.0579
diment	-13.0589
▁BC	-13.059
▁tha	-13.0593
▁tropic	-13.0602
NSA	-13.0605
▁(85.	-13.0612
,795	-13.0612
53,	-13.0613
observed	-13.0615
▁ConclusionsT	-13.0616
var	-13.0617
▁3.5%	-13.0619
prevention	-13.0624
mprovement	-13.0624
▁topical	-13.0624
these	-13.0626
=0.86	-13.0629
107	-13.063
chal	-13.0631
▁haemorrhag	-13.0632
cologically	-13.0634
hold	-13.0636
1.2%)	-13.0636
7;	-13.0637
usion	-13.0639
▁253	-13.0639
pled	-13.064
28.6%	-13.0648
hese	-13.065
▁sca	-13.0652
locate	-13.0655
However	-13.0657
race	-13.0658
epidemic	-13.0659
42,7	-13.066
tructured	-13.066
Gate	-13.066
ED	-13.0662
SAC	-13.0664
approach	-13.0664
▁ResultsAb	-13.0667
▁spa	-13.0667
61.5	-13.0668
those	-13.0669
,035	-13.067
▁seconds	-13.067
▁standardiz	-13.0671
tability	-13.0672
▁microscop	-13.0673
▁nei	-13.0677
nou	-13.0682
Brazil	-13.069
ickl	-13.0691
▁helminthi	-13.0694
accurate	-13.0701
▁malari	-13.0704
hl	-13.0706
frequent	-13.0722
▁mechanic	-13.0724
Results	-13.0724
▁simula	-13.0725
earing	-13.0736
project	-13.0739
will	-13.0747
Pharmac	-13.0749
genotype	-13.0751
count	-13.0754
temperature	-13.076
▁Plasmod	-13.076
2015	-13.076
▁1.47	-13.076
assess	-13.0762
system	-13.0763
388	-13.0766
2022	-13.0774
▁Sp	-13.078
online	-13.0781
Ultrasonograph	-13.0783
▁accelerat	-13.0785
sta	-13.0793
▁(90.	-13.0793
▁liga	-13.0796
period	-13.0797
0.71-1.	-13.0801
acute	-13.0803
insecticide	-13.081
contract	-13.0811
lacta	-13.0811
▁2020-20	-13.0817
▁RE	-13.0821
reduction	-13.0824
STI	-13.0825
▁16.1	-13.0828
kw	-13.0829
omegal	-13.0829
▁off	-13.0832
9.6	-13.0833
ecurity	-13.0835
Aug	-13.0836
OT	-13.0844
▁2}=	-13.0844
combination	-13.0846
cted	-13.0848
▁prematur	-13.0849
ovale	-13.0854
▁Comput	-13.0859
Sah	-13.0863
▁character	-13.0865
90,	-13.0865
▁Inva	-13.0867
▁5.0	-13.0867
critical	-13.0872
ecision	-13.0872
▁Establish	-13.088
94%)	-13.0881
-80%	-13.0883
following	-13.0883
nSignificanceA	-13.0886
▁lysosom	-13.0886
<0.001	-13.0888
symptoms	-13.089
management	-13.0893
1,8	-13.0893
interventions	-13.0894
nin	-13.0894
ax	-13.0894
antibodies	-13.0895
ounting	-13.0896
▁12.3	-13.0902
design	-13.0902
▁2,9	-13.0903
9.3%	-13.0907
increasing	-13.0908
▁mate	-13.0911
▁Hemato	-13.0913
Polymorphism	-13.0916
▁ObjectiveDe	-13.0917
normal	-13.0917
decrease	-13.0919
2.6-	-13.0919
▁path	-13.092
ruption	-13.0921
▁(72	-13.0923
xu	-13.0925
geographic	-13.0927
molecular	-13.0934
CER	-13.0935
ntai	-13.0935
endemicity	-13.094
123,	-13.0941
support	-13.0941
Threshold	-13.0941
▁synchro	-13.0941
SignificanceA	-13.0943
▁Characteri	-13.0943
76.8	-13.0943
variant	-13.0949
product	-13.0951
Apicomplexan	-13.0951
690	-13.0952
female	-13.0954
18.4	-13.0957
survey	-13.0957
viole	-13.0958
ubgroup	-13.0959
plasma	-13.0959
ject	-13.0961
ARL	-13.0962
=50	-13.0964
small	-13.0965
village	-13.0967
sequently	-13.0968
laborat	-13.0969
presence	-13.097
typing	-13.0971
ounds	-13.0972
regulate	-13.0974
random	-13.0975
▁elev	-13.0975
merozoite	-13.0976
America	-13.0981
034	-13.0983
9-35	-13.0983
benefit	-13.0984
▁Burm	-13.0986
approaches	-13.0987
measured	-13.0989
represent	-13.0991
dynamics	-13.0994
▁82	-13.0994
ortun	-13.0997
0.55)	-13.0999
moderate	-13.1
natural	-13.1003
▁chemi	-13.1007
ims	-13.1009
overall	-13.1012
PvDBP	-13.1012
frame	-13.1012
given	-13.1013
access	-13.1013
partial	-13.1016
average	-13.1017
accept	-13.1019
birth	-13.1021
Perma	-13.1024
filter	-13.1025
March	-13.1025
1,53	-13.1027
▁analog	-13.1028
SA	-13.1029
dataset	-13.1029
resilien	-13.103
accuracy	-13.103
meta	-13.1032
dictor	-13.1032
Burki	-13.1033
450-	-13.1033
fact	-13.1034
recogniz	-13.1036
help	-13.1036
functional	-13.1036
DALY	-13.1036
sage	-13.1039
Combination	-13.104
TBE	-13.104
modelling	-13.1041
High	-13.1042
collect	-13.1044
performed	-13.1044
Urban	-13.1049
psych	-13.1049
LID	-13.1049
7-0.7	-13.1049
appear	-13.105
Individual	-13.1051
reports	-13.1052
Flavivir	-13.1053
proteo	-13.1053
/10	-13.1054
Hop	-13.1056
plicate	-13.106
town	-13.106
ize	-13.106
▁Im	-13.1061
admission	-13.1063
▁19.5	-13.1063
recorded	-13.1064
epitope	-13.1064
0-3	-13.1064
socioeconomic	-13.1065
▁Geographic	-13.1065
inhabit	-13.1065
track	-13.1066
Introduc	-13.1068
provided	-13.1069
broad	-13.107
prevalent	-13.107
half	-13.107
-(	-13.107
Plasmo	-13.1071
SRC	-13.1071
ensemble	-13.1075
1.73	-13.1076
House	-13.1078
attribut	-13.1078
difference	-13.1079
family	-13.108
<0.00	-13.1081
Malawi	-13.1081
private	-13.1081
marker	-13.1082
adequate	-13.1083
▁pep	-13.1084
Article	-13.1088
absence	-13.1088
Thailand	-13.1088
successful	-13.1089
characteris	-13.1089
amplicon	-13.109
PACT	-13.109
percentage	-13.109
6.5	-13.1092
diverse	-13.1093
precipitation	-13.1093
Colombia	-13.1094
climatic	-13.1094
Peru	-13.1094
Reduction	-13.1094
Plasm	-13.1095
tinguish	-13.1096
respirator	-13.1097
hyper	-13.1097
hybrid	-13.1097
assessment	-13.1097
diabetes	-13.1097
biomarkers	-13.1099
recovery	-13.11
▁Strength	-13.1101
Map	-13.1102
proximate	-13.1102
butoxide	-13.1102
prior	-13.1103
An	-13.1104
Analysis	-13.1104
circum	-13.1105
ARIMA	-13.1105
piperonyl	-13.1105
SAR	-13.1106
zoonotic	-13.1106
[...]
