{
  "version": "1.0",
  "truncation": null,
  "padding": null,
  "added_tokens": [
    {
      "id": 0,
      "content": "[PAD]",
      "single_word": false,
      "lstrip": false,
      "rstrip": false,
      "normalized": false,
      "special": true
    },
    {
      "id": 1,
      "content": "[UNK]",
      "single_word": false,
      "lstrip": false,
      "rstrip": false,
      "normalized": false,
      "special": true
    },
    {
      "id": 2,
      "content": "[CLS]",
      "single_word": false,
      "lstrip": false,
      "rstrip": false,
      "normalized": false,
      "special": true
    },
    {
      "id": 3,
      "content": "[SEP]",
      "single_word": false,
      "lstrip": false,
      "rstrip": false,
      "normalized": false,
      "special": true
    },
    {
      "id": 4,
      "content": "[MASK]",
      "single_word": false,
      "lstrip": false,
      "rstrip": false,
      "normalized": false,
      "special": true
    }
  ],
  "normalizer": {
    "type": "BertNormalizer",
    "clean_text": true,
    "handle_chinese_chars": true,
    "strip_accents": null,
    "lowercase": true
  },
  "pre_tokenizer": {
    "type": "BertPreTokenizer"
  },
  "post_processor": {
    "type": "TemplateProcessing",
    "single": [
      {
        "SpecialToken": {
          "id": "[CLS]",
          "type_id": 0
        }
      },
      {
        "Sequence": {
          "id": "A",
          "type_id": 0
        }
      },
      {
        "SpecialToken": {
          "id": "[SEP]",
          "type_id": 0
        }
      }
    ],
    "pair": [
      {
        "SpecialToken": {
          "id": "[CLS]",
          "type_id": 0
        }
      },
      {
        "Sequence": {
          "id": "A",
          "type_id": 0
        }
      },
      {
        "SpecialToken": {
          "id": "[SEP]",
          "type_id": 0
        }
      },
      {
        "Sequence": {
          "id": "B",
          "type_id": 1
        }
      },
      {
        "SpecialToken": {
          "id": "[SEP]",
          "type_id": 1
        }
      }
    ],
    "special_tokens": {
      "[CLS]": {
        "id": "[CLS]",
        "ids": [
          2
        ],
        "tokens": [
          "[CLS]"
        ]
      },
      "[SEP]": {
        "id": "[SEP]",
        "ids": [
          3
        ],
        "tokens": [
          "[SEP]"
        ]
      }
    }
  },
  "decoder": {
    "type": "WordPiece",
    "prefix": "##",
    "cleanup": true
  },
  "model": {
    "type": "WordPiece",
    "unk_token": "[UNK]",
    "continuing_subword_prefix": "##",
    "max_input_chars_per_word": 100,
    "vocab": {
      "[PAD]": 0,
      "[UNK]": 1,
      "[CLS]": 2,
      "[SEP]": 3,
      "[MASK]": 4,
      "!": 5,
      "\"": 6,
      "#": 7,
      "$": 8,
      "%": 9,
      "&": 10,
      "'": 11,
      "(": 12,
      ")": 13,
      "*": 14,
      "+": 15,
      ",": 16,
      "-": 17,
      ".": 18,
      "/": 19,
      "0": 20,
      "1": 21,
      "2": 22,
      "3": 23,
      "4": 24,
      "5": 25,
      "6": 26,
      "7": 27,
      "8": 28,
      "9": 29,
      ":": 30,
      ";": 31,
      "<": 32,
      "=": 33,
      ">": 34,
      "?": 35,
      "@": 36,
      "[": 37,
      "\\": 38,
      "]": 39,
      "^": 40,
      "_": 41,
      "`": 42,
      "a": 43,
      "b": 44,
      "c": 45,
      "d": 46,
      "e": 47,
      "f": 48,
      "g": 49,
      "h": 50,
      "i": 51,
      "j": 52,
      "k": 53,
      "l": 54,
      "m": 55,
      "n": 56,
      "o": 57,
      "p": 58,
      "q": 59,
      "r": 60,
      "s": 61,
      "t": 62,
      "u": 63,
      "v": 64,
      "w": 65,
      "x": 66,
      "y": 67,
      "z": 68,
      "{": 69,
      "|": 70,
      "}": 71,
      "~": 72,
      "£": 73,
      "§": 74,
      "©": 75,
      "®": 76,
      "¯": 77,
      "°": 78,
      "±": 79,
      "²": 80,
      "´": 81,
      "µ": 82,
      "·": 83,
      "º": 84,
      "»": 85,
      "½": 86,
      "×": 87,
      "ß": 88,
      "ø": 89,
      "ı": 90,
      "ł": 91,
      "ɛ": 92,
      "ʹ": 93,
      "˙": 94,
      "˜": 95,
      "α": 96,
      "β": 97,
      "γ": 98,
      "δ": 99,
      "ε": 100,
      "ζ": 101,
      "η": 102,
      "θ": 103,
      "ι": 104,
      "κ": 105,
      "λ": 106,
      "μ": 107,
      "ν": 108,
      "ξ": 109,
      "π": 110,
      "ρ": 111,
      "σ": 112,
      "τ": 113,
      "υ": 114,
      "φ": 115,
      "χ": 116,
      "ψ": 117,
      "ω": 118,
      "ϕ": 119,
      "ϵ": 120,
      "а": 121,
      "б": 122,
      "в": 123,
      "г": 124,
      "д": 125,
      "е": 126,
      "з": 127,
      "и": 128,
      "к": 129,
      "л": 130,
      "м": 131,
      "н": 132,
      "о": 133,
      "п": 134,
      "р": 135,
      "с": 136,
      "т": 137,
      "у": 138,
      "х": 139,
      "ч": 140,
      "ы": 141,
      "ь": 142,
      "я": 143,
      "ا": 144,
      "ب": 145,
      "ة": 146,
      "ت": 147,
      "ر": 148,
      "س": 149,
      "ع": 150,
      "ل": 151,
      "م": 152,
      "ن": 153,
      "و": 154,
      "ي": 155,
      "‐": 156,
      "‑": 157,
      "‒": 158,
      "–": 159,
      "—": 160,
      "‖": 161,
      "‘": 162,
      "’": 163,
      "“": 164,
      "”": 165,
      "„": 166,
      "†": 167,
      "‡": 168,
      "•": 169,
      "…": 170,
      "‰": 171,
      "′": 172,
      "″": 173,
      "‴": 174,
      "⁺": 175,
      "⁻": 176,
      "₂": 177,
      "€": 178,
      "℃": 179,
      "ℓ": 180,
      "ℝ": 181,
      "™": 182,
      "ⅲ": 183,
      "ⅵ": 184,
      "←": 185,
      "↑": 186,
      "→": 187,
      "↓": 188,
      "⇓": 189,
      "∂": 190,
      "∆": 191,
      "∇": 192,
      "∈": 193,
      "∑": 194,
      "−": 195,
      "∗": 196,
      "∘": 197,
      "∙": 198,
      "∝": 199,
      "∞": 200,
      "∣": 201,
      "∥": 202,
      "∫": 203,
      "∶": 204,
      "∼": 205,
      "≈": 206,
      "≡": 207,
      "≤": 208,
      "≥": 209,
      "⊂": 210,
      "⊆": 211,
      "⊤": 212,
      "⊥": 213,
      "⋅": 214,
      "⋯": 215,
      "─": 216,
      "□": 217,
      "▪": 218,
      "△": 219,
      "▸": 220,
      "♀": 221,
      "♂": 222,
      "⟨": 223,
      "⟩": 224,
      "、": 225,
      "。": 226,
      "〈": 227,
      "〉": 228,
      "一": 229,
      "丁": 230,
      "三": 231,
      "上": 232,
      "下": 233,
      "不": 234,
      "与": 235,
      "且": 236,
      "丙": 237,
      "业": 238,
      "丢": 239,
      "两": 240,
      "个": 241,
      "中": 242,
      "丰": 243,
      "串": 244,
      "临": 245,
      "为": 246,
      "主": 247,
      "义": 248,
      "之": 249,
      "乙": 250,
      "也": 251,
      "乳": 252,
      "了": 253,
      "二": 254,
      "于": 255,
      "互": 256,
      "亚": 257,
      "些": 258,
      "亡": 259,
      "产": 260,
      "亲": 261,
      "人": 262,
      "仅": 263,
      "介": 264,
      "仍": 265,
      "从": 266,
      "他": 267,
      "代": 268,
      "以": 269,
      "仪": 270,
      "们": 271,
      "件": 272,
      "价": 273,
      "份": 274,
      "伐": 275,
      "优": 276,
      "会": 277,
      "传": 278,
      "估": 279,
      "伸": 280,
      "似": 281,
      "但": 282,
      "位": 283,
      "低": 284,
      "体": 285,
      "余": 286,
      "作": 287,
      "佳": 288,
      "使": 289,
      "例": 290,
      "供": 291,
      "依": 292,
      "侵": 293,
      "便": 294,
      "促": 295,
      "保": 296,
      "信": 297,
      "修": 298,
      "倍": 299,
      "值": 300,
      "健": 301,
      "储": 302,
      "催": 303,
      "像": 304,
      "儿": 305,
      "元": 306,
      "充": 307,
      "先": 308,
      "光": 309,
      "克": 310,
      "免": 311,
      "入": 312,
      "全": 313,
      "公": 314,
      "六": 315,
      "共": 316,
      "关": 317,
      "其": 318,
      "具": 319,
      "典": 320,
      "养": 321,
      "内": 322,
      "再": 323,
      "冰": 324,
      "冲": 325,
      "决": 326,
      "况": 327,
      "冷": 328,
      "净": 329,
      "准": 330,
      "减": 331,
      "凝": 332,
      "出": 333,
      "分": 334,
      "切": 335,
      "列": 336,
      "则": 337,
      "初": 338,
      "利": 339,
      "别": 340,
      "到": 341,
      "制": 342,
      "剂": 343,
      "前": 344,
      "力": 345,
      "功": 346,
      "加": 347,
      "动": 348,
      "助": 349,
      "势": 350,
      "匀": 351,
      "包": 352,
      "化": 353,
      "匹": 354,
      "区": 355,
      "医": 356,
      "十": 357,
      "升": 358,
      "协": 359,
      "单": 360,
      "占": 361,
      "危": 362,
      "即": 363,
      "厂": 364,
      "压": 365,
      "原": 366,
      "去": 367,
      "参": 368,
      "及": 369,
      "双": 370,
      "反": 371,
      "发": 372,
      "取": 373,
      "受": 374,
      "变": 375,
      "口": 376,
      "另": 377,
      "只": 378,
      "可": 379,
      "台": 380,
      "叶": 381,
      "号": 382,
      "司": 383,
      "各": 384,
      "合": 385,
      "同": 386,
      "后": 387,
      "向": 388,
      "否": 389,
      "含": 390,
      "吸": 391,
      "呈": 392,
      "员": 393,
      "周": 394,
      "和": 395,
      "品": 396,
      "响": 397,
      "善": 398,
      "喷": 399,
      "器": 400,
      "四": 401,
      "回": 402,
      "因": 403,
      "团": 404,
      "围": 405,
      "固": 406,
      "国": 407,
      "图": 408,
      "在": 409,
      "地": 410,
      "场": 411,
      "均": 412,
      "坦": 413,
      "型": 414,
      "域": 415,
      "培": 416,
      "基": 417,
      "境": 418,
      "增": 419,
      "声": 420,
      "处": 421,
      "备": 422,
      "复": 423,
      "外": 424,
      "多": 425,
      "够": 426,
      "大": 427,
      "天": 428,
      "失": 429,
      "好": 430,
      "如": 431,
      "始": 432,
      "子": 433,
      "孔": 434,
      "存": 435,
      "学": 436,
      "它": 437,
      "安": 438,
      "完": 439,
      "官": 440,
      "定": 441,
      "实": 442,
      "室": 443,
      "害": 444,
      "家": 445,
      "容": 446,
      "密": 447,
      "富": 448,
      "察": 449,
      "对": 450,
      "导": 451,
      "封": 452,
      "射": 453,
      "将": 454,
      "小": 455,
      "少": 456,
      "尔": 457,
      "尤": 458,
      "尼": 459,
      "尿": 460,
      "局": 461,
      "层": 462,
      "展": 463,
      "属": 464,
      "峰": 465,
      "工": 466,
      "巨": 467,
      "差": 468,
      "己": 469,
      "已": 470,
      "巴": 471,
      "市": 472,
      "布": 473,
      "带": 474,
      "常": 475,
      "干": 476,
      "平": 477,
      "年": 478,
      "并": 479,
      "广": 480,
      "床": 481,
      "序": 482,
      "库": 483,
      "应": 484,
      "废": 485,
      "度": 486,
      "康": 487,
      "建": 488,
      "开": 489,
      "异": 490,
      "式": 491,
      "引": 492,
      "弱": 493,
      "强": 494,
      "归": 495,
      "当": 496,
      "录": 497,
      "形": 498,
      "影": 499,
      "往": 500,
      "征": 501,
      "径": 502,
      "待": 503,
      "得": 504,
      "循": 505,
      "微": 506,
      "德": 507,
      "心": 508,
      "快": 509,
      "态": 510,
      "性": 511,
      "总": 512,
      "恒": 513,
      "恢": 514,
      "息": 515,
      "恶": 516,
      "患": 517,
      "情": 518,
      "意": 519,
      "感": 520,
      "慢": 521,
      "成": 522,
      "我": 523,
      "或": 524,
      "所": 525,
      "手": 526,
      "扩": 527,
      "扫": 528,
      "扰": 529,
      "批": 530,
      "技": 531,
      "抑": 532,
      "抗": 533,
      "报": 534,
      "拆": 535,
      "拉": 536,
      "拌": 537,
      "拟": 538,
      "择": 539,
      "括": 540,
      "持": 541,
      "指": 542,
      "按": 543,
      "挥": 544,
      "振": 545,
      "损": 546,
      "换": 547,
      "据": 548,
      "排": 549,
      "探": 550,
      "接": 551,
      "控": 552,
      "推": 553,
      "描": 554,
      "提": 555,
      "揭": 556,
      "搅": 557,
      "撞": 558,
      "操": 559,
      "支": 560,
      "收": 561,
      "改": 562,
      "放": 563,
      "效": 564,
      "敏": 565,
      "散": 566,
      "数": 567,
      "敲": 568,
      "整": 569,
      "文": 570,
      "料": 571,
      "断": 572,
      "新": 573,
      "方": 574,
      "旋": 575,
      "族": 576,
      "无": 577,
      "日": 578,
      "时": 579,
      "明": 580,
      "易": 581,
      "映": 582,
      "是": 583,
      "显": 584,
      "普": 585,
      "景": 586,
      "晶": 587,
      "曲": 588,
      "更": 589,
      "替": 590,
      "最": 591,
      "月": 592,
      "有": 593,
      "服": 594,
      "期": 595,
      "未": 596,
      "本": 597,
      "术": 598,
      "机": 599,
      "杂": 600,
      "材": 601,
      "条": 602,
      "来": 603,
      "板": 604,
      "极": 605,
      "构": 606,
      "析": 607,
      "林": 608,
      "果": 609,
      "架": 610,
      "染": 611,
      "查": 612,
      "柱": 613,
      "标": 614,
      "株": 615,
      "样": 616,
      "核": 617,
      "根": 618,
      "格": 619,
      "案": 620,
      "梯": 621,
      "检": 622,
      "植": 623,
      "模": 624,
      "次": 625,
      "正": 626,
      "此": 627,
      "步": 628,
      "死": 629,
      "残": 630,
      "殖": 631,
      "段": 632,
      "母": 633,
      "每": 634,
      "毒": 635,
      "比": 636,
      "毛": 637,
      "气": 638,
      "氟": 639,
      "氢": 640,
      "氧": 641,
      "氨": 642,
      "氮": 643,
      "氯": 644,
      "水": 645,
      "汁": 646,
      "求": 647,
      "污": 648,
      "沉": 649,
      "沙": 650,
      "没": 651,
      "油": 652,
      "治": 653,
      "泌": 654,
      "法": 655,
      "泛": 656,
      "波": 657,
      "注": 658,
      "泳": 659,
      "洗": 660,
      "活": 661,
      "流": 662,
      "测": 663,
      "浓": 664,
      "浴": 665,
      "海": 666,
      "涂": 667,
      "消": 668,
      "涡": 669,
      "涤": 670,
      "液": 671,
      "淀": 672,
      "淋": 673,
      "深": 674,
      "混": 675,
      "添": 676,
      "清": 677,
      "渐": 678,
      "温": 679,
      "游": 680,
      "源": 681,
      "溶": 682,
      "满": 683,
      "滤": 684,
      "滴": 685,
      "潜": 686,
      "激": 687,
      "灵": 688,
      "点": 689,
      "烃": 690,
      "烟": 691,
      "热": 692,
      "烯": 693,
      "烷": 694,
      "然": 695,
      "照": 696,
      "燥": 697,
      "片": 698,
      "物": 699,
      "特": 700,
      "状": 701,
      "独": 702,
      "献": 703,
      "率": 704,
      "环": 705,
      "现": 706,
      "球": 707,
      "理": 708,
      "瓶": 709,
      "甘": 710,
      "生": 711,
      "用": 712,
      "由": 713,
      "甲": 714,
      "电": 715,
      "留": 716,
      "略": 717,
      "疏": 718,
      "疗": 719,
      "疫": 720,
      "疾": 721,
      "病": 722,
      "症": 723,
      "瘤": 724,
      "癌": 725,
      "白": 726,
      "的": 727,
      "皮": 728,
      "盐": 729,
      "监": 730,
      "目": 731,
      "直": 732,
      "相": 733,
      "真": 734,
      "着": 735,
      "知": 736,
      "短": 737,
      "石": 738,
      "研": 739,
      "破": 740,
      "硅": 741,
      "硫": 742,
      "确": 743,
      "硼": 744,
      "碎": 745,
      "碰": 746,
      "碱": 747,
      "磁": 748,
      "磨": 749,
      "磷": 750,
      "磺": 751,
      "示": 752,
      "离": 753,
      "种": 754,
      "科": 755,
      "积": 756,
      "称": 757,
      "移": 758,
      "稀": 759,
      "程": 760,
      "稳": 761,
      "究": 762,
      "空": 763,
      "突": 764,
      "立": 765,
      "端": 766,
      "第": 767,
      "等": 768,
      "策": 769,
      "筛": 770,
      "简": 771,
      "算": 772,
      "管": 773,
      "箱": 774,
      "米": 775,
      "类": 776,
      "粉": 777,
      "粒": 778,
      "精": 779,
      "糖": 780,
      "系": 781,
      "素": 782,
      "索": 783,
      "紫": 784,
      "红": 785,
      "约": 786,
      "级": 787,
      "纯": 788,
      "纳": 789,
      "线": 790,
      "组": 791,
      "细": 792,
      "织": 793,
      "终": 794,
      "经": 795,
      "结": 796,
      "绘": 797,
      "络": 798,
      "统": 799,
      "继": 800,
      "续": 801,
      "维": 802,
      "综": 803,
      "绿": 804,
      "缓": 805,
      "编": 806,
      "缩": 807,
      "缺": 808,
      "网": 809,
      "置": 810,
      "美": 811,
      "羟": 812,
      "群": 813,
      "考": 814,
      "者": 815,
      "而": 816,
      "耐": 817,
      "耗": 818,
      "联": 819,
      "聚": 820,
      "肠": 821,
      "股": 822,
      "育": 823,
      "肺": 824,
      "肽": 825,
      "肿": 826,
      "胆": 827,
      "背": 828,
      "胞": 829,
      "胶": 830,
      "胺": 831,
      "能": 832,
      "脂": 833,
      "脱": 834,
      "腈": 835,
      "腺": 836,
      "膜": 837,
      "自": 838,
      "至": 839,
      "致": 840,
      "良": 841,
      "色": 842,
      "节": 843,
      "芳": 844,
      "苯": 845,
      "苷": 846,
      "范": 847,
      "茶": 848,
      "荡": 849,
      "荧": 850,
      "药": 851,
      "荷": 852,
      "获": 853,
      "菌": 854,
      "萃": 855,
      "著": 856,
      "虑": 857,
      "蛋": 858,
      "融": 859,
      "血": 860,
      "行": 861,
      "衍": 862,
      "衡": 863,
      "补": 864,
      "表": 865,
      "被": 866,
      "袭": 867,
      "裂": 868,
      "装": 869,
      "西": 870,
      "要": 871,
      "覆": 872,
      "见": 873,
      "观": 874,
      "规": 875,
      "视": 876,
      "角": 877,
      "解": 878,
      "计": 879,
      "认": 880,
      "许": 881,
      "论": 882,
      "设": 883,
      "证": 884,
      "评": 885,
      "识": 886,
      "诊": 887,
      "试": 888,
      "该": 889,
      "诱": 890,
      "说": 891,
      "调": 892,
      "谢": 893,
      "谱": 894,
      "谷": 895,
      "象": 896,
      "负": 897,
      "质": 898,
      "购": 899,
      "赖": 900,
      "起": 901,
      "超": 902,
      "越": 903,
      "趋": 904,
      "足": 905,
      "路": 906,
      "转": 907,
      "软": 908,
      "载": 909,
      "较": 910,
      "辅": 911,
      "辨": 912,
      "达": 913,
      "迁": 914,
      "过": 915,
      "近": 916,
      "还": 917,
      "这": 918,
      "进": 919,
      "连": 920,
      "述": 921,
      "适": 922,
      "选": 923,
      "逐": 924,
      "途": 925,
      "通": 926,
      "速": 927,
      "造": 928,
      "道": 929,
      "邻": 930,
      "部": 931,
      "都": 932,
      "配": 933,
      "酚": 934,
      "酮": 935,
      "酯": 936,
      "酰": 937,
      "酶": 938,
      "酸": 939,
      "醇": 940,
      "醛": 941,
      "采": 942,
      "释": 943,
      "重": 944,
      "量": 945,
      "金": 946,
      "鉴": 947,
      "针": 948,
      "钠": 949,
      "铁": 950,
      "铵": 951,
      "链": 952,
      "键": 953,
      "镜": 954,
      "长": 955,
      "问": 956,
      "间": 957,
      "队": 958,
      "阳": 959,
      "阴": 960,
      "阻": 961,
      "阿": 962,
      "附": 963,
      "际": 964,
      "降": 965,
      "限": 966,
      "院": 967,
      "除": 968,
      "险": 969,
      "隆": 970,
      "随": 971,
      "难": 972,
      "集": 973,
      "雾": 974,
      "需": 975,
      "静": 976,
      "非": 977,
      "面": 978,
      "靶": 979,
      "项": 980,
      "预": 981,
      "领": 982,
      "题": 983,
      "风": 984,
      "食": 985,
      "饮": 986,
      "饰": 987,
      "首": 988,
      "香": 989,
      "验": 990,
      "骤": 991,
      "骨": 992,
      "髓": 993,
      "高": 994,
      "鱼": 995,
      "麻": 996,
      "黄": 997,
      "鼠": 998,
      "％": 999,
      "（": 1000,
      "）": 1001,
      "，": 1002,
      "：": 1003,
      "；": 1004,
      "##d": 1005,
      "##g": 1006,
      "##f": 1007,
      "##p": 1008,
      "##a": 1009,
      "##n": 1010,
      "##c": 1011,
      "##e": 1012,
      "##r": 1013,
      "##6": 1014,
      "##0": 1015,
      "##1": 1016,
      "##4": 1017,
      "##b": 1018,
      "##o": 1019,
      "##m": 1020,
      "##v": 1021,
      "##z": 1022,
      "##t": 1023,
      "##u": 1024,
      "##i": 1025,
      "##s": 1026,
      "##h": 1027,
      "##9": 1028,
      "##7": 1029,
      "##l": 1030,
      "##y": 1031,
      "##w": 1032,
      "##β": 1033,
      "##σ": 1034,
      "##2": 1035,
      "##8": 1036,
      "##5": 1037,
      "##−": 1038,
      "##3": 1039,
      "##x": 1040,
      "##k": 1041,
      "##他": 1042,
      "##种": 1043,
      "##胆": 1044,
      "##汁": 1045,
      "##酸": 1046,
      "##在": 1047,
      "##分": 1048,
      "##为": 1049,
      "##第": 1050,
      "##一": 1051,
      "##ي": 1052,
      "##ا": 1053,
      "##ن": 1054,
      "##q": 1055,
      "##∈": 1056,
      "##×": 1057,
      "##≥": 1058,
      "##j": 1059,
      "##α": 1060,
      "##±": 1061,
      "##π": 1062,
      "##ξ": 1063,
      "##μ": 1064,
      "##®": 1065,
      "##δ": 1066,
      "##⋯": 1067,
      "##⊤": 1068,
      "##包": 1069,
      "##括": 1070,
      "##依": 1071,
      "##赖": 1072,
      "##性": 1073,
      "##和": 1074,
      "##非": 1075,
      "##两": 1076,
      "##途": 1077,
      "##径": 1078,
      "##ρ": 1079,
      "##表": 1080,
      "##达": 1081,
      "##增": 1082,
      "##强": 1083,
      "##了": 1084,
      "##细": 1085,
      "##胞": 1086,
      "##对": 1087,
      "##肺": 1088,
      "##癌": 1089,
      "##的": 1090,
      "##抗": 1091,
      "##肿": 1092,
      "##瘤": 1093,
      "##作": 1094,
      "##用": 1095,
      "##λ": 1096,
      "##─": 1097,
      "##线": 1098,
      "##色": 1099,
      "##谱": 1100,
      "##法": 1101,
      "##计": 1102,
      "##算": 1103,
      "##工": 1104,
      "##具": 1105,
      "##药": 1106,
      "##与": 1107,
      "##и": 1108,
      "##с": 1109,
      "##т": 1110,
      "##е": 1111,
      "##м": 1112,
      "##а": 1113,
      "##˙": 1114,
      "##γ": 1115,
      "##现": 1116,
      "##配": 1117,
      "##转": 1118,
      "##染": 1119,
      "##试": 1120,
      "##剂": 1121,
      "##™": 1122,
      "##纯": 1123,
      "##φ": 1124,
      "##∝": 1125,
      "##←": 1126,
      "##∞": 1127,
      "##ل": 1128,
      "##م": 1129,
      "##ع": 1130,
      "##ر": 1131,
      "##و": 1132,
      "##θ": 1133,
      "##∼": 1134,
      "##ϕ": 1135,
      "##°": 1136,
      "##定": 1137,
      "##体": 1138,
      "##积": 1139,
      "##比": 1140,
      "##到": 1141,
      "##每": 1142,
      "##物": 1143,
      "##质": 1144,
      "##基": 1145,
      "##本": 1146,
      "##离": 1147,
      "##子": 1148,
      "##信": 1149,
      "##息": 1150,
      "##以": 1151,
      "##及": 1152,
      "##参": 1153,
      "##数": 1154,
      "##来": 1155,
      "##者": 1156,
      "##都": 1157,
      "##得": 1158,
      "##出": 1159,
      "##于": 1160,
      "##自": 1161,
      "##∂": 1162,
      "##τ": 1163,
      "##∆": 1164,
      "##ε": 1165,
      "##ω": 1166,
      "##¯": 1167,
      "##⊥": 1168,
      "##行": 1169,
      "##ℓ": 1170,
      "##高": 1171,
      "##面": 1172,
      "##⊂": 1173,
      "##过": 1174,
      "##模": 1175,
      "##型": 1176,
      "##位": 1177,
      "##患": 1178,
      "##个": 1179,
      "##风": 1180,
      "##险": 1181,
      "##例": 1182,
      "##中": 1183,
      "##发": 1184,
      "##生": 1185,
      "##ⅲ": 1186,
      "##级": 1187,
      "##粒": 1188,
      "##减": 1189,
      "##少": 1190,
      "##柱": 1191,
      "##终": 1192,
      "##使": 1193,
      "##∶": 1194,
      "##正": 1195,
      "##己": 1196,
      "##烷": 1197,
      "##丙": 1198,
      "##酮": 1199,
      "##混": 1200,
      "##合": 1201,
      "##溶": 1202,
      "##进": 1203,
      "##洗": 1204,
      "##脱": 1205,
      "##三": 1206,
      "##甲": 1207,
      "##氧": 1208,
      "##硅": 1209,
      "##∘": 1210,
      "##з": 1211,
      "##д": 1212,
      "##л": 1213,
      "##н": 1214,
      "##ϵ": 1215,
      "##≤": 1216,
      "##ı": 1217,
      "##→": 1218,
      "##η": 1219,
      "##κ": 1220,
      "##ß": 1221,
      "##˜": 1222,
      "##明": 1223,
      "##其": 1224,
      "##有": 1225,
      "##较": 1226,
      "##疏": 1227,
      "##水": 1228,
      "##液": 1229,
      "##样": 1230,
      "##采": 1231,
      "##集": 1232,
      "##简": 1233,
      "##单": 1234,
      "##无": 1235,
      "##糖": 1236,
      "##完": 1237,
      "##成": 1238,
      "##差": 1239,
      "##异": 1240,
      "##因": 1241,
      "##筛": 1242,
      "##选": 1243,
      "##之": 1244,
      "##后": 1245,
      "##≈": 1246,
      "##取": 1247,
      "##注": 1248,
      "##♂": 1249,
      "##固": 1250,
      "##相": 1251,
      "##氨": 1252,
      "##氯": 1253,
      "##地": 1254,
      "##平": 1255,
      "##µ": 1256,
      "##材": 1257,
      "##料": 1258,
      "##层": 1259,
      "##度": 1260,
      "##约": 1261,
      "##о": 1262,
      "##ь": 1263,
      "##к": 1264,
      "##р": 1265,
      "##п": 1266,
      "##в": 1267,
      "##я": 1268,
      "##х": 1269,
      "##氟": 1270,
      "##互": 1271,
      "##检": 1272,
      "##测": 1273,
      "##波": 1274,
      "##长": 1275,
      "##浓": 1276,
      "##χ": 1277,
      "##标": 1278,
      "##准": 1279,
      "##移": 1280,
      "##按": 1281,
      "##金": 1282,
      "##属": 1283,
      "##而": 1284,
      "##靶": 1285,
      "##向": 1286,
      "##析": 1287,
      "##获": 1288,
      "##复": 1289,
      "##杂": 1290,
      "##范": 1291,
      "##围": 1292,
      "##制": 1293,
      "##控": 1294,
      "##时": 1295,
      "##间": 1296,
      "##短": 1297,
      "##´": 1298,
      "##蛋": 1299,
      "##白": 1300,
      "##²": 1301,
      "##⁺": 1302,
      "##∇": 1303,
      "##利": 1304,
      "##毛": 1305,
      "##管": 1306,
      "##吸": 1307,
      "##品": 1308,
      "##静": 1309,
      "##态": 1310,
      "##滴": 1311,
      "##内": 1312,
      "##射": 1313,
      "##治": 1314,
      "##疗": 1315,
      "##保": 1316,
      "##留": 1317,
      "##优": 1318,
      "##良": 1319,
      "##多": 1320,
      "##孔": 1321,
      "##结": 1322,
      "##构": 1323,
      "##乙": 1324,
      "##腈": 1325,
      "##提": 1326,
      "##效": 1327,
      "##果": 1328,
      "##∗": 1329,
      "##文": 1330,
      "##重": 1331,
      "##点": 1332,
      "##综": 1333,
      "##述": 1334,
      "##类": 1335,
      "##可": 1336,
      "##废": 1337,
      "##常": 1338,
      "##见": 1339,
      "##应": 1340,
      "##化": 1341,
      "##们": 1342,
      "##绘": 1343,
      "##г": 1344,
      "##ν": 1345,
      "##б": 1346,
      "##⋅": 1347,
      "##曲": 1348,
      "##此": 1349,
      "##区": 1350,
      "##特": 1351,
      "##征": 1352,
      "##收": 1353,
      "##峰": 1354,
      "##所": 1355,
      "##实": 1356,
      "##理": 1357,
      "##组": 1358,
      "##只": 1359,
      "##能": 1360,
      "##力": 1361,
      "##∣": 1362,
      "##ø": 1363,
      "##∫": 1364,
      "##占": 1365,
      "##ʹ": 1366,
      "##磷": 1367,
      "##脂": 1368,
      "##会": 1369,
      "##抑": 1370,
      "##目": 1371,
      "##电": 1372,
      "##等": 1373,
      "##у": 1374,
      "##含": 1375,
      "##量": 1376,
      "##下": 1377,
      "##响": 1378,
      "##值": 1379,
      "##∙": 1380,
      "##各": 1381,
      "##好": 1382,
      "##价": 1383,
      "##键": 1384,
      "##或": 1385,
      "##∑": 1386,
      "##阳": 1387,
      "##外": 1388,
      "##烟": 1389,
      "##香": 1390,
      "##精": 1391,
      "##指": 1392,
      "##图": 1393,
      "##显": 1394,
      "##全": 1395,
      "##串": 1396,
      "##联": 1397,
      "##最": 1398,
      "##低": 1399,
      "##建": 1400,
      "##立": 1401,
      "##确": 1402,
      "##适": 1403,
      "##突": 1404,
      "##变": 1405,
      "##克": 1406,
      "##隆": 1407,
      "##株": 1408,
      "##ł": 1409,
      "##局": 1410,
      "##限": 1411,
      "##匀": 1412,
      "##酶": 1413,
      "##仪": 1414,
      "##磁": 1415,
      "##€": 1416,
      "##铵": 1417,
      "##备": 1418,
      "##验": 1419,
      "##接": 1420,
      "##入": 1421,
      "##板": 1422,
      "##胶": 1423,
      "##回": 1424,
      "##率": 1425,
      "##更": 1426,
      "##ت": 1427,
      "##≡": 1428,
      "##ψ": 1429,
      "##大": 1430,
      "##处": 1431,
      "##临": 1432,
      "##床": 1433,
      "##前": 1434,
      "##段": 1435,
      "##造": 1436,
      "##人": 1437,
      "##我": 1438,
      "##状": 1439,
      "##沙": 1440,
      "##坦": 1441,
      "##酯": 1442,
      "##受": 1443,
      "##影": 1444,
      "##弱": 1445,
      "##至": 1446,
      "##号": 1447,
      "##呈": 1448,
      "##关": 1449,
      "##器": 1450,
      "##均": 1451,
      "##二": 1452,
      "##次": 1453,
      "##初": 1454,
      "##诊": 1455,
      "##即": 1456,
      "##快": 1457,
      "##速": 1458,
      "##富": 1459,
      "##磺": 1460,
      "##酚": 1461,
      "##拉": 1462,
      "##尔": 1463,
      "##别": 1464,
      "##密": 1465,
      "##殖": 1466,
      "##步": 1467,
      "##纳": 1468,
      "##养": 1469,
      "##问": 1470,
      "##题": 1471,
      "##策": 1472,
      "##领": 1473,
      "##域": 1474,
      "##康": 1475,
      "##知": 1476,
      "##情": 1477,
      "##同": 1478,
      "##意": 1479,
      "##↓": 1480,
      "##解": 1481,
      "##程": 1482,
      "##深": 1483,
      "##↑": 1484,
      "##醇": 1485,
      "##是": 1486,
      "##小": 1487,
      "##箱": 1488,
      "##反": 1489,
      "##ζ": 1490,
      "##整": 1491,
      "##冰": 1492,
      "##流": 1493,
      "##动": 1494,
      "##系": 1495,
      "##统": 1496,
      "##探": 1497,
      "##究": 1498,
      "##缺": 1499,
      "##失": 1500,
      "##通": 1501,
      "##路": 1502,
      "##预": 1503,
      "##该": 1504,
      "##认": 1505,
      "##证": 1506,
      "##羟": 1507,
      "##菌": 1508,
      "##真": 1509,
      "##代": 1510,
      "##谢": 1511,
      "##º": 1512,
      "##微": 1513,
      "##乳": 1514,
      "##ч": 1515,
      "##涂": 1516,
      "##年": 1517,
      "##淋": 1518,
      "##不": 1519,
      "##元": 1520,
      "##拟": 1521,
      "##⁻": 1522,
      "##苷": 1523,
      "##残": 1524,
      "##余": 1525,
      "##未": 1526,
      "##超": 1527,
      "##س": 1528,
      "##经": 1529,
      "##根": 1530,
      "##手": 1531,
      "##术": 1532,
      "##切": 1533,
      "##除": 1534,
      "##巴": 1535,
      "##清": 1536,
      "##扫": 1537,
      "##声": 1538,
      "##评": 1539,
      "##估": 1540,
      "##端": 1541,
      "##加": 1542,
      "##压": 1543,
      "##织": 1544,
      "##业": 1545,
      "##已": 1546,
      "##许": 1547,
      "##研": 1548,
      "##载": 1549,
      "##需": 1550,
      "##耐": 1551,
      "##萃": 1552,
      "##据": 1553,
      "##描": 1554,
      "##ы": 1555,
      "##将": 1556,
      "##编": 1557,
      "##这": 1558,
      "##条": 1559,
      "##新": 1560,
      "##原": 1561,
      "##融": 1562,
      "##起": 1563,
      "##髓": 1564,
      "##血": 1565,
      "##病": 1566,
      "##△": 1567,
      "##鱼": 1568,
      "##消": 1569,
      "##毒": 1570,
      "##附": 1571,
      "##存": 1572,
      "##核": 1573,
      "##麻": 1574,
      "##素": 1575,
      "##被": 1576,
      "##装": 1577,
      "##形": 1578,
      "##⊆": 1579,
      "##热": 1580,
      "##网": 1581,
      "##络": 1582,
      "##散": 1583,
      "##置": 1584,
      "##环": 1585,
      "##▸": 1586,
      "##涡": 1587,
      "##旋": 1588,
      "##著": 1589,
      "##食": 1590,
      "##要": 1591,
      "##ة": 1592,
      "##盐": 1593,
      "##团": 1594,
      "##队": 1595,
      "##球": 1596,
      "##耗": 1597,
      "##西": 1598,
      "##普": 1599,
      "##林": 1600,
      "##产": 1601,
      "##死": 1602,
      "##然": 1603,
      "##且": 1604,
      "##技": 1605,
      "##鼠": 1606,
      "##邻": 1607,
      "##苯": 1608,
      "##批": 1609,
      "##敏": 1610,
      "##感": 1611,
      "##识": 1612,
      "##从": 1613,
      "##传": 1614,
      "##上": 1615,
      "##市": 1616,
      "##阿": 1617,
      "##©": 1618,
      "##导": 1619,
      "##致": 1620,
      "##台": 1621,
      "##心": 1622,
      "##ι": 1623,
      "##境": 1624,
      "##污": 1625,
      "##∥": 1626,
      "##周": 1627,
      "##期": 1628,
      "##阴": 1629,
      "##空": 1630,
      "##添": 1631,
      "##油": 1632,
      "##先": 1633,
      "##潜": 1634,
      "##择": 1635,
      "##助": 1636,
      "##鉴": 1637,
      "##黄": 1638,
      "##茶": 1639,
      "##激": 1640,
      "##调": 1641,
      "##查": 1642,
      "##报": 1643,
      "##道": 1644,
      "##份": 1645,
      "##ℝ": 1646,
      "##方": 1647,
      "##国": 1648,
      "##源": 1649,
      "##排": 1650,
      "##放": 1651,
      "##总": 1652,
      "##规": 1653,
      "##倍": 1654,
      "##镜": 1655,
      "##示": 1656,
      "##米": 1657,
      "##片": 1658,
      "##像": 1659,
      "##带": 1660,
      "##极": 1661,
      "##展": 1662,
      "##搅": 1663,
      "##拌": 1664,
      "##冷": 1665,
      "##室": 1666,
      "##温": 1667,
      "##序": 1668,
      "##由": 1669,
      "##仅": 1670,
      "##似": 1671,
      "##还": 1672,
      "##待": 1673,
      "##改": 1674,
      "##机": 1675,
      "##聚": 1676,
      "##醛": 1677,
      "##促": 1678,
      "##稳": 1679,
      "##广": 1680,
      "##泛": 1681,
      "##继": 1682,
      "##库": 1683,
      "##荧": 1684,
      "##光": 1685,
      "##恢": 1686,
      "##随": 1687,
      "##着": 1688,
      "##降": 1689,
      "##索": 1690,
      "##连": 1691,
      "##口": 1692,
      "##列": 1693,
      "##公": 1694,
      "##司": 1695,
      "##沉": 1696,
      "##淀": 1697,
      "##海": 1698,
      "##也": 1699,
      "##引": 1700,
      "##式": 1701,
      "##升": 1702,
      "##膜": 1703,
      "##破": 1704,
      "##裂": 1705,
      "##胺": 1706,
      "##修": 1707,
      "##饰": 1708,
      "##℃": 1709,
      "##诱": 1710,
      "##案": 1711,
      "##主": 1712,
      "##涤": 1713,
      "##稀": 1714,
      "##释": 1715,
      "##仍": 1716,
      "##共": 1717,
      "##振": 1718,
      "##气": 1719,
      "##略": 1720,
      "##辅": 1721,
      "##考": 1722,
      "##察": 1723,
      "##献": 1724,
      "##推": 1725,
      "##断": 1726,
      "##缓": 1727,
      "##慢": 1728,
      "##衍": 1729,
      "##家": 1730,
      "##族": 1731,
      "##部": 1732,
      "##₂": 1733,
      "##节": 1734,
      "##尿": 1735,
      "##映": 1736,
      "##拆": 1737,
      "##症": 1738,
      "##侵": 1739,
      "##袭": 1740,
      "##钠": 1741,
      "##持": 1742,
      "##健": 1743,
      "##免": 1744,
      "##疫": 1745,
      "##缩": 1746,
      "##匹": 1747,
      "##操": 1748,
      "##碎": 1749,
      "##丰": 1750,
      "##决": 1751,
      "##介": 1752,
      "##母": 1753,
      "##够": 1754,
      "##它": 1755,
      "##照": 1756,
      "##储": 1757,
      "##支": 1758,
      "##开": 1759,
      "##芳": 1760,
      "##硫": 1761,
      "##供": 1762,
      "##日": 1763,
      "##并": 1764,
      "##协": 1765,
      "##红": 1766,
      "##善": 1767,
      "##儿": 1768,
      "##直": 1769,
      "##再": 1770,
      "##天": 1771,
      "##骨": 1772,
      "##疾": 1773,
      "##续": 1774,
      "##阻": 1775,
      "##凝": 1776,
      "##▪": 1777,
      "##ɛ": 1778,
      "##软": 1779,
      "##件": 1780,
      "##些": 1781,
      "##针": 1782,
      "##滤": 1783,
      "##否": 1784,
      "##科": 1785,
      "##股": 1786,
      "##伐": 1787,
      "##替": 1788,
      "##尼": 1789,
      "##ب": 1790,
      "##近": 1791,
      "##灵": 1792,
      "##衡": 1793,
      "##迁": 1794,
      "##设": 1795,
      "##厂": 1796,
      "##足": 1797,
      "##际": 1798,
      "##象": 1799,
      "##挥": 1800,
      "##υ": 1801,
      "##石": 1802,
      "##绿": 1803,
      "##扰": 1804,
      "##双": 1805,
      "##观": 1806,
      "##活": 1807,
      "##论": 1808,
      "##充": 1809,
      "##满": 1810,
      "##巨": 1811,
      "##安": 1812,
      "##磨": 1813,
      "##扩": 1814,
      "##学": 1815,
      "##难": 1816,
      "##当": 1817,
      "##肽": 1818,
      "##覆": 1819,
      "##换": 1820,
      "##项": 1821,
      "##功": 1822,
      "##酰": 1823,
      "##求": 1824,
      "##架": 1825,
      "##干": 1826,
      "##植": 1827,
      "##泌": 1828,
      "##布": 1829,
      "##烯": 1830,
      "##如": 1831,
      "##粉": 1832,
      "##易": 1833,
      "##铁": 1834,
      "##亡": 1835,
      "##♀": 1836,
      "##维": 1837,
      "##便": 1838,
      "##趋": 1839,
      "##十": 1840,
      "##梯": 1841,
      "##角": 1842,
      "##录": 1843,
      "##容": 1844,
      "##瓶": 1845,
      "##燥": 1846,
      "##没": 1847,
      "##服": 1848,
      "##六": 1849,
      "##浴": 1850,
      "##催": 1851,
      "##氮": 1852,
      "##始": 1853,
      "##员": 1854,
      "##敲": 1855,
      "##院": 1856,
      "##丁": 1857,
      "##逐": 1858,
      "##则": 1859,
      "##腺": 1860,
      "##培": 1861,
      "##越": 1862,
      "##去": 1863,
      "##碱": 1864,
      "##封": 1865,
      "##称": 1866,
      "##势": 1867,
      "##晶": 1868,
      "##紫": 1869,
      "##义": 1870,
      "##独": 1871,
      "##医": 1872,
      "##负": 1873,
      "##荷": 1874,
      "##□": 1875,
      "##德": 1876,
      "##另": 1877,
      "##官": 1878,
      "##格": 1879,
      "##损": 1880,
      "##首": 1881,
      "##饮": 1882,
      "##补": 1883,
      "##渐": 1884,
      "##亚": 1885,
      "##净": 1886,
      "##恶": 1887,
      "##游": 1888,
      "##购": 1889,
      "##群": 1890,
      "##骤": 1891,
      "##育": 1892,
      "##月": 1893,
      "##说": 1894,
      "##叶": 1895,
      "##尤": 1896,
      "##氢": 1897,
      "##丢": 1898,
      "##典": 1899,
      "##硼": 1900,
      "##景": 1901,
      "##但": 1902,
      "##皮": 1903,
      "##辨": 1904,
      "##监": 1905,
      "##½": 1906,
      "##视": 1907,
      "##循": 1908,
      "##揭": 1909,
      "##亲": 1910,
      "##四": 1911,
      "##危": 1912,
      "##归": 1913,
      "##泳": 1914,
      "##况": 1915,
      "##链": 1916,
      "##往": 1917,
      "##美": 1918,
      "##佳": 1919,
      "##伸": 1920,
      "##烃": 1921,
      "##恒": 1922,
      "##荡": 1923,
      "##虑": 1924,
      "##场": 1925,
      "##背": 1926,
      "##撞": 1927,
      "##冲": 1928,
      "##喷": 1929,
      "##雾": 1930,
      "##£": 1931,
      "##谷": 1932,
      "##害": 1933,
      "##肠": 1934,
      "##碰": 1935,
      "##甘": 1936,
      "th": 1937,
      "##ti": 1938,
      "##er": 1939,
      "##on": 1940,
      "##es": 1941,
      "##en": 1942,
      "the": 1943,
      "##ed": 1944,
      "##in": 1945,
      "##al": 1946,
      "in": 1947,
      "##or": 1948,
      "an": 1949,
      "##at": 1950,
      "##an": 1951,
      "##tion": 1952,
      "of": 1953,
      "##ar": 1954,
      "##it": 1955,
      "and": 1956,
      "##ro": 1957,
      "##ic": 1958,
      "##as": 1959,
      "##re": 1960,
      "##ing": 1961,
      "##is": 1962,
      "##el": 1963,
      "##ec": 1964,
      "##ent": 1965,
      "to": 1966,
      "##ation": 1967,
      "##et": 1968,
      "##ac": 1969,
      "##om": 1970,
      "##ol": 1971,
      "##ur": 1972,
      "##ul": 1973,
      "##ig": 1974,
      "##le": 1975,
      "##os": 1976,
      "st": 1977,
      "##ith": 1978,
      "##ly": 1979,
      "##id": 1980,
      "for": 1981,
      "##th": 1982,
      "with": 1983,
      "##ve": 1984,
      "re": 1985,
      "##us": 1986,
      "con": 1987,
      "as": 1988,
      "##il": 1989,
      "##ere": 1990,
      "##ati": 1991,
      "##ce": 1992,
      "pro": 1993,
      "##ter": 1994,
      "##ow": 1995,
      "##ts": 1996,
      "##am": 1997,
      "##if": 1998,
      "##od": 1999,
      "##uc": 2000,
      "al": 2001,
      "##ess": 2002,
      "##im": 2003,
      "##ab": 2004,
      "##em": 2005,
      "ex": 2006,
      "##tr": 2007,
      "##un": 2008,
      "##ity": 2009,
      "on": 2010,
      "##tic": 2011,
      "##ut": 2012,
      "is": 2013,
      "##ated": 2014,
      "com": 2015,
      "##ir": 2016,
      "was": 2017,
      "##um": 2018,
      "##ag": 2019,
      "##ot": 2020,
      "##ver": 2021,
      "res": 2022,
      "##ud": 2023,
      "wh": 2024,
      "##ng": 2025,
      "ac": 2026,
      "were": 2027,
      "##ted": 2028,
      "##oc": 2029,
      "##ment": 2030,
      "##ate": 2031,
      "##pl": 2032,
      "##ys": 2033,
      "##ain": 2034,
      "that": 2035,
      "##ion": 2036,
      "##ure": 2037,
      "be": 2038,
      "##ad": 2039,
      "us": 2040,
      "ch": 2041,
      "by": 2042,
      "##op": 2043,
      "##igh": 2044,
      "or": 2045,
      "##ap": 2046,
      "##rom": 2047,
      "##ell": 2048,
      "##ib": 2049,
      "at": 2050,
      "su": 2051,
      "##og": 2052,
      "de": 2053,
      "im": 2054,
      "tr": 2055,
      "##ers": 2056,
      "20": 2057,
      "##ant": 2058,
      "##qu": 2059,
      "pr": 2060,
      "ad": 2061,
      "##ical": 2062,
      "inc": 2063,
      "are": 2064,
      "comp": 2065,
      "from": 2066,
      "##vel": 2067,
      "##iz": 2068,
      "##ting": 2069,
      "co": 2070,
      "##ff": 2071,
      "dis": 2072,
      "sh": 2073,
      "en": 2074,
      "un": 2075,
      "##ch": 2076,
      "##ip": 2077,
      "##ies": 2078,
      "we": 2079,
      "sp": 2080,
      "this": 2081,
      "##for": 2082,
      "##ence": 2083,
      "se": 2084,
      "stud": 2085,
      "##and": 2086,
      "##pp": 2087,
      "##ay": 2088,
      "##ign": 2089,
      "##ine": 2090,
      "##di": 2091,
      "##fer": 2092,
      "le": 2093,
      "##ents": 2094,
      "##ations": 2095,
      "##ial": 2096,
      "##ase": 2097,
      "per": 2098,
      "par": 2099,
      "##ific": 2100,
      "##per": 2101,
      "##ens": 2102,
      "##iti": 2103,
      "##bs": 2104,
      "ne": 2105,
      "cell": 2106,
      "mod": 2107,
      "##able": 2108,
      "gen": 2109,
      "##enti": 2110,
      "##ous": 2111,
      "##ect": 2112,
      "##te": 2113,
      "##ance": 2114,
      "sc": 2115,
      "pre": 2116,
      "##pr": 2117,
      "##ich": 2118,
      "inter": 2119,
      "str": 2120,
      "##tions": 2121,
      "##rou": 2122,
      "ass": 2123,
      "##iv": 2124,
      "##ans": 2125,
      "high": 2126,
      "##ther": 2127,
      "##ari": 2128,
      "##ore": 2129,
      "cl": 2130,
      "##form": 2131,
      "dat": 2132,
      "##ge": 2133,
      "10": 2134,
      "pl": 2135,
      "##vid": 2136,
      "##por": 2137,
      "fig": 2138,
      "sign": 2139,
      "can": 2140,
      "ph": 2141,
      "dif": 2142,
      "he": 2143,
      "met": 2144,
      "##ach": 2145,
      "##duc": 2146,
      "eff": 2147,
      "rec": 2148,
      "##und": 2149,
      "##enc": 2150,
      "anal": 2151,
      "##ual": 2152,
      "inf": 2153,
      "not": 2154,
      "##ons": 2155,
      "##ary": 2156,
      "##age": 2157,
      "##ue": 2158,
      "##vi": 2159,
      "##etw": 2160,
      "di": 2161,
      "##act": 2162,
      "##ased": 2163,
      "ha": 2164,
      "cons": 2165,
      "using": 2166,
      "##ear": 2167,
      "which": 2168,
      "##est": 2169,
      "differ": 2170,
      "##oll": 2171,
      "##ia": 2172,
      "me": 2173,
      "pati": 2174,
      "rel": 2175,
      "##ding": 2176,
      "##st": 2177,
      "all": 2178,
      "cont": 2179,
      "data": 2180,
      "##yp": 2181,
      "##ors": 2182,
      "study": 2183,
      "##der": 2184,
      "##ecti": 2185,
      "##olog": 2186,
      "int": 2187,
      "pos": 2188,
      "##ong": 2189,
      "##all": 2190,
      "ind": 2191,
      "##ative": 2192,
      "it": 2193,
      "show": 2194,
      "##ps": 2195,
      "##een": 2196,
      "##ally": 2197,
      "model": 2198,
      "sam": 2199,
      "##ese": 2200,
      "##etween": 2201,
      "trans": 2202,
      "between": 2203,
      "##ved": 2204,
      "##erm": 2205,
      "spec": 2206,
      "reg": 2207,
      "##ection": 2208,
      "ar": 2209,
      "analys": 2210,
      "##ak": 2211,
      "signific": 2212,
      "##ph": 2213,
      "##ates": 2214,
      "##ied": 2215,
      "##lud": 2216,
      "have": 2217,
      "##cess": 2218,
      "am": 2219,
      "resul": 2220,
      "imp": 2221,
      "##ility": 2222,
      "et": 2223,
      "these": 2224,
      "##ular": 2225,
      "resp": 2226,
      "##ist": 2227,
      "202": 2228,
      "car": 2229,
      "##cr": 2230,
      "##ating": 2231,
      "tre": 2232,
      "significant": 2233,
      "##gh": 2234,
      "##00": 2235,
      "##ath": 2236,
      "##ected": 2237,
      "compar": 2238,
      "grou": 2239,
      "det": 2240,
      "ab": 2241,
      "##ight": 2242,
      "app": 2243,
      "##pt": 2244,
      "##ession": 2245,
      "##so": 2246,
      "med": 2247,
      "vari": 2248,
      "cells": 2249,
      "##ater": 2250,
      "##ound": 2251,
      "##our": 2252,
      "##end": 2253,
      "used": 2254,
      "##tiv": 2255,
      "##tim": 2256,
      "includ": 2257,
      "ev": 2258,
      "##ub": 2259,
      "tim": 2260,
      "val": 2261,
      "##ros": 2262,
      "bi": 2263,
      "suc": 2264,
      "incre": 2265,
      "af": 2266,
      "##ew": 2267,
      "no": 2268,
      "patients": 2269,
      "cor": 2270,
      "sur": 2271,
      "##yst": 2272,
      "##ome": 2273,
      "##ory": 2274,
      "##oth": 2275,
      "more": 2276,
      "##ast": 2277,
      "analysis": 2278,
      "their": 2279,
      "##gr": 2280,
      "##ill": 2281,
      "##ile": 2282,
      "heal": 2283,
      "also": 2284,
      "##ple": 2285,
      "##ech": 2286,
      "##ose": 2287,
      "partic": 2288,
      "cr": 2289,
      "##ely": 2290,
      "##ym": 2291,
      "##na": 2292,
      "##ass": 2293,
      "##ost": 2294,
      "em": 2295,
      "mic": 2296,
      "level": 2297,
      "des": 2298,
      "red": 2299,
      "meth": 2300,
      "##ang": 2301,
      "##ds": 2302,
      "##ues": 2303,
      "##ized": 2304,
      "supp": 2305,
      "el": 2306,
      "health": 2307,
      "low": 2308,
      "##rol": 2309,
      "acc": 2310,
      "##ution": 2311,
      "tw": 2312,
      "##ures": 2313,
      "out": 2314,
      "ag": 2315,
      "pres": 2316,
      "##ive": 2317,
      "##ases": 2318,
      "##uld": 2319,
      "bl": 2320,
      "perform": 2321,
      "##les": 2322,
      "after": 2323,
      "##oci": 2324,
      "##ork": 2325,
      "figure": 2326,
      "studies": 2327,
      "##vely": 2328,
      "based": 2329,
      "over": 2330,
      "##dition": 2331,
      "##ep": 2332,
      "##ven": 2333,
      "##unc": 2334,
      "##ants": 2335,
      "##anc": 2336,
      "has": 2337,
      "id": 2338,
      "ins": 2339,
      "fl": 2340,
      "##ulation": 2341,
      "inv": 2342,
      "man": 2343,
      "##vers": 2344,
      "there": 2345,
      "##ob": 2346,
      "dr": 2347,
      "##ort": 2348,
      "foll": 2349,
      "sim": 2350,
      "##yn": 2351,
      "##iss": 2352,
      "##ail": 2353,
      "li": 2354,
      "##ree": 2355,
      "##ystem": 2356,
      "follow": 2357,
      "dec": 2358,
      "##trib": 2359,
      "prote": 2360,
      "min": 2361,
      "##uring": 2362,
      "two": 2363,
      "##ou": 2364,
      "time": 2365,
      "201": 2366,
      "##ition": 2367,
      "than": 2368,
      "##tin": 2369,
      "repor": 2370,
      "##yl": 2371,
      "results": 2372,
      "##tain": 2373,
      "each": 2374,
      "##ide": 2375,
      "es": 2376,
      "such": 2377,
      "##mun": 2378,
      "##ms": 2379,
      "treat": 2380,
      "anti": 2381,
      "system": 2382,
      "other": 2383,
      "how": 2384,
      "##ber": 2385,
      "our": 2386,
      "method": 2387,
      "fin": 2388,
      "gr": 2389,
      "obs": 2390,
      "activ": 2391,
      "##ack": 2392,
      "under": 2393,
      "exper": 2394,
      "indic": 2395,
      "been": 2396,
      "12": 2397,
      "treatment": 2398,
      "##plic": 2399,
      "##ace": 2400,
      "##eng": 2401,
      "##ood": 2402,
      "##ite": 2403,
      "ap": 2404,
      "##entif": 2405,
      "control": 2406,
      "##ond": 2407,
      "##acter": 2408,
      "##ard": 2409,
      "##ability": 2410,
      "appro": 2411,
      "##lement": 2412,
      "##uct": 2413,
      "associ": 2414,
      "one": 2415,
      "different": 2416,
      "##one": 2417,
      "protein": 2418,
      "both": 2419,
      "op": 2420,
      "group": 2421,
      "fe": 2422,
      "##ix": 2423,
      "expr": 2424,
      "num": 2425,
      "conc": 2426,
      "##velop": 2427,
      "obser": 2428,
      "##ential": 2429,
      "meas": 2430,
      "provid": 2431,
      "addition": 2432,
      "may": 2433,
      "##ects": 2434,
      "##entr": 2435,
      "##ature": 2436,
      "##ish": 2437,
      "##ct": 2438,
      "##out": 2439,
      "develop": 2440,
      "19": 2441,
      "fr": 2442,
      "fur": 2443,
      "ser": 2444,
      "##ays": 2445,
      "sub": 2446,
      "##ization": 2447,
      "##arg": 2448,
      "mon": 2449,
      "##tical": 2450,
      "further": 2451,
      "into": 2452,
      "##earch": 2453,
      "##ences": 2454,
      "gener": 2455,
      "##ox": 2456,
      "##hib": 2457,
      "##tive": 2458,
      "##aus": 2459,
      "##rough": 2460,
      "research": 2461,
      "during": 2462,
      "##gg": 2463,
      "form": 2464,
      "##unction": 2465,
      "pot": 2466,
      "identif": 2467,
      "its": 2468,
      "##par": 2469,
      "typ": 2470,
      "compared": 2471,
      "ob": 2472,
      "##ene": 2473,
      "15": 2474,
      "##atic": 2475,
      "##dr": 2476,
      "up": 2477,
      "sel": 2478,
      "##ined": 2479,
      "clin": 2480,
      "while": 2481,
      "mul": 2482,
      "##ici": 2483,
      "##pos": 2484,
      "##ult": 2485,
      "but": 2486,
      "rem": 2487,
      "process": 2488,
      "##ever": 2489,
      "##av": 2490,
      "dise": 2491,
      "sampl": 2492,
      "through": 2493,
      "##til": 2494,
      "mal": 2495,
      "##view": 2496,
      "##agn": 2497,
      "reduc": 2498,
      "##ities": 2499,
      "particip": 2500,
      "hy": 2501,
      "fact": 2502,
      "po": 2503,
      "dem": 2504,
      "gl": 2505,
      "pred": 2506,
      "br": 2507,
      "subs": 2508,
      "##action": 2509,
      "however": 2510,
      "indi": 2511,
      "non": 2512,
      "ris": 2513,
      "##are": 2514,
      "sm": 2515,
      "##ological": 2516,
      "11": 2517,
      "sol": 2518,
      "when": 2519,
      "##ium": 2520,
      "year": 2521,
      "##ited": 2522,
      "##ov": 2523,
      "only": 2524,
      "##ective": 2525,
      "##ages": 2526,
      "##ug": 2527,
      "##itive": 2528,
      "##ross": 2529,
      "##cl": 2530,
      "ma": 2531,
      "higher": 2532,
      "##urr": 2533,
      "infl": 2534,
      "respons": 2535,
      "found": 2536,
      "##br": 2537,
      "pol": 2538,
      "##aining": 2539,
      "##ange": 2540,
      "number": 2541,
      "struct": 2542,
      "path": 2543,
      "##ently": 2544,
      "assess": 2545,
      "use": 2546,
      "coll": 2547,
      "##ments": 2548,
      "qu": 2549,
      "##ie": 2550,
      "##ology": 2551,
      "##ize": 2552,
      "function": 2553,
      "##aph": 2554,
      "##tal": 2555,
      "cy": 2556,
      "where": 2557,
      "pe": 2558,
      "well": 2559,
      "char": 2560,
      "##als": 2561,
      "most": 2562,
      "levels": 2563,
      "observed": 2564,
      "##ency": 2565,
      "risk": 2566,
      "reported": 2567,
      "clinical": 2568,
      "##cc": 2569,
      "ful": 2570,
      "impro": 2571,
      "##cer": 2572,
      "##ectively": 2573,
      "within": 2574,
      "cal": 2575,
      "gene": 2576,
      "sec": 2577,
      "fir": 2578,
      "##row": 2579,
      "had": 2580,
      "three": 2581,
      "lik": 2582,
      "##ions": 2583,
      "col": 2584,
      "set": 2585,
      "##ark": 2586,
      "expression": 2587,
      "##pres": 2588,
      "##gen": 2589,
      "##ric": 2590,
      "specific": 2591,
      "conf": 2592,
      "##atory": 2593,
      "##fore": 2594,
      "##her": 2595,
      "##vidual": 2596,
      "produc": 2597,
      "mm": 2598,
      "##onstr": 2599,
      "##orm": 2600,
      "individual": 2601,
      "13": 2602,
      "tem": 2603,
      "immun": 2604,
      "review": 2605,
      "##ft": 2606,
      "work": 2607,
      "multi": 2608,
      "associated": 2609,
      "##echn": 2610,
      "14": 2611,
      "samples": 2612,
      "first": 2613,
      "sequ": 2614,
      "##tern": 2615,
      "including": 2616,
      "##ole": 2617,
      "present": 2618,
      "30": 2619,
      "##ex": 2620,
      "predic": 2621,
      "table": 2622,
      "##ational": 2623,
      "vs": 2624,
      "due": 2625,
      "##ination": 2626,
      "they": 2627,
      "25": 2628,
      "##res": 2629,
      "def": 2630,
      "##erg": 2631,
      "term": 2632,
      "##ulated": 2633,
      "shown": 2634,
      "##osis": 2635,
      "experim": 2636,
      "tes": 2637,
      "cap": 2638,
      "##ines": 2639,
      "test": 2640,
      "##ible": 2641,
      "corre": 2642,
      "exam": 2643,
      "##amm": 2644,
      "pop": 2645,
      "inform": 2646,
      "techn": 2647,
      "16": 2648,
      "##alu": 2649,
      "potential": 2650,
      "##lex": 2651,
      "##its": 2652,
      "##vious": 2653,
      "##ural": 2654,
      "##omes": 2655,
      "ml": 2656,
      "so": 2657,
      "syn": 2658,
      "##amet": 2659,
      "comm": 2660,
      "##own": 2661,
      "evalu": 2662,
      "24": 2663,
      "sens": 2664,
      "hum": 2665,
      "end": 2666,
      "##ould": 2667,
      "performed": 2668,
      "significantly": 2669,
      "repres": 2670,
      "loc": 2671,
      "##ital": 2672,
      "kn": 2673,
      "##over": 2674,
      "could": 2675,
      "##ilar": 2676,
      "18": 2677,
      "effect": 2678,
      "##port": 2679,
      "prim": 2680,
      "##val": 2681,
      "sugg": 2682,
      "##ider": 2683,
      "mo": 2684,
      "previous": 2685,
      "##tit": 2686,
      "##ey": 2687,
      "##ten": 2688,
      "##ders": 2689,
      "patient": 2690,
      "##ning": 2691,
      "similar": 2692,
      "micro": 2693,
      "##ane": 2694,
      "lim": 2695,
      "org": 2696,
      "character": 2697,
      "##ement": 2698,
      "mol": 2699,
      "mean": 2700,
      "##tics": 2701,
      "##ores": 2702,
      "rece": 2703,
      "disease": 2704,
      "conduc": 2705,
      "among": 2706,
      "concentr": 2707,
      "##ured": 2708,
      "increased": 2709,
      "participants": 2710,
      "##af": 2711,
      "##ior": 2712,
      "##ogr": 2713,
      "total": 2714,
      "##oid": 2715,
      "##ough": 2716,
      "##iel": 2717,
      "extr": 2718,
      "demonstr": 2719,
      "av": 2720,
      "##atis": 2721,
      "##ves": 2722,
      "##equ": 2723,
      "##crip": 2724,
      "showed": 2725,
      "##ived": 2726,
      "do": 2727,
      "il": 2728,
      "groups": 2729,
      "care": 2730,
      "##ateg": 2731,
      "then": 2732,
      "consider": 2733,
      "##ental": 2734,
      "rate": 2735,
      "models": 2736,
      "effects": 2737,
      "main": 2738,
      "vir": 2739,
      "##ains": 2740,
      "##xim": 2741,
      "##ness": 2742,
      "##ute": 2743,
      "50": 2744,
      "##ale": 2745,
      "lower": 2746,
      "values": 2747,
      "##ubl": 2748,
      "calc": 2749,
      "vis": 2750,
      "##int": 2751,
      "##ful": 2752,
      "##01": 2753,
      "##echan": 2754,
      "diagn": 2755,
      "mater": 2756,
      "approach": 2757,
      "##tig": 2758,
      "##ian": 2759,
      "dep": 2760,
      "line": 2761,
      "enh": 2762,
      "if": 2763,
      "##acy": 2764,
      "##ock": 2765,
      "17": 2766,
      "stand": 2767,
      "prom": 2768,
      "activity": 2769,
      "ep": 2770,
      "outc": 2771,
      "related": 2772,
      "determ": 2773,
      "##ditions": 2774,
      "coun": 2775,
      "##acc": 2776,
      "##inal": 2777,
      "obtain": 2778,
      "##ength": 2779,
      "ther": 2780,
      "cases": 2781,
      "conditions": 2782,
      "mechan": 2783,
      "distrib": 2784,
      "respectively": 2785,
      "gre": 2786,
      "sample": 2787,
      "prot": 2788,
      "##oun": 2789,
      "following": 2790,
      "years": 2791,
      "##ise": 2792,
      "artic": 2793,
      "progr": 2794,
      "lead": 2795,
      "equ": 2796,
      "who": 2797,
      "post": 2798,
      "95": 2799,
      "class": 2800,
      "##led": 2801,
      "##ust": 2802,
      "age": 2803,
      "cancer": 2804,
      "cd": 2805,
      "acid": 2806,
      "those": 2807,
      "##ha": 2808,
      "therap": 2809,
      "##ets": 2810,
      "included": 2811,
      "##ok": 2812,
      "##bi": 2813,
      "del": 2814,
      "##ogen": 2815,
      "mem": 2816,
      "across": 2817,
      "interven": 2818,
      "import": 2819,
      "100": 2820,
      "##ri": 2821,
      "publ": 2822,
      "##ice": 2823,
      "information": 2824,
      "aff": 2825,
      "ps": 2826,
      "##ism": 2827,
      "long": 2828,
      "##ically": 2829,
      "comb": 2830,
      "##fl": 2831,
      "expl": 2832,
      "requ": 2833,
      "##air": 2834,
      "tum": 2835,
      "##old": 2836,
      "qual": 2837,
      "chang": 2838,
      "##ics": 2839,
      "##ving": 2840,
      "targ": 2841,
      "supplement": 2842,
      "##cs": 2843,
      "##usion": 2844,
      "will": 2845,
      "finding": 2846,
      "sl": 2847,
      "inhib": 2848,
      "development": 2849,
      "##iter": 2850,
      "abs": 2851,
      "caus": 2852,
      "##uted": 2853,
      "positive": 2854,
      "##de": 2855,
      "inves": 2856,
      "21": 2857,
      "##ek": 2858,
      "fre": 2859,
      "temper": 2860,
      "investig": 2861,
      "mat": 2862,
      "estim": 2863,
      "dire": 2864,
      "##ication": 2865,
      "au": 2866,
      "some": 2867,
      "genes": 2868,
      "human": 2869,
      "tiss": 2870,
      "rep": 2871,
      "##dro": 2872,
      "er": 2873,
      "22": 2874,
      "##ately": 2875,
      "decre": 2876,
      "bas": 2877,
      "full": 2878,
      "grow": 2879,
      "chil": 2880,
      "initi": 2881,
      "##ained": 2882,
      "molec": 2883,
      "##crib": 2884,
      "##ink": 2885,
      "##ites": 2886,
      "##arge": 2887,
      "bec": 2888,
      "need": 2889,
      "performance": 2890,
      "statis": 2891,
      "correl": 2892,
      "uni": 2893,
      "##ma": 2894,
      "invol": 2895,
      "prob": 2896,
      "##ery": 2897,
      "increase": 2898,
      "identified": 2899,
      "methods": 2900,
      "material": 2901,
      "##ified": 2902,
      "##face": 2903,
      "##ograph": 2904,
      "##rop": 2905,
      "##ormal": 2906,
      "##ption": 2907,
      "design": 2908,
      "##adi": 2909,
      "exp": 2910,
      "analy": 2911,
      "occ": 2912,
      "factors": 2913,
      "complex": 2914,
      "second": 2915,
      "response": 2916,
      "##vir": 2917,
      "sugges": 2918,
      "sing": 2919,
      "disc": 2920,
      "paramet": 2921,
      "##verage": 2922,
      "blood": 2923,
      "##esis": 2924,
      "##etr": 2925,
      "##aria": 2926,
      "##oph": 2927,
      "mg": 2928,
      "sym": 2929,
      "bin": 2930,
      "200": 2931,
      "nm": 2932,
      "##ded": 2933,
      "value": 2934,
      "lab": 2935,
      "new": 2936,
      "neg": 2937,
      "ox": 2938,
      "fac": 2939,
      "measure": 2940,
      "23": 2941,
      "standard": 2942,
      "neu": 2943,
      "vol": 2944,
      "population": 2945,
      "##ensity": 2946,
      "type": 2947,
      "phys": 2948,
      "##cop": 2949,
      "##onic": 2950,
      "curr": 2951,
      "same": 2952,
      "conducted": 2953,
      "sever": 2954,
      "vacc": 2955,
      "ext": 2956,
      "induc": 2957,
      "represent": 2958,
      "##ody": 2959,
      "05": 2960,
      "##hip": 2961,
      "size": 2962,
      "##och": 2963,
      "frequ": 2964,
      "##tes": 2965,
      "°c": 2966,
      "any": 2967,
      "##ptom": 2968,
      "sch": 2969,
      "##abol": 2970,
      "peri": 2971,
      "drug": 2972,
      "infection": 2973,
      "##ade": 2974,
      "cre": 2975,
      "##med": 2976,
      "small": 2977,
      "2024": 2978,
      "avail": 2979,
      "access": 2980,
      "without": 2981,
      "case": 2982,
      "changes": 2983,
      "##ties": 2984,
      "accur": 2985,
      "##other": 2986,
      "##otyp": 2987,
      "findings": 2988,
      "month": 2989,
      "##ake": 2990,
      "flu": 2991,
      "range": 2992,
      "malaria": 2993,
      "##10": 2994,
      "reve": 2995,
      "differences": 2996,
      "provided": 2997,
      "single": 2998,
      "##ording": 2999,
      "##oy": 3000,
      "40": 3001,
      "fil": 3002,
      "obtained": 3003,
      "##round": 3004,
      "##resp": 3005,
      "adv": 3006,
      "hydro": 3007,
      "##se": 3008,
      "gu": 3009,
      "##plet": 3010,
      "target": 3011,
      "lo": 3012,
      "key": 3013,
      "##iven": 3014,
      "metabol": 3015,
      "applic": 3016,
      "##tt": 3017,
      "##arly": 3018,
      "various": 3019,
      "##ification": 3020,
      "describ": 3021,
      "ir": 3022,
      "exc": 3023,
      "##aging": 3024,
      "##osp": 3025,
      "temperature": 3026,
      "28": 3027,
      "pat": 3028,
      "##aw": 3029,
      "##ission": 3030,
      "##eter": 3031,
      "##ality": 3032,
      "ol": 3033,
      "##viron": 3034,
      "##versity": 3035,
      "days": 3036,
      "four": 3037,
      "unders": 3038,
      "water": 3039,
      "exhib": 3040,
      "organ": 3041,
      "quality": 3042,
      "day": 3043,
      "##tif": 3044,
      "role": 3045,
      "pers": 3046,
      "##ectr": 3047,
      "nan": 3048,
      "##ield": 3049,
      "##uce": 3050,
      "##ire": 3051,
      "##ick": 3052,
      "intr": 3053,
      "individuals": 3054,
      "##ulations": 3055,
      "period": 3056,
      "##ables": 3057,
      "multiple": 3058,
      "optim": 3059,
      "mark": 3060,
      "inflamm": 3061,
      "resist": 3062,
      "pathw": 3063,
      "##itor": 3064,
      "improve": 3065,
      "auth": 3066,
      "mut": 3067,
      "contr": 3068,
      "ms": 3069,
      "rele": 3070,
      "##ision": 3071,
      "influ": 3072,
      "cm": 3073,
      "sk": 3074,
      "##etwork": 3075,
      "##cle": 3076,
      "outcomes": 3077,
      "surface": 3078,
      "corresp": 3079,
      "##ogn": 3080,
      "ach": 3081,
      "contrib": 3082,
      "beha": 3083,
      "like": 3084,
      "prof": 3085,
      "surg": 3086,
      "reveal": 3087,
      "network": 3088,
      "26": 3089,
      "##ily": 3090,
      "mice": 3091,
      "therefore": 3092,
      "##reg": 3093,
      "important": 3094,
      "structure": 3095,
      "quan": 3096,
      "poss": 3097,
      "ed": 3098,
      "behavi": 3099,
      "refer": 3100,
      "000": 3101,
      "week": 3102,
      "##ectro": 3103,
      "##art": 3104,
      "##vity": 3105,
      "##ised": 3106,
      "##tegr": 3107,
      "rati": 3108,
      "##ether": 3109,
      "did": 3110,
      "signal": 3111,
      "analyz": 3112,
      "sci": 3113,
      "plas": 3114,
      "commun": 3115,
      "##atures": 3116,
      "normal": 3117,
      "##que": 3118,
      "particular": 3119,
      "stress": 3120,
      "impact": 3121,
      "ci": 3122,
      "environ": 3123,
      "cult": 3124,
      "##ucle": 3125,
      "chem": 3126,
      "here": 3127,
      "##ety": 3128,
      "##ns": 3129,
      "evid": 3130,
      "hosp": 3131,
      "symptom": 3132,
      "tumor": 3133,
      "##ax": 3134,
      "27": 3135,
      "foc": 3136,
      "lif": 3137,
      "achie": 3138,
      "##roduc": 3139,
      "being": 3140,
      "integr": 3141,
      "##ening": 3142,
      "growth": 3143,
      "proper": 3144,
      "bar": 3145,
      "aut": 3146,
      "##ocy": 3147,
      "##endent": 3148,
      "cyt": 3149,
      "additionally": 3150,
      "species": 3151,
      "sw": 3152,
      "##ins": 3153,
      "ec": 3154,
      "37": 3155,
      "util": 3156,
      "common": 3157,
      "again": 3158,
      "29": 3159,
      "##ator": 3160,
      "according": 3161,
      "##ension": 3162,
      "##abl": 3163,
      "##ished": 3164,
      "vi": 3165,
      "##icient": 3166,
      "strateg": 3167,
      "##etic": 3168,
      "##asing": 3169,
      "antib": 3170,
      "demonstrated": 3171,
      "less": 3172,
      "inj": 3173,
      "##ung": 3174,
      "trial": 3175,
      "adm": 3176,
      "der": 3177,
      "synth": 3178,
      "##olution": 3179,
      "cur": 3180,
      "lear": 3181,
      "success": 3182,
      "tissue": 3183,
      "##dren": 3184,
      "fib": 3185,
      "primary": 3186,
      "datas": 3187,
      "before": 3188,
      "suppor": 3189,
      "children": 3190,
      "available": 3191,
      "dna": 3192,
      "reduced": 3193,
      "comparis": 3194,
      "##ik": 3195,
      "adj": 3196,
      "characteris": 3197,
      "relations": 3198,
      "bre": 3199,
      "hel": 3200,
      "distribution": 3201,
      "region": 3202,
      "dom": 3203,
      "##asc": 3204,
      "35": 3205,
      "##xt": 3206,
      "pur": 3207,
      "enhanc": 3208,
      "scale": 3209,
      "experi": 3210,
      "##ploy": 3211,
      "##actions": 3212,
      "##omic": 3213,
      "##verse": 3214,
      "average": 3215,
      "cle": 3216,
      "##ced": 3217,
      "##arm": 3218,
      "phase": 3219,
      "covid": 3220,
      "negative": 3221,
      "expos": 3222,
      "##atal": 3223,
      "##ols": 3224,
      "them": 3225,
      "electro": 3226,
      "pd": 3227,
      "ro": 3228,
      "33": 3229,
      "overall": 3230,
      "vers": 3231,
      "complet": 3232,
      "confir": 3233,
      "##ann": 3234,
      "consist": 3235,
      "concentration": 3236,
      "super": 3237,
      "supplementary": 3238,
      "##omen": 3239,
      "proteins": 3240,
      "ii": 3241,
      "treated": 3242,
      "##osph": 3243,
      "images": 3244,
      "chall": 3245,
      "##uster": 3246,
      "relationship": 3247,
      "focus": 3248,
      "##cent": 3249,
      "##oss": 3250,
      "##though": 3251,
      "valid": 3252,
      "about": 3253,
      "##ired": 3254,
      "underst": 3255,
      "analyses": 3256,
      "##20": 3257,
      "mix": 3258,
      "lay": 3259,
      "##ices": 3260,
      "##ject": 3261,
      "##igure": 3262,
      "electr": 3263,
      "stat": 3264,
      "31": 3265,
      "should": 3266,
      "##arch": 3267,
      "allow": 3268,
      "diagnos": 3269,
      "##oh": 3270,
      "my": 3271,
      "##up": 3272,
      "sus": 3273,
      "although": 3274,
      "several": 3275,
      "##essed": 3276,
      "##of": 3277,
      "##ections": 3278,
      "##ina": 3279,
      "60": 3280,
      "support": 3281,
      "01": 3282,
      "##els": 3283,
      "large": 3284,
      "eng": 3285,
      "parameters": 3286,
      "measured": 3287,
      "energ": 3288,
      "##cept": 3289,
      "thus": 3290,
      "##ty": 3291,
      "##ause": 3292,
      "scre": 3293,
      "direct": 3294,
      "##vere": 3295,
      "sin": 3296,
      "##onal": 3297,
      "##ival": 3298,
      "bet": 3299,
      "##tional": 3300,
      "##ynam": 3301,
      "medical": 3302,
      "cluster": 3303,
      "diff": 3304,
      "##emic": 3305,
      "state": 3306,
      "hyp": 3307,
      "eth": 3308,
      "##ove": 3309,
      "##istr": 3310,
      "would": 3311,
      "pattern": 3312,
      "prec": 3313,
      "hospital": 3314,
      "presence": 3315,
      "tra": 3316,
      "off": 3317,
      "training": 3318,
      "current": 3319,
      "described": 3320,
      "##more": 3321,
      "32": 3322,
      "##andom": 3323,
      "area": 3324,
      "bacter": 3325,
      "##idence": 3326,
      "cent": 3327,
      "##gn": 3328,
      "##ored": 3329,
      "hist": 3330,
      "bu": 3331,
      "2022": 3332,
      "phen": 3333,
      "spectr": 3334,
      "flow": 3335,
      "contin": 3336,
      "random": 3337,
      "detection": 3338,
      "enc": 3339,
      "compos": 3340,
      "revealed": 3341,
      "36": 3342,
      "te": 3343,
      "##ne": 3344,
      "factor": 3345,
      "fem": 3346,
      "##line": 3347,
      "bel": 3348,
      "dim": 3349,
      "##plied": 3350,
      "##ord": 3351,
      "nucle": 3352,
      "cir": 3353,
      "45": 3354,
      "solution": 3355,
      "2021": 3356,
      "intervention": 3357,
      "os": 3358,
      "immune": 3359,
      "environment": 3360,
      "subsequ": 3361,
      "##ask": 3362,
      "ratio": 3363,
      "##az": 3364,
      "rna": 3365,
      "##ouse": 3366,
      "score": 3367,
      "given": 3368,
      "furthermore": 3369,
      "effective": 3370,
      "difference": 3371,
      "considered": 3372,
      "against": 3373,
      "##izing": 3374,
      "transm": 3375,
      "48": 3376,
      "energy": 3377,
      "##ensive": 3378,
      "##agement": 3379,
      "##ci": 3380,
      "strong": 3381,
      "##ibr": 3382,
      "because": 3383,
      "local": 3384,
      "2020": 3385,
      "##ustr": 3386,
      "##nal": 3387,
      "via": 3388,
      "rates": 3389,
      "map": 3390,
      "##iver": 3391,
      "ul": 3392,
      "2023": 3393,
      "resistance": 3394,
      "##ces": 3395,
      "employ": 3396,
      "##ands": 3397,
      "compon": 3398,
      "ret": 3399,
      "calculated": 3400,
      "##atively": 3401,
      "##truc": 3402,
      "001": 3403,
      "presented": 3404,
      "prepar": 3405,
      "##onding": 3406,
      "##encing": 3407,
      "learning": 3408,
      "evidence": 3409,
      "peak": 3410,
      "prac": 3411,
      "ens": 3412,
      "part": 3413,
      "orig": 3414,
      "ill": 3415,
      "##12": 3416,
      "early": 3417,
      "ca": 3418,
      "minim": 3419,
      "##ression": 3420,
      "##cep": 3421,
      "est": 3422,
      "link": 3423,
      "##isms": 3424,
      "##ars": 3425,
      "identify": 3426,
      "binding": 3427,
      "##ended": 3428,
      "ques": 3429,
      "articles": 3430,
      "techni": 3431,
      "transcrip": 3432,
      "months": 3433,
      "light": 3434,
      "34": 3435,
      "properties": 3436,
      "induced": 3437,
      "university": 3438,
      "##bl": 3439,
      "terms": 3440,
      "recom": 3441,
      "understand": 3442,
      "read": 3443,
      "resid": 3444,
      "virus": 3445,
      "alg": 3446,
      "##roph": 3447,
      "##ier": 3448,
      "##aking": 3449,
      "##put": 3450,
      "change": 3451,
      "molecular": 3452,
      "##ae": 3453,
      "pow": 3454,
      "compound": 3455,
      "top": 3456,
      "##ode": 3457,
      "cardi": 3458,
      "self": 3459,
      "length": 3460,
      "loss": 3461,
      "##erc": 3462,
      "life": 3463,
      "centr": 3464,
      "sum": 3465,
      "##eline": 3466,
      "anim": 3467,
      "general": 3468,
      "systems": 3469,
      "result": 3470,
      "mor": 3471,
      "##11": 3472,
      "##ably": 3473,
      "highl": 3474,
      "sour": 3475,
      "fam": 3476,
      "provide": 3477,
      "mus": 3478,
      "free": 3479,
      "even": 3480,
      "applied": 3481,
      "developed": 3482,
      "00": 3483,
      "phot": 3484,
      "membr": 3485,
      "followed": 3486,
      "##50": 3487,
      "##ocial": 3488,
      "##roscop": 3489,
      "maj": 3490,
      "regions": 3491,
      "reduction": 3492,
      "dig": 3493,
      "nec": 3494,
      "mass": 3495,
      "additional": 3496,
      "##ules": 3497,
      "preval": 3498,
      "dist": 3499,
      "image": 3500,
      "##tered": 3501,
      "isol": 3502,
      "cross": 3503,
      "indicated": 3504,
      "increasing": 3505,
      "brain": 3506,
      "soft": 3507,
      "##otic": 3508,
      "##ilit": 3509,
      "den": 3510,
      "mr": 3511,
      "extrac": 3512,
      "symptoms": 3513,
      "previously": 3514,
      "##tric": 3515,
      "stim": 3516,
      "major": 3517,
      "collected": 3518,
      "wor": 3519,
      "##eth": 3520,
      "many": 3521,
      "correlation": 3522,
      "##ture": 3523,
      "features": 3524,
      "therm": 3525,
      "oper": 3526,
      "lip": 3527,
      "radi": 3528,
      "##uration": 3529,
      "down": 3530,
      "##ots": 3531,
      "point": 3532,
      "characteristics": 3533,
      "example": 3534,
      "accuracy": 3535,
      "##red": 3536,
      "therapy": 3537,
      "prior": 3538,
      "##urs": 3539,
      "coh": 3540,
      "field": 3541,
      "press": 3542,
      "##itivity": 3543,
      "##ibility": 3544,
      "##ank": 3545,
      "##ints": 3546,
      "successful": 3547,
      "ct": 3548,
      "body": 3549,
      "38": 3550,
      "functional": 3551,
      "selected": 3552,
      "indep": 3553,
      "particularly": 3554,
      "visual": 3555,
      "women": 3556,
      "open": 3557,
      "##tically": 3558,
      "resulting": 3559,
      "medi": 3560,
      "##vices": 3561,
      "##utions": 3562,
      "authors": 3563,
      "##ca": 3564,
      "weight": 3565,
      "##pec": 3566,
      "##ising": 3567,
      "maxim": 3568,
      "##ense": 3569,
      "dynam": 3570,
      "##he": 3571,
      "##ind": 3572,
      "experiments": 3573,
      "times": 3574,
      "##ych": 3575,
      "received": 3576,
      "protoc": 3577,
      "##ttps": 3578,
      "ver": 3579,
      "surve": 3580,
      "err": 3581,
      "hyper": 3582,
      "##ume": 3583,
      "stage": 3584,
      "go": 3585,
      "index": 3586,
      "md": 3587,
      "left": 3588,
      "hem": 3589,
      "##iciency": 3590,
      "##eg": 3591,
      "comparison": 3592,
      "diseases": 3593,
      "relative": 3594,
      "five": 3595,
      "##itro": 3596,
      "initial": 3597,
      "##ild": 3598,
      "##ector": 3599,
      "log": 3600,
      "##ware": 3601,
      "approxim": 3602,
      "likely": 3603,
      "experimental": 3604,
      "production": 3605,
      "##omy": 3606,
      "detail": 3607,
      "##ither": 3608,
      "variables": 3609,
      "##oma": 3610,
      "##enced": 3611,
      "proced": 3612,
      "sn": 3613,
      "social": 3614,
      "incub": 3615,
      "##ights": 3616,
      "##eration": 3617,
      "content": 3618,
      "bene": 3619,
      "larg": 3620,
      "ang": 3621,
      "frequency": 3622,
      "density": 3623,
      "known": 3624,
      "cri": 3625,
      "circ": 3626,
      "limited": 3627,
      "##zym": 3628,
      "indicating": 3629,
      "##ecting": 3630,
      "surv": 3631,
      "public": 3632,
      "analyzed": 3633,
      "implement": 3634,
      "carb": 3635,
      "corresponding": 3636,
      "challeng": 3637,
      "usa": 3638,
      "80": 3639,
      "article": 3640,
      "determined": 3641,
      "severe": 3642,
      "establ": 3643,
      "countr": 3644,
      "##ascular": 3645,
      "statistical": 3646,
      "types": 3647,
      "real": 3648,
      "##cence": 3649,
      "##ogene": 3650,
      "benef": 3651,
      "mort": 3652,
      "##orith": 3653,
      "often": 3654,
      "fully": 3655,
      "contrast": 3656,
      "39": 3657,
      "##oles": 3658,
      "admin": 3659,
      "##ner": 3660,
      "polym": 3661,
      "algorith": 3662,
      "since": 3663,
      "instit": 3664,
      "##uss": 3665,
      "regul": 3666,
      "containing": 3667,
      "magn": 3668,
      "separ": 3669,
      "propor": 3670,
      "##yr": 3671,
      "diagnosis": 3672,
      "continu": 3673,
      "above": 3674,
      "categ": 3675,
      "##ule": 3676,
      "cour": 3677,
      "infigure": 3678,
      "##entially": 3679,
      "##ards": 3680,
      "wa": 3681,
      "##eu": 3682,
      "association": 3683,
      "sal": 3684,
      "##ides": 3685,
      "formation": 3686,
      "inflammatory": 3687,
      "attrib": 3688,
      "42": 3689,
      "##ward": 3690,
      "materials": 3691,
      "know": 3692,
      "##ances": 3693,
      "ability": 3694,
      "##iving": 3695,
      "##fr": 3696,
      "scores": 3697,
      "genetic": 3698,
      "rob": 3699,
      "μm": 3700,
      "disor": 3701,
      "concentrations": 3702,
      "##ually": 3703,
      "medic": 3704,
      "back": 3705,
      "see": 3706,
      "imaging": 3707,
      "section": 3708,
      "##ople": 3709,
      "order": 3710,
      "criter": 3711,
      "aim": 3712,
      "assessed": 3713,
      "da": 3714,
      "educ": 3715,
      "##eding": 3716,
      "phosph": 3717,
      "load": 3718,
      "dose": 3719,
      "##ially": 3720,
      "##hy": 3721,
      "management": 3722,
      "cer": 3723,
      "##ld": 3724,
      "medium": 3725,
      "sd": 3726,
      "##ists": 3727,
      "reaction": 3728,
      "people": 3729,
      "##uture": 3730,
      "right": 3731,
      "detected": 3732,
      "responses": 3733,
      "include": 3734,
      "##−1": 3735,
      "sequence": 3736,
      "glob": 3737,
      "fit": 3738,
      "biom": 3739,
      "pain": 3740,
      "better": 3741,
      "derived": 3742,
      "##pression": 3743,
      "short": 3744,
      "possible": 3745,
      "lic": 3746,
      "liter": 3747,
      "physical": 3748,
      "##bers": 3749,
      "areas": 3750,
      "ste": 3751,
      "displ": 3752,
      "3d": 3753,
      "greater": 3754,
      "interaction": 3755,
      "condition": 3756,
      "limit": 3757,
      "att": 3758,
      "90": 3759,
      "##ators": 3760,
      "enhance": 3761,
      "whether": 3762,
      "defined": 3763,
      "paras": 3764,
      "behavior": 3765,
      "mortality": 3766,
      "monitor": 3767,
      "##ount": 3768,
      "mos": 3769,
      "lack": 3770,
      "43": 3771,
      "##pa": 3772,
      "##ams": 3773,
      "mac": 3774,
      "death": 3775,
      "recent": 3776,
      "recor": 3777,
      "propos": 3778,
      "##read": 3779,
      "assessment": 3780,
      "tests": 3781,
      "setting": 3782,
      "chr": 3783,
      "testing": 3784,
      "cov": 3785,
      "either": 3786,
      "activation": 3787,
      "##oper": 3788,
      "s1": 3789,
      "guid": 3790,
      "sensitivity": 3791,
      "##fficient": 3792,
      "ge": 3793,
      "##ient": 3794,
      "status": 3795,
      "exposure": 3796,
      "seg": 3797,
      "enzym": 3798,
      "along": 3799,
      "pap": 3800,
      "deg": 3801,
      "##tis": 3802,
      "maintain": 3803,
      "ic": 3804,
      "ax": 3805,
      "hand": 3806,
      "indicate": 3807,
      "addr": 3808,
      "##iate": 3809,
      "bio": 3810,
      "moreover": 3811,
      "layer": 3812,
      "##ats": 3813,
      "prevalence": 3814,
      "##epti": 3815,
      "44": 3816,
      "2019": 3817,
      "conn": 3818,
      "psych": 3819,
      "interventions": 3820,
      "heter": 3821,
      "pathway": 3822,
      "sex": 3823,
      "future": 3824,
      "##me": 3825,
      "70": 3826,
      "##ru": 3827,
      "least": 3828,
      "dataset": 3829,
      "percent": 3830,
      "very": 3831,
      "cs": 3832,
      "##ito": 3833,
      "collection": 3834,
      "##vant": 3835,
      "critical": 3836,
      "consistent": 3837,
      "leading": 3838,
      "power": 3839,
      "##icity": 3840,
      "##to": 3841,
      "adap": 3842,
      "sem": 3843,
      "##istic": 3844,
      "41": 3845,
      "fram": 3846,
      "summ": 3847,
      "strength": 3848,
      "transmission": 3849,
      "##care": 3850,
      "refl": 3851,
      "tested": 3852,
      "evaluated": 3853,
      "shows": 3854,
      "deliver": 3855,
      "ur": 3856,
      "##vice": 3857,
      "site": 3858,
      "pcr": 3859,
      "nat": 3860,
      "recept": 3861,
      "75": 3862,
      "highly": 3863,
      "pan": 3864,
      "baseline": 3865,
      "bo": 3866,
      "effic": 3867,
      "gly": 3868,
      "rap": 3869,
      "involved": 3870,
      "national": 3871,
      "##sh": 3872,
      "mechanisms": 3873,
      "##io": 3874,
      "improved": 3875,
      "another": 3876,
      "prol": 3877,
      "search": 3878,
      "ann": 3879,
      "surgery": 3880,
      "expressed": 3881,
      "reference": 3882,
      "##13": 3883,
      "##orb": 3884,
      "software": 3885,
      "interactions": 3886,
      "##inant": 3887,
      "active": 3888,
      "infections": 3889,
      "##eed": 3890,
      "sequences": 3891,
      "emerg": 3892,
      "##ino": 3893,
      "decreased": 3894,
      "specif": 3895,
      "##till": 3896,
      "conte": 3897,
      "task": 3898,
      "linear": 3899,
      "volume": 3900,
      "rang": 3901,
      "generated": 3902,
      "subj": 3903,
      "subst": 3904,
      "##orption": 3905,
      "labor": 3906,
      "mir": 3907,
      "##ping": 3908,
      "transfer": 3909,
      "regression": 3910,
      "##vent": 3911,
      "membrane": 3912,
      "survival": 3913,
      "ess": 3914,
      "facilit": 3915,
      "##ledge": 3916,
      "pressure": 3917,
      "literature": 3918,
      "##abil": 3919,
      "##tial": 3920,
      "efficacy": 3921,
      "occurr": 3922,
      "neur": 3923,
      "china": 3924,
      "men": 3925,
      "chrom": 3926,
      "##otype": 3927,
      "bro": 3928,
      "##go": 3929,
      "added": 3930,
      "##cin": 3931,
      "dam": 3932,
      "##ffer": 3933,
      "sites": 3934,
      "criteria": 3935,
      "##ying": 3936,
      "introduc": 3937,
      "capac": 3938,
      "proposed": 3939,
      "approximately": 3940,
      "pair": 3941,
      "carr": 3942,
      "healthcare": 3943,
      "##plas": 3944,
      "##eric": 3945,
      "replic": 3946,
      "##pi": 3947,
      "points": 3948,
      "genome": 3949,
      "structures": 3950,
      "block": 3951,
      "46": 3952,
      "assay": 3953,
      "deng": 3954,
      "highest": 3955,
      "mit": 3956,
      "observ": 3957,
      "position": 3958,
      "biological": 3959,
      "appear": 3960,
      "datab": 3961,
      "cruc": 3962,
      "food": 3963,
      "repe": 3964,
      "fluores": 3965,
      "weeks": 3966,
      "six": 3967,
      "##odies": 3968,
      "cam": 3969,
      "##inc": 3970,
      "pul": 3971,
      "dm": 3972,
      "##ction": 3973,
      "47": 3974,
      "##pite": 3975,
      "neuro": 3976,
      "reach": 3977,
      "required": 3978,
      "confirmed": 3979,
      "inst": 3980,
      "##ining": 3981,
      "inhibit": 3982,
      "diab": 3983,
      "exhibited": 3984,
      "viv": 3985,
      "cop": 3986,
      "saf": 3987,
      "##ids": 3988,
      "##ah": 3989,
      "atten": 3990,
      "##ters": 3991,
      "transform": 3992,
      "states": 3993,
      "##aps": 3994,
      "sil": 3995,
      "muc": 3996,
      "cogn": 3997,
      "dengue": 3998,
      "##hold": 3999,
      "step": 4000,
      "plat": 4001,
      "hom": 4002,
      "##fs": 4003,
      "might": 4004,
      "graph": 4005,
      "gluc": 4006,
      "specifically": 4007,
      "maximum": 4008,
      "https": 4009,
      "serum": 4010,
      "##isting": 4011,
      "therapeu": 4012,
      "##des": 4013,
      "strain": 4014,
      "##sp": 4015,
      "infected": 4016,
      "bur": 4017,
      "ele": 4018,
      "despite": 4019,
      "oxid": 4020,
      "viral": 4021,
      "##ques": 4022,
      "##quito": 4023,
      "acqu": 4024,
      "technology": 4025,
      "##iting": 4026,
      "evaluation": 4027,
      "##lying": 4028,
      "##ography": 4029,
      "sequencing": 4030,
      "##etry": 4031,
      "clos": 4032,
      "matr": 4033,
      "align": 4034,
      "screening": 4035,
      "55": 4036,
      "##ings": 4037,
      "independent": 4038,
      "lines": 4039,
      "##ared": 4040,
      "52": 4041,
      "bm": 4042,
      "still": 4043,
      "ai": 4044,
      "##uk": 4045,
      "##etes": 4046,
      "diss": 4047,
      "##by": 4048,
      "##odes": 4049,
      "few": 4050,
      "compounds": 4051,
      "##aff": 4052,
      "crucial": 4053,
      "mid": 4054,
      "estimated": 4055,
      "##ude": 4056,
      "quantif": 4057,
      "##ta": 4058,
      "understanding": 4059,
      "##aneous": 4060,
      "plac": 4061,
      "decrease": 4062,
      "##itional": 4063,
      "vaccine": 4064,
      "final": 4065,
      "fund": 4066,
      "reduce": 4067,
      "measurements": 4068,
      "complic": 4069,
      "##tice": 4070,
      "##active": 4071,
      "##cript": 4072,
      "complete": 4073,
      "microscop": 4074,
      "##16": 4075,
      "recover": 4076,
      "fail": 4077,
      "doc": 4078,
      "influence": 4079,
      "median": 4080,
      "##utr": 4081,
      "49": 4082,
      "employed": 4083,
      "question": 4084,
      "##grad": 4085,
      "patterns": 4086,
      "experiment": 4087,
      "recomm": 4088,
      "intensity": 4089,
      "pepti": 4090,
      "##reh": 4091,
      "##emb": 4092,
      "stability": 4093,
      "##ancy": 4094,
      "##oint": 4095,
      "liver": 4096,
      "application": 4097,
      "##fact": 4098,
      "cohort": 4099,
      "populations": 4100,
      "##ales": 4101,
      "pc": 4102,
      "wt": 4103,
      "pathways": 4104,
      "bone": 4105,
      "hr": 4106,
      "her": 4107,
      "community": 4108,
      "moder": 4109,
      "efficiency": 4110,
      "poly": 4111,
      "strategies": 4112,
      "adjus": 4113,
      "##lation": 4114,
      "made": 4115,
      "compreh": 4116,
      "address": 4117,
      "53": 4118,
      "showing": 4119,
      "categor": 4120,
      "##14": 4121,
      "differenti": 4122,
      "##ulate": 4123,
      "center": 4124,
      "measures": 4125,
      "processes": 4126,
      "shap": 4127,
      "skin": 4128,
      "##ems": 4129,
      "kg": 4130,
      "##izes": 4131,
      "##pm": 4132,
      "cc": 4133,
      "cn": 4134,
      "tex": 4135,
      "date": 4136,
      "##atin": 4137,
      "##arding": 4138,
      "digital": 4139,
      "99": 4140,
      "##lusion": 4141,
      "culture": 4142,
      "matrix": 4143,
      "##land": 4144,
      "global": 4145,
      "determine": 4146,
      "version": 4147,
      "ampl": 4148,
      "combined": 4149,
      "dys": 4150,
      "tool": 4151,
      "espec": 4152,
      "combination": 4153,
      "lung": 4154,
      "play": 4155,
      "knowledge": 4156,
      "recogn": 4157,
      "later": 4158,
      "##ret": 4159,
      "mosquito": 4160,
      "chemical": 4161,
      "ns": 4162,
      "##utes": 4163,
      "wid": 4164,
      "good": 4165,
      "family": 4166,
      "cost": 4167,
      "you": 4168,
      "rapid": 4169,
      "essential": 4170,
      "suggest": 4171,
      "especially": 4172,
      "##fp": 4173,
      "##etric": 4174,
      "##otherap": 4175,
      "discuss": 4176,
      "##omp": 4177,
      "pregn": 4178,
      "tak": 4179,
      "##ographic": 4180,
      "trials": 4181,
      "##emia": 4182,
      "##enting": 4183,
      "distin": 4184,
      "##tinal": 4185,
      "incor": 4186,
      "ref": 4187,
      "spati": 4188,
      "original": 4189,
      "fix": 4190,
      "therapeutic": 4191,
      "##icult": 4192,
      "sit": 4193,
      "necess": 4194,
      "##ote": 4195,
      "components": 4196,
      "systematic": 4197,
      "suggesting": 4198,
      "domain": 4199,
      "54": 4200,
      "##itis": 4201,
      "outcome": 4202,
      "proportion": 4203,
      "dependent": 4204,
      "##tor": 4205,
      "arr": 4206,
      "tub": 4207,
      "around": 4208,
      "secondary": 4209,
      "65": 4210,
      "##acts": 4211,
      "##°c": 4212,
      "02": 4213,
      "##19": 4214,
      "##den": 4215,
      "plant": 4216,
      "mechanism": 4217,
      "proble": 4218,
      "indicates": 4219,
      "whereas": 4220,
      "finally": 4221,
      "structural": 4222,
      "##ather": 4223,
      "##co": 4224,
      "context": 4225,
      "antibody": 4226,
      "2018": 4227,
      "chronic": 4228,
      "morph": 4229,
      "selection": 4230,
      "natural": 4231,
      "exclud": 4232,
      "##vement": 4233,
      "world": 4234,
      "applications": 4235,
      "blue": 4236,
      "##rich": 4237,
      "thick": 4238,
      "novel": 4239,
      "adul": 4240,
      "diagnostic": 4241,
      "element": 4242,
      "##mon": 4243,
      "green": 4244,
      "signaling": 4245,
      "##inary": 4246,
      "countries": 4247,
      "##inated": 4248,
      "cause": 4249,
      "mar": 4250,
      "pa": 4251,
      "regarding": 4252,
      "incidence": 4253,
      "eu": 4254,
      "catal": 4255,
      "##iat": 4256,
      "72": 4257,
      "##15": 4258,
      "resour": 4259,
      "require": 4260,
      "quantit": 4261,
      "successfully": 4262,
      "56": 4263,
      "making": 4264,
      "vector": 4265,
      "techniques": 4266,
      "source": 4267,
      "evaluate": 4268,
      "coe": 4269,
      "help": 4270,
      "interp": 4271,
      "##lor": 4272,
      "ultr": 4273,
      "education": 4274,
      "cognitive": 4275,
      "enhanced": 4276,
      "##ologies": 4277,
      "iss": 4278,
      "thres": 4279,
      "way": 4280,
      "poor": 4281,
      "investigated": 4282,
      "##gs": 4283,
      "act": 4284,
      "##anced": 4285,
      "sa": 4286,
      "construc": 4287,
      "##veness": 4288,
      "##ler": 4289,
      "##asis": 4290,
      "does": 4291,
      "error": 4292,
      "germ": 4293,
      "##30": 4294,
      "##ours": 4295,
      "##part": 4296,
      "les": 4297,
      "##ument": 4298,
      "##ones": 4299,
      "##ellular": 4300,
      "consum": 4301,
      "subsequently": 4302,
      "elev": 4303,
      "##ows": 4304,
      "rev": 4305,
      "##18": 4306,
      "enrich": 4307,
      "##ron": 4308,
      "capacity": 4309,
      "muscle": 4310,
      "nor": 4311,
      "thir": 4312,
      "injur": 4313,
      "continuous": 4314,
      "rt": 4315,
      "classification": 4316,
      "lat": 4317,
      "supporting": 4318,
      "fer": 4319,
      "increases": 4320,
      "pharm": 4321,
      "lig": 4322,
      "##ason": 4323,
      "reducing": 4324,
      "##ends": 4325,
      "##unctions": 4326,
      "devi": 4327,
      "figures": 4328,
      "mill": 4329,
      "##isted": 4330,
      "strategy": 4331,
      "ever": 4332,
      "expected": 4333,
      "challenges": 4334,
      "##operative": 4335,
      "##au": 4336,
      "achieved": 4337,
      "protocol": 4338,
      "reli": 4339,
      "diet": 4340,
      "manus": 4341,
      "cellular": 4342,
      "##istration": 4343,
      "cryst": 4344,
      "feature": 4345,
      "##itation": 4346,
      "surgical": 4347,
      "algorithm": 4348,
      "approaches": 4349,
      "relevant": 4350,
      "fat": 4351,
      "##man": 4352,
      "las": 4353,
      "##ectiveness": 4354,
      "altern": 4355,
      "impl": 4356,
      "amino": 4357,
      "mouse": 4358,
      "segment": 4359,
      "healthy": 4360,
      "##wor": 4361,
      "59": 4362,
      "##arily": 4363,
      "##ai": 4364,
      "##tesy": 4365,
      "courtesy": 4366,
      "buffer": 4367,
      "hal": 4368,
      "incorpor": 4369,
      "effectiveness": 4370,
      "mental": 4371,
      "##ash": 4372,
      "epid": 4373,
      "##aged": 4374,
      "processing": 4375,
      "promo": 4376,
      "##truct": 4377,
      "dos": 4378,
      "##oids": 4379,
      "57": 4380,
      "##17": 4381,
      "##icial": 4382,
      "predicted": 4383,
      "events": 4384,
      "64": 4385,
      "female": 4386,
      "prediction": 4387,
      "manuscript": 4388,
      "interes": 4389,
      "synthesis": 4390,
      "side": 4391,
      "air": 4392,
      "##ocytes": 4393,
      "##nas": 4394,
      "cat": 4395,
      "##uts": 4396,
      "laboratory": 4397,
      "ben": 4398,
      "##igr": 4399,
      "bias": 4400,
      "report": 4401,
      "antibodies": 4402,
      "96": 4403,
      "##odium": 4404,
      "concer": 4405,
      "directly": 4406,
      "hep": 4407,
      "##22": 4408,
      "suggests": 4409,
      "pf": 4410,
      "acute": 4411,
      "##the": 4412,
      "bir": 4413,
      "potentially": 4414,
      "larger": 4415,
      "color": 4416,
      "hypoth": 4417,
      "plasm": 4418,
      "na": 4419,
      "chann": 4420,
      "prepared": 4421,
      "recorded": 4422,
      "iv": 4423,
      "plot": 4424,
      "soci": 4425,
      "58": 4426,
      "##ger": 4427,
      "tissues": 4428,
      "##2o": 4429,
      "deep": 4430,
      "µm": 4431,
      "inflammation": 4432,
      "adults": 4433,
      "male": 4434,
      "obj": 4435,
      "trad": 4436,
      "asp": 4437,
      "dil": 4438,
      "broad": 4439,
      "below": 4440,
      "##be": 4441,
      "carbon": 4442,
      "consequ": 4443,
      "##essive": 4444,
      "##ulating": 4445,
      "ensure": 4446,
      "##otherapy": 4447,
      "animal": 4448,
      "duration": 4449,
      "##ighted": 4450,
      "abund": 4451,
      "tur": 4452,
      "metabolic": 4453,
      "distributed": 4454,
      "remains": 4455,
      "next": 4456,
      "damage": 4457,
      "clear": 4458,
      "##ching": 4459,
      "##terior": 4460,
      "established": 4461,
      "plasma": 4462,
      "services": 4463,
      "display": 4464,
      "wash": 4465,
      "##mit": 4466,
      "heart": 4467,
      "##ogenic": 4468,
      "percentage": 4469,
      "extraction": 4470,
      "nutr": 4471,
      "activities": 4472,
      "##iological": 4473,
      "##oring": 4474,
      "##itr": 4475,
      "ra": 4476,
      "fish": 4477,
      "##ont": 4478,
      "designed": 4479,
      "program": 4480,
      "central": 4481,
      "experience": 4482,
      "molecules": 4483,
      "star": 4484,
      "distinct": 4485,
      "bacterial": 4486,
      "##40": 4487,
      "od": 4488,
      "degrad": 4489,
      "51": 4490,
      "adjusted": 4491,
      "500": 4492,
      "ke": 4493,
      "interest": 4494,
      "sars": 4495,
      "represents": 4496,
      "products": 4497,
      "monitoring": 4498,
      "##erv": 4499,
      "##ework": 4500,
      "gas": 4501,
      "##ires": 4502,
      "offer": 4503,
      "variants": 4504,
      "statistically": 4505,
      "##ped": 4506,
      "incubated": 4507,
      "diabetes": 4508,
      "pm": 4509,
      "child": 4510,
      "oxy": 4511,
      "comprehensive": 4512,
      "div": 4513,
      "head": 4514,
      "caused": 4515,
      "##orts": 4516,
      "##ih": 4517,
      "eg": 4518,
      "distance": 4519,
      "license": 4520,
      "cycle": 4521,
      "best": 4522,
      "##elial": 4523,
      "spatial": 4524,
      "2017": 4525,
      "##itions": 4526,
      "relatively": 4527,
      "strains": 4528,
      "view": 4529,
      "significance": 4530,
      "ss": 4531,
      "##amin": 4532,
      "##oding": 4533,
      "receptor": 4534,
      "old": 4535,
      "sle": 4536,
      "linked": 4537,
      "resolution": 4538,
      "upon": 4539,
      "substr": 4540,
      "scientif": 4541,
      "##eck": 4542,
      "ds": 4543,
      "survey": 4544,
      "functions": 4545,
      "methyl": 4546,
      "optimal": 4547,
      "##bo": 4548,
      "extracted": 4549,
      "variable": 4550,
      "##words": 4551,
      "arter": 4552,
      "polymer": 4553,
      "hiv": 4554,
      "##onomic": 4555,
      "pack": 4556,
      "provides": 4557,
      "keywords": 4558,
      "cu": 4559,
      "release": 4560,
      "##mic": 4561,
      "67": 4562,
      "##esh": 4563,
      "##ondr": 4564,
      "fluorescence": 4565,
      "plan": 4566,
      "impair": 4567,
      "glucose": 4568,
      "##tine": 4569,
      "##otypes": 4570,
      "bal": 4571,
      "similarly": 4572,
      "62": 4573,
      "##tib": 4574,
      "63": 4575,
      "pass": 4576,
      "uk": 4577,
      "reproduc": 4578,
      "measurement": 4579,
      "##was": 4580,
      "importance": 4581,
      "vary": 4582,
      "every": 4583,
      "subsequent": 4584,
      "##xi": 4585,
      "##ops": 4586,
      "substan": 4587,
      "##aring": 4588,
      "shif": 4589,
      "drugs": 4590,
      "##ymph": 4591,
      "robust": 4592,
      "##ardi": 4593,
      "characterized": 4594,
      "squ": 4595,
      "science": 4596,
      "tox": 4597,
      "##ulin": 4598,
      "notably": 4599,
      "mixed": 4600,
      "predict": 4601,
      "##bd": 4602,
      "convers": 4603,
      "validation": 4604,
      "led": 4605,
      "66": 4606,
      "##bial": 4607,
      "##ool": 4608,
      "##agen": 4609,
      "03": 4610,
      "detect": 4611,
      "treatments": 4612,
      "mel": 4613,
      "database": 4614,
      "published": 4615,
      "procedure": 4616,
      "##lo": 4617,
      "##anol": 4618,
      "controls": 4619,
      "scientific": 4620,
      "scan": 4621,
      "##olds": 4622,
      "rad": 4623,
      "note": 4624,
      "seen": 4625,
      "preven": 4626,
      "vitro": 4627,
      "contact": 4628,
      "environmental": 4629,
      "##cy": 4630,
      "paper": 4631,
      "illustr": 4632,
      "third": 4633,
      "youn": 4634,
      "don": 4635,
      "##etal": 4636,
      "disorders": 4637,
      "mach": 4638,
      "framework": 4639,
      "μl": 4640,
      "white": 4641,
      "conven": 4642,
      "host": 4643,
      "having": 4644,
      "assum": 4645,
      "history": 4646,
      "##ott": 4647,
      "##ochondr": 4648,
      "effectively": 4649,
      "space": 4650,
      "##ga": 4651,
      "progression": 4652,
      "stable": 4653,
      "input": 4654,
      "prop": 4655,
      "##ysis": 4656,
      "providing": 4657,
      "##tivity": 4658,
      "##duce": 4659,
      "##rs": 4660,
      "##tering": 4661,
      "##uble": 4662,
      "fold": 4663,
      "##alc": 4664,
      "pbs": 4665,
      "mediated": 4666,
      "dimension": 4667,
      "your": 4668,
      "prolif": 4669,
      "##emical": 4670,
      "run": 4671,
      "##any": 4672,
      "ren": 4673,
      "cou": 4674,
      "mob": 4675,
      "cas": 4676,
      "intern": 4677,
      "nc": 4678,
      "carried": 4679,
      "autom": 4680,
      "##ke": 4681,
      "##ided": 4682,
      "datasets": 4683,
      "meta": 4684,
      "eas": 4685,
      "whole": 4686,
      "##ened": 4687,
      "##ling": 4688,
      "absence": 4689,
      "hs": 4690,
      "produced": 4691,
      "microbi": 4692,
      "##kn": 4693,
      "examined": 4694,
      "spect": 4695,
      "compr": 4696,
      "hc": 4697,
      "institute": 4698,
      "s2": 4699,
      "markers": 4700,
      "oxygen": 4701,
      "##bm": 4702,
      "nam": 4703,
      "older": 4704,
      "traditional": 4705,
      "afric": 4706,
      "##pro": 4707,
      "mechanical": 4708,
      "internal": 4709,
      "supported": 4710,
      "call": 4711,
      "slight": 4712,
      "lymph": 4713,
      "mitochondr": 4714,
      "##gl": 4715,
      "por": 4716,
      "daily": 4717,
      "##ney": 4718,
      "appropr": 4719,
      "affect": 4720,
      "his": 4721,
      "bp": 4722,
      "cos": 4723,
      "prefer": 4724,
      "medicine": 4725,
      "accum": 4726,
      "68": 4727,
      "label": 4728,
      "typically": 4729,
      "const": 4730,
      "bound": 4731,
      "utilized": 4732,
      "spectra": 4733,
      "ion": 4734,
      "settings": 4735,
      "##da": 4736,
      "##encies": 4737,
      "curve": 4738,
      "##arr": 4739,
      "relationships": 4740,
      "certain": 4741,
      "ve": 4742,
      "identification": 4743,
      "cut": 4744,
      "nanop": 4745,
      "ga": 4746,
      "platform": 4747,
      "##opt": 4748,
      "mc": 4749,
      "2016": 4750,
      "dynamics": 4751,
      "administration": 4752,
      "migr": 4753,
      "breast": 4754,
      "##ulf": 4755,
      "until": 4756,
      "series": 4757,
      "##amp": 4758,
      "##ls": 4759,
      "mutations": 4760,
      "##oti": 4761,
      "last": 4762,
      "##vs": 4763,
      "implementation": 4764,
      "##25": 4765,
      "confirm": 4766,
      "stages": 4767,
      "improvement": 4768,
      "ple": 4769,
      "investigate": 4770,
      "she": 4771,
      "delivery": 4772,
      "restric": 4773,
      "rh": 4774,
      "attention": 4775,
      "affected": 4776,
      "thereby": 4777,
      "threshold": 4778,
      "generation": 4779,
      "##onds": 4780,
      "sou": 4781,
      "pp": 4782,
      "needed": 4783,
      "barri": 4784,
      "electron": 4785,
      "text": 4786,
      "miss": 4787,
      "85": 4788,
      "inn": 4789,
      "gel": 4790,
      "oral": 4791,
      "heat": 4792,
      "wild": 4793,
      "pt": 4794,
      "safety": 4795,
      "house": 4796,
      "feed": 4797,
      "##ogenesis": 4798,
      "means": 4799,
      "invas": 4800,
      "though": 4801,
      "animals": 4802,
      "vaccination": 4803,
      "acet": 4804,
      "cp": 4805,
      "bacteria": 4806,
      "band": 4807,
      "tools": 4808,
      "inhibition": 4809,
      "moderate": 4810,
      "controlled": 4811,
      "##oz": 4812,
      "depression": 4813,
      "flex": 4814,
      "##ee": 4815,
      "glyc": 4816,
      "equal": 4817,
      "core": 4818,
      "metabolism": 4819,
      "nh": 4820,
      "pand": 4821,
      "confidence": 4822,
      "variation": 4823,
      "home": 4824,
      "decl": 4825,
      "room": 4826,
      "##set": 4827,
      "arch": 4828,
      "##ytic": 4829,
      "98": 4830,
      "04": 4831,
      "tn": 4832,
      "author": 4833,
      "opp": 4834,
      "rs": 4835,
      "perce": 4836,
      "media": 4837,
      "injury": 4838,
      "denv": 4839,
      "signals": 4840,
      "component": 4841,
      "complications": 4842,
      "wide": 4843,
      "amount": 4844,
      "unique": 4845,
      "project": 4846,
      "##ishing": 4847,
      "##less": 4848,
      "recovery": 4849,
      "##29": 4850,
      "##ili": 4851,
      "technique": 4852,
      "remov": 4853,
      "solid": 4854,
      "##wards": 4855,
      "taken": 4856,
      "antibi": 4857,
      "##bre": 4858,
      "neural": 4859,
      "practice": 4860,
      "hz": 4861,
      "##elines": 4862,
      "scen": 4863,
      "device": 4864,
      "elevated": 4865,
      "swit": 4866,
      "heterogene": 4867,
      "emb": 4868,
      "detailed": 4869,
      "seed": 4870,
      "##23": 4871,
      "##ream": 4872,
      "respir": 4873,
      "staining": 4874,
      "advant": 4875,
      "pi": 4876,
      "199": 4877,
      "69": 4878,
      "frag": 4879,
      "suggested": 4880,
      "cytok": 4881,
      "numer": 4882,
      "##bp": 4883,
      "respond": 4884,
      "studied": 4885,
      "schem": 4886,
      "black": 4887,
      "2015": 4888,
      "prevent": 4889,
      "cho": 4890,
      "##aces": 4891,
      "##24": 4892,
      "grad": 4893,
      "exhibit": 4894,
      "##uting": 4895,
      "follows": 4896,
      "thickness": 4897,
      "kin": 4898,
      "##ges": 4899,
      "##essing": 4900,
      "bor": 4901,
      "profil": 4902,
      "wall": 4903,
      "difficult": 4904,
      "lipid": 4905,
      "parameter": 4906,
      "regulation": 4907,
      "what": 4908,
      "modified": 4909,
      "##ye": 4910,
      "bios": 4911,
      "rot": 4912,
      "primarily": 4913,
      "##artic": 4914,
      "##cles": 4915,
      "sampling": 4916,
      "##oxid": 4917,
      "existing": 4918,
      "ow": 4919,
      "##istered": 4920,
      "exce": 4921,
      "cycl": 4922,
      "spectrum": 4923,
      "ear": 4924,
      "har": 4925,
      "degradation": 4926,
      "repl": 4927,
      "depart": 4928,
      "##amine": 4929,
      "ng": 4930,
      "aged": 4931,
      "composition": 4932,
      "targeted": 4933,
      "##80": 4934,
      "iii": 4935,
      "##rna": 4936,
      "able": 4937,
      "intra": 4938,
      "##wh": 4939,
      "##olic": 4940,
      "axis": 4941,
      "focused": 4942,
      "prin": 4943,
      "##anes": 4944,
      "##estinal": 4945,
      "resulted": 4946,
      "inclusion": 4947,
      "questionna": 4948,
      "plants": 4949,
      "reports": 4950,
      "##60": 4951,
      "quantitative": 4952,
      "##ra": 4953,
      "##iatric": 4954,
      "recru": 4955,
      "##21": 4956,
      "##opath": 4957,
      "estimates": 4958,
      "##ending": 4959,
      "cann": 4960,
      "tempor": 4961,
      "fixed": 4962,
      "cv": 4963,
      "##oscop": 4964,
      "accep": 4965,
      "excluded": 4966,
      "much": 4967,
      "plos": 4968,
      "reporting": 4969,
      "degree": 4970,
      "speed": 4971,
      "##pper": 4972,
      "exerc": 4973,
      "wound": 4974,
      "diversity": 4975,
      "diamet": 4976,
      "acids": 4977,
      "numbers": 4978,
      "61": 4979,
      "infer": 4980,
      "differentiation": 4981,
      "concept": 4982,
      "##greg": 4983,
      "kit": 4984,
      "##27": 4985,
      "la": 4986,
      "vivo": 4987,
      "##irus": 4988,
      "##ba": 4989,
      "sleep": 4990,
      "scenari": 4991,
      "improving": 4992,
      "73": 4993,
      "depos": 4994,
      "failure": 4995,
      "contribute": 4996,
      "tog": 4997,
      "items": 4998,
      "participant": 4999,
      "conver": 5000,
      "yield": 5001,
      "intable": 5002,
      "half": 5003,
      "##brid": 5004,
      "anxi": 5005,
      "enti": 5006,
      "colon": 5007,
      "##ively": 5008,
      "##aries": 5009,
      "rather": 5010,
      "probability": 5011,
      "tail": 5012,
      "decision": 5013,
      "pv": 5014,
      "##ief": 5015,
      "hd": 5016,
      "##upp": 5017,
      "transition": 5018,
      "##rome": 5019,
      "person": 5020,
      "##ope": 5021,
      "trig": 5022,
      "birth": 5023,
      "##v1": 5024,
      "place": 5025,
      "considering": 5026,
      "300": 5027,
      "emo": 5028,
      "advanced": 5029,
      "special": 5030,
      "mrna": 5031,
      "##ova": 5032,
      "mainly": 5033,
      "lang": 5034,
      "together": 5035,
      "lys": 5036,
      "susp": 5037,
      "##ict": 5038,
      "reconstr": 5039,
      "macroph": 5040,
      "constant": 5041,
      "achieve": 5042,
      "accepted": 5043,
      "76": 5044,
      "devices": 5045,
      "adverse": 5046,
      "coupl": 5047,
      "oste": 5048,
      "##otor": 5049,
      "promising": 5050,
      "pandemic": 5051,
      "##dis": 5052,
      "check": 5053,
      "panel": 5054,
      "74": 5055,
      "##itable": 5056,
      "demonstrate": 5057,
      "colum": 5058,
      "evolution": 5059,
      "dynamic": 5060,
      "##ground": 5061,
      "##ii": 5062,
      "simulation": 5063,
      "cardiac": 5064,
      "oct": 5065,
      "profession": 5066,
      "##umin": 5067,
      "near": 5068,
      "##atives": 5069,
      "make": 5070,
      "generally": 5071,
      "versus": 5072,
      "summary": 5073,
      "coverage": 5074,
      "aug": 5075,
      "liqu": 5076,
      "appropriate": 5077,
      "guidelines": 5078,
      "unit": 5079,
      "isolated": 5080,
      "µl": 5081,
      "enzyme": 5082,
      "networks": 5083,
      "commonly": 5084,
      "adult": 5085,
      "ll": 5086,
      "proliferation": 5087,
      "product": 5088,
      "online": 5089,
      "##rope": 5090,
      "enhancing": 5091,
      "##ipar": 5092,
      "du": 5093,
      "diverse": 5094,
      "upper": 5095,
      "##ched": 5096,
      "comput": 5097,
      "necessary": 5098,
      "##ify": 5099,
      "##tre": 5100,
      "##ering": 5101,
      "metal": 5102,
      "##argeting": 5103,
      "77": 5104,
      "interesting": 5105,
      "manu": 5106,
      "nanopartic": 5107,
      "instr": 5108,
      "comparing": 5109,
      "hours": 5110,
      "interview": 5111,
      "97": 5112,
      "deviation": 5113,
      "coord": 5114,
      "targeting": 5115,
      "##ovascular": 5116,
      "thermal": 5117,
      "78": 5118,
      "chlor": 5119,
      "ads": 5120,
      "##gf": 5121,
      "##istry": 5122,
      "sensor": 5123,
      "plate": 5124,
      "transf": 5125,
      "stem": 5126,
      "adh": 5127,
      "machine": 5128,
      "##ilities": 5129,
      "##ert": 5130,
      "1000": 5131,
      "correspond": 5132,
      "students": 5133,
      "2025": 5134,
      "nature": 5135,
      "sustain": 5136,
      "t2": 5137,
      "##td": 5138,
      "respiratory": 5139,
      "anxiety": 5140,
      "manufact": 5141,
      "py": 5142,
      "school": 5143,
      "tumors": 5144,
      "metric": 5145,
      "currently": 5146,
      "dl": 5147,
      "μg": 5148,
      "polic": 5149,
      "conventional": 5150,
      "ww": 5151,
      "limitations": 5152,
      "department": 5153,
      "representative": 5154,
      "longer": 5155,
      "##ils": 5156,
      "depth": 5157,
      "severity": 5158,
      "efficient": 5159,
      "technologies": 5160,
      "biomark": 5161,
      "curves": 5162,
      "extern": 5163,
      "##omal": 5164,
      "situ": 5165,
      "##andid": 5166,
      "polar": 5167,
      "chain": 5168,
      "aggreg": 5169,
      "stimul": 5170,
      "tm": 5171,
      "developing": 5172,
      "assign": 5173,
      "irr": 5174,
      "##ele": 5175,
      "##aves": 5176,
      "researchers": 5177,
      "kid": 5178,
      "europe": 5179,
      "##grou": 5180,
      "##53": 5181,
      "excl": 5182,
      "mode": 5183,
      "transcription": 5184,
      "##itude": 5185,
      "smok": 5186,
      "magnetic": 5187,
      "throughout": 5188,
      "##pers": 5189,
      "##ields": 5190,
      "94": 5191,
      "##oved": 5192,
      "pharmac": 5193,
      "86": 5194,
      "wr": 5195,
      "##ceptib": 5196,
      "ros": 5197,
      "alc": 5198,
      "79": 5199,
      "cover": 5200,
      "clusters": 5201,
      "##olved": 5202,
      "widely": 5203,
      "##inate": 5204,
      "avoid": 5205,
      "##elling": 5206,
      "overl": 5207,
      "reviewer": 5208,
      "##26": 5209,
      "aw": 5210,
      "agre": 5211,
      "weak": 5212,
      "##gan": 5213,
      "removed": 5214,
      "zn": 5215,
      "procedures": 5216,
      "apopt": 5217,
      "##oplas": 5218,
      "alternative": 5219,
      "output": 5220,
      "##dom": 5221,
      "estimate": 5222,
      "insights": 5223,
      "underlying": 5224,
      "questions": 5225,
      "resources": 5226,
      "reconstruc": 5227,
      "extract": 5228,
      "cf": 5229,
      "synd": 5230,
      "ped": 5231,
      "particles": 5232,
      "##tral": 5233,
      "susceptib": 5234,
      "##ss": 5235,
      "explore": 5236,
      "pregnancy": 5237,
      "alter": 5238,
      "background": 5239,
      "hypert": 5240,
      "peptide": 5241,
      "smaller": 5242,
      "ranging": 5243,
      "investigation": 5244,
      "##com": 5245,
      "underw": 5246,
      "optical": 5247,
      "##isation": 5248,
      "##bor": 5249,
      "tri": 5250,
      "##ention": 5251,
      "profile": 5252,
      "neurons": 5253,
      "metast": 5254,
      "coefficient": 5255,
      "##back": 5256,
      "memory": 5257,
      "subjects": 5258,
      "##esized": 5259,
      "assemb": 5260,
      "placed": 5261,
      "fraction": 5262,
      "accept": 5263,
      "##tle": 5264,
      "great": 5265,
      "##pc": 5266,
      "equation": 5267,
      "force": 5268,
      "##uter": 5269,
      "mixture": 5270,
      "team": 5271,
      "liquid": 5272,
      "discover": 5273,
      "trained": 5274,
      "##function": 5275,
      "##eal": 5276,
      "tit": 5277,
      "benefits": 5278,
      "recomb": 5279,
      "recurr": 5280,
      "##iform": 5281,
      "##ita": 5282,
      "prov": 5283,
      "##idity": 5284,
      "83": 5285,
      "langu": 5286,
      "##trans": 5287,
      "annot": 5288,
      "88": 5289,
      "external": 5290,
      "87": 5291,
      "ter": 5292,
      "##fe": 5293,
      "mh": 5294,
      "recently": 5295,
      "mri": 5296,
      "leads": 5297,
      "correlated": 5298,
      "absorption": 5299,
      "##otes": 5300,
      "##ches": 5301,
      "accurate": 5302,
      "pen": 5303,
      "diameter": 5304,
      "targets": 5305,
      "rank": 5306,
      "upreg": 5307,
      "noted": 5308,
      "84": 5309,
      "wave": 5310,
      "ak": 5311,
      "falc": 5312,
      "onset": 5313,
      "lc": 5314,
      "progn": 5315,
      "integrated": 5316,
      "file": 5317,
      "instance": 5318,
      "##inity": 5319,
      "volt": 5320,
      "##itrogen": 5321,
      "entire": 5322,
      "alone": 5323,
      "substrate": 5324,
      "working": 5325,
      "89": 5326,
      "##uit": 5327,
      "associations": 5328,
      "93": 5329,
      "2d": 5330,
      "##thers": 5331,
      "##ike": 5332,
      "interval": 5333,
      "burden": 5334,
      "##gi": 5335,
      "germany": 5336,
      "document": 5337,
      "protocols": 5338,
      "libr": 5339,
      "abn": 5340,
      "##ero": 5341,
      "##ame": 5342,
      "attributed": 5343,
      "majority": 5344,
      "ce": 5345,
      "##cipl": 5346,
      "mil": 5347,
      "##rx": 5348,
      "box": 5349,
      "##ectivity": 5350,
      "must": 5351,
      "##aft": 5352,
      "elim": 5353,
      "candid": 5354,
      "##28": 5355,
      "ld": 5356,
      "specim": 5357,
      "0001": 5358,
      "needs": 5359,
      "base": 5360,
      "vascular": 5361,
      "involving": 5362,
      "2014": 5363,
      "examination": 5364,
      "igg": 5365,
      "##ious": 5366,
      "bat": 5367,
      "gender": 5368,
      "imm": 5369,
      "##orph": 5370,
      "##ram": 5371,
      "alcoh": 5372,
      "engine": 5373,
      "pet": 5374,
      "bott": 5375,
      "##going": 5376,
      "others": 5377,
      "##astic": 5378,
      "exposed": 5379,
      "alph": 5380,
      "transcript": 5381,
      "silic": 5382,
      "##eless": 5383,
      "genomic": 5384,
      "comparisons": 5385,
      "pool": 5386,
      "##dle": 5387,
      "variant": 5388,
      "##osomes": 5389,
      "wind": 5390,
      "mitochondrial": 5391,
      "vit": 5392,
      "##ula": 5393,
      "##cted": 5394,
      "71": 5395,
      "si": 5396,
      "ster": 5397,
      "##ota": 5398,
      "##rosis": 5399,
      "##ocyte": 5400,
      "track": 5401,
      "yet": 5402,
      "##estern": 5403,
      "##tile": 5404,
      "young": 5405,
      "disorder": 5406,
      "varying": 5407,
      "interpret": 5408,
      "emph": 5409,
      "tc": 5410,
      "action": 5411,
      "##alk": 5412,
      "##ometry": 5413,
      "microscopy": 5414,
      "falcipar": 5415,
      "bmi": 5416,
      "location": 5417,
      "##ontal": 5418,
      "##otox": 5419,
      "seq": 5420,
      "##omics": 5421,
      "financ": 5422,
      "##enge": 5423,
      "allows": 5424,
      "1h": 5425,
      "##tially": 5426,
      "sensitive": 5427,
      "jan": 5428,
      "remain": 5429,
      "##dm": 5430,
      "##ips": 5431,
      "abnormal": 5432,
      "assays": 5433,
      "members": 5434,
      "joint": 5435,
      "united": 5436,
      "precision": 5437,
      "##ethyl": 5438,
      "cardiovascular": 5439,
      "elements": 5440,
      "##abilities": 5441,
      "antigen": 5442,
      "##pcr": 5443,
      "fas": 5444,
      "variance": 5445,
      "issues": 5446,
      "transport": 5447,
      "antim": 5448,
      "predictive": 5449,
      "remained": 5450,
      "artif": 5451,
      "exercise": 5452,
      "generate": 5453,
      "mis": 5454,
      "##eness": 5455,
      "produce": 5456,
      "height": 5457,
      "peaks": 5458,
      "##mediate": 5459,
      "fav": 5460,
      "sig": 5461,
      "##rolog": 5462,
      "personal": 5463,
      "simulations": 5464,
      "face": 5465,
      "solutions": 5466,
      "includes": 5467,
      "experienced": 5468,
      "buil": 5469,
      "spl": 5470,
      "channel": 5471,
      "once": 5472,
      "adher": 5473,
      "session": 5474,
      "females": 5475,
      "injection": 5476,
      "jap": 5477,
      "hydrog": 5478,
      "activated": 5479,
      "sources": 5480,
      "fo": 5481,
      "parasite": 5482,
      "co2": 5483,
      "integration": 5484,
      "##oration": 5485,
      "##eting": 5486,
      "stro": 5487,
      "recommend": 5488,
      "mdpi": 5489,
      "substantial": 5490,
      "minimum": 5491,
      "communication": 5492,
      "phyl": 5493,
      "##con": 5494,
      "##rect": 5495,
      "slightly": 5496,
      "trend": 5497,
      "spread": 5498,
      "profiles": 5499,
      "americ": 5500,
      "mn": 5501,
      "stimulation": 5502,
      "plots": 5503,
      "transl": 5504,
      "##ptake": 5505,
      "delay": 5506,
      "fa": 5507,
      "##cal": 5508,
      "www": 5509,
      "s3": 5510,
      "event": 5511,
      "problem": 5512,
      "reactions": 5513,
      "international": 5514,
      "##ads": 5515,
      "sizes": 5516,
      "superior": 5517,
      "sti": 5518,
      "layers": 5519,
      "initially": 5520,
      "marker": 5521,
      "ov": 5522,
      "challenge": 5523,
      "specificity": 5524,
      "account": 5525,
      "located": 5526,
      "##ises": 5527,
      "reason": 5528,
      "pip": 5529,
      "falciparum": 5530,
      "syndrome": 5531,
      "resistant": 5532,
      "consequently": 5533,
      "##lu": 5534,
      "slow": 5535,
      "##ighting": 5536,
      "towards": 5537,
      "adapt": 5538,
      "rare": 5539,
      "##yg": 5540,
      "consumption": 5541,
      "seven": 5542,
      "orth": 5543,
      "##tm": 5544,
      "##90": 5545,
      "defin": 5546,
      "differential": 5547,
      "cere": 5548,
      "oxidative": 5549,
      "sr": 5550,
      "variability": 5551,
      "capt": 5552,
      "classified": 5553,
      "programm": 5554,
      "replac": 5555,
      "tb": 5556,
      "##erved": 5557,
      "epith": 5558,
      "400": 5559,
      "##inations": 5560,
      "steps": 5561,
      "accel": 5562,
      "double": 5563,
      "movement": 5564,
      "variations": 5565,
      "##asts": 5566,
      "occur": 5567,
      "close": 5568,
      "valu": 5569,
      "remaining": 5570,
      "pig": 5571,
      "##certain": 5572,
      "mention": 5573,
      "centrif": 5574,
      "kidney": 5575,
      "attribution": 5576,
      "middle": 5577,
      "##wise": 5578,
      "fab": 5579,
      "##lr": 5580,
      "accumulation": 5581,
      "gut": 5582,
      "inhibitors": 5583,
      "82": 5584,
      "never": 5585,
      "language": 5586,
      "##stream": 5587,
      "shape": 5588,
      "introduced": 5589,
      "fract": 5590,
      "150": 5591,
      "commit": 5592,
      "##ks": 5593,
      "temporal": 5594,
      "abundance": 5595,
      "regard": 5596,
      "reviewed": 5597,
      "gc": 5598,
      "##pective": 5599,
      "##bry": 5600,
      "##we": 5601,
      "preparation": 5602,
      "grade": 5603,
      "acquis": 5604,
      "oc": 5605,
      "##omer": 5606,
      "##rxiv": 5607,
      "commons": 5608,
      "dc": 5609,
      "extended": 5610,
      "motor": 5611,
      "direction": 5612,
      "availability": 5613,
      "represented": 5614,
      "vide": 5615,
      "laser": 5616,
      "asym": 5617,
      "origin": 5618,
      "tend": 5619,
      "prevention": 5620,
      "medrxiv": 5621,
      "81": 5622,
      "capture": 5623,
      "nanoparticles": 5624,
      "gm": 5625,
      "hu": 5626,
      "gap": 5627,
      "uptake": 5628,
      "alm": 5629,
      "om": 5630,
      "##icle": 5631,
      "nurs": 5632,
      "eight": 5633,
      "##oster": 5634,
      "rich": 5635,
      "western": 5636,
      "adop": 5637,
      "noise": 5638,
      "underwent": 5639,
      "extre": 5640,
      "predom": 5641,
      "intell": 5642,
      "charge": 5643,
      "hydrogen": 5644,
      "##ocardi": 5645,
      "sulf": 5646,
      "satis": 5647,
      "descrip": 5648,
      "##icians": 5649,
      "proj": 5650,
      "domains": 5651,
      "angle": 5652,
      "##otics": 5653,
      "tasks": 5654,
      "promote": 5655,
      "repeated": 5656,
      "##osome": 5657,
      "diagnosed": 5658,
      "92": 5659,
      "excess": 5660,
      "##icular": 5661,
      "zh": 5662,
      "intrac": 5663,
      "find": 5664,
      "##ton": 5665,
      "details": 5666,
      "2013": 5667,
      "marked": 5668,
      "humans": 5669,
      "fill": 5670,
      "implemented": 5671,
      "bey": 5672,
      "become": 5673,
      "lowest": 5674,
      "fluid": 5675,
      "costs": 5676,
      "##hr": 5677,
      "million": 5678,
      "suitable": 5679,
      "physiological": 5680,
      "driven": 5681,
      "uv": 5682,
      "##erve": 5683,
      "forms": 5684,
      "sets": 5685,
      "requires": 5686,
      "reviews": 5687,
      "aimed": 5688,
      "##ochemical": 5689,
      "##bc": 5690,
      "µg": 5691,
      "##figure": 5692,
      "##cap": 5693,
      "root": 5694,
      "please": 5695,
      "mes": 5696,
      "##try": 5697,
      "implic": 5698,
      "implant": 5699,
      "comparable": 5700,
      "financial": 5701,
      "cd4": 5702,
      "secre": 5703,
      "count": 5704,
      "06": 5705,
      "net": 5706,
      "##rocy": 5707,
      "##ectious": 5708,
      "lesions": 5709,
      "conj": 5710,
      "errors": 5711,
      "residual": 5712,
      "innov": 5713,
      "##ned": 5714,
      "hydrox": 5715,
      "##rote": 5716,
      "qualit": 5717,
      "##ectors": 5718,
      "interv": 5719,
      "##enz": 5720,
      "neutral": 5721,
      "##ffici": 5722,
      "inhibitor": 5723,
      "algorithms": 5724,
      "08": 5725,
      "art": 5726,
      "##ometric": 5727,
      "living": 5728,
      "partial": 5729,
      "tun": 5730,
      "ultras": 5731,
      "temperatures": 5732,
      "males": 5733,
      "overlap": 5734,
      "questionnaire": 5735,
      "reads": 5736,
      "fibro": 5737,
      "##tices": 5738,
      "toler": 5739,
      "mp": 5740,
      "attach": 5741,
      "service": 5742,
      "identifying": 5743,
      "anova": 5744,
      "insulin": 5745,
      "composite": 5746,
      "far": 5747,
      "embry": 5748,
      "glut": 5749,
      "mild": 5750,
      "infectious": 5751,
      "##olar": 5752,
      "formed": 5753,
      "##eud": 5754,
      "compare": 5755,
      "agents": 5756,
      "residues": 5757,
      "displayed": 5758,
      "##omm": 5759,
      "##acted": 5760,
      "antioxid": 5761,
      "positi": 5762,
      "staff": 5763,
      "##70": 5764,
      "fast": 5765,
      "##zer": 5766,
      "completed": 5767,
      "heterogeneity": 5768,
      "recommended": 5769,
      "regular": 5770,
      "##la": 5771,
      "hybrid": 5772,
      "uniform": 5773,
      "maternal": 5774,
      "cycles": 5775,
      "acquisition": 5776,
      "dimensional": 5777,
      "rou": 5778,
      "##ipher": 5779,
      "ground": 5780,
      "explored": 5781,
      "electronic": 5782,
      "minimal": 5783,
      "simple": 5784,
      "##rh": 5785,
      "##itud": 5786,
      "scal": 5787,
      "−0": 5788,
      "subgrou": 5789,
      "##era": 5790,
      "removal": 5791,
      "##flu": 5792,
      "coron": 5793,
      "cannot": 5794,
      "past": 5795,
      "##gene": 5796,
      "inser": 5797,
      "uns": 5798,
      "column": 5799,
      "sodium": 5800,
      "mutation": 5801,
      "africa": 5802,
      "south": 5803,
      "##mark": 5804,
      "##bal": 5805,
      "##ariate": 5806,
      "washed": 5807,
      "suppr": 5808,
      "frequently": 5809,
      "atom": 5810,
      "raw": 5811,
      "gradi": 5812,
      "hor": 5813,
      "arm": 5814,
      "##ibration": 5815,
      "dysfunction": 5816,
      "statistics": 5817,
      "missing": 5818,
      "correct": 5819,
      "japan": 5820,
      "intervals": 5821,
      "accoun": 5822,
      "##kd": 5823,
      "##tead": 5824,
      "pyr": 5825,
      "##ember": 5826,
      "##ultaneous": 5827,
      "occurred": 5828,
      "mosquitoes": 5829,
      "industr": 5830,
      "jour": 5831,
      "units": 5832,
      "##eti": 5833,
      "disch": 5834,
      "diag": 5835,
      "nf": 5836,
      "alcohol": 5837,
      "organization": 5838,
      "##ients": 5839,
      "simultaneous": 5840,
      "segmentation": 5841,
      "bc": 5842,
      "tom": 5843,
      "depend": 5844,
      "gover": 5845,
      "##inf": 5846,
      "rest": 5847,
      "voltage": 5848,
      "##itig": 5849,
      "##ata": 5850,
      "morphology": 5851,
      "regulatory": 5852,
      "doses": 5853,
      "lum": 5854,
      "computed": 5855,
      "ten": 5856,
      "organic": 5857,
      "07": 5858,
      "incubation": 5859,
      "cb": 5860,
      "stroke": 5861,
      "persist": 5862,
      "knock": 5863,
      "problems": 5864,
      "feas": 5865,
      "auc": 5866,
      "electrode": 5867,
      "objective": 5868,
      "fisher": 5869,
      "##ynth": 5870,
      "##pv": 5871,
      "mitig": 5872,
      "##ban": 5873,
      "adjust": 5874,
      "##nat": 5875,
      "t1": 5876,
      "vaccines": 5877,
      "repair": 5878,
      "91": 5879,
      "created": 5880,
      "sat": 5881,
      "observation": 5882,
      "causes": 5883,
      "apoptosis": 5884,
      "##38": 5885,
      "metabolites": 5886,
      "cultured": 5887,
      "expand": 5888,
      "submit": 5889,
      "enrichment": 5890,
      "##monary": 5891,
      "conv": 5892,
      "hip": 5893,
      "excell": 5894,
      "ray": 5895,
      "aer": 5896,
      "arg": 5897,
      "##ifications": 5898,
      "sections": 5899,
      "centrifug": 5900,
      "ts": 5901,
      "foundation": 5902,
      "nov": 5903,
      "creative": 5904,
      "skill": 5905,
      "soil": 5906,
      "thor": 5907,
      "normalized": 5908,
      "princ": 5909,
      "approved": 5910,
      "optimization": 5911,
      "postoperative": 5912,
      "commerc": 5913,
      "clim": 5914,
      "categories": 5915,
      "instead": 5916,
      "##p1": 5917,
      "##igible": 5918,
      "##ateral": 5919,
      "promoting": 5920,
      "fung": 5921,
      "##ives": 5922,
      "economic": 5923,
      "##fa": 5924,
      "##illance": 5925,
      "acquired": 5926,
      "##54": 5927,
      "dark": 5928,
      "interfer": 5929,
      "macrophages": 5930,
      "##alth": 5931,
      "almost": 5932,
      "ratios": 5933,
      "particle": 5934,
      "country": 5935,
      "oh": 5936,
      "##34": 5937,
      "##tex": 5938,
      "qpcr": 5939,
      "leg": 5940,
      "highlighted": 5941,
      "influenced": 5942,
      "stor": 5943,
      "princip": 5944,
      "enzymes": 5945,
      "##57": 5946,
      "deaths": 5947,
      "administered": 5948,
      "systemic": 5949,
      "dop": 5950,
      "##lementary": 5951,
      "veg": 5952,
      "nmr": 5953,
      "artery": 5954,
      "##ready": 5955,
      "fiber": 5956,
      "gh": 5957,
      "subject": 5958,
      "strongly": 5959,
      "fc": 5960,
      "income": 5961,
      "##roid": 5962,
      "orient": 5963,
      "##typ": 5964,
      "##uary": 5965,
      "allowing": 5966,
      "##elf": 5967,
      "allowed": 5968,
      "valuable": 5969,
      "retr": 5970,
      "surveillance": 5971,
      "terminal": 5972,
      "challenging": 5973,
      "plates": 5974,
      "##tration": 5975,
      "mmol": 5976,
      "induce": 5977,
      "throm": 5978,
      "##itect": 5979,
      "##enses": 5980,
      "migration": 5981,
      "course": 5982,
      "plays": 5983,
      "posterior": 5984,
      "already": 5985,
      "thermo": 5986,
      "rd": 5987,
      "ath": 5988,
      "rats": 5989,
      "oil": 5990,
      "fever": 5991,
      "peripher": 5992,
      "hence": 5993,
      "##a1": 5994,
      "predominant": 5995,
      "antic": 5996,
      "superv": 5997,
      "except": 5998,
      "##vec": 5999,
      "##ry": 6000,
      "facilitate": 6001,
      "agreement": 6002,
      "beyond": 6003,
      "parasites": 6004,
      "protection": 6005,
      "healing": 6006,
      "occurs": 6007,
      "sv": 6008,
      "interestingly": 6009,
      "##riting": 6010,
      "##akes": 6011,
      "dispers": 6012,
      "synthetic": 6013,
      "colle": 6014,
      "qualitative": 6015,
      "##o4": 6016,
      "##nel": 6017,
      "recognition": 6018,
      "stabil": 6019,
      "late": 6020,
      "adoles": 6021,
      "##ogl": 6022,
      "##ellow": 6023,
      "cul": 6024,
      "fed": 6025,
      "film": 6026,
      "overe": 6027,
      "m2": 6028,
      "tree": 6029,
      "mt": 6030,
      "##pe": 6031,
      "computational": 6032,
      "ba": 6033,
      "ions": 6034,
      "emphas": 6035,
      "methodology": 6036,
      "yes": 6037,
      "microbial": 6038,
      "obes": 6039,
      "edi": 6040,
      "alb": 6041,
      "##acl": 6042,
      "hypertension": 6043,
      "##tivation": 6044,
      "dh": 6045,
      "minor": 6046,
      "##obacter": 6047,
      "medication": 6048,
      "##ensions": 6049,
      "advance": 6050,
      "nr": 6051,
      "mutant": 6052,
      "bottom": 6053,
      "tbl": 6054,
      "hf": 6055,
      "writing": 6056,
      "##lier": 6057,
      "obesity": 6058,
      "replication": 6059,
      "endoth": 6060,
      "code": 6061,
      "2012": 6062,
      "divided": 6063,
      "outs": 6064,
      "zero": 6065,
      "instruc": 6066,
      "independ": 6067,
      "now": 6068,
      "traject": 6069,
      "substit": 6070,
      "involves": 6071,
      "cd8": 6072,
      "tables": 6073,
      "alk": 6074,
      "peptides": 6075,
      "maintained": 6076,
      "conform": 6077,
      "validated": 6078,
      "bil": 6079,
      "overex": 6080,
      "##pf": 6081,
      "behaviour": 6082,
      "ni": 6083,
      "bul": 6084,
      "nuclear": 6085,
      "unl": 6086,
      "alpha": 6087,
      "characteristic": 6088,
      "deriv": 6089,
      "##usions": 6090,
      "metrics": 6091,
      "establish": 6092,
      "crystall": 6093,
      "tax": 6094,
      "atp": 6095,
      "architect": 6096,
      "##ners": 6097,
      "module": 6098,
      "arrow": 6099,
      "epidem": 6100,
      "##ocal": 6101,
      "##99": 6102,
      "toward": 6103,
      "nps": 6104,
      "emp": 6105,
      "shift": 6106,
      "fluor": 6107,
      "counter": 6108,
      "equip": 6109,
      "pseud": 6110,
      "intestinal": 6111,
      "##faces": 6112,
      "##ogenous": 6113,
      "done": 6114,
      "brief": 6115,
      "hard": 6116,
      "##o2": 6117,
      "ln": 6118,
      "config": 6119,
      "##elet": 6120,
      "##equate": 6121,
      "users": 6122,
      "##li": 6123,
      "anat": 6124,
      "renal": 6125,
      "lact": 6126,
      "contain": 6127,
      "list": 6128,
      "s4": 6129,
      "##app": 6130,
      "true": 6131,
      "iron": 6132,
      "nitrogen": 6133,
      "useful": 6134,
      "##let": 6135,
      "regim": 6136,
      "120": 6137,
      "intake": 6138,
      "mentioned": 6139,
      "sufficient": 6140,
      "mb": 6141,
      "basis": 6142,
      "environments": 6143,
      "fm": 6144,
      "usually": 6145,
      "##ihood": 6146,
      "reson": 6147,
      "invasive": 6148,
      "ventr": 6149,
      "undersc": 6150,
      "feedback": 6151,
      "##ze": 6152,
      "enriched": 6153,
      "##ged": 6154,
      "2010": 6155,
      "reached": 6156,
      "phosphory": 6157,
      "constructed": 6158,
      "lar": 6159,
      "phenotype": 6160,
      "spr": 6161,
      "depic": 6162,
      "package": 6163,
      "##000": 6164,
      "equival": 6165,
      "##ophag": 6166,
      "grant": 6167,
      "publication": 6168,
      "psychological": 6169,
      "##ws": 6170,
      "##nt": 6171,
      "user": 6172,
      "ent": 6173,
      "experiences": 6174,
      "##iness": 6175,
      "##train": 6176,
      "gast": 6177,
      "synthesized": 6178,
      "maintaining": 6179,
      "records": 6180,
      "fabric": 6181,
      "bs": 6182,
      "summar": 6183,
      "formal": 6184,
      "viruses": 6185,
      "fusion": 6186,
      "sigma": 6187,
      "acad": 6188,
      "demonstrating": 6189,
      "##hab": 6190,
      "chromat": 6191,
      "##hydro": 6192,
      "interface": 6193,
      "storage": 6194,
      "adhes": 6195,
      "utilizing": 6196,
      "quantification": 6197,
      "benefit": 6198,
      "hypothesis": 6199,
      "harm": 6200,
      "neurolog": 6201,
      "lateral": 6202,
      "editing": 6203,
      "yellow": 6204,
      "extent": 6205,
      "##endi": 6206,
      "micros": 6207,
      "##osity": 6208,
      "reliability": 6209,
      "likel": 6210,
      "hm": 6211,
      "rr": 6212,
      "highlights": 6213,
      "practices": 6214,
      "revised": 6215,
      "numerous": 6216,
      "correlations": 6217,
      "motion": 6218,
      "cav": 6219,
      "lit": 6220,
      "glass": 6221,
      "pairs": 6222,
      "probe": 6223,
      "pal": 6224,
      "np": 6225,
      "roles": 6226,
      "urban": 6227,
      "radiation": 6228,
      "##holds": 6229,
      "angi": 6230,
      "##37": 6231,
      "excellent": 6232,
      "##esth": 6233,
      "##ophil": 6234,
      "enrol": 6235,
      "nucleoti": 6236,
      "uncertain": 6237,
      "dietary": 6238,
      "european": 6239,
      "likelihood": 6240,
      "##ble": 6241,
      "wavel": 6242,
      "trigger": 6243,
      "eye": 6244,
      "regen": 6245,
      "typical": 6246,
      "ultim": 6247,
      "##load": 6248,
      "antioxidant": 6249,
      "inp": 6250,
      "cytokines": 6251,
      "extensive": 6252,
      "##occ": 6253,
      "programs": 6254,
      "##neum": 6255,
      "2a": 6256,
      "bars": 6257,
      "##ples": 6258,
      "##ements": 6259,
      "##discipl": 6260,
      "beg": 6261,
      "pg": 6262,
      "2011": 6263,
      "biomarkers": 6264,
      "##itin": 6265,
      "depending": 6266,
      "##ana": 6267,
      "satisf": 6268,
      "pulmonary": 6269,
      "take": 6270,
      "vel": 6271,
      "##allel": 6272,
      "##use": 6273,
      "odds": 6274,
      "vess": 6275,
      "membranes": 6276,
      "ifn": 6277,
      "draw": 6278,
      "chin": 6279,
      "reverse": 6280,
      "closely": 6281,
      "##endix": 6282,
      "modeling": 6283,
      "cod": 6284,
      "demographic": 6285,
      "##osen": 6286,
      "bran": 6287,
      "##36": 6288,
      "gradient": 6289,
      "progress": 6290,
      "##disciplinary": 6291,
      "##eral": 6292,
      "aud": 6293,
      "##p2": 6294,
      "collab": 6295,
      "##olute": 6296,
      "labeled": 6297,
      "randomized": 6298,
      "break": 6299,
      "let": 6300,
      "receiving": 6301,
      "##tingu": 6302,
      "stored": 6303,
      "##break": 6304,
      "transpl": 6305,
      "shared": 6306,
      "committe": 6307,
      "involvement": 6308,
      "cath": 6309,
      "rc": 6310,
      "predictions": 6311,
      "complexity": 6312,
      "##rup": 6313,
      "responsible": 6314,
      "receptors": 6315,
      "vac": 6316,
      "##acting": 6317,
      "calcium": 6318,
      "turn": 6319,
      "iso": 6320,
      "dro": 6321,
      "##urb": 6322,
      "indeed": 6323,
      "supernat": 6324,
      "iq": 6325,
      "##ortun": 6326,
      "auto": 6327,
      "variety": 6328,
      "opportun": 6329,
      "aver": 6330,
      "assessing": 6331,
      "##terol": 6332,
      "##ao": 6333,
      "stained": 6334,
      "2000": 6335,
      "gfp": 6336,
      "tnf": 6337,
      "##onia": 6338,
      "ast": 6339,
      "spe": 6340,
      "observations": 6341,
      "##can": 6342,
      "therapies": 6343,
      "acceler": 6344,
      "dry": 6345,
      "##values": 6346,
      "1a": 6347,
      "distingu": 6348,
      "simulated": 6349,
      "beta": 6350,
      "nodes": 6351,
      "sensors": 6352,
      "square": 6353,
      "offers": 6354,
      "molecule": 6355,
      "ble": 6356,
      "loading": 6357,
      "flav": 6358,
      "workers": 6359,
      "gain": 6360,
      "traum": 6361,
      "govern": 6362,
      "manif": 6363,
      "##oral": 6364,
      "basic": 6365,
      "examine": 6366,
      "chosen": 6367,
      "##arc": 6368,
      "outbreak": 6369,
      "balance": 6370,
      "mv": 6371,
      "representation": 6372,
      "##ycin": 6373,
      "absorb": 6374,
      "##ella": 6375,
      "introduction": 6376,
      "09": 6377,
      "som": 6378,
      "distric": 6379,
      "assembly": 6380,
      "##ico": 6381,
      "collagen": 6382,
      "peripheral": 6383,
      "##rd": 6384,
      "emotional": 6385,
      "##b1": 6386,
      "pix": 6387,
      "artificial": 6388,
      "occurrence": 6389,
      "dual": 6390,
      "minutes": 6391,
      "##iately": 6392,
      "scat": 6393,
      "purch": 6394,
      "hemat": 6395,
      "contains": 6396,
      "kinase": 6397,
      "embed": 6398,
      "reflect": 6399,
      "jul": 6400,
      "##asons": 6401,
      "##dh": 6402,
      "##isa": 6403,
      "smoking": 6404,
      "perceived": 6405,
      "pla": 6406,
      "retur": 6407,
      "hb": 6408,
      "counts": 6409,
      "mapping": 6410,
      "##cell": 6411,
      "##son": 6412,
      "downreg": 6413,
      "jun": 6414,
      "adsorption": 6415,
      "##atif": 6416,
      "create": 6417,
      "##yle": 6418,
      "start": 6419,
      "anterior": 6420,
      "gp": 6421,
      "endothelial": 6422,
      "analyze": 6423,
      "optimized": 6424,
      "##sw": 6425,
      "assist": 6426,
      "positions": 6427,
      "virt": 6428,
      "aspects": 6429,
      "representing": 6430,
      "tag": 6431,
      "transferred": 6432,
      "coding": 6433,
      "##mentation": 6434,
      "##ades": 6435,
      "subjected": 6436,
      "gran": 6437,
      "plasmid": 6438,
      "##abs": 6439,
      "ofm": 6440,
      "thromb": 6441,
      "feeding": 6442,
      "##icro": 6443,
      "epithelial": 6444,
      "explain": 6445,
      "occup": 6446,
      "absolute": 6447,
      "protective": 6448,
      "sir": 6449,
      "agr": 6450,
      "facilities": 6451,
      "bond": 6452,
      "achieving": 6453,
      "efforts": 6454,
      "poll": 6455,
      "multiv": 6456,
      "indicators": 6457,
      "behavioral": 6458,
      "weighted": 6459,
      "##ylation": 6460,
      "risks": 6461,
      "precise": 6462,
      "creati": 6463,
      "communities": 6464,
      "port": 6465,
      "depr": 6466,
      "theore": 6467,
      "##oted": 6468,
      "just": 6469,
      "affecting": 6470,
      "kine": 6471,
      "##enes": 6472,
      "library": 6473,
      "##cinoma": 6474,
      "adherence": 6475,
      "highlighting": 6476,
      "fall": 6477,
      "assigned": 6478,
      "ko": 6479,
      "##ral": 6480,
      "perme": 6481,
      "yiel": 6482,
      "earlier": 6483,
      "ligand": 6484,
      "onto": 6485,
      "discre": 6486,
      "egg": 6487,
      "microbiota": 6488,
      "specimens": 6489,
      "tetr": 6490,
      "isolates": 6491,
      "cultures": 6492,
      "##crim": 6493,
      "infants": 6494,
      "fals": 6495,
      "enter": 6496,
      "ethanol": 6497,
      "induction": 6498,
      "move": 6499,
      "filter": 6500,
      "##iology": 6501,
      "##eles": 6502,
      "committee": 6503,
      "fields": 6504,
      "hab": 6505,
      "max": 6506,
      "clustering": 6507,
      "##time": 6508,
      "famil": 6509,
      "2b": 6510,
      "##ull": 6511,
      "fatty": 6512,
      "malign": 6513,
      "ethn": 6514,
      "illness": 6515,
      "marg": 6516,
      "enabl": 6517,
      "tube": 6518,
      "##itted": 6519,
      "gastro": 6520,
      "ven": 6521,
      "separate": 6522,
      "exist": 6523,
      "perm": 6524,
      "##48": 6525,
      "expressing": 6526,
      "theory": 6527,
      "##gm": 6528,
      "##ocl": 6529,
      "compl": 6530,
      "stratif": 6531,
      "pneum": 6532,
      "frequencies": 6533,
      "parents": 6534,
      "pb": 6535,
      "kr": 6536,
      "reactive": 6537,
      "belie": 6538,
      "starting": 6539,
      "complexes": 6540,
      "longitud": 6541,
      "ask": 6542,
      "agent": 6543,
      "measuring": 6544,
      "rf": 6545,
      "proxim": 6546,
      "explained": 6547,
      "varied": 6548,
      "barrier": 6549,
      "infr": 6550,
      "reconstruction": 6551,
      "rein": 6552,
      "behaviors": 6553,
      "antibiotic": 6554,
      "thin": 6555,
      "viability": 6556,
      "expans": 6557,
      "conclusion": 6558,
      "##ea": 6559,
      "##obic": 6560,
      "ru": 6561,
      "decline": 6562,
      "##ogens": 6563,
      "recruit": 6564,
      "prism": 6565,
      "policy": 6566,
      "lesion": 6567,
      "discrim": 6568,
      "##umab": 6569,
      "barriers": 6570,
      "plastic": 6571,
      "item": 6572,
      "width": 6573,
      "##treated": 6574,
      "horm": 6575,
      "alignment": 6576,
      "signs": 6577,
      "sciences": 6578,
      "positively": 6579,
      "beam": 6580,
      "manufactur": 6581,
      "aa": 6582,
      "ltd": 6583,
      "technical": 6584,
      "conversion": 6585,
      "##ij": 6586,
      "##pd": 6587,
      "resource": 6588,
      "spectrom": 6589,
      "##35": 6590,
      "aden": 6591,
      "##with": 6592,
      "inoc": 6593,
      "##细胞": 6594,
      "reduces": 6595,
      "prolong": 6596,
      "live": 6597,
      "bd": 6598,
      "nerve": 6599,
      "abstr": 6600,
      "##io2": 6601,
      "estimation": 6602,
      "genomes": 6603,
      "separation": 6604,
      "thre": 6605,
      "##icrobial": 6606,
      "##zed": 6607,
      "##ush": 6608,
      "ht": 6609,
      "##oxy": 6610,
      "randomly": 6611,
      "scenarios": 6612,
      "ls": 6613,
      "consistently": 6614,
      "highlight": 6615,
      "switzer": 6616,
      "solvent": 6617,
      "crystal": 6618,
      "veloc": 6619,
      "switzerland": 6620,
      "node": 6621,
      "pure": 6622,
      "microscope": 6623,
      "purified": 6624,
      "ultrasound": 6625,
      "##ensities": 6626,
      "exhibits": 6627,
      "mobile": 6628,
      "advantages": 6629,
      "blot": 6630,
      "ensuring": 6631,
      "taking": 6632,
      "##ada": 6633,
      "subtyp": 6634,
      "discussed": 6635,
      "##ave": 6636,
      "##aly": 6637,
      "horiz": 6638,
      "##ories": 6639,
      "hydroph": 6640,
      "wavelength": 6641,
      "toxicity": 6642,
      "lm": 6643,
      "phosphate": 6644,
      "##osomal": 6645,
      "parallel": 6646,
      "##ogenetic": 6647,
      "regulated": 6648,
      "panc": 6649,
      "household": 6650,
      "fresh": 6651,
      "diffusion": 6652,
      "respective": 6653,
      "##electr": 6654,
      "##ompos": 6655,
      "rpm": 6656,
      "logistic": 6657,
      "constit": 6658,
      "clar": 6659,
      "processed": 6660,
      "engagement": 6661,
      "requirements": 6662,
      "##eling": 6663,
      "##uch": 6664,
      "coating": 6665,
      "und": 6666,
      "##izations": 6667,
      "false": 6668,
      "##lim": 6669,
      "##acer": 6670,
      "ring": 6671,
      "concerns": 6672,
      "interpretation": 6673,
      "coeffici": 6674,
      "mas": 6675,
      "sf": 6676,
      "cris": 6677,
      "funding": 6678,
      "conjug": 6679,
      "dn": 6680,
      "demonstrates": 6681,
      "presents": 6682,
      "neigh": 6683,
      "rig": 6684,
      "accurately": 6685,
      "aging": 6686,
      "onc": 6687,
      "publishing": 6688,
      "##oglob": 6689,
      "250": 6690,
      "round": 6691,
      "vectors": 6692,
      "informed": 6693,
      "abdom": 6694,
      "##obl": 6695,
      "rab": 6696,
      "contributing": 6697,
      "##ench": 6698,
      "oxidation": 6699,
      "similarity": 6700,
      "##uls": 6701,
      "##ureus": 6702,
      "##rin": 6703,
      "fu": 6704,
      "olig": 6705,
      "##plate": 6706,
      "consent": 6707,
      "##enia": 6708,
      "prosp": 6709,
      "##olesterol": 6710,
      "appendix": 6711,
      "coefficients": 6712,
      "beneficial": 6713,
      "rib": 6714,
      "periods": 6715,
      "ta": 6716,
      "exch": 6717,
      "immunity": 6718,
      "##wide": 6719,
      "chinese": 6720,
      "automated": 6721,
      "phenomen": 6722,
      "##1a": 6723,
      "referred": 6724,
      "##urity": 6725,
      "antimicrobial": 6726,
      "called": 6727,
      "3a": 6728,
      "##erative": 6729,
      "##rot": 6730,
      "##itals": 6731,
      "intracellular": 6732,
      "independently": 6733,
      "databases": 6734,
      "indirect": 6735,
      "univers": 6736,
      "hol": 6737,
      "replicates": 6738,
      "uses": 6739,
      "video": 6740,
      "##ka": 6741,
      "recombinant": 6742,
      "affects": 6743,
      "mask": 6744,
      "infil": 6745,
      "cys": 6746,
      "reliable": 6747,
      "choice": 6748,
      "enabling": 6749,
      "biops": 6750,
      "gs": 6751,
      "##arged": 6752,
      "attem": 6753,
      "practical": 6754,
      "neut": 6755,
      "stre": 6756,
      "extracellular": 6757,
      "emission": 6758,
      "longitudinal": 6759,
      "rural": 6760,
      "chemotherapy": 6761,
      "##ogram": 6762,
      "scanning": 6763,
      "socio": 6764,
      "gold": 6765,
      "eq": 6766,
      "modification": 6767,
      "scr": 6768,
      "gal": 6769,
      "maps": 6770,
      "primers": 6771,
      "improvements": 6772,
      "##down": 6773,
      "carri": 6774,
      "h2o": 6775,
      "##iral": 6776,
      "1b": 6777,
      "nk": 6778,
      "impacts": 6779,
      "assessments": 6780,
      "pathogen": 6781,
      "##39": 6782,
      "leaf": 6783,
      "spectroscop": 6784,
      "notable": 6785,
      "##ifying": 6786,
      "evaluating": 6787,
      "##iring": 6788,
      "exclusion": 6789,
      "correspondence": 6790,
      "exact": 6791,
      "##32": 6792,
      "um": 6793,
      "##alian": 6794,
      "deform": 6795,
      "##ways": 6796,
      "##ky": 6797,
      "expect": 6798,
      "vitamin": 6799,
      "channels": 6800,
      "teach": 6801,
      "##organ": 6802,
      "skills": 6803,
      "cry": 6804,
      "outp": 6805,
      "scaff": 6806,
      "##ometer": 6807,
      "##edic": 6808,
      "##ucid": 6809,
      "##fort": 6810,
      "##bral": 6811,
      "smo": 6812,
      "adip": 6813,
      "##char": 6814,
      "vivax": 6815,
      "advantage": 6816,
      "ram": 6817,
      "##ensus": 6818,
      "correction": 6819,
      "##net": 6820,
      "manual": 6821,
      "transformation": 6822,
      "##igen": 6823,
      "category": 6824,
      "##flow": 6825,
      "##shows": 6826,
      "tp": 6827,
      "pregnant": 6828,
      "decreases": 6829,
      "licenses": 6830,
      "connected": 6831,
      "isolation": 6832,
      "cum": 6833,
      "##uments": 6834,
      "institution": 6835,
      "##illary": 6836,
      "commercial": 6837,
      "snps": 6838,
      "ker": 6839,
      "recording": 6840,
      "alterations": 6841,
      "surround": 6842,
      "##cn": 6843,
      "clearly": 6844,
      "irradi": 6845,
      "unkn": 6846,
      "##icul": 6847,
      "ze": 6848,
      "quantified": 6849,
      "contributed": 6850,
      "##ya": 6851,
      "veh": 6852,
      "traits": 6853,
      "##pose": 6854,
      "illum": 6855,
      "growing": 6856,
      "melan": 6857,
      "meaning": 6858,
      "issue": 6859,
      "enhances": 6860,
      "cytotox": 6861,
      "dimensions": 6862,
      "affinity": 6863,
      "ultimately": 6864,
      "sectional": 6865,
      "##56": 6866,
      "phases": 6867,
      "mer": 6868,
      "describe": 6869,
      "mim": 6870,
      "##ocyt": 6871,
      "visible": 6872,
      "diges": 6873,
      "spectral": 6874,
      "unknown": 6875,
      "##were": 6876,
      "email": 6877,
      "equivalent": 6878,
      "##ommons": 6879,
      "##47": 6880,
      "contained": 6881,
      "modul": 6882,
      "abdominal": 6883,
      "nt": 6884,
      "unc": 6885,
      "nine": 6886,
      "expansion": 6887,
      "seek": 6888,
      "##hen": 6889,
      "##eds": 6890,
      "tel": 6891,
      "partially": 6892,
      "quar": 6893,
      "san": 6894,
      "characterization": 6895,
      "none": 6896,
      "##ordance": 6897,
      "upd": 6898,
      "locations": 6899,
      "manner": 6900,
      "pathogens": 6901,
      "##vecommons": 6902,
      "creativecommons": 6903,
      "aor": 6904,
      "##ema": 6905,
      "respect": 6906,
      "cham": 6907,
      "##theless": 6908,
      "standardized": 6909,
      "diagram": 6910,
      "submitted": 6911,
      "##tility": 6912,
      "parts": 6913,
      "discussion": 6914,
      "ti": 6915,
      "##night": 6916,
      "option": 6917,
      "clean": 6918,
      "outside": 6919,
      "##ported": 6920,
      "favor": 6921,
      "pancre": 6922,
      "plus": 6923,
      "##pan": 6924,
      "##cers": 6925,
      "neuronal": 6926,
      "td": 6927,
      "causing": 6928,
      "revers": 6929,
      "##hood": 6930,
      "files": 6931,
      "fewer": 6932,
      "respondents": 6933,
      "completely": 6934,
      "##lish": 6935,
      "discharge": 6936,
      "combining": 6937,
      "intellig": 6938,
      "identi": 6939,
      "appar": 6940,
      "actual": 6941,
      "##rotein": 6942,
      "selective": 6943,
      "predicting": 6944,
      "diluted": 6945,
      "perf": 6946,
      "transplant": 6947,
      "pac": 6948,
      "tg": 6949,
      "cholesterol": 6950,
      "##arb": 6951,
      "retros": 6952,
      "##oscopic": 6953,
      "intermediate": 6954,
      "professionals": 6955,
      "vul": 6956,
      "trends": 6957,
      "elucid": 6958,
      "conversely": 6959,
      "manufacturer": 6960,
      "applying": 6961,
      "thank": 6962,
      "inhibitory": 6963,
      "distributions": 6964,
      "polyp": 6965,
      "##ials": 6966,
      "contribution": 6967,
      "nevertheless": 6968,
      "insec": 6969,
      "inher": 6970,
      "##ectives": 6971,
      "clinic": 6972,
      "##2a": 6973,
      "virtual": 6974,
      "table1": 6975,
      "extrem": 6976,
      "f1": 6977,
      "##isions": 6978,
      "window": 6979,
      "fibrobl": 6980,
      "##ematic": 6981,
      "motif": 6982,
      "english": 6983,
      "retrie": 6984,
      "hydrogel": 6985,
      "pca": 6986,
      "az": 6987,
      "ana": 6988,
      "neutroph": 6989,
      "engineering": 6990,
      "peer": 6991,
      "defects": 6992,
      "##ered": 6993,
      "##dna": 6994,
      "pediatric": 6995,
      "##67": 6996,
      "belong": 6997,
      "neon": 6998,
      "##fully": 6999,
      "##olec": 7000,
      "antibiotics": 7001,
      "##activity": 7002,
      "trim": 7003,
      "##inning": 7004,
      "student": 7005,
      "standards": 7006,
      "myc": 7007,
      "cold": 7008,
      "films": 7009,
      "##ancies": 7010,
      "displac": 7011,
      "atr": 7012,
      "priv": 7013,
      "cm−1": 7014,
      "insu": 7015,
      "##way": 7016,
      "visits": 7017,
      "##ament": 7018,
      "documented": 7019,
      "prognosis": 7020,
      "simultaneously": 7021,
      "performing": 7022,
      "emergency": 7023,
      "tens": 7024,
      "families": 7025,
      "climate": 7026,
      "candidate": 7027,
      "impairment": 7028,
      "reag": 7029,
      "overnight": 7030,
      "donor": 7031,
      "fibers": 7032,
      "##ging": 7033,
      "##43": 7034,
      "##ocr": 7035,
      "planning": 7036,
      "##osa": 7037,
      "duplic": 7038,
      "routine": 7039,
      "lps": 7040,
      "untreated": 7041,
      "salt": 7042,
      "pu": 7043,
      "rms": 7044,
      "precurs": 7045,
      "viol": 7046,
      "##tructure": 7047,
      "mamm": 7048,
      "architecture": 7049,
      "austr": 7050,
      "fs": 7051,
      "##ocation": 7052,
      "##phal": 7053,
      "comorb": 7054,
      "##utive": 7055,
      "##hal": 7056,
      "ves": 7057,
      "cx": 7058,
      "##point": 7059,
      "convolution": 7060,
      "##ozo": 7061,
      "dele": 7062,
      "edge": 7063,
      "operation": 7064,
      "coupled": 7065,
      "r2": 7066,
      "provin": 7067,
      "##off": 7068,
      "h4": 7069,
      "deposition": 7070,
      "db": 7071,
      "forest": 7072,
      "##hol": 7073,
      "analog": 7074,
      "edu": 7075,
      "chi": 7076,
      "leaves": 7077,
      "##genic": 7078,
      "nearly": 7079,
      "##osed": 7080,
      "##amide": 7081,
      "walk": 7082,
      "##alities": 7083,
      "sup": 7084,
      "clinically": 7085,
      "encoding": 7086,
      "##po": 7087,
      "isch": 7088,
      "ranged": 7089,
      "covari": 7090,
      "rat": 7091,
      "serve": 7092,
      "nas": 7093,
      "fine": 7094,
      "caps": 7095,
      "nano": 7096,
      "aims": 7097,
      "interviews": 7098,
      "put": 7099,
      "adaptive": 7100,
      "web": 7101,
      "waste": 7102,
      "scheme": 7103,
      "smooth": 7104,
      "supplemented": 7105,
      "array": 7106,
      "2009": 7107,
      "##entia": 7108,
      "society": 7109,
      "##ono": 7110,
      "add": 7111,
      "nucleotide": 7112,
      "ofc": 7113,
      "fati": 7114,
      "matched": 7115,
      "apr": 7116,
      "receive": 7117,
      "conclud": 7118,
      "plane": 7119,
      "electroly": 7120,
      "enable": 7121,
      "methylation": 7122,
      "rapidly": 7123,
      "recruitment": 7124,
      "calibration": 7125,
      "upregulated": 7126,
      "ech": 7127,
      "##va": 7128,
      "##68": 7129,
      "visualization": 7130,
      "##urg": 7131,
      "negatively": 7132,
      "instrument": 7133,
      "conduct": 7134,
      "dried": 7135,
      "##oxide": 7136,
      "milk": 7137,
      "theoretical": 7138,
      "bay": 7139,
      "##ectomy": 7140,
      "df": 7141,
      "##ibly": 7142,
      "##ptp": 7143,
      "forward": 7144,
      "modifications": 7145,
      "scop": 7146,
      "reasons": 7147,
      "##mia": 7148,
      "adding": 7149,
      "retention": 7150,
      "illustrated": 7151,
      "loaded": 7152,
      "automatic": 7153,
      "centre": 7154,
      "genotype": 7155,
      "spher": 7156,
      "construct": 7157,
      "ongoing": 7158,
      "prev": 7159,
      "sep": 7160,
      "instructions": 7161,
      "wors": 7162,
      "agricult": 7163,
      "ethics": 7164,
      "analytical": 7165,
      "parent": 7166,
      "semi": 7167,
      "##habilit": 7168,
      "surfaces": 7169,
      "##f2": 7170,
      "##ovirus": 7171,
      "##anted": 7172,
      "mostly": 7173,
      "tract": 7174,
      "loop": 7175,
      "amplitude": 7176,
      "##ofil": 7177,
      "recommendations": 7178,
      "american": 7179,
      "##tc": 7180,
      "possibility": 7181,
      "radical": 7182,
      "vital": 7183,
      "neurological": 7184,
      "velocity": 7185,
      "vertical": 7186,
      "rn": 7187,
      "pathological": 7188,
      "forming": 7189,
      "get": 7190,
      "jo": 7191,
      "biot": 7192,
      "attr": 7193,
      "developmental": 7194,
      "sexual": 7195,
      "##tition": 7196,
      "own": 7197,
      "hex": 7198,
      "ber": 7199,
      "facility": 7200,
      "##plo": 7201,
      "fatig": 7202,
      "##31": 7203,
      "predominantly": 7204,
      "comple": 7205,
      "##idine": 7206,
      "##ococc": 7207,
      "ye": 7208,
      "reinfor": 7209,
      "##plc": 7210,
      "##ompass": 7211,
      "##max": 7212,
      "journal": 7213,
      "pooled": 7214,
      "sessions": 7215,
      "norm": 7216,
      "volum": 7217,
      "##ynthesis": 7218,
      "answ": 7219,
      "scenario": 7220,
      "##thern": 7221,
      "concl": 7222,
      "purpose": 7223,
      "building": 7224,
      "participation": 7225,
      "captured": 7226,
      "hospitals": 7227,
      "electrical": 7228,
      "focusing": 7229,
      "##amb": 7230,
      "##inder": 7231,
      "phylogenetic": 7232,
      "fibrosis": 7233,
      "dental": 7234,
      "consists": 7235,
      "classes": 7236,
      "##3k": 7237,
      "prost": 7238,
      "analysed": 7239,
      "##inger": 7240,
      "recurrence": 7241,
      "integrity": 7242,
      "##odynam": 7243,
      "##acchar": 7244,
      "hous": 7245,
      "##icles": 7246,
      "little": 7247,
      "supernatant": 7248,
      "##1b": 7249,
      "iter": 7250,
      "sed": 7251,
      "##inking": 7252,
      "##apse": 7253,
      "spectroscopy": 7254,
      "discovery": 7255,
      "gest": 7256,
      "remove": 7257,
      "prolonged": 7258,
      "##ervation": 7259,
      "pn": 7260,
      "##201": 7261,
      "purchased": 7262,
      "synerg": 7263,
      "calculate": 7264,
      "prevalent": 7265,
      "##eletal": 7266,
      "subc": 7267,
      "dd": 7268,
      "makes": 7269,
      "##oor": 7270,
      "gi": 7271,
      "stimuli": 7272,
      "utilization": 7273,
      "repeat": 7274,
      "myocardi": 7275,
      "appears": 7276,
      "drop": 7277,
      "dementia": 7278,
      "susceptibility": 7279,
      "regulating": 7280,
      "stop": 7281,
      "educational": 7282,
      "recognized": 7283,
      "##otrop": 7284,
      "presentation": 7285,
      "bleeding": 7286,
      "##ato": 7287,
      "##c1": 7288,
      "guide": 7289,
      "admission": 7290,
      "downstream": 7291,
      "4a": 7292,
      "##omas": 7293,
      "regional": 7294,
      "shor": 7295,
      "elisa": 7296,
      "zone": 7297,
      "consult": 7298,
      "safe": 7299,
      "epis": 7300,
      "fatigue": 7301,
      "visit": 7302,
      "land": 7303,
      "##ef": 7304,
      "fracture": 7305,
      "native": 7306,
      "##ulative": 7307,
      "nl": 7308,
      "altered": 7309,
      "confl": 7310,
      "cis": 7311,
      "##onti": 7312,
      "##58": 7313,
      "##itten": 7314,
      "supplemental": 7315,
      "##ously": 7316,
      "##ilibr": 7317,
      "look": 7318,
      "direc": 7319,
      "powder": 7320,
      "binary": 7321,
      "##cape": 7322,
      "bonds": 7323,
      "undergo": 7324,
      "preferred": 7325,
      "##issions": 7326,
      "encompass": 7327,
      "cust": 7328,
      "##t1": 7329,
      "##habilitation": 7330,
      "grown": 7331,
      "localization": 7332,
      "coated": 7333,
      "phosphorylation": 7334,
      "##tp": 7335,
      "##44": 7336,
      "##imer": 7337,
      "106": 7338,
      "##ounts": 7339,
      "susceptible": 7340,
      "coronary": 7341,
      "##aa": 7342,
      "attenu": 7343,
      "pk": 7344,
      "knee": 7345,
      "travel": 7346,
      "subgroup": 7347,
      "north": 7348,
      "operating": 7349,
      "sar": 7350,
      "primer": 7351,
      "separated": 7352,
      "twice": 7353,
      "sensing": 7354,
      "derm": 7355,
      "aldr": 7356,
      "detecting": 7357,
      "capable": 7358,
      "##33": 7359,
      "##iding": 7360,
      "##used": 7361,
      "frequent": 7362,
      "sham": 7363,
      "##tl": 7364,
      "infig": 7365,
      "##esthes": 7366,
      "##atitis": 7367,
      "##itory": 7368,
      "iden": 7369,
      "conserved": 7370,
      "uncle": 7371,
      "addressing": 7372,
      "##arian": 7373,
      "treating": 7374,
      "extracts": 7375,
      "##bb": 7376,
      "ecm": 7377,
      "zik": 7378,
      "screened": 7379,
      "iqr": 7380,
      "oxide": 7381,
      "##cher": 7382,
      "105": 7383,
      "split": 7384,
      "aldrich": 7385,
      "january": 7386,
      "lu": 7387,
      "enhancement": 7388,
      "##know": 7389,
      "pil": 7390,
      "##thr": 7391,
      "##mediately": 7392,
      "degs": 7393,
      "mobility": 7394,
      "preventing": 7395,
      "incorporating": 7396,
      "198": 7397,
      "emerged": 7398,
      "extension": 7399,
      "##ensively": 7400,
      "##ologic": 7401,
      "combinations": 7402,
      "worldwide": 7403,
      "fetal": 7404,
      "precip": 7405,
      "gd": 7406,
      "prem": 7407,
      "##iance": 7408,
      "bands": 7409,
      "cad": 7410,
      "scales": 7411,
      "magnitude": 7412,
      "always": 7413,
      "sharing": 7414,
      "##cribed": 7415,
      "immediately": 7416,
      "##ician": 7417,
      "producing": 7418,
      "dur": 7419,
      "morphological": 7420,
      "dog": 7421,
      "##usp": 7422,
      "s5": 7423,
      "eligible": 7424,
      "electrodes": 7425,
      "##chemical": 7426,
      "##cd": 7427,
      "##gar": 7428,
      "##ident": 7429,
      "depicted": 7430,
      "ip": 7431,
      "largely": 7432,
      "scans": 7433,
      "amplification": 7434,
      "##ayer": 7435,
      "shorter": 7436,
      "tolerance": 7437,
      "##orrh": 7438,
      "insp": 7439,
      "##plasm": 7440,
      "confound": 7441,
      "basel": 7442,
      "diabetic": 7443,
      "weights": 7444,
      "##ostic": 7445,
      "inner": 7446,
      "etc": 7447,
      "braz": 7448,
      "diffr": 7449,
      "unclear": 7450,
      "wear": 7451,
      "##rel": 7452,
      "academic": 7453,
      "nar": 7454,
      "##进行": 7455,
      "inters": 7456,
      "cohorts": 7457,
      "resonance": 7458,
      "##yt": 7459,
      "##usive": 7460,
      "##aceu": 7461,
      "##acr": 7462,
      "dmso": 7463,
      "composed": 7464,
      "computer": 7465,
      "consistency": 7466,
      "calculation": 7467,
      "principal": 7468,
      "span": 7469,
      "injected": 7470,
      "exchange": 7471,
      "rise": 7472,
      "largest": 7473,
      "options": 7474,
      "##cents": 7475,
      "disru": 7476,
      "sept": 7477,
      "identity": 7478,
      "meet": 7479,
      "acknow": 7480,
      "##atient": 7481,
      "relation": 7482,
      "catalytic": 7483,
      "cancers": 7484,
      "matter": 7485,
      "whose": 7486,
      "atoms": 7487,
      "african": 7488,
      "##cm": 7489,
      "structured": 7490,
      "enables": 7491,
      "sor": 7492,
      "disrup": 7493,
      "eeg": 7494,
      "##46": 7495,
      "editor": 7496,
      "##ensis": 7497,
      "season": 7498,
      "abundant": 7499,
      "secretion": 7500,
      "smart": 7501,
      "biology": 7502,
      "##ptomatic": 7503,
      "##oxyl": 7504,
      "3b": 7505,
      "recip": 7506,
      "resection": 7507,
      "translation": 7508,
      "leuk": 7509,
      "gradually": 7510,
      "reproductive": 7511,
      "format": 7512,
      "emerging": 7513,
      "##tively": 7514,
      "haz": 7515,
      "appeared": 7516,
      "goal": 7517,
      "figure3": 7518,
      "fluorescent": 7519,
      "competi": 7520,
      "rod": 7521,
      "occurring": 7522,
      "##upplementary": 7523,
      "demand": 7524,
      "identical": 7525,
      "##ectal": 7526,
      "subset": 7527,
      "nacl": 7528,
      "##yth": 7529,
      "ones": 7530,
      "consisting": 7531,
      "evs": 7532,
      "endemic": 7533,
      "mess": 7534,
      "impaired": 7535,
      "haem": 7536,
      "capabilities": 7537,
      "##idal": 7538,
      "##uctu": 7539,
      "##ulti": 7540,
      "##ump": 7541,
      "aligned": 7542,
      "hour": 7543,
      "retinal": 7544,
      "cumulative": 7545,
      "##ologous": 7546,
      "nav": 7547,
      "cytokine": 7548,
      "##neal": 7549,
      "schematic": 7550,
      "##presents": 7551,
      "agar": 7552,
      "assumed": 7553,
      "government": 7554,
      "2c": 7555,
      "##olysis": 7556,
      "myel": 7557,
      "remark": 7558,
      "namely": 7559,
      "importantly": 7560,
      "adolescents": 7561,
      "cortex": 7562,
      "object": 7563,
      "##yroid": 7564,
      "sho": 7565,
      "medications": 7566,
      "##mut": 7567,
      "stronger": 7568,
      "fluctu": 7569,
      "initiation": 7570,
      "differentially": 7571,
      "van": 7572,
      "##gc": 7573,
      "fragment": 7574,
      "kh": 7575,
      "##opathy": 7576,
      "integrating": 7577,
      "##6a": 7578,
      "mom": 7579,
      "explan": 7580,
      "p0": 7581,
      "ure": 7582,
      "##k1": 7583,
      "##2b": 7584,
      "conceptual": 7585,
      "##rocytes": 7586,
      "fitting": 7587,
      "quant": 7588,
      "##分析": 7589,
      "volun": 7590,
      "brazil": 7591,
      "##omical": 7592,
      "quick": 7593,
      "amounts": 7594,
      "actin": 7595,
      "##unced": 7596,
      "dip": 7597,
      "ranges": 7598,
      "encod": 7599,
      "distr": 7600,
      "##while": 7601,
      "inside": 7602,
      "##ica": 7603,
      "moth": 7604,
      "##aptic": 7605,
      "bita": 7606,
      "circum": 7607,
      "evident": 7608,
      "##queous": 7609,
      "consisted": 7610,
      "contam": 7611,
      "latter": 7612,
      "causal": 7613,
      "decreasing": 7614,
      "overexpression": 7615,
      "offering": 7616,
      "declared": 7617,
      "requiring": 7618,
      "written": 7619,
      "pulse": 7620,
      "autophag": 7621,
      "transcriptional": 7622,
      "march": 7623,
      "calculations": 7624,
      "custom": 7625,
      "##ozyg": 7626,
      "invasion": 7627,
      "feasibility": 7628,
      "##ette": 7629,
      "adequate": 7630,
      "dash": 7631,
      "reaching": 7632,
      "metastasis": 7633,
      "vaccinated": 7634,
      "easily": 7635,
      "##lem": 7636,
      "approval": 7637,
      "cool": 7638,
      "##ki": 7639,
      "1c": 7640,
      "##aceutical": 7641,
      "continued": 7642,
      "nurses": 7643,
      "pel": 7644,
      "screen": 7645,
      "consensus": 7646,
      "dominant": 7647,
      "2h": 7648,
      "facilitating": 7649,
      "quad": 7650,
      "rehabilitation": 7651,
      "listed": 7652,
      "asymptomatic": 7653,
      "fragments": 7654,
      "strand": 7655,
      "constrain": 7656,
      "corrected": 7657,
      "ppm": 7658,
      "ho": 7659,
      "symm": 7660,
      "adhesion": 7661,
      "phenotypes": 7662,
      "##avage": 7663,
      "perception": 7664,
      "persistent": 7665,
      "insectic": 7666,
      "chromatography": 7667,
      "conclusions": 7668,
      "serious": 7669,
      "spinal": 7670,
      "observe": 7671,
      "##ley": 7672,
      "benz": 7673,
      "##ias": 7674,
      "examples": 7675,
      "hepat": 7676,
      "km": 7677,
      "##map": 7678,
      "chromosome": 7679,
      "manifest": 7680,
      "inhibiting": 7681,
      "##anned": 7682,
      "##ring": 7683,
      "2008": 7684,
      "publications": 7685,
      "papers": 7686,
      "ethical": 7687,
      "trauma": 7688,
      "##95": 7689,
      "morb": 7690,
      "##45": 7691,
      "110": 7692,
      "coupling": 7693,
      "5a": 7694,
      "accomp": 7695,
      "paired": 7696,
      "cvd": 7697,
      "##ano": 7698,
      "surrounding": 7699,
      "aqueous": 7700,
      "##azole": 7701,
      "sensory": 7702,
      "prospective": 7703,
      "mw": 7704,
      "retrospective": 7705,
      "##yes": 7706,
      "delayed": 7707,
      "cerv": 7708,
      "carcinoma": 7709,
      "##ani": 7710,
      "##1c": 7711,
      "complement": 7712,
      "ace": 7713,
      "rating": 7714,
      "##value": 7715,
      "professional": 7716,
      "##gt": 7717,
      "interact": 7718,
      "asked": 7719,
      "aβ": 7720,
      "##urally": 7721,
      "cnn": 7722,
      "shan": 7723,
      "##dehy": 7724,
      "##areness": 7725,
      "gastric": 7726,
      "math": 7727,
      "##nia": 7728,
      "distal": 7729,
      "promotes": 7730,
      "##65": 7731,
      "regulate": 7732,
      "simpl": 7733,
      "arb": 7734,
      "negl": 7735,
      "analyzing": 7736,
      "##otal": 7737,
      "providers": 7738,
      "##oglobin": 7739,
      "uncertainty": 7740,
      "chip": 7741,
      "filtered": 7742,
      "meeting": 7743,
      "exec": 7744,
      "comparative": 7745,
      "deficiency": 7746,
      "annual": 7747,
      "##ithub": 7748,
      "sched": 7749,
      "equilibr": 7750,
      "mi": 7751,
      "accordance": 7752,
      "limitation": 7753,
      "formula": 7754,
      "##hyth": 7755,
      "tau": 7756,
      "separately": 7757,
      "allele": 7758,
      "##rt": 7759,
      "regardless": 7760,
      "determination": 7761,
      "awareness": 7762,
      "##rec": 7763,
      "prono": 7764,
      "phenotyp": 7765,
      "stret": 7766,
      "##ostasis": 7767,
      "accessible": 7768,
      "github": 7769,
      "ant": 7770,
      "toxic": 7771,
      "shar": 7772,
      "asc": 7773,
      "chat": 7774,
      "contributions": 7775,
      "pronounced": 7776,
      "ofs": 7777,
      "tf": 7778,
      "##illin": 7779,
      "##givers": 7780,
      "directed": 7781,
      "december": 7782,
      "pathogenic": 7783,
      "caregivers": 7784,
      "2007": 7785,
      "nih": 7786,
      "contributes": 7787,
      "coli": 7788,
      "##intestinal": 7789,
      "immuno": 7790,
      "mothers": 7791,
      "sent": 7792,
      "pathology": 7793,
      "assisted": 7794,
      "##75": 7795,
      "##100": 7796,
      "trop": 7797,
      "##c2": 7798,
      "spike": 7799,
      "concern": 7800,
      "ofp": 7801,
      "fruit": 7802,
      "restricted": 7803,
      "threat": 7804,
      "intelligence": 7805,
      "eryth": 7806,
      "##osin": 7807,
      "##quine": 7808,
      "defect": 7809,
      "adapted": 7810,
      "##tivated": 7811,
      "nutrition": 7812,
      "##forms": 7813,
      "regeneration": 7814,
      "##ococcus": 7815,
      "neurode": 7816,
      "gastrointestinal": 7817,
      "##42": 7818,
      "chamber": 7819,
      "mutants": 7820,
      "spin": 7821,
      "flexible": 7822,
      "employing": 7823,
      "##ori": 7824,
      "recall": 7825,
      "frame": 7826,
      "transformed": 7827,
      "overc": 7828,
      "released": 7829,
      "##ectin": 7830,
      "polymers": 7831,
      "centers": 7832,
      "lam": 7833,
      "dot": 7834,
      "broader": 7835,
      "categorized": 7836,
      "placebo": 7837,
      "##hs": 7838,
      "india": 7839,
      "intensive": 7840,
      "excessive": 7841,
      "breeding": 7842,
      "pneumonia": 7843,
      "bed": 7844,
      "pub": 7845,
      "##elled": 7846,
      "entry": 7847,
      "microgl": 7848,
      "wil": 7849,
      "hypox": 7850,
      "perspective": 7851,
      "organs": 7852,
      "satisfaction": 7853,
      "trip": 7854,
      "delivered": 7855,
      "adjac": 7856,
      "thes": 7857,
      "vas": 7858,
      "##aine": 7859,
      "insufficient": 7860,
      "##term": 7861,
      "definition": 7862,
      "mand": 7863,
      "promoter": 7864,
      "##abled": 7865,
      "l1": 7866,
      "fol": 7867,
      "accompan": 7868,
      "##icate": 7869,
      "matching": 7870,
      "mov": 7871,
      "indicator": 7872,
      "accessed": 7873,
      "##ttp": 7874,
      "##mal": 7875,
      "transfected": 7876,
      "nutritional": 7877,
      "district": 7878,
      "subun": 7879,
      "ideal": 7880,
      "limits": 7881,
      "construction": 7882,
      "##yc": 7883,
      "bioc": 7884,
      "faster": 7885,
      "cervical": 7886,
      "vehicle": 7887,
      "habit": 7888,
      "understood": 7889,
      "##oscopy": 7890,
      "biofil": 7891,
      "exception": 7892,
      "indices": 7893,
      "rb": 7894,
      "undergoing": 7895,
      "electrochemical": 7896,
      "too": 7897,
      "pathogenesis": 7898,
      "refr": 7899,
      "1d": 7900,
      "why": 7901,
      "share": 7902,
      "validity": 7903,
      "lag": 7904,
      "substrates": 7905,
      "sense": 7906,
      "recruited": 7907,
      "mann": 7908,
      "camera": 7909,
      "vulner": 7910,
      "##esthesia": 7911,
      "piv": 7912,
      "##p3": 7913,
      "manip": 7914,
      "cytometry": 7915,
      "##f1": 7916,
      "subm": 7917,
      "epit": 7918,
      "##98": 7919,
      "orientation": 7920,
      "dock": 7921,
      "##hc": 7922,
      "sperm": 7923,
      "chest": 7924,
      "validate": 7925,
      "##arial": 7926,
      "cytoplas": 7927,
      "figs": 7928,
      "encour": 7929,
      "termin": 7930,
      "##aving": 7931,
      "defic": 7932,
      "pros": 7933,
      "##acerb": 7934,
      "horizontal": 7935,
      "trust": 7936,
      "electroph": 7937,
      "crispr": 7938,
      "platelet": 7939,
      "briefly": 7940,
      "express": 7941,
      "600": 7942,
      "##hl": 7943,
      "##usc": 7944,
      "##acial": 7945,
      "##rought": 7946,
      "predictors": 7947,
      "bis": 7948,
      "zhang": 7949,
      "##gens": 7950,
      "exacerb": 7951,
      "tomography": 7952,
      "institutional": 7953,
      "ka": 7954,
      "cavity": 7955,
      "connectivity": 7956,
      "template": 7957,
      "tor": 7958,
      "incorporated": 7959,
      "irradiation": 7960,
      "wang": 7961,
      "dilution": 7962,
      "microbiome": 7963,
      "##ologists": 7964,
      "##ergic": 7965,
      "determining": 7966,
      "printed": 7967,
      "alle": 7968,
      "page": 7969,
      "##onin": 7970,
      "##ulose": 7971,
      "pear": 7972,
      "sun": 7973,
      "sds": 7974,
      "104": 7975,
      "penetr": 7976,
      "favorable": 7977,
      "comorbid": 7978,
      "participate": 7979,
      "crc": 7980,
      "fri": 7981,
      "cox": 7982,
      "investigations": 7983,
      "codes": 7984,
      "supports": 7985,
      "##rees": 7986,
      "eb": 7987,
      "lv": 7988,
      "ice": 7989,
      "ips": 7990,
      "monitored": 7991,
      "##izer": 7992,
      "spont": 7993,
      "moun": 7994,
      "vr": 7995,
      "methanol": 7996,
      "pay": 7997,
      "modulation": 7998,
      "harves": 7999,
      "incom": 8000,
      "shear": 8001,
      "mesh": 8002,
      "##olym": 8003,
      "##insic": 8004,
      "addi": 8005,
      "vacu": 8006,
      "vill": 8007,
      "rotation": 8008,
      "##mm": 8009,
      "##onucle": 8010,
      "##tenance": 8011,
      "dp": 8012,
      "##utaneous": 8013,
      "##adder": 8014,
      "clinicians": 8015,
      "##chron": 8016,
      "encoun": 8017,
      "quantum": 8018,
      "transcripts": 8019,
      "saline": 8020,
      "##agon": 8021,
      "##electric": 8022,
      "supply": 8023,
      "##hi": 8024,
      "funded": 8025,
      "immunos": 8026,
      "covered": 8027,
      "narrow": 8028,
      "##avirus": 8029,
      "##rown": 8030,
      "prognostic": 8031,
      "hoc": 8032,
      "excitation": 8033,
      "polarization": 8034,
      "##ghai": 8035,
      "neurop": 8036,
      "##inates": 8037,
      "changed": 8038,
      "##hydr": 8039,
      "##bit": 8040,
      "attit": 8041,
      "capability": 8042,
      "yielded": 8043,
      "thorough": 8044,
      "controlling": 8045,
      "implications": 8046,
      "##anth": 8047,
      "trap": 8048,
      "bov": 8049,
      "mf": 8050,
      "##ophys": 8051,
      "law": 8052,
      "effici": 8053,
      "compet": 8054,
      "attemp": 8055,
      "4b": 8056,
      "spontaneous": 8057,
      "maintenance": 8058,
      "derivatives": 8059,
      "atm": 8060,
      "anatomical": 8061,
      "cortical": 8062,
      "abnormalities": 8063,
      "compart": 8064,
      "cyp": 8065,
      "figure4": 8066,
      "ethyl": 8067,
      "veget": 8068,
      "h2": 8069,
      "##dehyde": 8070,
      "##roduce": 8071,
      "bulk": 8072,
      "pic": 8073,
      "phenomenon": 8074,
      "province": 8075,
      "shanghai": 8076,
      "managing": 8077,
      "recurrent": 8078,
      "10−": 8079,
      "relax": 8080,
      "covariates": 8081,
      "aggregation": 8082,
      "##amic": 8083,
      "nanos": 8084,
      "##iction": 8085,
      "compens": 8086,
      "##vae": 8087,
      "snp": 8088,
      "cerebral": 8089,
      "perc": 8090,
      "febr": 8091,
      "displacement": 8092,
      "younger": 8093,
      "egfr": 8094,
      "##ued": 8095,
      "##emed": 8096,
      "generating": 8097,
      "symptomatic": 8098,
      "photo": 8099,
      "##acet": 8100,
      "##ypt": 8101,
      "ca2": 8102,
      "licensee": 8103,
      "modes": 8104,
      "aid": 8105,
      "##atib": 8106,
      "peg": 8107,
      "elastic": 8108,
      "##ultidisciplinary": 8109,
      "fitted": 8110,
      "ine": 8111,
      "ofmultidisciplinary": 8112,
      "compression": 8113,
      "recovered": 8114,
      "closed": 8115,
      "##200": 8116,
      "possibly": 8117,
      "configuration": 8118,
      "amb": 8119,
      "elimination": 8120,
      "##thal": 8121,
      "diver": 8122,
      "csf": 8123,
      "anth": 8124,
      "compliance": 8125,
      "tap": 8126,
      "shaped": 8127,
      "tgf": 8128,
      "##66": 8129,
      "supervision": 8130,
      "hcc": 8131,
      "##immun": 8132,
      "suppress": 8133,
      "deploy": 8134,
      "##ycl": 8135,
      "oa": 8136,
      "guidance": 8137,
      "biopsy": 8138,
      "deposited": 8139,
      "##ni": 8140,
      "sita": 8141,
      "tracking": 8142,
      "trajectory": 8143,
      "cro": 8144,
      "propag": 8145,
      "venti": 8146,
      "select": 8147,
      "unp": 8148,
      "##97": 8149,
      "##3o4": 8150,
      "hydroly": 8151,
      "creating": 8152,
      "genotypes": 8153,
      "adaptation": 8154,
      "improves": 8155,
      "m1": 8156,
      "transduc": 8157,
      "ubi": 8158,
      "gray": 8159,
      "considerable": 8160,
      "aggr": 8161,
      "timing": 8162,
      "##ometr": 8163,
      "fec": 8164,
      "##pread": 8165,
      "##88": 8166,
      "basal": 8167,
      "##ford": 8168,
      "chains": 8169,
      "fp": 8170,
      "c3": 8171,
      "college": 8172,
      "epidemic": 8173,
      "movements": 8174,
      "adjacent": 8175,
      "ont": 8176,
      "increasingly": 8177,
      "hos": 8178,
      "##iger": 8179,
      "sampled": 8180,
      "##acing": 8181,
      "##embl": 8182,
      "corresponds": 8183,
      "nd": 8184,
      "##amental": 8185,
      "influencing": 8186,
      "started": 8187,
      "ventricular": 8188,
      "##environ": 8189,
      "itself": 8190,
      "125": 8191,
      "##enza": 8192,
      "record": 8193,
      "conductivity": 8194,
      "##lined": 8195,
      "stock": 8196,
      "##poc": 8197,
      "elect": 8198,
      "specified": 8199,
      "##health": 8200,
      "nursing": 8201,
      "allevi": 8202,
      "resolved": 8203,
      "hier": 8204,
      "##oprotein": 8205,
      "##inter": 8206,
      "mature": 8207,
      "presenting": 8208,
      "registered": 8209,
      "icu": 8210,
      "numerical": 8211,
      "##itiz": 8212,
      "##orescence": 8213,
      "dissolved": 8214,
      "degrees": 8215,
      "table2": 8216,
      "printing": 8217,
      "limiting": 8218,
      "guided": 8219,
      "wides": 8220,
      "usage": 8221,
      "stir": 8222,
      "##pecies": 8223,
      "ubiqu": 8224,
      "roc": 8225,
      "multivariate": 8226,
      "photoc": 8227,
      "segments": 8228,
      "inhibited": 8229,
      "dt": 8230,
      "amp": 8231,
      "instruments": 8232,
      "widespread": 8233,
      "formulation": 8234,
      "becomes": 8235,
      "zinc": 8236,
      "rout": 8237,
      "stratified": 8238,
      "##igation": 8239,
      "nucleus": 8240,
      "mhz": 8241,
      "city": 8242,
      "##lands": 8243,
      "para": 8244,
      "##uits": 8245,
      "stay": 8246,
      "##63": 8247,
      "deletion": 8248,
      "##side": 8249,
      "3c": 8250,
      "luc": 8251,
      "orange": 8252,
      "101": 8253,
      "reproduction": 8254,
      "stiff": 8255,
      "possess": 8256,
      "##sis": 8257,
      "exploration": 8258,
      "comprom": 8259,
      "cartil": 8260,
      "tip": 8261,
      "pdf": 8262,
      "dimin": 8263,
      "akt": 8264,
      "surveys": 8265,
      "description": 8266,
      "took": 8267,
      "##iculties": 8268,
      "enrolled": 8269,
      "lifest": 8270,
      "infiltration": 8271,
      "enabled": 8272,
      "pharmaceutical": 8273,
      "absorbance": 8274,
      "##ohy": 8275,
      "newly": 8276,
      "difficulties": 8277,
      "pore": 8278,
      "bayes": 8279,
      "outer": 8280,
      "##xts": 8281,
      "unlike": 8282,
      "endogenous": 8283,
      "##has": 8284,
      "purpos": 8285,
      "hl": 8286,
      "brid": 8287,
      "investigating": 8288,
      "latent": 8289,
      "war": 8290,
      "##olytic": 8291,
      "mitigate": 8292,
      "##omet": 8293,
      "180": 8294,
      "prostate": 8295,
      "##udes": 8296,
      "robustness": 8297,
      "suspension": 8298,
      "breath": 8299,
      "adopted": 8300,
      "park": 8301,
      "##ara": 8302,
      "bes": 8303,
      "comprising": 8304,
      "deviations": 8305,
      "biosynthesis": 8306,
      "##omers": 8307,
      "hepatic": 8308,
      "##lip": 8309,
      "hapl": 8310,
      "##avy": 8311,
      "examining": 8312,
      "athttps": 8313,
      "##atibility": 8314,
      "member": 8315,
      "addressed": 8316,
      "gn": 8317,
      "sustained": 8318,
      "##psis": 8319,
      "suppression": 8320,
      "graf": 8321,
      "##ift": 8322,
      "##gb": 8323,
      "inac": 8324,
      "dend": 8325,
      "reviewers": 8326,
      "antiv": 8327,
      "competing": 8328,
      "give": 8329,
      "observational": 8330,
      "mun": 8331,
      "restor": 8332,
      "surge": 8333,
      "visc": 8334,
      "doi": 8335,
      "figure2": 8336,
      "2006": 8337,
      "attached": 8338,
      "parental": 8339,
      "rough": 8340,
      "remote": 8341,
      "splic": 8342,
      "##ysts": 8343,
      "promin": 8344,
      "diffraction": 8345,
      "hierarch": 8346,
      "rice": 8347,
      "summarized": 8348,
      "programme": 8349,
      "replacement": 8350,
      "##55": 8351,
      "pixel": 8352,
      "##avi": 8353,
      "comments": 8354,
      "urine": 8355,
      "##acill": 8356,
      "multim": 8357,
      "##77": 8358,
      "reveals": 8359,
      "photos": 8360,
      "##odal": 8361,
      "oppos": 8362,
      "empir": 8363,
      "alt": 8364,
      "nad": 8365,
      "gli": 8366,
      "microenviron": 8367,
      "fundamental": 8368,
      "centrifuged": 8369,
      "ligands": 8370,
      "mptp": 8371,
      "decompos": 8372,
      "polymorph": 8373,
      "injuries": 8374,
      "myocardial": 8375,
      "utility": 8376,
      "clon": 8377,
      "##cale": 8378,
      "##anged": 8379,
      "##inform": 8380,
      "heating": 8381,
      "mur": 8382,
      "##enic": 8383,
      "130": 8384,
      "dex": 8385,
      "feel": 8386,
      "bind": 8387,
      "##vic": 8388,
      "cdna": 8389,
      "collabor": 8390,
      "pancreatic": 8391,
      "osc": 8392,
      "forec": 8393,
      "proportions": 8394,
      "ball": 8395,
      "##gent": 8396,
      "##clin": 8397,
      "##pass": 8398,
      "##分子": 8399,
      "103": 8400,
      "arterial": 8401,
      "##okine": 8402,
      "lever": 8403,
      "morbidity": 8404,
      "suffer": 8405,
      "cytos": 8406,
      "##ontin": 8407,
      "stack": 8408,
      "hot": 8409,
      "quantify": 8410,
      "vision": 8411,
      "lap": 8412,
      "107": 8413,
      "knockdown": 8414,
      "influences": 8415,
      "autophagy": 8416,
      "##ested": 8417,
      "fungal": 8418,
      "equations": 8419,
      "partners": 8420,
      "rhe": 8421,
      "board": 8422,
      "tan": 8423,
      "intraven": 8424,
      "immediate": 8425,
      "##hg": 8426,
      "dial": 8427,
      "innovative": 8428,
      "attachment": 8429,
      "##min": 8430,
      "##ancing": 8431,
      "substantially": 8432,
      "limb": 8433,
      "http": 8434,
      "##oe": 8435,
      "##atch": 8436,
      "##opia": 8437,
      "##oud": 8438,
      "ft": 8439,
      "##ming": 8440,
      "preoperative": 8441,
      "copy": 8442,
      "##emble": 8443,
      "##69": 8444,
      "128": 8445,
      "##2and": 8446,
      "decisions": 8447,
      "qi": 8448,
      "ali": 8449,
      "localized": 8450,
      "lon": 8451,
      "##49": 8452,
      "supplementation": 8453,
      "##igu": 8454,
      "rain": 8455,
      "interpre": 8456,
      "cartilage": 8457,
      "yeast": 8458,
      "##times": 8459,
      "blocks": 8460,
      "##gence": 8461,
      "thought": 8462,
      "##gd": 8463,
      "##enchym": 8464,
      "blocking": 8465,
      "annotation": 8466,
      "distinguish": 8467,
      "spectrometry": 8468,
      "applicable": 8469,
      "precursor": 8470,
      "neck": 8471,
      "biochemical": 8472,
      "ckd": 8473,
      "degen": 8474,
      "beh": 8475,
      "##actic": 8476,
      "fitness": 8477,
      "seems": 8478,
      "insertion": 8479,
      "hydrogels": 8480,
      "amyl": 8481,
      "hydr": 8482,
      "aortic": 8483,
      "##odynamic": 8484,
      "nerv": 8485,
      "obstruc": 8486,
      "##cells": 8487,
      "apparent": 8488,
      "washing": 8489,
      "fro": 8490,
      "annotated": 8491,
      "vessels": 8492,
      "scoping": 8493,
      "encaps": 8494,
      "##illing": 8495,
      "cleavage": 8496,
      "je": 8497,
      "##oa": 8498,
      "discrep": 8499,
      "cit": 8500,
      "##plasmodium": 8501,
      "##urance": 8502,
      "embedded": 8503,
      "easy": 8504,
      "neighb": 8505,
      "soluble": 8506,
      "subtypes": 8507,
      "influenza": 8508,
      "equipment": 8509,
      "pell": 8510,
      "tris": 8511,
      "alongside": 8512,
      "leak": 8513,
      "##ees": 8514,
      "extremely": 8515,
      "##ifier": 8516,
      "involve": 8517,
      "##ifer": 8518,
      "bon": 8519,
      "foot": 8520,
      "proximal": 8521,
      "distances": 8522,
      "cord": 8523,
      "silica": 8524,
      "lands": 8525,
      "c2": 8526,
      "asymm": 8527,
      "heavy": 8528,
      "stimulus": 8529,
      "kept": 8530,
      "revision": 8531,
      "heterogeneous": 8532,
      "cultural": 8533,
      "sen": 8534,
      "inad": 8535,
      "confirming": 8536,
      "ly": 8537,
      "interference": 8538,
      "fibroblasts": 8539,
      "built": 8540,
      "dw": 8541,
      "##zh": 8542,
      "biomarker": 8543,
      "##itone": 8544,
      "households": 8545,
      "alkal": 8546,
      "sepsis": 8547,
      "download": 8548,
      "train": 8549,
      "epile": 8550,
      "plasmids": 8551,
      "cas9": 8552,
      "##atus": 8553,
      "##opes": 8554,
      "musc": 8555,
      "que": 8556,
      "west": 8557,
      "##berg": 8558,
      "globally": 8559,
      "pivotal": 8560,
      "##iang": 8561,
      "##3a": 8562,
      "##anda": 8563,
      "anten": 8564,
      "nanoc": 8565,
      "solv": 8566,
      "##ewh": 8567,
      "##ister": 8568,
      "changing": 8569,
      "catalyst": 8570,
      "ah": 8571,
      "polymerase": 8572,
      "pit": 8573,
      "schiz": 8574,
      "hplc": 8575,
      "exploring": 8576,
      "vein": 8577,
      "zo": 8578,
      "wet": 8579,
      "solub": 8580,
      "batch": 8581,
      "fourth": 8582,
      "plotted": 8583,
      "driving": 8584,
      "prelim": 8585,
      "minimize": 8586,
      "keep": 8587,
      "cg": 8588,
      "setup": 8589,
      "##1and": 8590,
      "race": 8591,
      "cla": 8592,
      "relev": 8593,
      "residue": 8594,
      "graft": 8595,
      "##linear": 8596,
      "flexibility": 8597,
      "##itus": 8598,
      "enough": 8599,
      "fixation": 8600,
      "lr": 8601,
      "2005": 8602,
      "chol": 8603,
      "physicians": 8604,
      "yields": 8605,
      "malignant": 8606,
      "electrolyte": 8607,
      "##plex": 8608,
      "acetyl": 8609,
      "descriptive": 8610,
      "1β": 8611,
      "arab": 8612,
      "tailored": 8613,
      "carefully": 8614,
      "functioning": 8615,
      "induces": 8616,
      "contexts": 8617,
      "dispar": 8618,
      "innovation": 8619,
      "depends": 8620,
      "gab": 8621,
      "appearance": 8622,
      "##infection": 8623,
      "words": 8624,
      "microenvironment": 8625,
      "##ograms": 8626,
      "emergence": 8627,
      "##rophy": 8628,
      "copper": 8629,
      "exhibiting": 8630,
      "placement": 8631,
      "equilibrium": 8632,
      "imped": 8633,
      "##bach": 8634,
      "bench": 8635,
      "deformation": 8636,
      "oscill": 8637,
      "april": 8638,
      "otherwise": 8639,
      "volumes": 8640,
      "##pad": 8641,
      "accounting": 8642,
      "##bh": 8643,
      "formulations": 8644,
      "june": 8645,
      "bovine": 8646,
      "electric": 8647,
      "sustainable": 8648,
      "antigens": 8649,
      "nets": 8650,
      "multic": 8651,
      "108": 8652,
      "cds": 8653,
      "batter": 8654,
      "sound": 8655,
      "adjustment": 8656,
      "bow": 8657,
      "industry": 8658,
      "failed": 8659,
      "homeostasis": 8660,
      "platforms": 8661,
      "meanwhile": 8662,
      "epidemiological": 8663,
      "illumina": 8664,
      "##ece": 8665,
      "acetate": 8666,
      "lob": 8667,
      "##rices": 8668,
      "##rogr": 8669,
      "##auss": 8670,
      "intrinsic": 8671,
      "tio2": 8672,
      "whe": 8673,
      "connection": 8674,
      "4c": 8675,
      "##zo": 8676,
      "gram": 8677,
      "##onym": 8678,
      "socioec": 8679,
      "##icillin": 8680,
      "desired": 8681,
      "##lementing": 8682,
      "arom": 8683,
      "flag": 8684,
      "stimulated": 8685,
      "s6": 8686,
      "discovered": 8687,
      "dashed": 8688,
      "accompanied": 8689,
      "glycos": 8690,
      "downregulated": 8691,
      "consec": 8692,
      "pert": 8693,
      "dors": 8694,
      "kinetics": 8695,
      "ham": 8696,
      "refers": 8697,
      "enzymatic": 8698,
      "converted": 8699,
      "categorical": 8700,
      "ck": 8701,
      "bt": 8702,
      "##lin": 8703,
      "substances": 8704,
      "nom": 8705,
      "##pocamp": 8706,
      "##water": 8707,
      "ncbi": 8708,
      "purification": 8709,
      "whit": 8710,
      "transpor": 8711,
      "sand": 8712,
      "nonlinear": 8713,
      "elder": 8714,
      "incomplet": 8715,
      "evolutionary": 8716,
      "dap": 8717,
      "arms": 8718,
      "dee": 8719,
      "psychiatric": 8720,
      "trajectories": 8721,
      "sterile": 8722,
      "transient": 8723,
      "overcome": 8724,
      "gov": 8725,
      "shock": 8726,
      "homogene": 8727,
      "overview": 8728,
      "concerning": 8729,
      "nervous": 8730,
      "##vis": 8731,
      "reagent": 8732,
      "match": 8733,
      "unf": 8734,
      "docking": 8735,
      "expanded": 8736,
      "relevance": 8737,
      "##研究": 8738,
      "depressive": 8739,
      "##elt": 8740,
      "percentages": 8741,
      "vag": 8742,
      "##infl": 8743,
      "hemorrh": 8744,
      "nutrient": 8745,
      "excluding": 8746,
      "pearson": 8747,
      "forces": 8748,
      "jud": 8749,
      "##fig": 8750,
      "beginning": 8751,
      "##uth": 8752,
      "reflecting": 8753,
      "react": 8754,
      "##ographical": 8755,
      "inducing": 8756,
      "ic50": 8757,
      "preterm": 8758,
      "lifestyle": 8759,
      "consequences": 8760,
      "panels": 8761,
      "larvae": 8762,
      "disability": 8763,
      "facial": 8764,
      "shifts": 8765,
      "thresholds": 8766,
      "circulating": 8767,
      "##thritis": 8768,
      "orb": 8769,
      "##acterial": 8770,
      "optimize": 8771,
      "shell": 8772,
      "##zen": 8773,
      "upregulation": 8774,
      "##elves": 8775,
      "cond": 8776,
      "##ault": 8777,
      "nuclei": 8778,
      "lacking": 8779,
      "pin": 8780,
      "##inating": 8781,
      "crack": 8782,
      "##mt": 8783,
      "expert": 8784,
      "pipeline": 8785,
      "designs": 8786,
      "abstract": 8787,
      "##anine": 8788,
      "industrial": 8789,
      "##plast": 8790,
      "replaced": 8791,
      "beads": 8792,
      "hormone": 8793,
      "obvious": 8794,
      "109": 8795,
      "mirnas": 8796,
      "histological": 8797,
      "##62": 8798,
      "permeability": 8799,
      "##elium": 8800,
      "dependence": 8801,
      "define": 8802,
      "stra": 8803,
      "childhood": 8804,
      "convolutional": 8805,
      "pilot": 8806,
      "gaps": 8807,
      "tumour": 8808,
      "mscs": 8809,
      "prisma": 8810,
      "adjusting": 8811,
      "aspect": 8812,
      "accession": 8813,
      "opportunities": 8814,
      "static": 8815,
      "##r1": 8816,
      "swe": 8817,
      "matrices": 8818,
      "drive": 8819,
      "##lc": 8820,
      "nb": 8821,
      "blast": 8822,
      "residents": 8823,
      "histor": 8824,
      "mag": 8825,
      "metall": 8826,
      "difficulty": 8827,
      "tensile": 8828,
      "##ackage": 8829,
      "equipped": 8830,
      "offs": 8831,
      "composites": 8832,
      "antiviral": 8833,
      "epig": 8834,
      "advancements": 8835,
      "conjugated": 8836,
      "ae": 8837,
      "##isin": 8838,
      "##ady": 8839,
      "scoring": 8840,
      "continue": 8841,
      "candidates": 8842,
      "mother": 8843,
      "feasible": 8844,
      "##51": 8845,
      "##entive": 8846,
      "##nps": 8847,
      "comorbidities": 8848,
      "concurr": 8849,
      "saliv": 8850,
      "centrifugation": 8851,
      "agricultural": 8852,
      "visualized": 8853,
      "hippocamp": 8854,
      "remod": 8855,
      "policies": 8856,
      "lipids": 8857,
      "completion": 8858,
      "modules": 8859,
      "catheter": 8860,
      "anesthesia": 8861,
      "isolate": 8862,
      "predictor": 8863,
      "mind": 8864,
      "organisms": 8865,
      "##mented": 8866,
      "##olip": 8867,
      "##inflamm": 8868,
      "situation": 8869,
      "kb": 8870,
      "throughput": 8871,
      "genus": 8872,
      "initiated": 8873,
      "##ifi": 8874,
      "organoids": 8875,
      "stiffness": 8876,
      "mitochondria": 8877,
      "##estim": 8878,
      "##clinical": 8879,
      "amplified": 8880,
      "##bar": 8881,
      "disturb": 8882,
      "mda": 8883,
      "specimen": 8884,
      "kd": 8885,
      "fd": 8886,
      "37°c": 8887,
      "uc": 8888,
      "conducting": 8889,
      "grain": 8890,
      "necessit": 8891,
      "transfection": 8892,
      "weekly": 8893,
      "mirna": 8894,
      "filled": 8895,
      "naive": 8896,
      "questionnaires": 8897,
      "ages": 8898,
      "biomass": 8899,
      "thems": 8900,
      "##fluorescence": 8901,
      "consideration": 8902,
      "valve": 8903,
      "clearance": 8904,
      "figure5": 8905,
      "epiderm": 8906,
      "−1": 8907,
      "market": 8908,
      "moment": 8909,
      "volunte": 8910,
      "objects": 8911,
      "vo": 8912,
      "equally": 8913,
      "bron": 8914,
      "##transfer": 8915,
      "##mc": 8916,
      "gamm": 8917,
      "contents": 8918,
      "κb": 8919,
      "sequenced": 8920,
      "##orous": 8921,
      "antibacterial": 8922,
      "lin": 8923,
      "##cl2": 8924,
      "140": 8925,
      "##uv": 8926,
      "vessel": 8927,
      "##itability": 8928,
      "pharmacological": 8929,
      "hair": 8930,
      "##np": 8931,
      "socioeconomic": 8932,
      "##ione": 8933,
      "subjective": 8934,
      "##itos": 8935,
      "removing": 8936,
      "scattering": 8937,
      "##oney": 8938,
      "attack": 8939,
      "##uz": 8940,
      "aeg": 8941,
      "synchron": 8942,
      "progressive": 8943,
      "##version": 8944,
      "ot": 8945,
      "neonatal": 8946,
      "flat": 8947,
      "chloro": 8948,
      "selectivity": 8949,
      "##present": 8950,
      "verified": 8951,
      "##ora": 8952,
      "colleag": 8953,
      "##ools": 8954,
      "##uck": 8955,
      "fear": 8956,
      "immers": 8957,
      "subgroups": 8958,
      "##合物": 8959,
      "ket": 8960,
      "stated": 8961,
      "unex": 8962,
      "seiz": 8963,
      "fronti": 8964,
      "kind": 8965,
      "serves": 8966,
      "austral": 8967,
      "criterion": 8968,
      "sy": 8969,
      "gall": 8970,
      "kegg": 8971,
      "aureus": 8972,
      "##onom": 8973,
      "recombination": 8974,
      "gauss": 8975,
      "farm": 8976,
      "overlapping": 8977,
      "bearing": 8978,
      "constraints": 8979,
      "night": 8980,
      "helps": 8981,
      "obst": 8982,
      "classical": 8983,
      "##64": 8984,
      "grey": 8985,
      "##trap": 8986,
      "trees": 8987,
      "finger": 8988,
      "##aceae": 8989,
      "determin": 8990,
      "lith": 8991,
      "asth": 8992,
      "phenotypic": 8993,
      "##iro": 8994,
      "intact": 8995,
      "cred": 8996,
      "kda": 8997,
      "gib": 8998,
      "experiencing": 8999,
      "##59": 9000,
      "##ania": 9001,
      "interests": 9002,
      "macrophage": 9003,
      "suic": 9004,
      "bilateral": 9005,
      "##73": 9006,
      "##omb": 9007,
      "##weight": 9008,
      "transplantation": 9009,
      "o2": 9010,
      "##nf": 9011,
      "tib": 9012,
      "zikv": 9013,
      "##press": 9014,
      "metastatic": 9015,
      "deple": 9016,
      "italy": 9017,
      "##jection": 9018,
      "strict": 9019,
      "ways": 9020,
      "thec": 9021,
      "anticip": 9022,
      "implementing": 9023,
      "ug": 9024,
      "proven": 9025,
      "manually": 9026,
      "embryos": 9027,
      "chemistry": 9028,
      "elderly": 9029,
      "nlr": 9030,
      "preliminary": 9031,
      "biomed": 9032,
      "publicly": 9033,
      "foods": 9034,
      "sugar": 9035,
      "row": 9036,
      "transpar": 9037,
      "comprised": 9038,
      "fbs": 9039,
      "skeletal": 9040,
      "##ests": 9041,
      "became": 9042,
      "tabl": 9043,
      "agon": 9044,
      "##o3": 9045,
      "restriction": 9046,
      "humidity": 9047,
      "v1": 9048,
      "##antic": 9049,
      "shr": 9050,
      "##ropt": 9051,
      "parad": 9052,
      "occl": 9053,
      "hospitalization": 9054,
      "loci": 9055,
      "##opic": 9056,
      "prep": 9057,
      "entrop": 9058,
      "grid": 9059,
      "east": 9060,
      "eyes": 9061,
      "##ceptions": 9062,
      "dye": 9063,
      "##89": 9064,
      "seeking": 9065,
      "casp": 9066,
      "800": 9067,
      "vic": 9068,
      "##urys": 9069,
      "##ober": 9070,
      "kore": 9071,
      "modelling": 9072,
      "##onsist": 9073,
      "infrared": 9074,
      "figure1": 9075,
      "2004": 9076,
      "propose": 9077,
      "glycer": 9078,
      "distress": 9079,
      "mpa": 9080,
      "ras": 9081,
      "necrosis": 9082,
      "##ares": 9083,
      "tele": 9084,
      "outper": 9085,
      "trait": 9086,
      "phage": 9087,
      "tlr": 9088,
      "colleagues": 9089,
      "acceptable": 9090,
      "proportional": 9091,
      "title": 9092,
      "boundary": 9093,
      "##onomy": 9094,
      "workflow": 9095,
      "suspected": 9096,
      "v2": 9097,
      "abc": 9098,
      "potent": 9099,
      "##factory": 9100,
      "july": 9101,
      "purposes": 9102,
      "bayesian": 9103,
      "##87": 9104,
      "walking": 9105,
      "hcl": 9106,
      "spor": 9107,
      "##urated": 9108,
      "hp": 9109,
      "5b": 9110,
      "ty": 9111,
      "retained": 9112,
      "flavon": 9113,
      "##sk": 9114,
      "circular": 9115,
      "portion": 9116,
      "raman": 9117,
      "themselves": 9118,
      "hydrophobic": 9119,
      "microorgan": 9120,
      "consecutive": 9121,
      "##rophic": 9122,
      "exceed": 9123,
      "ablation": 9124,
      "mu": 9125,
      "##echnology": 9126,
      "slope": 9127,
      "collaboration": 9128,
      "ethnicity": 9129,
      "donors": 9130,
      "averaged": 9131,
      "infant": 9132,
      "mathematic": 9133,
      "aegyp": 9134,
      "##2s": 9135,
      "biofilm": 9136,
      "effort": 9137,
      "##brevi": 9138,
      "ide": 9139,
      "p53": 9140,
      "reading": 9141,
      "facilitates": 9142,
      "operative": 9143,
      "protease": 9144,
      "microglia": 9145,
      "##mg": 9146,
      "##otomy": 9147,
      "ken": 9148,
      "3h": 9149,
      "##mental": 9150,
      "anc": 9151,
      "implants": 9152,
      "cereb": 9153,
      "absent": 9154,
      "hpv": 9155,
      "extreme": 9156,
      "fif": 9157,
      "immunization": 9158,
      "introduce": 9159,
      "monthly": 9160,
      "abbrevi": 9161,
      "stom": 9162,
      "alleles": 9163,
      "efficiently": 9164,
      "rip": 9165,
      "delta": 9166,
      "constructs": 9167,
      "spot": 9168,
      "##avail": 9169,
      "eating": 9170,
      "rar": 9171,
      "##osphere": 9172,
      "tooth": 9173,
      "##ham": 9174,
      "arrows": 9175,
      "abd": 9176,
      "decades": 9177,
      "fractions": 9178,
      "##离子": 9179,
      "rp": 9180,
      "##rose": 9181,
      "gb": 9182,
      "reflected": 9183,
      "inverse": 9184,
      "fractures": 9185,
      "coordination": 9186,
      "assistance": 9187,
      "proton": 9188,
      "##v2": 9189,
      "apply": 9190,
      "111": 9191,
      "##enter": 9192,
      "incorporation": 9193,
      "edited": 9194,
      "characterize": 9195,
      "probes": 9196,
      "dispersion": 9197,
      "october": 9198,
      "confer": 9199,
      "##m2": 9200,
      "synaptic": 9201,
      "gaussian": 9202,
      "urinary": 9203,
      "pairwise": 9204,
      "personalized": 9205,
      "albumin": 9206,
      "c1": 9207,
      "xrd": 9208,
      "stake": 9209,
      "##fv": 9210,
      "atl": 9211,
      "circuit": 9212,
      "bit": 9213,
      "station": 9214,
      "computing": 9215,
      "worth": 9216,
      "reflects": 9217,
      "phenyl": 9218,
      "##ager": 9219,
      "wu": 9220,
      "alex": 9221,
      "cytotoxicity": 9222,
      "6a": 9223,
      "##aded": 9224,
      "##apor": 9225,
      "ministry": 9226,
      "##pus": 9227,
      "revealing": 9228,
      "pseudo": 9229,
      "melanoma": 9230,
      "biomedical": 9231,
      "002": 9232,
      "sud": 9233,
      "zno": 9234,
      "##ulatory": 9235,
      "disruption": 9236,
      "flux": 9237,
      "bh": 9238,
      "fore": 9239,
      "tubes": 9240,
      "tob": 9241,
      "usep": 9242,
      "inconsist": 9243,
      "bodies": 9244,
      "youth": 9245,
      "##ochem": 9246,
      "sb": 9247,
      "102": 9248,
      "private": 9249,
      "explic": 9250,
      "modulus": 9251,
      "autoimmun": 9252,
      "##usively": 9253,
      "diagnoses": 9254,
      "return": 9255,
      "densities": 9256,
      "##phone": 9257,
      "lb": 9258,
      "bladder": 9259,
      "september": 9260,
      "chick": 9261,
      "##uvant": 9262,
      "concluded": 9263,
      "asd": 9264,
      "##iment": 9265,
      "speech": 9266,
      "topic": 9267,
      "var": 9268,
      "##athy": 9269,
      "graphpad": 9270,
      "usepackage": 9271,
      "##lab": 9272,
      "decay": 9273,
      "incomplete": 9274,
      "probably": 9275,
      "specialized": 9276,
      "bronch": 9277,
      "coch": 9278,
      "eh": 9279,
      "intravenous": 9280,
      "replicate": 9281,
      "unable": 9282,
      "build": 9283,
      "hinder": 9284,
      "thep": 9285,
      "graphene": 9286,
      "##olecular": 9287,
      "assumption": 9288,
      "ibd": 9289,
      "resili": 9290,
      "away": 9291,
      "immunosupp": 9292,
      "##ohydr": 9293,
      "repos": 9294,
      "elong": 9295,
      "##roptosis": 9296,
      "ib": 9297,
      "##aryng": 9298,
      "quin": 9299,
      "activate": 9300,
      "##oli": 9301,
      "extra": 9302,
      "nod": 9303,
      "cub": 9304,
      "##after": 9305,
      "veter": 9306,
      "ecological": 9307,
      "promise": 9308,
      "uplo": 9309,
      "drying": 9310,
      "security": 9311,
      "dogs": 9312,
      "##itting": 9313,
      "##itrate": 9314,
      "##enal": 9315,
      "front": 9316,
      "##iton": 9317,
      "chen": 9318,
      "prompt": 9319,
      "merc": 9320,
      "##osal": 9321,
      "##ysacchar": 9322,
      "creation": 9323,
      "seeds": 9324,
      "depletion": 9325,
      "modern": 9326,
      "entropy": 9327,
      "prominent": 9328,
      "stakehol": 9329,
      "draft": 9330,
      "facilitated": 9331,
      "learn": 9332,
      "4d": 9333,
      "ovarian": 9334,
      "actions": 9335,
      "underscores": 9336,
      "hazard": 9337,
      "contamination": 9338,
      "##aper": 9339,
      "complementary": 9340,
      "discontin": 9341,
      "tropical": 9342,
      "##rog": 9343,
      "insight": 9344,
      "##ozygous": 9345,
      "outbreaks": 9346,
      "##ko": 9347,
      "conflic": 9348,
      "expon": 9349,
      "muscles": 9350,
      "moving": 9351,
      "sometimes": 9352,
      "a2": 9353,
      "##atics": 9354,
      "brown": 9355,
      "hg": 9356,
      "proph": 9357,
      "puls": 9358,
      "dox": 9359,
      "extensively": 9360,
      "##asting": 9361,
      "lost": 9362,
      "seeded": 9363,
      "saturation": 9364,
      "##trained": 9365,
      "explicit": 9366,
      "adsorb": 9367,
      "empirical": 9368,
      "ju": 9369,
      "prescrip": 9370,
[...]
