[PAD]
[UNK]
[CLS]
[SEP]
[MASK]
!
"
#
$
%
&
'
(
)
*
+
,
-
.
/
0
1
2
3
4
5
6
7
8
9
:
;
<
=
>
?
@
[
\
]
^
_
`
a
b
c
d
e
f
g
h
i
j
k
l
m
n
o
p
q
r
s
t
u
v
w
x
y
z
{
|
}
~
£
§
©
®
¯
°
±
²
´
µ
·
º
»
½
×
ß
ø
ı
ł
ɛ
ʹ
˙
˜
α
β
γ
δ
ε
ζ
η
θ
ι
κ
λ
μ
ν
ξ
π
ρ
σ
τ
υ
φ
χ
ψ
ω
ϕ
ϵ
а
б
в
г
д
е
з
и
к
л
м
н
о
п
р
с
т
у
х
ч
ы
ь
я
ا
ب
ة
ت
ر
س
ع
ل
م
ن
و
ي
‐
‑
‒
–
—
‖
‘
’
“
”
„
†
‡
•
…
‰
′
″
‴
⁺
⁻
₂
€
℃
ℓ
ℝ
™
ⅲ
ⅵ
←
↑
→
↓
⇓
∂
∆
∇
∈
∑
−
∗
∘
∙
∝
∞
∣
∥
∫
∶
∼
≈
≡
≤
≥
⊂
⊆
⊤
⊥
⋅
⋯
─
□
▪
△
▸
♀
♂
⟨
⟩
、
。
〈
〉
一
丁
三
上
下
不
与
且
丙
业
丢
两
个
中
丰
串
临
为
主
义
之
乙
也
乳
了
二
于
互
亚
些
亡
产
亲
人
仅
介
仍
从
他
代
以
仪
们
件
价
份
伐
优
会
传
估
伸
似
但
位
低
体
余
作
佳
使
例
供
依
侵
便
促
保
信
修
倍
值
健
储
催
像
儿
元
充
先
光
克
免
入
全
公
六
共
关
其
具
典
养
内
再
冰
冲
决
况
冷
净
准
减
凝
出
分
切
列
则
初
利
别
到
制
剂
前
力
功
加
动
助
势
匀
包
化
匹
区
医
十
升
协
单
占
危
即
厂
压
原
去
参
及
双
反
发
取
受
变
口
另
只
可
台
叶
号
司
各
合
同
后
向
否
含
吸
呈
员
周
和
品
响
善
喷
器
四
回
因
团
围
固
国
图
在
地
场
均
坦
型
域
培
基
境
增
声
处
备
复
外
多
够
大
天
失
好
如
始
子
孔
存
学
它
安
完
官
定
实
室
害
家
容
密
富
察
对
导
封
射
将
小
少
尔
尤
尼
尿
局
层
展
属
峰
工
巨
差
己
已
巴
市
布
带
常
干
平
年
并
广
床
序
库
应
废
度
康
建
开
异
式
引
弱
强
归
当
录
形
影
往
征
径
待
得
循
微
德
心
快
态
性
总
恒
恢
息
恶
患
情
意
感
慢
成
我
或
所
手
扩
扫
扰
批
技
抑
抗
报
拆
拉
拌
拟
择
括
持
指
按
挥
振
损
换
据
排
探
接
控
推
描
提
揭
搅
撞
操
支
收
改
放
效
敏
散
数
敲
整
文
料
断
新
方
旋
族
无
日
时
明
易
映
是
显
普
景
晶
曲
更
替
最
月
有
服
期
未
本
术
机
杂
材
条
来
板
极
构
析
林
果
架
染
查
柱
标
株
样
核
根
格
案
梯
检
植
模
次
正
此
步
死
残
殖
段
母
每
毒
比
毛
气
氟
氢
氧
氨
氮
氯
水
汁
求
污
沉
沙
没
油
治
泌
法
泛
波
注
泳
洗
活
流
测
浓
浴
海
涂
消
涡
涤
液
淀
淋
深
混
添
清
渐
温
游
源
溶
满
滤
滴
潜
激
灵
点
烃
烟
热
烯
烷
然
照
燥
片
物
特
状
独
献
率
环
现
球
理
瓶
甘
生
用
由
甲
电
留
略
疏
疗
疫
疾
病
症
瘤
癌
白
的
皮
盐
监
目
直
相
真
着
知
短
石
研
破
硅
硫
确
硼
碎
碰
碱
磁
磨
磷
磺
示
离
种
科
积
称
移
稀
程
稳
究
空
突
立
端
第
等
策
筛
简
算
管
箱
米
类
粉
粒
精
糖
系
素
索
紫
红
约
级
纯
纳
线
组
细
织
终
经
结
绘
络
统
继
续
维
综
绿
缓
编
缩
缺
网
置
美
羟
群
考
者
而
耐
耗
联
聚
肠
股
育
肺
肽
肿
胆
背
胞
胶
胺
能
脂
脱
腈
腺
膜
自
至
致
良
色
节
芳
苯
苷
范
茶
荡
荧
药
荷
获
菌
萃
著
虑
蛋
融
血
行
衍
衡
补
表
被
袭
裂
装
西
要
覆
见
观
规
视
角
解
计
认
许
论
设
证
评
识
诊
试
该
诱
说
调
谢
谱
谷
象
负
质
购
赖
起
超
越
趋
足
路
转
软
载
较
辅
辨
达
迁
过
近
还
这
进
连
述
适
选
逐
途
通
速
造
道
邻
部
都
配
酚
酮
酯
酰
酶
酸
醇
醛
采
释
重
量
金
鉴
针
钠
铁
铵
链
键
镜
长
问
间
队
阳
阴
阻
阿
附
际
降
限
院
除
险
隆
随
难
集
雾
需
静
非
面
靶
项
预
领
题
风
食
饮
饰
首
香
验
骤
骨
髓
高
鱼
麻
黄
鼠
％
（
）
，
：
；
##d
##g
##f
##p
##a
##n
##c
##e
##r
##6
##0
##1
##4
##b
##o
##m
##v
##z
##t
##u
##i
##s
##h
##9
##7
##l
##y
##w
##β
##σ
##2
##8
##5
##−
##3
##x
##k
##他
##种
##胆
##汁
##酸
##在
##分
##为
##第
##一
##ي
##ا
##ن
##q
##∈
##×
##≥
##j
##α
##±
##π
##ξ
##μ
##®
##δ
##⋯
##⊤
##包
##括
##依
##赖
##性
##和
##非
##两
##途
##径
##ρ
##表
##达
##增
##强
##了
##细
##胞
##对
##肺
##癌
##的
##抗
##肿
##瘤
##作
##用
##λ
##─
##线
##色
##谱
##法
##计
##算
##工
##具
##药
##与
##и
##с
##т
##е
##м
##а
##˙
##γ
##现
##配
##转
##染
##试
##剂
##™
##纯
##φ
##∝
##←
##∞
##ل
##م
##ع
##ر
##و
##θ
##∼
##ϕ
##°
##定
##体
##积
##比
##到
##每
##物
##质
##基
##本
##离
##子
##信
##息
##以
##及
##参
##数
##来
##者
##都
##得
##出
##于
##自
##∂
##τ
##∆
##ε
##ω
##¯
##⊥
##行
##ℓ
##高
##面
##⊂
##过
##模
##型
##位
##患
##个
##风
##险
##例
##中
##发
##生
##ⅲ
##级
##粒
##减
##少
##柱
##终
##使
##∶
##正
##己
##烷
##丙
##酮
##混
##合
##溶
##进
##洗
##脱
##三
##甲
##氧
##硅
##∘
##з
##д
##л
##н
##ϵ
##≤
##ı
##→
##η
##κ
##ß
##˜
##明
##其
##有
##较
##疏
##水
##液
##样
##采
##集
##简
##单
##无
##糖
##完
##成
##差
##异
##因
##筛
##选
##之
##后
##≈
##取
##注
##♂
##固
##相
##氨
##氯
##地
##平
##µ
##材
##料
##层
##度
##约
##о
##ь
##к
##р
##п
##в
##я
##х
##氟
##互
##检
##测
##波
##长
##浓
##χ
##标
##准
##移
##按
##金
##属
##而
##靶
##向
##析
##获
##复
##杂
##范
##围
##制
##控
##时
##间
##短
##´
##蛋
##白
##²
##⁺
##∇
##利
##毛
##管
##吸
##品
##静
##态
##滴
##内
##射
##治
##疗
##保
##留
##优
##良
##多
##孔
##结
##构
##乙
##腈
##提
##效
##果
##∗
##文
##重
##点
##综
##述
##类
##可
##废
##常
##见
##应
##化
##们
##绘
##г
##ν
##б
##⋅
##曲
##此
##区
##特
##征
##收
##峰
##所
##实
##理
##组
##只
##能
##力
##∣
##ø
##∫
##占
##ʹ
##磷
##脂
##会
##抑
##目
##电
##等
##у
##含
##量
##下
##响
##值
##∙
##各
##好
##价
##键
##或
##∑
##阳
##外
##烟
##香
##精
##指
##图
##显
##全
##串
##联
##最
##低
##建
##立
##确
##适
##突
##变
##克
##隆
##株
##ł
##局
##限
##匀
##酶
##仪
##磁
##€
##铵
##备
##验
##接
##入
##板
##胶
##回
##率
##更
##ت
##≡
##ψ
##大
##处
##临
##床
##前
##段
##造
##人
##我
##状
##沙
##坦
##酯
##受
##影
##弱
##至
##号
##呈
##关
##器
##均
##二
##次
##初
##诊
##即
##快
##速
##富
##磺
##酚
##拉
##尔
##别
##密
##殖
##步
##纳
##养
##问
##题
##策
##领
##域
##康
##知
##情
##同
##意
##↓
##解
##程
##深
##↑
##醇
##是
##小
##箱
##反
##ζ
##整
##冰
##流
##动
##系
##统
##探
##究
##缺
##失
##通
##路
##预
##该
##认
##证
##羟
##菌
##真
##代
##谢
##º
##微
##乳
##ч
##涂
##年
##淋
##不
##元
##拟
##⁻
##苷
##残
##余
##未
##超
##س
##经
##根
##手
##术
##切
##除
##巴
##清
##扫
##声
##评
##估
##端
##加
##压
##织
##业
##已
##许
##研
##载
##需
##耐
##萃
##据
##描
##ы
##将
##编
##这
##条
##新
##原
##融
##起
##髓
##血
##病
##△
##鱼
##消
##毒
##附
##存
##核
##麻
##素
##被
##装
##形
##⊆
##热
##网
##络
##散
##置
##环
##▸
##涡
##旋
##著
##食
##要
##ة
##盐
##团
##队
##球
##耗
##西
##普
##林
##产
##死
##然
##且
##技
##鼠
##邻
##苯
##批
##敏
##感
##识
##从
##传
##上
##市
##阿
##©
##导
##致
##台
##心
##ι
##境
##污
##∥
##周
##期
##阴
##空
##添
##油
##先
##潜
##择
##助
##鉴
##黄
##茶
##激
##调
##查
##报
##道
##份
##ℝ
##方
##国
##源
##排
##放
##总
##规
##倍
##镜
##示
##米
##片
##像
##带
##极
##展
##搅
##拌
##冷
##室
##温
##序
##由
##仅
##似
##还
##待
##改
##机
##聚
##醛
##促
##稳
##广
##泛
##继
##库
##荧
##光
##恢
##随
##着
##降
##索
##连
##口
##列
##公
##司
##沉
##淀
##海
##也
##引
##式
##升
##膜
##破
##裂
##胺
##修
##饰
##℃
##诱
##案
##主
##涤
##稀
##释
##仍
##共
##振
##气
##略
##辅
##考
##察
##献
##推
##断
##缓
##慢
##衍
##家
##族
##部
##₂
##节
##尿
##映
##拆
##症
##侵
##袭
##钠
##持
##健
##免
##疫
##缩
##匹
##操
##碎
##丰
##决
##介
##母
##够
##它
##照
##储
##支
##开
##芳
##硫
##供
##日
##并
##协
##红
##善
##儿
##直
##再
##天
##骨
##疾
##续
##阻
##凝
##▪
##ɛ
##软
##件
##些
##针
##滤
##否
##科
##股
##伐
##替
##尼
##ب
##近
##灵
##衡
##迁
##设
##厂
##足
##际
##象
##挥
##υ
##石
##绿
##扰
##双
##观
##活
##论
##充
##满
##巨
##安
##磨
##扩
##学
##难
##当
##肽
##覆
##换
##项
##功
##酰
##求
##架
##干
##植
##泌
##布
##烯
##如
##粉
##易
##铁
##亡
##♀
##维
##便
##趋
##十
##梯
##角
##录
##容
##瓶
##燥
##没
##服
##六
##浴
##催
##氮
##始
##员
##敲
##院
##丁
##逐
##则
##腺
##培
##越
##去
##碱
##封
##称
##势
##晶
##紫
##义
##独
##医
##负
##荷
##□
##德
##另
##官
##格
##损
##首
##饮
##补
##渐
##亚
##净
##恶
##游
##购
##群
##骤
##育
##月
##说
##叶
##尤
##氢
##丢
##典
##硼
##景
##但
##皮
##辨
##监
##½
##视
##循
##揭
##亲
##四
##危
##归
##泳
##况
##链
##往
##美
##佳
##伸
##烃
##恒
##荡
##虑
##场
##背
##撞
##冲
##喷
##雾
##£
##谷
##害
##肠
##碰
##甘
th
##ti
##er
##on
##es
##en
the
##ed
##in
##al
in
##or
an
##at
##an
##tion
of
##ar
##it
and
##ro
##ic
##as
##re
##ing
##is
##el
##ec
##ent
to
##ation
##et
##ac
##om
##ol
##ur
##ul
##ig
##le
##os
st
##ith
##ly
##id
for
##th
with
##ve
re
##us
con
as
##il
##ere
##ati
##ce
pro
##ter
##ow
##ts
##am
##if
##od
##uc
al
##ess
##im
##ab
##em
ex
##tr
##un
##ity
on
##tic
##ut
is
##ated
com
##ir
was
##um
##ag
##ot
##ver
res
##ud
wh
##ng
ac
were
##ted
##oc
##ment
##ate
##pl
##ys
##ain
that
##ion
##ure
be
##ad
us
ch
by
##op
##igh
or
##ap
##rom
##ell
##ib
at
su
##og
de
im
tr
##ers
20
##ant
##qu
pr
ad
##ical
inc
are
comp
from
##vel
##iz
##ting
co
##ff
dis
sh
en
un
##ch
##ip
##ies
we
sp
this
##for
##ence
se
stud
##and
##pp
##ay
##ign
##ine
##di
##fer
le
##ents
##ations
##ial
##ase
per
par
##ific
##per
##ens
##iti
##bs
ne
cell
mod
##able
gen
##enti
##ous
##ect
##te
##ance
sc
pre
##pr
##ich
inter
str
##tions
##rou
ass
##iv
##ans
high
##ther
##ari
##ore
cl
##form
dat
##ge
10
pl
##vid
##por
fig
sign
can
ph
dif
he
met
##ach
##duc
eff
rec
##und
##enc
anal
##ual
inf
not
##ons
##ary
##age
##ue
##vi
##etw
di
##act
##ased
ha
cons
using
##ear
which
##est
differ
##oll
##ia
me
pati
rel
##ding
##st
all
cont
data
##yp
##ors
study
##der
##ecti
##olog
int
pos
##ong
##all
ind
##ative
it
show
##ps
##een
##ally
model
sam
##ese
##etween
trans
between
##ved
##erm
spec
reg
##ection
ar
analys
##ak
signific
##ph
##ates
##ied
##lud
have
##cess
am
resul
imp
##ility
et
these
##ular
resp
##ist
202
car
##cr
##ating
tre
significant
##gh
##00
##ath
##ected
compar
grou
det
ab
##ight
app
##pt
##ession
##so
med
vari
cells
##ater
##ound
##our
##end
used
##tiv
##tim
includ
ev
##ub
tim
val
##ros
bi
suc
incre
af
##ew
no
patients
cor
sur
##yst
##ome
##ory
##oth
more
##ast
analysis
their
##gr
##ill
##ile
heal
also
##ple
##ech
##ose
partic
cr
##ely
##ym
##na
##ass
##ost
em
mic
level
des
red
meth
##ang
##ds
##ues
##ized
supp
el
health
low
##rol
acc
##ution
tw
##ures
out
ag
pres
##ive
##ases
##uld
bl
perform
##les
after
##oci
##ork
figure
studies
##vely
based
over
##dition
##ep
##ven
##unc
##ants
##anc
has
id
ins
fl
##ulation
inv
man
##vers
there
##ob
dr
##ort
foll
sim
##yn
##iss
##ail
li
##ree
##ystem
follow
dec
##trib
prote
min
##uring
two
##ou
time
201
##ition
than
##tin
repor
##yl
results
##tain
each
##ide
es
such
##mun
##ms
treat
anti
system
other
how
##ber
our
method
fin
gr
obs
activ
##ack
under
exper
indic
been
12
treatment
##plic
##ace
##eng
##ood
##ite
ap
##entif
control
##ond
##acter
##ard
##ability
appro
##lement
##uct
associ
one
different
##one
protein
both
op
group
fe
##ix
expr
num
conc
##velop
obser
##ential
meas
provid
addition
may
##ects
##entr
##ature
##ish
##ct
##out
develop
19
fr
fur
ser
##ays
sub
##ization
##arg
mon
##tical
further
into
##earch
##ences
gener
##ox
##hib
##tive
##aus
##rough
research
during
##gg
form
##unction
pot
identif
its
##par
typ
compared
ob
##ene
15
##atic
##dr
up
sel
##ined
clin
while
mul
##ici
##pos
##ult
but
rem
process
##ever
##av
dise
sampl
through
##til
mal
##view
##agn
reduc
##ities
particip
hy
fact
po
dem
gl
pred
br
subs
##action
however
indi
non
ris
##are
sm
##ological
11
sol
when
##ium
year
##ited
##ov
only
##ective
##ages
##ug
##itive
##ross
##cl
ma
higher
##urr
infl
respons
found
##br
pol
##aining
##ange
number
struct
path
##ently
assess
use
coll
##ments
qu
##ie
##ology
##ize
function
##aph
##tal
cy
where
pe
well
char
##als
most
levels
observed
##ency
risk
reported
clinical
##cc
ful
impro
##cer
##ectively
within
cal
gene
sec
fir
##row
had
three
lik
##ions
col
set
##ark
expression
##pres
##gen
##ric
specific
conf
##atory
##fore
##her
##vidual
produc
mm
##onstr
##orm
individual
13
tem
immun
review
##ft
work
multi
associated
##echn
14
samples
first
sequ
##tern
including
##ole
present
30
##ex
predic
table
##ational
vs
due
##ination
they
25
##res
def
##erg
term
##ulated
shown
##osis
experim
tes
cap
##ines
test
##ible
corre
exam
##amm
pop
inform
techn
16
##alu
potential
##lex
##its
##vious
##ural
##omes
ml
so
syn
##amet
comm
##own
evalu
24
sens
hum
end
##ould
performed
significantly
repres
loc
##ital
kn
##over
could
##ilar
18
effect
##port
prim
##val
sugg
##ider
mo
previous
##tit
##ey
##ten
##ders
patient
##ning
similar
micro
##ane
lim
org
character
##ement
mol
mean
##tics
##ores
rece
disease
conduc
among
concentr
##ured
increased
participants
##af
##ior
##ogr
total
##oid
##ough
##iel
extr
demonstr
av
##atis
##ves
##equ
##crip
showed
##ived
do
il
groups
care
##ateg
then
consider
##ental
rate
models
effects
main
vir
##ains
##xim
##ness
##ute
50
##ale
lower
values
##ubl
calc
vis
##int
##ful
##01
##echan
diagn
mater
approach
##tig
##ian
dep
line
enh
if
##acy
##ock
17
stand
prom
activity
ep
outc
related
determ
##ditions
coun
##acc
##inal
obtain
##ength
ther
cases
conditions
mechan
distrib
respectively
gre
sample
prot
##oun
following
years
##ise
artic
progr
lead
equ
who
post
95
class
##led
##ust
age
cancer
cd
acid
those
##ha
therap
##ets
included
##ok
##bi
del
##ogen
mem
across
interven
import
100
##ri
publ
##ice
information
aff
ps
##ism
long
##ically
comb
##fl
expl
requ
##air
tum
##old
qual
chang
##ics
##ving
targ
supplement
##cs
##usion
will
finding
sl
inhib
development
##iter
abs
caus
##uted
positive
##de
inves
21
##ek
fre
temper
investig
mat
estim
dire
##ication
au
some
genes
human
tiss
rep
##dro
er
22
##ately
decre
bas
full
grow
chil
initi
##ained
molec
##crib
##ink
##ites
##arge
bec
need
performance
statis
correl
uni
##ma
invol
prob
##ery
increase
identified
methods
material
##ified
##face
##ograph
##rop
##ormal
##ption
design
##adi
exp
analy
occ
factors
complex
second
response
##vir
sugges
sing
disc
paramet
##verage
blood
##esis
##etr
##aria
##oph
mg
sym
bin
200
nm
##ded
value
lab
new
neg
ox
fac
measure
23
standard
neu
vol
population
##ensity
type
phys
##cop
##onic
curr
same
conducted
sever
vacc
ext
induc
represent
##ody
05
##hip
size
##och
frequ
##tes
°c
any
##ptom
sch
##abol
peri
drug
infection
##ade
cre
##med
small
2024
avail
access
without
case
changes
##ties
accur
##other
##otyp
findings
month
##ake
flu
range
malaria
##10
reve
differences
provided
single
##ording
##oy
40
fil
obtained
##round
##resp
adv
hydro
##se
gu
##plet
target
lo
key
##iven
metabol
applic
##tt
##arly
various
##ification
describ
ir
exc
##aging
##osp
temperature
28
pat
##aw
##ission
##eter
##ality
ol
##viron
##versity
days
four
unders
water
exhib
organ
quality
day
##tif
role
pers
##ectr
nan
##ield
##uce
##ire
##ick
intr
individuals
##ulations
period
##ables
multiple
optim
mark
inflamm
resist
pathw
##itor
improve
auth
mut
contr
ms
rele
##ision
influ
cm
sk
##etwork
##cle
outcomes
surface
corresp
##ogn
ach
contrib
beha
like
prof
surg
reveal
network
26
##ily
mice
therefore
##reg
important
structure
quan
poss
ed
behavi
refer
000
week
##ectro
##art
##vity
##ised
##tegr
rati
##ether
did
signal
analyz
sci
plas
commun
##atures
normal
##que
particular
stress
impact
ci
environ
cult
##ucle
chem
here
##ety
##ns
evid
hosp
symptom
tumor
##ax
27
foc
lif
achie
##roduc
being
integr
##ening
growth
proper
bar
aut
##ocy
##endent
cyt
additionally
species
sw
##ins
ec
37
util
common
again
29
##ator
according
##ension
##abl
##ished
vi
##icient
strateg
##etic
##asing
antib
demonstrated
less
inj
##ung
trial
adm
der
synth
##olution
cur
lear
success
tissue
##dren
fib
primary
datas
before
suppor
children
available
dna
reduced
comparis
##ik
adj
characteris
relations
bre
hel
distribution
region
dom
##asc
35
##xt
pur
enhanc
scale
experi
##ploy
##actions
##omic
##verse
average
cle
##ced
##arm
phase
covid
negative
expos
##atal
##ols
them
electro
pd
ro
33
overall
vers
complet
confir
##ann
consist
concentration
super
supplementary
##omen
proteins
ii
treated
##osph
images
chall
##uster
relationship
focus
##cent
##oss
##though
valid
about
##ired
underst
analyses
##20
mix
lay
##ices
##ject
##igure
electr
stat
31
should
##arch
allow
diagnos
##oh
my
##up
sus
although
several
##essed
##of
##ections
##ina
60
support
01
##els
large
eng
parameters
measured
energ
##cept
thus
##ty
##ause
scre
direct
##vere
sin
##onal
##ival
bet
##tional
##ynam
medical
cluster
diff
##emic
state
hyp
eth
##ove
##istr
would
pattern
prec
hospital
presence
tra
off
training
current
described
##more
32
##andom
area
bacter
##idence
cent
##gn
##ored
hist
bu
2022
phen
spectr
flow
contin
random
detection
enc
compos
revealed
36
te
##ne
factor
fem
##line
bel
dim
##plied
##ord
nucle
cir
45
solution
2021
intervention
os
immune
environment
subsequ
##ask
ratio
##az
rna
##ouse
score
given
furthermore
effective
difference
considered
against
##izing
transm
48
energy
##ensive
##agement
##ci
strong
##ibr
because
local
2020
##ustr
##nal
via
rates
map
##iver
ul
2023
resistance
##ces
employ
##ands
compon
ret
calculated
##atively
##truc
001
presented
prepar
##onding
##encing
learning
evidence
peak
prac
ens
part
orig
ill
##12
early
ca
minim
##ression
##cep
est
link
##isms
##ars
identify
binding
##ended
ques
articles
techni
transcrip
months
light
34
properties
induced
university
##bl
terms
recom
understand
read
resid
virus
alg
##roph
##ier
##aking
##put
change
molecular
##ae
pow
compound
top
##ode
cardi
self
length
loss
##erc
life
centr
sum
##eline
anim
general
systems
result
mor
##11
##ably
highl
sour
fam
provide
mus
free
even
applied
developed
00
phot
membr
followed
##50
##ocial
##roscop
maj
regions
reduction
dig
nec
mass
additional
##ules
preval
dist
image
##tered
isol
cross
indicated
increasing
brain
soft
##otic
##ilit
den
mr
extrac
symptoms
previously
##tric
stim
major
collected
wor
##eth
many
correlation
##ture
features
therm
oper
lip
radi
##uration
down
##ots
point
characteristics
example
accuracy
##red
therapy
prior
##urs
coh
field
press
##itivity
##ibility
##ank
##ints
successful
ct
body
38
functional
selected
indep
particularly
visual
women
open
##tically
resulting
medi
##vices
##utions
authors
##ca
weight
##pec
##ising
maxim
##ense
dynam
##he
##ind
experiments
times
##ych
received
protoc
##ttps
ver
surve
err
hyper
##ume
stage
go
index
md
left
hem
##iciency
##eg
comparison
diseases
relative
five
##itro
initial
##ild
##ector
log
##ware
approxim
likely
experimental
production
##omy
detail
##ither
variables
##oma
##enced
proced
sn
social
incub
##ights
##eration
content
bene
larg
ang
frequency
density
known
cri
circ
limited
##zym
indicating
##ecting
surv
public
analyzed
implement
carb
corresponding
challeng
usa
80
article
determined
severe
establ
countr
##ascular
statistical
types
real
##cence
##ogene
benef
mort
##orith
often
fully
contrast
39
##oles
admin
##ner
polym
algorith
since
instit
##uss
regul
containing
magn
separ
propor
##yr
diagnosis
continu
above
categ
##ule
cour
infigure
##entially
##ards
wa
##eu
association
sal
##ides
formation
inflammatory
attrib
42
##ward
materials
know
##ances
ability
##iving
##fr
scores
genetic
rob
μm
disor
concentrations
##ually
medic
back
see
imaging
section
##ople
order
criter
aim
assessed
da
educ
##eding
phosph
load
dose
##ially
##hy
management
cer
##ld
medium
sd
##ists
reaction
people
##uture
right
detected
responses
include
##−1
sequence
glob
fit
biom
pain
better
derived
##pression
short
possible
lic
liter
physical
##bers
areas
ste
displ
3d
greater
interaction
condition
limit
att
90
##ators
enhance
whether
defined
paras
behavior
mortality
monitor
##ount
mos
lack
43
##pa
##ams
mac
death
recent
recor
propos
##read
assessment
tests
setting
chr
testing
cov
either
activation
##oper
s1
guid
sensitivity
##fficient
ge
##ient
status
exposure
seg
enzym
along
pap
deg
##tis
maintain
ic
ax
hand
indicate
addr
##iate
bio
moreover
layer
##ats
prevalence
##epti
44
2019
conn
psych
interventions
heter
pathway
sex
future
##me
70
##ru
least
dataset
percent
very
cs
##ito
collection
##vant
critical
consistent
leading
power
##icity
##to
adap
sem
##istic
41
fram
summ
strength
transmission
##care
refl
tested
evaluated
shows
deliver
ur
##vice
site
pcr
nat
recept
75
highly
pan
baseline
bo
effic
gly
rap
involved
national
##sh
mechanisms
##io
improved
another
prol
search
ann
surgery
expressed
reference
##13
##orb
software
interactions
##inant
active
infections
##eed
sequences
emerg
##ino
decreased
specif
##till
conte
task
linear
volume
rang
generated
subj
subst
##orption
labor
mir
##ping
transfer
regression
##vent
membrane
survival
ess
facilit
##ledge
pressure
literature
##abil
##tial
efficacy
occurr
neur
china
men
chrom
##otype
bro
##go
added
##cin
dam
##ffer
sites
criteria
##ying
introduc
capac
proposed
approximately
pair
carr
healthcare
##plas
##eric
replic
##pi
points
genome
structures
block
46
assay
deng
highest
mit
observ
position
biological
appear
datab
cruc
food
repe
fluores
weeks
six
##odies
cam
##inc
pul
dm
##ction
47
##pite
neuro
reach
required
confirmed
inst
##ining
inhibit
diab
exhibited
viv
cop
saf
##ids
##ah
atten
##ters
transform
states
##aps
sil
muc
cogn
dengue
##hold
step
plat
hom
##fs
might
graph
gluc
specifically
maximum
https
serum
##isting
therapeu
##des
strain
##sp
infected
bur
ele
despite
oxid
viral
##ques
##quito
acqu
technology
##iting
evaluation
##lying
##ography
sequencing
##etry
clos
matr
align
screening
55
##ings
independent
lines
##ared
52
bm
still
ai
##uk
##etes
diss
##by
##odes
few
compounds
##aff
crucial
mid
estimated
##ude
quantif
##ta
understanding
##aneous
plac
decrease
##itional
vaccine
final
fund
reduce
measurements
complic
##tice
##active
##cript
complete
microscop
##16
recover
fail
doc
influence
median
##utr
49
employed
question
##grad
patterns
experiment
recomm
intensity
pepti
##reh
##emb
stability
##ancy
##oint
liver
application
##fact
cohort
populations
##ales
pc
wt
pathways
bone
hr
her
community
moder
efficiency
poly
strategies
adjus
##lation
made
compreh
address
53
showing
categor
##14
differenti
##ulate
center
measures
processes
shap
skin
##ems
kg
##izes
##pm
cc
cn
tex
date
##atin
##arding
digital
99
##lusion
culture
matrix
##land
global
determine
version
ampl
combined
dys
tool
espec
combination
lung
play
knowledge
recogn
later
##ret
mosquito
chemical
ns
##utes
wid
good
family
cost
you
rapid
essential
suggest
especially
##fp
##etric
##otherap
discuss
##omp
pregn
tak
##ographic
trials
##emia
##enting
distin
##tinal
incor
ref
spati
original
fix
therapeutic
##icult
sit
necess
##ote
components
systematic
suggesting
domain
54
##itis
outcome
proportion
dependent
##tor
arr
tub
around
secondary
65
##acts
##°c
02
##19
##den
plant
mechanism
proble
indicates
whereas
finally
structural
##ather
##co
context
antibody
2018
chronic
morph
selection
natural
exclud
##vement
world
applications
blue
##rich
thick
novel
adul
diagnostic
element
##mon
green
signaling
##inary
countries
##inated
cause
mar
pa
regarding
incidence
eu
catal
##iat
72
##15
resour
require
quantit
successfully
56
making
vector
techniques
source
evaluate
coe
help
interp
##lor
ultr
education
cognitive
enhanced
##ologies
iss
thres
way
poor
investigated
##gs
act
##anced
sa
construc
##veness
##ler
##asis
does
error
germ
##30
##ours
##part
les
##ument
##ones
##ellular
consum
subsequently
elev
##ows
rev
##18
enrich
##ron
capacity
muscle
nor
thir
injur
continuous
rt
classification
lat
supporting
fer
increases
pharm
lig
##ason
reducing
##ends
##unctions
devi
figures
mill
##isted
strategy
ever
expected
challenges
##operative
##au
achieved
protocol
reli
diet
manus
cellular
##istration
cryst
feature
##itation
surgical
algorithm
approaches
relevant
fat
##man
las
##ectiveness
altern
impl
amino
mouse
segment
healthy
##wor
59
##arily
##ai
##tesy
courtesy
buffer
hal
incorpor
effectiveness
mental
##ash
epid
##aged
processing
promo
##truct
dos
##oids
57
##17
##icial
predicted
events
64
female
prediction
manuscript
interes
synthesis
side
air
##ocytes
##nas
cat
##uts
laboratory
ben
##igr
bias
report
antibodies
96
##odium
concer
directly
hep
##22
suggests
pf
acute
##the
bir
potentially
larger
color
hypoth
plasm
na
chann
prepared
recorded
iv
plot
soci
58
##ger
tissues
##2o
deep
µm
inflammation
adults
male
obj
trad
asp
dil
broad
below
##be
carbon
consequ
##essive
##ulating
ensure
##otherapy
animal
duration
##ighted
abund
tur
metabolic
distributed
remains
next
damage
clear
##ching
##terior
established
plasma
services
display
wash
##mit
heart
##ogenic
percentage
extraction
nutr
activities
##iological
##oring
##itr
ra
fish
##ont
designed
program
central
experience
molecules
star
distinct
bacterial
##40
od
degrad
51
adjusted
500
ke
interest
sars
represents
products
monitoring
##erv
##ework
gas
##ires
offer
variants
statistically
##ped
incubated
diabetes
pm
child
oxy
comprehensive
div
head
caused
##orts
##ih
eg
distance
license
cycle
best
##elial
spatial
2017
##itions
relatively
strains
view
significance
ss
##amin
##oding
receptor
old
sle
linked
resolution
upon
substr
scientif
##eck
ds
survey
functions
methyl
optimal
##bo
extracted
variable
##words
arter
polymer
hiv
##onomic
pack
provides
keywords
cu
release
##mic
67
##esh
##ondr
fluorescence
plan
impair
glucose
##tine
##otypes
bal
similarly
62
##tib
63
pass
uk
reproduc
measurement
##was
importance
vary
every
subsequent
##xi
##ops
substan
##aring
shif
drugs
##ymph
robust
##ardi
characterized
squ
science
tox
##ulin
notably
mixed
predict
##bd
convers
validation
led
66
##bial
##ool
##agen
03
detect
treatments
mel
database
published
procedure
##lo
##anol
controls
scientific
scan
##olds
rad
note
seen
preven
vitro
contact
environmental
##cy
paper
illustr
third
youn
don
##etal
disorders
mach
framework
μl
white
conven
host
having
assum
history
##ott
##ochondr
effectively
space
##ga
progression
stable
input
prop
##ysis
providing
##tivity
##duce
##rs
##tering
##uble
fold
##alc
pbs
mediated
dimension
your
prolif
##emical
run
##any
ren
cou
mob
cas
intern
nc
carried
autom
##ke
##ided
datasets
meta
eas
whole
##ened
##ling
absence
hs
produced
microbi
##kn
examined
spect
compr
hc
institute
s2
markers
oxygen
##bm
nam
older
traditional
afric
##pro
mechanical
internal
supported
call
slight
lymph
mitochondr
##gl
por
daily
##ney
appropr
affect
his
bp
cos
prefer
medicine
accum
68
label
typically
const
bound
utilized
spectra
ion
settings
##da
##encies
curve
##arr
relationships
certain
ve
identification
cut
nanop
ga
platform
##opt
mc
2016
dynamics
administration
migr
breast
##ulf
until
series
##amp
##ls
mutations
##oti
last
##vs
implementation
##25
confirm
stages
improvement
ple
investigate
she
delivery
restric
rh
attention
affected
thereby
threshold
generation
##onds
sou
pp
needed
barri
electron
text
miss
85
inn
gel
oral
heat
wild
pt
safety
house
feed
##ogenesis
means
invas
though
animals
vaccination
acet
cp
bacteria
band
tools
inhibition
moderate
controlled
##oz
depression
flex
##ee
glyc
equal
core
metabolism
nh
pand
confidence
variation
home
decl
room
##set
arch
##ytic
98
04
tn
author
opp
rs
perce
media
injury
denv
signals
component
complications
wide
amount
unique
project
##ishing
##less
recovery
##29
##ili
technique
remov
solid
##wards
taken
antibi
##bre
neural
practice
hz
##elines
scen
device
elevated
swit
heterogene
emb
detailed
seed
##23
##ream
respir
staining
advant
pi
199
69
frag
suggested
cytok
numer
##bp
respond
studied
schem
black
2015
prevent
cho
##aces
##24
grad
exhibit
##uting
follows
thickness
kin
##ges
##essing
bor
profil
wall
difficult
lipid
parameter
regulation
what
modified
##ye
bios
rot
primarily
##artic
##cles
sampling
##oxid
existing
ow
##istered
exce
cycl
spectrum
ear
har
degradation
repl
depart
##amine
ng
aged
composition
targeted
##80
iii
##rna
able
intra
##wh
##olic
axis
focused
prin
##anes
##estinal
resulted
inclusion
questionna
plants
reports
##60
quantitative
##ra
##iatric
recru
##21
##opath
estimates
##ending
cann
tempor
fixed
cv
##oscop
accep
excluded
much
plos
reporting
degree
speed
##pper
exerc
wound
diversity
diamet
acids
numbers
61
infer
differentiation
concept
##greg
kit
##27
la
vivo
##irus
##ba
sleep
scenari
improving
73
depos
failure
contribute
tog
items
participant
conver
yield
intable
half
##brid
anxi
enti
colon
##ively
##aries
rather
probability
tail
decision
pv
##ief
hd
##upp
transition
##rome
person
##ope
trig
birth
##v1
place
considering
300
emo
advanced
special
mrna
##ova
mainly
lang
together
lys
susp
##ict
reconstr
macroph
constant
achieve
accepted
76
devices
adverse
coupl
oste
##otor
promising
pandemic
##dis
check
panel
74
##itable
demonstrate
colum
evolution
dynamic
##ground
##ii
simulation
cardiac
oct
profession
##umin
near
##atives
make
generally
versus
summary
coverage
aug
liqu
appropriate
guidelines
unit
isolated
µl
enzyme
networks
commonly
adult
ll
proliferation
product
online
##rope
enhancing
##ipar
du
diverse
upper
##ched
comput
necessary
##ify
##tre
##ering
metal
##argeting
77
interesting
manu
nanopartic
instr
comparing
hours
interview
97
deviation
coord
targeting
##ovascular
thermal
78
chlor
ads
##gf
##istry
sensor
plate
transf
stem
adh
machine
##ilities
##ert
1000
correspond
students
2025
nature
sustain
t2
##td
respiratory
anxiety
manufact
py
school
tumors
metric
currently
dl
μg
polic
conventional
ww
limitations
department
representative
longer
##ils
depth
severity
efficient
technologies
biomark
curves
extern
##omal
situ
##andid
polar
chain
aggreg
stimul
tm
developing
assign
irr
##ele
##aves
researchers
kid
europe
##grou
##53
excl
mode
transcription
##itude
smok
magnetic
throughout
##pers
##ields
94
##oved
pharmac
86
wr
##ceptib
ros
alc
79
cover
clusters
##olved
widely
##inate
avoid
##elling
overl
reviewer
##26
aw
agre
weak
##gan
removed
zn
procedures
apopt
##oplas
alternative
output
##dom
estimate
insights
underlying
questions
resources
reconstruc
extract
cf
synd
ped
particles
##tral
susceptib
##ss
explore
pregnancy
alter
background
hypert
peptide
smaller
ranging
investigation
##com
underw
optical
##isation
##bor
tri
##ention
profile
neurons
metast
coefficient
##back
memory
subjects
##esized
assemb
placed
fraction
accept
##tle
great
##pc
equation
force
##uter
mixture
team
liquid
discover
trained
##function
##eal
tit
benefits
recomb
recurr
##iform
##ita
prov
##idity
83
langu
##trans
annot
88
external
87
ter
##fe
mh
recently
mri
leads
correlated
absorption
##otes
##ches
accurate
pen
diameter
targets
rank
upreg
noted
84
wave
ak
falc
onset
lc
progn
integrated
file
instance
##inity
volt
##itrogen
entire
alone
substrate
working
89
##uit
associations
93
2d
##thers
##ike
interval
burden
##gi
germany
document
protocols
libr
abn
##ero
##ame
attributed
majority
ce
##cipl
mil
##rx
box
##ectivity
must
##aft
elim
candid
##28
ld
specim
0001
needs
base
vascular
involving
2014
examination
igg
##ious
bat
gender
imm
##orph
##ram
alcoh
engine
pet
bott
##going
others
##astic
exposed
alph
transcript
silic
##eless
genomic
comparisons
pool
##dle
variant
##osomes
wind
mitochondrial
vit
##ula
##cted
71
si
ster
##ota
##rosis
##ocyte
track
yet
##estern
##tile
young
disorder
varying
interpret
emph
tc
action
##alk
##ometry
microscopy
falcipar
bmi
location
##ontal
##otox
seq
##omics
financ
##enge
allows
1h
##tially
sensitive
jan
remain
##dm
##ips
abnormal
assays
members
joint
united
precision
##ethyl
cardiovascular
elements
##abilities
antigen
##pcr
fas
variance
issues
transport
antim
predictive
remained
artif
exercise
generate
mis
##eness
produce
height
peaks
##mediate
fav
sig
##rolog
personal
simulations
face
solutions
includes
experienced
buil
spl
channel
once
adher
session
females
injection
jap
hydrog
activated
sources
fo
parasite
co2
integration
##oration
##eting
stro
recommend
mdpi
substantial
minimum
communication
phyl
##con
##rect
slightly
trend
spread
profiles
americ
mn
stimulation
plots
transl
##ptake
delay
fa
##cal
www
s3
event
problem
reactions
international
##ads
sizes
superior
sti
layers
initially
marker
ov
challenge
specificity
account
located
##ises
reason
pip
falciparum
syndrome
resistant
consequently
##lu
slow
##ighting
towards
adapt
rare
##yg
consumption
seven
orth
##tm
##90
defin
differential
cere
oxidative
sr
variability
capt
classified
programm
replac
tb
##erved
epith
400
##inations
steps
accel
double
movement
variations
##asts
occur
close
valu
remaining
pig
##certain
mention
centrif
kidney
attribution
middle
##wise
fab
##lr
accumulation
gut
inhibitors
82
never
language
##stream
shape
introduced
fract
150
commit
##ks
temporal
abundance
regard
reviewed
gc
##pective
##bry
##we
preparation
grade
acquis
oc
##omer
##rxiv
commons
dc
extended
motor
direction
availability
represented
vide
laser
asym
origin
tend
prevention
medrxiv
81
capture
nanoparticles
gm
hu
gap
uptake
alm
om
##icle
nurs
eight
##oster
rich
western
adop
noise
underwent
extre
predom
intell
charge
hydrogen
##ocardi
sulf
satis
descrip
##icians
proj
domains
angle
##otics
tasks
promote
repeated
##osome
diagnosed
92
excess
##icular
zh
intrac
find
##ton
details
2013
marked
humans
fill
implemented
bey
become
lowest
fluid
costs
##hr
million
suitable
physiological
driven
uv
##erve
forms
sets
requires
reviews
aimed
##ochemical
##bc
µg
##figure
##cap
root
please
mes
##try
implic
implant
comparable
financial
cd4
secre
count
06
net
##rocy
##ectious
lesions
conj
errors
residual
innov
##ned
hydrox
##rote
qualit
##ectors
interv
##enz
neutral
##ffici
inhibitor
algorithms
08
art
##ometric
living
partial
tun
ultras
temperatures
males
overlap
questionnaire
reads
fibro
##tices
toler
mp
attach
service
identifying
anova
insulin
composite
far
embry
glut
mild
infectious
##olar
formed
##eud
compare
agents
residues
displayed
##omm
##acted
antioxid
positi
staff
##70
fast
##zer
completed
heterogeneity
recommended
regular
##la
hybrid
uniform
maternal
cycles
acquisition
dimensional
rou
##ipher
ground
explored
electronic
minimal
simple
##rh
##itud
scal
−0
subgrou
##era
removal
##flu
coron
cannot
past
##gene
inser
uns
column
sodium
mutation
africa
south
##mark
##bal
##ariate
washed
suppr
frequently
atom
raw
gradi
hor
arm
##ibration
dysfunction
statistics
missing
correct
japan
intervals
accoun
##kd
##tead
pyr
##ember
##ultaneous
occurred
mosquitoes
industr
jour
units
##eti
disch
diag
nf
alcohol
organization
##ients
simultaneous
segmentation
bc
tom
depend
gover
##inf
rest
voltage
##itig
##ata
morphology
regulatory
doses
lum
computed
ten
organic
07
incubation
cb
stroke
persist
knock
problems
feas
auc
electrode
objective
fisher
##ynth
##pv
mitig
##ban
adjust
##nat
t1
vaccines
repair
91
created
sat
observation
causes
apoptosis
##38
metabolites
cultured
expand
submit
enrichment
##monary
conv
hip
excell
ray
aer
arg
##ifications
sections
centrifug
ts
foundation
nov
creative
skill
soil
thor
normalized
princ
approved
optimization
postoperative
commerc
clim
categories
instead
##p1
##igible
##ateral
promoting
fung
##ives
economic
##fa
##illance
acquired
##54
dark
interfer
macrophages
##alth
almost
ratios
particle
country
oh
##34
##tex
qpcr
leg
highlighted
influenced
stor
princip
enzymes
##57
deaths
administered
systemic
dop
##lementary
veg
nmr
artery
##ready
fiber
gh
subject
strongly
fc
income
##roid
orient
##typ
##uary
allowing
##elf
allowed
valuable
retr
surveillance
terminal
challenging
plates
##tration
mmol
induce
throm
##itect
##enses
migration
course
plays
posterior
already
thermo
rd
ath
rats
oil
fever
peripher
hence
##a1
predominant
antic
superv
except
##vec
##ry
facilitate
agreement
beyond
parasites
protection
healing
occurs
sv
interestingly
##riting
##akes
dispers
synthetic
colle
qualitative
##o4
##nel
recognition
stabil
late
adoles
##ogl
##ellow
cul
fed
film
overe
m2
tree
mt
##pe
computational
ba
ions
emphas
methodology
yes
microbial
obes
edi
alb
##acl
hypertension
##tivation
dh
minor
##obacter
medication
##ensions
advance
nr
mutant
bottom
tbl
hf
writing
##lier
obesity
replication
endoth
code
2012
divided
outs
zero
instruc
independ
now
traject
substit
involves
cd8
tables
alk
peptides
maintained
conform
validated
bil
overex
##pf
behaviour
ni
bul
nuclear
unl
alpha
characteristic
deriv
##usions
metrics
establish
crystall
tax
atp
architect
##ners
module
arrow
epidem
##ocal
##99
toward
nps
emp
shift
fluor
counter
equip
pseud
intestinal
##faces
##ogenous
done
brief
hard
##o2
ln
config
##elet
##equate
users
##li
anat
renal
lact
contain
list
s4
##app
true
iron
nitrogen
useful
##let
regim
120
intake
mentioned
sufficient
mb
basis
environments
fm
usually
##ihood
reson
invasive
ventr
undersc
feedback
##ze
enriched
##ged
2010
reached
phosphory
constructed
lar
phenotype
spr
depic
package
##000
equival
##ophag
grant
publication
psychological
##ws
##nt
user
ent
experiences
##iness
##train
gast
synthesized
maintaining
records
fabric
bs
summar
formal
viruses
fusion
sigma
acad
demonstrating
##hab
chromat
##hydro
interface
storage
adhes
utilizing
quantification
benefit
hypothesis
harm
neurolog
lateral
editing
yellow
extent
##endi
micros
##osity
reliability
likel
hm
rr
highlights
practices
revised
numerous
correlations
motion
cav
lit
glass
pairs
probe
pal
np
roles
urban
radiation
##holds
angi
##37
excellent
##esth
##ophil
enrol
nucleoti
uncertain
dietary
european
likelihood
##ble
wavel
trigger
eye
regen
typical
ultim
##load
antioxidant
inp
cytokines
extensive
##occ
programs
##neum
2a
bars
##ples
##ements
##discipl
beg
pg
2011
biomarkers
##itin
depending
##ana
satisf
pulmonary
take
vel
##allel
##use
odds
vess
membranes
ifn
draw
chin
reverse
closely
##endix
modeling
cod
demographic
##osen
bran
##36
gradient
progress
##disciplinary
##eral
aud
##p2
collab
##olute
labeled
randomized
break
let
receiving
##tingu
stored
##break
transpl
shared
committe
involvement
cath
rc
predictions
complexity
##rup
responsible
receptors
vac
##acting
calcium
turn
iso
dro
##urb
indeed
supernat
iq
##ortun
auto
variety
opportun
aver
assessing
##terol
##ao
stained
2000
gfp
tnf
##onia
ast
spe
observations
##can
therapies
acceler
dry
##values
1a
distingu
simulated
beta
nodes
sensors
square
offers
molecule
ble
loading
flav
workers
gain
traum
govern
manif
##oral
basic
examine
chosen
##arc
outbreak
balance
mv
representation
##ycin
absorb
##ella
introduction
09
som
distric
assembly
##ico
collagen
peripheral
##rd
emotional
##b1
pix
artificial
occurrence
dual
minutes
##iately
scat
purch
hemat
contains
kinase
embed
reflect
jul
##asons
##dh
##isa
smoking
perceived
pla
retur
hb
counts
mapping
##cell
##son
downreg
jun
adsorption
##atif
create
##yle
start
anterior
gp
endothelial
analyze
optimized
##sw
assist
positions
virt
aspects
representing
tag
transferred
coding
##mentation
##ades
subjected
gran
plasmid
##abs
ofm
thromb
feeding
##icro
epithelial
explain
occup
absolute
protective
sir
agr
facilities
bond
achieving
efforts
poll
multiv
indicators
behavioral
weighted
##ylation
risks
precise
creati
communities
port
depr
theore
##oted
just
affecting
kine
##enes
library
##cinoma
adherence
highlighting
fall
assigned
ko
##ral
perme
yiel
earlier
ligand
onto
discre
egg
microbiota
specimens
tetr
isolates
cultures
##crim
infants
fals
enter
ethanol
induction
move
filter
##iology
##eles
committee
fields
hab
max
clustering
##time
famil
2b
##ull
fatty
malign
ethn
illness
marg
enabl
tube
##itted
gastro
ven
separate
exist
perm
##48
expressing
theory
##gm
##ocl
compl
stratif
pneum
frequencies
parents
pb
kr
reactive
belie
starting
complexes
longitud
ask
agent
measuring
rf
proxim
explained
varied
barrier
infr
reconstruction
rein
behaviors
antibiotic
thin
viability
expans
conclusion
##ea
##obic
ru
decline
##ogens
recruit
prism
policy
lesion
discrim
##umab
barriers
plastic
item
width
##treated
horm
alignment
signs
sciences
positively
beam
manufactur
aa
ltd
technical
conversion
##ij
##pd
resource
spectrom
##35
aden
##with
inoc
##细胞
reduces
prolong
live
bd
nerve
abstr
##io2
estimation
genomes
separation
thre
##icrobial
##zed
##ush
ht
##oxy
randomly
scenarios
ls
consistently
highlight
switzer
solvent
crystal
veloc
switzerland
node
pure
microscope
purified
ultrasound
##ensities
exhibits
mobile
advantages
blot
ensuring
taking
##ada
subtyp
discussed
##ave
##aly
horiz
##ories
hydroph
wavelength
toxicity
lm
phosphate
##osomal
parallel
##ogenetic
regulated
panc
household
fresh
diffusion
respective
##electr
##ompos
rpm
logistic
constit
clar
processed
engagement
requirements
##eling
##uch
coating
und
##izations
false
##lim
##acer
ring
concerns
interpretation
coeffici
mas
sf
cris
funding
conjug
dn
demonstrates
presents
neigh
rig
accurately
aging
onc
publishing
##oglob
250
round
vectors
informed
abdom
##obl
rab
contributing
##ench
oxidation
similarity
##uls
##ureus
##rin
fu
olig
##plate
consent
##enia
prosp
##olesterol
appendix
coefficients
beneficial
rib
periods
ta
exch
immunity
##wide
chinese
automated
phenomen
##1a
referred
##urity
antimicrobial
called
3a
##erative
##rot
##itals
intracellular
independently
databases
indirect
univers
hol
replicates
uses
video
##ka
recombinant
affects
mask
infil
cys
reliable
choice
enabling
biops
gs
##arged
attem
practical
neut
stre
extracellular
emission
longitudinal
rural
chemotherapy
##ogram
scanning
socio
gold
eq
modification
scr
gal
maps
primers
improvements
##down
carri
h2o
##iral
1b
nk
impacts
assessments
pathogen
##39
leaf
spectroscop
notable
##ifying
evaluating
##iring
exclusion
correspondence
exact
##32
um
##alian
deform
##ways
##ky
expect
vitamin
channels
teach
##organ
skills
cry
outp
scaff
##ometer
##edic
##ucid
##fort
##bral
smo
adip
##char
vivax
advantage
ram
##ensus
correction
##net
manual
transformation
##igen
category
##flow
##shows
tp
pregnant
decreases
licenses
connected
isolation
cum
##uments
institution
##illary
commercial
snps
ker
recording
alterations
surround
##cn
clearly
irradi
unkn
##icul
ze
quantified
contributed
##ya
veh
traits
##pose
illum
growing
melan
meaning
issue
enhances
cytotox
dimensions
affinity
ultimately
sectional
##56
phases
mer
describe
mim
##ocyt
visible
diges
spectral
unknown
##were
email
equivalent
##ommons
##47
contained
modul
abdominal
nt
unc
nine
expansion
seek
##hen
##eds
tel
partially
quar
san
characterization
none
##ordance
upd
locations
manner
pathogens
##vecommons
creativecommons
aor
##ema
respect
cham
##theless
standardized
diagram
submitted
##tility
parts
discussion
ti
##night
option
clean
outside
##ported
favor
pancre
plus
##pan
##cers
neuronal
td
causing
revers
##hood
files
fewer
respondents
completely
##lish
discharge
combining
intellig
identi
appar
actual
##rotein
selective
predicting
diluted
perf
transplant
pac
tg
cholesterol
##arb
retros
##oscopic
intermediate
professionals
vul
trends
elucid
conversely
manufacturer
applying
thank
inhibitory
distributions
polyp
##ials
contribution
nevertheless
insec
inher
##ectives
clinic
##2a
virtual
table1
extrem
f1
##isions
window
fibrobl
##ematic
motif
english
retrie
hydrogel
pca
az
ana
neutroph
engineering
peer
defects
##ered
##dna
pediatric
##67
belong
neon
##fully
##olec
antibiotics
##activity
trim
##inning
student
standards
myc
cold
films
##ancies
displac
atr
priv
cm−1
insu
##way
visits
##ament
documented
prognosis
simultaneously
performing
emergency
tens
families
climate
candidate
impairment
reag
overnight
donor
fibers
##ging
##43
##ocr
planning
##osa
duplic
routine
lps
untreated
salt
pu
rms
precurs
viol
##tructure
mamm
architecture
austr
fs
##ocation
##phal
comorb
##utive
##hal
ves
cx
##point
convolution
##ozo
dele
edge
operation
coupled
r2
provin
##off
h4
deposition
db
forest
##hol
analog
edu
chi
leaves
##genic
nearly
##osed
##amide
walk
##alities
sup
clinically
encoding
##po
isch
ranged
covari
rat
serve
nas
fine
caps
nano
aims
interviews
put
adaptive
web
waste
scheme
smooth
supplemented
array
2009
##entia
society
##ono
add
nucleotide
ofc
fati
matched
apr
receive
conclud
plane
electroly
enable
methylation
rapidly
recruitment
calibration
upregulated
ech
##va
##68
visualization
##urg
negatively
instrument
conduct
dried
##oxide
milk
theoretical
bay
##ectomy
df
##ibly
##ptp
forward
modifications
scop
reasons
##mia
adding
retention
illustrated
loaded
automatic
centre
genotype
spher
construct
ongoing
prev
sep
instructions
wors
agricult
ethics
analytical
parent
semi
##habilit
surfaces
##f2
##ovirus
##anted
mostly
tract
loop
amplitude
##ofil
recommendations
american
##tc
possibility
radical
vital
neurological
velocity
vertical
rn
pathological
forming
get
jo
biot
attr
developmental
sexual
##tition
own
hex
ber
facility
##plo
fatig
##31
predominantly
comple
##idine
##ococc
ye
reinfor
##plc
##ompass
##max
journal
pooled
sessions
norm
volum
##ynthesis
answ
scenario
##thern
concl
purpose
building
participation
captured
hospitals
electrical
focusing
##amb
##inder
phylogenetic
fibrosis
dental
consists
classes
##3k
prost
analysed
##inger
recurrence
integrity
##odynam
##acchar
hous
##icles
little
supernatant
##1b
iter
sed
##inking
##apse
spectroscopy
discovery
gest
remove
prolonged
##ervation
pn
##201
purchased
synerg
calculate
prevalent
##eletal
subc
dd
makes
##oor
gi
stimuli
utilization
repeat
myocardi
appears
drop
dementia
susceptibility
regulating
stop
educational
recognized
##otrop
presentation
bleeding
##ato
##c1
guide
admission
downstream
4a
##omas
regional
shor
elisa
zone
consult
safe
epis
fatigue
visit
land
##ef
fracture
native
##ulative
nl
altered
confl
cis
##onti
##58
##itten
supplemental
##ously
##ilibr
look
direc
powder
binary
##cape
bonds
undergo
preferred
##issions
encompass
cust
##t1
##habilitation
grown
localization
coated
phosphorylation
##tp
##44
##imer
106
##ounts
susceptible
coronary
##aa
attenu
pk
knee
travel
subgroup
north
operating
sar
primer
separated
twice
sensing
derm
aldr
detecting
capable
##33
##iding
##used
frequent
sham
##tl
infig
##esthes
##atitis
##itory
iden
conserved
uncle
addressing
##arian
treating
extracts
##bb
ecm
zik
screened
iqr
oxide
##cher
105
split
aldrich
january
lu
enhancement
##know
pil
##thr
##mediately
degs
mobility
preventing
incorporating
198
emerged
extension
##ensively
##ologic
combinations
worldwide
fetal
precip
gd
prem
##iance
bands
cad
scales
magnitude
always
sharing
##cribed
immediately
##ician
producing
dur
morphological
dog
##usp
s5
eligible
electrodes
##chemical
##cd
##gar
##ident
depicted
ip
largely
scans
amplification
##ayer
shorter
tolerance
##orrh
insp
##plasm
confound
basel
diabetic
weights
##ostic
inner
etc
braz
diffr
unclear
wear
##rel
academic
nar
##进行
inters
cohorts
resonance
##yt
##usive
##aceu
##acr
dmso
composed
computer
consistency
calculation
principal
span
injected
exchange
rise
largest
options
##cents
disru
sept
identity
meet
acknow
##atient
relation
catalytic
cancers
matter
whose
atoms
african
##cm
structured
enables
sor
disrup
eeg
##46
editor
##ensis
season
abundant
secretion
smart
biology
##ptomatic
##oxyl
3b
recip
resection
translation
leuk
gradually
reproductive
format
emerging
##tively
haz
appeared
goal
figure3
fluorescent
competi
rod
occurring
##upplementary
demand
identical
##ectal
subset
nacl
##yth
ones
consisting
evs
endemic
mess
impaired
haem
capabilities
##idal
##uctu
##ulti
##ump
aligned
hour
retinal
cumulative
##ologous
nav
cytokine
##neal
schematic
##presents
agar
assumed
government
2c
##olysis
myel
remark
namely
importantly
adolescents
cortex
object
##yroid
sho
medications
##mut
stronger
fluctu
initiation
differentially
van
##gc
fragment
kh
##opathy
integrating
##6a
mom
explan
p0
ure
##k1
##2b
conceptual
##rocytes
fitting
quant
##分析
volun
brazil
##omical
quick
amounts
actin
##unced
dip
ranges
encod
distr
##while
inside
##ica
moth
##aptic
bita
circum
evident
##queous
consisted
contam
latter
causal
decreasing
overexpression
offering
declared
requiring
written
pulse
autophag
transcriptional
march
calculations
custom
##ozyg
invasion
feasibility
##ette
adequate
dash
reaching
metastasis
vaccinated
easily
##lem
approval
cool
##ki
1c
##aceutical
continued
nurses
pel
screen
consensus
dominant
2h
facilitating
quad
rehabilitation
listed
asymptomatic
fragments
strand
constrain
corrected
ppm
ho
symm
adhesion
phenotypes
##avage
perception
persistent
insectic
chromatography
conclusions
serious
spinal
observe
##ley
benz
##ias
examples
hepat
km
##map
chromosome
manifest
inhibiting
##anned
##ring
2008
publications
papers
ethical
trauma
##95
morb
##45
110
coupling
5a
accomp
paired
cvd
##ano
surrounding
aqueous
##azole
sensory
prospective
mw
retrospective
##yes
delayed
cerv
carcinoma
##ani
##1c
complement
ace
rating
##value
professional
##gt
interact
asked
aβ
##urally
cnn
shan
##dehy
##areness
gastric
math
##nia
distal
promotes
##65
regulate
simpl
arb
negl
analyzing
##otal
providers
##oglobin
uncertainty
chip
filtered
meeting
exec
comparative
deficiency
annual
##ithub
sched
equilibr
mi
accordance
limitation
formula
##hyth
tau
separately
allele
##rt
regardless
determination
awareness
##rec
prono
phenotyp
stret
##ostasis
accessible
github
ant
toxic
shar
asc
chat
contributions
pronounced
ofs
tf
##illin
##givers
directed
december
pathogenic
caregivers
2007
nih
contributes
coli
##intestinal
immuno
mothers
sent
pathology
assisted
##75
##100
trop
##c2
spike
concern
ofp
fruit
restricted
threat
intelligence
eryth
##osin
##quine
defect
adapted
##tivated
nutrition
##forms
regeneration
##ococcus
neurode
gastrointestinal
##42
chamber
mutants
spin
flexible
employing
##ori
recall
frame
transformed
overc
released
##ectin
polymers
centers
lam
dot
broader
categorized
placebo
##hs
india
intensive
excessive
breeding
pneumonia
bed
pub
##elled
entry
microgl
wil
hypox
perspective
organs
satisfaction
trip
delivered
adjac
thes
vas
##aine
insufficient
##term
definition
mand
promoter
##abled
l1
fol
accompan
##icate
matching
mov
indicator
accessed
##ttp
##mal
transfected
nutritional
district
subun
ideal
limits
construction
##yc
bioc
faster
cervical
vehicle
habit
understood
##oscopy
biofil
exception
indices
rb
undergoing
electrochemical
too
pathogenesis
refr
1d
why
share
validity
lag
substrates
sense
recruited
mann
camera
vulner
##esthesia
piv
##p3
manip
cytometry
##f1
subm
epit
##98
orientation
dock
##hc
sperm
chest
validate
##arial
cytoplas
figs
encour
termin
##aving
defic
pros
##acerb
horizontal
trust
electroph
crispr
platelet
briefly
express
600
##hl
##usc
##acial
##rought
predictors
bis
zhang
##gens
exacerb
tomography
institutional
ka
cavity
connectivity
template
tor
incorporated
irradiation
wang
dilution
microbiome
##ologists
##ergic
determining
printed
alle
page
##onin
##ulose
pear
sun
sds
104
penetr
favorable
comorbid
participate
crc
fri
cox
investigations
codes
supports
##rees
eb
lv
ice
ips
monitored
##izer
spont
moun
vr
methanol
pay
modulation
harves
incom
shear
mesh
##olym
##insic
addi
vacu
vill
rotation
##mm
##onucle
##tenance
dp
##utaneous
##adder
clinicians
##chron
encoun
quantum
transcripts
saline
##agon
##electric
supply
##hi
funded
immunos
covered
narrow
##avirus
##rown
prognostic
hoc
excitation
polarization
##ghai
neurop
##inates
changed
##hydr
##bit
attit
capability
yielded
thorough
controlling
implications
##anth
trap
bov
mf
##ophys
law
effici
compet
attemp
4b
spontaneous
maintenance
derivatives
atm
anatomical
cortical
abnormalities
compart
cyp
figure4
ethyl
veget
h2
##dehyde
##roduce
bulk
pic
phenomenon
province
shanghai
managing
recurrent
10−
relax
covariates
aggregation
##amic
nanos
##iction
compens
##vae
snp
cerebral
perc
febr
displacement
younger
egfr
##ued
##emed
generating
symptomatic
photo
##acet
##ypt
ca2
licensee
modes
aid
##atib
peg
elastic
##ultidisciplinary
fitted
ine
ofmultidisciplinary
compression
recovered
closed
##200
possibly
configuration
amb
elimination
##thal
diver
csf
anth
compliance
tap
shaped
tgf
##66
supervision
hcc
##immun
suppress
deploy
##ycl
oa
guidance
biopsy
deposited
##ni
sita
tracking
trajectory
cro
propag
venti
select
unp
##97
##3o4
hydroly
creating
genotypes
adaptation
improves
m1
transduc
ubi
gray
considerable
aggr
timing
##ometr
fec
##pread
##88
basal
##ford
chains
fp
c3
college
epidemic
movements
adjacent
ont
increasingly
hos
##iger
sampled
##acing
##embl
corresponds
nd
##amental
influencing
started
ventricular
##environ
itself
125
##enza
record
conductivity
##lined
stock
##poc
elect
specified
##health
nursing
allevi
resolved
hier
##oprotein
##inter
mature
presenting
registered
icu
numerical
##itiz
##orescence
dissolved
degrees
table2
printing
limiting
guided
wides
usage
stir
##pecies
ubiqu
roc
multivariate
photoc
segments
inhibited
dt
amp
instruments
widespread
formulation
becomes
zinc
rout
stratified
##igation
nucleus
mhz
city
##lands
para
##uits
stay
##63
deletion
##side
3c
luc
orange
101
reproduction
stiff
possess
##sis
exploration
comprom
cartil
tip
pdf
dimin
akt
surveys
description
took
##iculties
enrolled
lifest
infiltration
enabled
pharmaceutical
absorbance
##ohy
newly
difficulties
pore
bayes
outer
##xts
unlike
endogenous
##has
purpos
hl
brid
investigating
latent
war
##olytic
mitigate
##omet
180
prostate
##udes
robustness
suspension
breath
adopted
park
##ara
bes
comprising
deviations
biosynthesis
##omers
hepatic
##lip
hapl
##avy
examining
athttps
##atibility
member
addressed
gn
sustained
##psis
suppression
graf
##ift
##gb
inac
dend
reviewers
antiv
competing
give
observational
mun
restor
surge
visc
doi
figure2
2006
attached
parental
rough
remote
splic
##ysts
promin
diffraction
hierarch
rice
summarized
programme
replacement
##55
pixel
##avi
comments
urine
##acill
multim
##77
reveals
photos
##odal
oppos
empir
alt
nad
gli
microenviron
fundamental
centrifuged
ligands
mptp
decompos
polymorph
injuries
myocardial
utility
clon
##cale
##anged
##inform
heating
mur
##enic
130
dex
feel
bind
##vic
cdna
collabor
pancreatic
osc
forec
proportions
ball
##gent
##clin
##pass
##分子
103
arterial
##okine
lever
morbidity
suffer
cytos
##ontin
stack
hot
quantify
vision
lap
107
knockdown
influences
autophagy
##ested
fungal
equations
partners
rhe
board
tan
intraven
immediate
##hg
dial
innovative
attachment
##min
##ancing
substantially
limb
http
##oe
##atch
##opia
##oud
ft
##ming
preoperative
copy
##emble
##69
128
##2and
decisions
qi
ali
localized
lon
##49
supplementation
##igu
rain
interpre
cartilage
yeast
##times
blocks
##gence
thought
##gd
##enchym
blocking
annotation
distinguish
spectrometry
applicable
precursor
neck
biochemical
ckd
degen
beh
##actic
fitness
seems
insertion
hydrogels
amyl
hydr
aortic
##odynamic
nerv
obstruc
##cells
apparent
washing
fro
annotated
vessels
scoping
encaps
##illing
cleavage
je
##oa
discrep
cit
##plasmodium
##urance
embedded
easy
neighb
soluble
subtypes
influenza
equipment
pell
tris
alongside
leak
##ees
extremely
##ifier
involve
##ifer
bon
foot
proximal
distances
cord
silica
lands
c2
asymm
heavy
stimulus
kept
revision
heterogeneous
cultural
sen
inad
confirming
ly
interference
fibroblasts
built
dw
##zh
biomarker
##itone
households
alkal
sepsis
download
train
epile
plasmids
cas9
##atus
##opes
musc
que
west
##berg
globally
pivotal
##iang
##3a
##anda
anten
nanoc
solv
##ewh
##ister
changing
catalyst
ah
polymerase
pit
schiz
hplc
exploring
vein
zo
wet
solub
batch
fourth
plotted
driving
prelim
minimize
keep
cg
setup
##1and
race
cla
relev
residue
graft
##linear
flexibility
##itus
enough
fixation
lr
2005
chol
physicians
yields
malignant
electrolyte
##plex
acetyl
descriptive
1β
arab
tailored
carefully
functioning
induces
contexts
dispar
innovation
depends
gab
appearance
##infection
words
microenvironment
##ograms
emergence
##rophy
copper
exhibiting
placement
equilibrium
imped
##bach
bench
deformation
oscill
april
otherwise
volumes
##pad
accounting
##bh
formulations
june
bovine
electric
sustainable
antigens
nets
multic
108
cds
batter
sound
adjustment
bow
industry
failed
homeostasis
platforms
meanwhile
epidemiological
illumina
##ece
acetate
lob
##rices
##rogr
##auss
intrinsic
tio2
whe
connection
4c
##zo
gram
##onym
socioec
##icillin
desired
##lementing
arom
flag
stimulated
s6
discovered
dashed
accompanied
glycos
downregulated
consec
pert
dors
kinetics
ham
refers
enzymatic
converted
categorical
ck
bt
##lin
substances
nom
##pocamp
##water
ncbi
purification
whit
transpor
sand
nonlinear
elder
incomplet
evolutionary
dap
arms
dee
psychiatric
trajectories
sterile
transient
overcome
gov
shock
homogene
overview
concerning
nervous
##vis
reagent
match
unf
docking
expanded
relevance
##研究
depressive
##elt
percentages
vag
##infl
hemorrh
nutrient
excluding
pearson
forces
jud
##fig
beginning
##uth
reflecting
react
##ographical
inducing
ic50
preterm
lifestyle
consequences
panels
larvae
disability
facial
shifts
thresholds
circulating
##thritis
orb
##acterial
optimize
shell
##zen
upregulation
##elves
cond
##ault
nuclei
lacking
pin
##inating
crack
##mt
expert
pipeline
designs
abstract
##anine
industrial
##plast
replaced
beads
hormone
obvious
109
mirnas
histological
##62
permeability
##elium
dependence
define
stra
childhood
convolutional
pilot
gaps
tumour
mscs
prisma
adjusting
aspect
accession
opportunities
static
##r1
swe
matrices
drive
##lc
nb
blast
residents
histor
mag
metall
difficulty
tensile
##ackage
equipped
offs
composites
antiviral
epig
advancements
conjugated
ae
##isin
##ady
scoring
continue
candidates
mother
feasible
##51
##entive
##nps
comorbidities
concurr
saliv
centrifugation
agricultural
visualized
hippocamp
remod
policies
lipids
completion
modules
catheter
anesthesia
isolate
predictor
mind
organisms
##mented
##olip
##inflamm
situation
kb
throughput
genus
initiated
##ifi
organoids
stiffness
mitochondria
##estim
##clinical
amplified
##bar
disturb
mda
specimen
kd
fd
37°c
uc
conducting
grain
necessit
transfection
weekly
mirna
filled
naive
questionnaires
ages
biomass
thems
##fluorescence
consideration
valve
clearance
figure5
epiderm
−1
market
moment
volunte
objects
vo
equally
bron
##transfer
##mc
gamm
contents
κb
sequenced
##orous
antibacterial
lin
##cl2
140
##uv
vessel
##itability
pharmacological
hair
##np
socioeconomic
##ione
subjective
##itos
removing
scattering
##oney
attack
##uz
aeg
synchron
progressive
##version
ot
neonatal
flat
chloro
selectivity
##present
verified
##ora
colleag
##ools
##uck
fear
immers
subgroups
##合物
ket
stated
unex
seiz
fronti
kind
serves
austral
criterion
sy
gall
kegg
aureus
##onom
recombination
gauss
farm
overlapping
bearing
constraints
night
helps
obst
classical
##64
grey
##trap
trees
finger
##aceae
determin
lith
asth
phenotypic
##iro
intact
cred
kda
gib
experiencing
##59
##ania
interests
macrophage
suic
bilateral
##73
##omb
##weight
transplantation
o2
##nf
tib
zikv
##press
metastatic
deple
italy
##jection
strict
ways
thec
anticip
implementing
ug
proven
manually
embryos
chemistry
elderly
nlr
preliminary
biomed
publicly
foods
sugar
row
transpar
comprised
fbs
skeletal
##ests
became
tabl
agon
##o3
restriction
humidity
v1
##antic
shr
##ropt
parad
occl
hospitalization
loci
##opic
prep
entrop
grid
east
eyes
##ceptions
dye
##89
seeking
casp
800
vic
##urys
##ober
kore
modelling
##onsist
infrared
figure1
2004
propose
glycer
distress
mpa
ras
necrosis
##ares
tele
outper
trait
phage
tlr
colleagues
acceptable
proportional
title
boundary
##onomy
workflow
suspected
v2
abc
potent
##factory
july
purposes
bayesian
##87
walking
hcl
spor
##urated
hp
5b
ty
retained
flavon
##sk
circular
portion
raman
themselves
hydrophobic
microorgan
consecutive
##rophic
exceed
ablation
mu
##echnology
slope
collaboration
ethnicity
donors
averaged
infant
mathematic
aegyp
##2s
biofilm
effort
##brevi
ide
p53
reading
facilitates
operative
protease
microglia
##mg
##otomy
ken
3h
##mental
anc
implants
cereb
absent
hpv
extreme
fif
immunization
introduce
monthly
abbrevi
stom
alleles
efficiently
rip
delta
constructs
spot
##avail
eating
rar
##osphere
tooth
##ham
arrows
abd
decades
fractions
##离子
rp
##rose
gb
reflected
inverse
fractures
coordination
assistance
proton
##v2
apply
111
##enter
incorporation
edited
characterize
probes
dispersion
october
confer
##m2
synaptic
gaussian
urinary
pairwise
personalized
albumin
c1
xrd
stake
##fv
atl
circuit
bit
station
computing
worth
reflects
phenyl
##ager
wu
alex
cytotoxicity
6a
##aded
##apor
ministry
##pus
revealing
pseudo
melanoma
biomedical
002
sud
zno
##ulatory
disruption
flux
bh
fore
tubes
tob
usep
inconsist
bodies
youth
##ochem
sb
102
private
explic
modulus
autoimmun
##usively
diagnoses
return
densities
##phone
lb
bladder
september
chick
##uvant
concluded
asd
##iment
speech
topic
var
##athy
graphpad
usepackage
##lab
decay
incomplete
probably
specialized
bronch
coch
eh
intravenous
replicate
unable
build
hinder
thep
graphene
##olecular
assumption
ibd
resili
away
immunosupp
##ohydr
repos
elong
##roptosis
ib
##aryng
quin
activate
##oli
extra
nod
cub
##after
veter
ecological
promise
uplo
drying
security
dogs
##itting
##itrate
##enal
front
##iton
chen
prompt
merc
##osal
##ysacchar
creation
seeds
depletion
modern
entropy
prominent
stakehol
draft
facilitated
learn
4d
ovarian
actions
underscores
hazard
contamination
##aper
complementary
discontin
tropical
##rog
insight
##ozygous
outbreaks
##ko
conflic
expon
muscles
moving
sometimes
a2
##atics
brown
hg
proph
puls
dox
extensively
##asting
lost
seeded
saturation
##trained
explicit
adsorb
empirical
ju
prescrip
rrna
##ho
##ariable
airway
mineral
gamma
modalities
##anger
born
##fc
##icin
dosage
plasmodium
graphs
##ivariate
transcriptome
##nd
##ticul
andp
branch
##52
steel
internet
quantity
cm2
acts
connections
##cp
leaders
works
chik
concentrated
gwas
##ply
asthma
anomal
##rogen
mixing
verte
neurodegen
##psy
minute
owing
directions
##anial
intensities
passive
##asion
seem
scaffold
##tir
bonding
reproducibility
straight
thyroid
sple
neutrophils
##rane
##41
seas
rabbit
pbm
##alling
manage
evaluations
inference
##ura
maturation
##oside
resilience
spik
endoscopic
focal
cutoff
##edes
elic
lengths
hek
harvested
glutam
detector
##ophage
hdl
##ror
asia
pad
objectives
aqu
##ploid
surviv
accordingly
acting
femoral
##axis
hall
##roc
hydroxy
cloud
##angl
filtering
nons
thi
##iveness
neuron
adoption
regimen
stream
##olin
behind
##ilic
generalized
arth
opening
decomposition
benchmark
rv
genotyp
edges
communic
##assium
##oked
##mi
ensemble
viable
australia
inhibits
resusp
##l1
solely
waves
swed
libraries
hearing
lineage
experts
160
greatly
opposite
los
pubmed
##atile
##entis
##draw
##基因
##nr
##empor
whil
wire
antagon
drought
angles
epigene
acceptance
implantation
division
retrieved
dmem
gait
lattice
cns
monocl
hypothes
##vem
che
contacts
##table
##lycer
statement
running
h3
king
carrier
biop
inequ
circulation
spray
cellulose
ff
carrying
mapped
pas
infras
sah
reductions
kinetic
##lated
viscosity
ane
advances
perman
operational
seasonal
vacuum
inserted
obtaining
##stm
##oidal
##plan
potassium
frontiers
inferior
##96
##cf
microorganisms
moi
declare
coordinates
h2o2
##n1
alz
##aken
barc
io
pw
2003
ethi
boos
substance
##ola
default
teeth
transmitted
interf
##xy
confocal
instability
chloride
##ylated
##acs
quickly
##ama
##aker
bioinform
a1
rm
##cler
##ortion
closure
axial
nico
imbal
##acic
hepatitis
##ison
studying
voc
##head
##otropic
dots
coc
gon
##anti
##inson
registration
##acco
manufacturing
pall
rock
wat
##k2
incident
tailed
inoculated
progen
##acillus
##ulence
functionality
whitney
anneal
takes
##网络
##icking
hypothesized
additive
##err
rcts
copies
offered
dead
embedding
fluctuations
outpatient
lactate
resin
verify
bus
sinus
friend
yol
dissoci
vibr
ischemic
opportunity
liu
photocatal
##方法
##ache
ultra
crp
radius
n2
hierarchical
##sa
rule
wells
principl
##iliary
assume
activating
bioactive
besides
hemoglobin
steady
hi
stent
pi3k
precipitation
colorectal
spectro
partner
frozen
ki
systematically
assembled
niger
eosin
hsp
##bio
casc
denoted
##agulation
universal
##3t
gt
firstly
managed
##ocar
##clc
discl
organizations
icd
##sc
rely
deeper
roll
##atible
canada
##expression
assuming
##ulates
##phot
timely
##paramet
p2
string
preference
lt
synthes
bsa
exclusively
scar
resol
senes
##ugin
##61
sant
##orth
##paign
ventilation
gamet
##asp
histopath
##crnas
dysreg
meat
operations
autoimmune
pixels
aav
##lets
fabricated
encoded
dic
##transferase
##thon
##lings
inherent
gam
optimizing
##class
porous
evol
sap
immunofluorescence
trunc
bright
nasal
lp
exceeding
principles
##df
restrictions
relaxation
##adily
big
differentiated
gf
redox
##tein
ammon
pace
##78
##ife
null
unm
inadequate
pump
cardiomy
##uate
scaffolds
remarkable
tt
##ua
##zing
##ought
molar
innate
##day
metabolite
##72
evidenced
hole
novem
drain
august
ethnic
##nan
fungi
##oline
scope
asian
##genes
solubility
slides
mini
mono
campaign
##2o3
cycling
southern
##ystems
antimal
ubiquitin
word
##ester
explanation
notice
perturb
purity
roots
november
##aterials
withdraw
##heimer
america
##acin
venous
immunotherapy
diagnostics
ofn
transgenic
transitions
attitudes
##utation
tryp
laborator
balanced
solar
normalization
correctly
elucidate
geographic
deficient
tight
ig
mad
opi
deb
modulating
##enchymal
##bone
die
immob
##ohist
supervised
##oming
resc
carbohydr
confounding
provision
elig
##ellar
gestational
kap
##−2
t3
##arse
##ado
silver
interle
pdb
iod
centered
pod
aneurys
5d
joh
nhs
patch
extend
accounted
##ocytosis
##aldehyde
##uan
monoclonal
mx
engage
eastern
cited
probi
##olymer
computation
landscape
##kin
stretching
##ida
reactivity
cytotoxic
surpr
institutions
##ambia
configur
varies
prone
##pop
##sm
disag
former
domes
##omial
spss
##panic
warr
deemed
##idin
til
job
empt
eggs
anch
explo
lasting
february
s7
nur
scler
outlined
continuously
##ocor
deficits
mimic
epilepsy
uter
bab
exer
effector
stere
4°c
monocytes
worse
##adj
think
hypoxia
fertil
eligibility
##play
attain
mell
##list
interacting
serop
subunit
lastly
zones
medial
atomic
##omon
lens
##pring
rated
##ivers
admitted
warm
bic
schools
epigenetic
master
tobacco
conceptualization
echocardi
aspir
border
126
pose
spleen
ef
##ophageal
protect
alzheimer
labeling
2001
##eries
webs
poorly
rhyth
statements
##ijing
fb
dev
fibr
##itosan
mtor
swelling
##ala
edta
maximal
pup
pes
signature
blank
symb
pigs
persp
p1
charged
incl
sided
##isk
implicated
bud
downloaded
c4
vl
##itoneal
sequential
episodes
individually
rect
ands
energies
discrimination
##wt
##han
##ulos
marginal
remodeling
sector
cyclic
inputs
##icip
immunohist
detectable
lifetime
carriers
ather
infar
collect
quadr
##genase
representations
reader
synergistic
lapar
collectively
instances
robot
##ukey
ionic
neither
locus
##数据
ect
##79
insecticide
##bank
triggered
sca
moist
##erge
pathophys
radiotherapy
rsv
bill
##549
chitosan
beijing
calculating
letters
hbv
gy
##aphyl
apt
lf
exon
##ugg
peroxid
elevation
participating
##amycin
exosomes
domestic
son
##ken
##iph
scored
tuning
##process
complication
laboratories
apart
##hes
##ologist
reporter
cig
invitrogen
quanti
clones
##g2
dehydro
##71
##cox
f2
##ancer
normally
named
lymphocytes
##quar
##itic
teaching
bowel
substitution
eti
ole
agree
regulates
labels
dense
##x1
belonging
##how
##kle
served
triplic
drawn
ny
##zz
themes
##eties
crop
resuspended
covering
tukey
municip
physician
anemia
fun
outputs
##ogly
##ochemistry
parasit
chromatin
##tures
##izumab
als
property
happ
applicability
##gers
cd3
##ury
pts
tof
linking
phyt
deter
neuros
##operatively
goals
dpp
##inescence
focuses
propagation
felt
sib
nir
rupt
held
differentiate
nic
believe
rct
ances
boots
##fil
adr
##rosion
##osine
strengths
fdr
neighbor
rub
traff
monol
introducing
##this
coded
counc
facult
fabrication
caspase
##oir
##opheles
hla
kl
enl
promp
table3
##mr
situations
subcutaneous
##aran
robotic
##oman
supr
homogen
fox
preventive
autis
##ifies
putative
proved
##ulsion
##graph
cataly
##band
newbor
##76
planned
selecting
hold
##inge
mmhg
practition
##ompatibility
sea
differed
accessibility
ctr
##virus
burn
ethiopia
perspectives
crude
reti
aes
rnas
##teen
principle
margin
##cephal
handling
cooling
persons
administr
overexpr
popular
atrial
##using
##atum
magnification
offspring
reserv
geographical
##ampl
##ulder
neutrophil
inver
##n2
manifestations
vulnerable
##81
truth
perfusion
esi
france
positioning
##uge
sq
trace
##oblast
biotechnology
demands
2002
england
3p
premature
##mer
##https
mab
intended
northern
rdt
survivors
gse
references
purple
updated
experimentally
##iaz
intention
450
sports
eliminate
sought
recordings
##fall
ingr
interleuk
##braf
establishing
wel
infrastructure
python
meaningful
##uation
aegypti
subsets
ie
##umar
promoted
lou
automatically
quite
intellect
acknowledge
##atment
colony
hispanic
strom
conservation
##具有
amplic
paradig
aligns
fos
##fam
##oon
hba
union
displays
##a2
macro
##oresis
##quartile
colour
005
claim
conserv
dissem
aids
neph
fg
reasonable
##ira
plans
##化合物
112
coher
positioned
geometry
bip
sio2
pock
taxa
##mar
5c
mmp
##02
slices
##hea
shoulder
##ofib
route
##oto
vesicles
nu
attend
aromatic
##sin
t2dm
walth
tas
##psych
capillary
003
grouped
intellectual
korea
configurations
referral
##usk
modulate
diarr
tuberc
waltham
binds
sirna
assembl
resting
wounds
utilize
sod
carry
nucleic
##pped
districts
nanom
artem
mammalian
contrac
prosth
ambi
##outh
##fold
118
naturally
##色谱
##ilent
unres
##样品
wheat
bath
acs
cyan
spear
##ptions
##inement
undert
##iliar
indicative
wider
sulfate
scaling
coil
apoptotic
pent
silicon
plaque
##vascular
##opsis
syst
dimer
lungs
ger
hub
16s
subtype
citations
stig
ftir
colored
ldl
knockout
council
holds
powerful
closer
lysis
perfor
reservoir
##ilization
seal
129
name
amyloid
genomics
##ritic
##ocyan
prepare
responsive
##etheless
acknowled
##ez
benign
proximity
gpt
##rete
##nc
prophyl
##plot
abbreviations
boundaries
fell
angiogenesis
interquartile
##600
##oscler
##ographs
##eta
gather
irre
retin
scann
##m1
##aired
terti
hors
explor
marrow
ester
solvents
relies
serial
xen
seefigure
neutralizing
tac
digestion
naf
##adian
positivity
6b
##ovsk
##t2
multiplex
##entioned
syr
##nn
##ception
abstracts
bold
##iasis
fair
backbone
xyl
ldh
127
projects
gate
##ilized
repeti
methodological
arrang
conformation
impacted
##tified
##nis
translational
yielding
charg
discussions
dich
heatmap
ea
omic
proce
mathematical
agilent
eventually
deterior
careg
##ini
began
vor
##asi
clinics
aerugin
##eliness
ecos
exists
microscopic
cigar
##3d
##tors
perceptions
neo
tab
fe3o4
squared
##ugh
bif
prescribed
coronavirus
fig1
pelvic
mellitus
##nals
crystals
junction
ups
spine
simulate
preclinical
tbl1
sph
office
##fluid
behavioural
##tise
intes
behaviours
mapk
poses
signalling
700
##84
volunteers
igm
uncom
drinking
##tinib
nonetheless
flap
borne
ment
idea
gro
##amer
hydrolysis
weigh
switch
polyphen
cortic
recycl
faculty
##acao
starch
##cepts
empty
spearman
congen
probabilities
##85
soy
ses
kv
vox
whilst
ambient
##hd
caf
##onical
capturing
hydroxyl
##eres
lamp
sten
##yll
honey
journals
complicated
circles
icc
##ontrol
calibr
technological
##ynthetic
##wa
stain
bv
cation
oncology
engineered
imported
ccr
chond
attenuated
ml−1
##rocyte
perfect
##gal
windows
reinforce
nac
phd
preser
views
spectrometer
runs
##isinin
ord
hek29
willing
consultation
5p
bol
preced
determinants
needle
entr
##static
disparities
##oustic
116
modality
epoch
##je
losses
blocked
epidemiology
##allow
insurance
road
switching
tyros
##ophr
astrocytes
##haus
wilcox
searches
biob
##idden
aggregates
outperform
fid
##regular
pyre
##mo
gained
##itrile
leave
markedly
##b2
existence
upstream
fasting
antimalarial
ee
124
titers
##asome
##brafish
bootstrap
##结构
greatest
ecg
tendency
adhd
triple
emotions
triang
downregulation
demograph
cdc
intraoperative
##erated
sick
periodontal
##uria
minimizing
medicines
##质谱
concrete
phone
frames
chart
##enty
estimating
describing
bending
hif
mps
##uent
##agnetic
genetically
interpreted
##×10
productivity
expressions
crossl
mesenchymal
gir
##itant
repeats
radial
aware
rational
virulence
##gpt
roi
degeneration
vegf
couns
adipose
##ena
consuming
##ima
reflection
bf
##ecs
imper
teams
surprising
tension
##zation
mich
meal
ingred
deal
gave
kar
incorporate
splicing
allocation
come
dorsal
pfs
##infected
##ellite
schizophr
assumptions
motivation
##74
tl
reconstructed
kenya
describes
clustered
videos
envelop
kcal
abilities
sma
battery
stakeholders
ces
zebrafish
island
genbank
115
sheet
i2
qol
hosts
immunosuppr
##isc
##isely
establishment
homogeneous
##n4
##mann
preserved
clone
irregular
opt
##itance
##uncture
##unt
##uled
glycerol
##akers
poin
##蛋白
##teine
infusion
whom
e2
fused
interleukin
illustrates
##rim
##ulosis
employment
c57
vibration
cement
##platin
soc
wood
columns
##pb
perovsk
thr
expertise
neoplas
gps
feb
photon
##omycin
spectrophot
compartment
creatin
raised
regimens
embryonic
randomization
chromosomes
cyl
mediating
semantic
inoculation
spent
electrons
friendly
wilcoxon
melting
gmbh
suppressed
accelerated
##pecific
sharp
phenolic
systolic
##idae
considerably
cognition
diast
##onate
##4a
attributes
profiling
cultivation
log2
b1
dan
##tron
illustrate
tcr
frontal
infiltr
##represents
##ogle
ends
acidic
schizophrenia
##ocrine
chemicals
percenti
##eted
correlate
classifier
dapi
gland
homologous
arise
tea
nutrients
convergence
##zhou
lucifer
atheroscler
demographics
tin
stoch
creatinine
filtration
univariate
dendritic
exten
##ears
opin
dens
mds
##ading
mixtures
leakage
amorph
comprises
retro
impedance
nether
examinations
fibrin
receiver
pharmacokine
penetration
##osterone
cytoplasmic
pam
editorial
navig
murine
##e2
acceleration
electrophoresis
1and
emotion
wnt
cq
projection
##fficiently
mail
routin
##py
##represent
arrest
##rosp
##2c
##phthal
123
insect
organized
##kyo
scatter
pie
microc
implies
invest
##gu
german
advancement
jus
multivariable
unpaired
generaliz
hat
eds
alve
expanding
competitive
hit
requirement
##opo
pyreth
7a
phil
dimethyl
derivative
answer
bub
##itors
##表达
methodologies
precisely
##partum
merg
##cg
mediation
congenital
lib
wb
underscore
##anal
##pin
signatures
p3
acr
moisture
##do
##溶液
readily
##r2
locally
occlusion
##f3
polymerization
pva
tokyo
mediators
checked
##md
regulator
crystalline
netherlands
antif
bank
clade
drink
provider
rnase
##pens
doctor
gradual
ks
##pot
glp
lipoprotein
passed
twenty
produces
lineages
google
embryo
conflicts
shapes
colonies
##eworth
geometric
conformational
##acryl
##tification
msc
afor
##id1b
biases
integrate
minimally
helpful
preferences
believed
cytoplasm
protected
frameworks
fet
disl
narr
appoint
##points
indoor
##onitrile
phosphor
slower
canonical
hund
nhanes
precipit
sucrose
larval
exogenous
leveraging
119
genetics
searched
loneliness
goat
cultiv
##aco
actively
participated
ghana
lod
nation
sees
##ophosph
##enol
##ublic
sac
agency
diminished
##poration
mucosal
##oni
##att
bn
##elets
##tilled
fda
sg
##db
defense
##being
neurodegenerative
dram
biosens
chatgpt
tme
designated
isoforms
nicotine
auditory
pcs
motifs
cab
checklist
ensures
affili
permits
mood
dsc
render
##parts
hundred
##letes
injections
noteworth
alloy
promotion
##odon
g1
##olid
acoustic
prescrib
adjuvant
definitions
vast
##obacteria
nurse
extending
dpi
##ewise
##enta
##ulator
microfluid
vig
bile
tendon
simply
svm
imag
fruits
housing
attempts
branches
returned
properly
squares
lot
serving
literacy
recognize
stochastic
##nea
frail
114
coordinate
va
versions
##ementioned
relapse
##path
curc
louis
yang
pollution
##ega
##tructures
tand
##3b
egfp
manipulation
gg
dun
s8
reward
##cl3
parametric
curation
kill
neurom
diets
ns1
athletes
omicron
filters
annealing
##中的
tuberculosis
113
dissection
uncover
collaborative
##treatment
republic
looking
##embr
fig2
ppi
spain
noteworthy
subtr
##uscular
infarction
modeled
##ux
secreted
microw
partly
##ifor
phag
epithelium
becoming
bridge
counted
aforementioned
##ocated
hba1c
postpartum
intram
##cience
fermentation
heightened
##plasty
adequ
carboxyl
bag
counting
prescription
dv
elongation
contrary
spherical
##elic
cass
herein
##obacterium
1e
lign
tanz
##odi
##oderm
draf
freed
##aryngeal
p4
gibco
##fas
county
##availability
##unately
##d1
lived
restoration
##eleton
ischemia
tam
##1h
##aka
dramatic
mouth
##tid
strip
annotations
##ommod
emphasizing
##itical
sag
triglycer
competition
luciferase
##检测
bmd
reagents
fecal
##za
distilled
arthritis
xps
##oprop
loads
accounts
oriented
discharged
135
copd
##astom
indication
##odegrad
lstm
river
##inding
edema
denotes
woman
hemorrhage
nigeria
metals
cast
##reci
catalysts
kim
##oides
uganda
repository
##plets
died
accommod
cutting
agreed
senescence
amorphous
irs
scrip
chose
unre
nn
preprocess
commercially
vaginal
bioinformatics
giving
##yster
spots
##ference
permanent
spaces
colors
histone
earth
##kdown
##浓度
##atase
1s
aun
usual
lockdown
##ozoite
##anding
##ocarcinoma
urea
exponential
considerations
bb
inferred
vc
nanoparticle
discrete
##公司
comfort
familiar
##vin
cannab
linkage
analges
aggregate
counterparts
wearable
##aments
ams
##03
rom
negligible
##患者
fertility
##from
gaba
historical
##ei
blotting
ratings
117
insupplementary
microb
shifted
hidden
electrostatic
tertiary
circle
kingdom
##83
encompassing
osteop
epitopes
##cious
hcv
irrigation
excel
radio
intense
##utrition
llms
seconds
harmful
##ophilic
lithium
rarely
nit
els
##no
aberr
smc
proof
##bean
rtms
##edia
dihydro
p≤
traumatic
oval
##well
aggressive
psychos
unch
occupational
mechanistic
careful
##ospor
sera
consequence
##p4
interplay
cryo
##x2
codon
lives
##材料
##通过
ded
tyrosine
dissolution
243
intricate
duct
##work
##utable
reality
glutamate
gambia
varieties
destruc
kernel
##ichia
conflict
122
##idopsis
booster
thoracic
wastewater
cats
generative
##esthetic
tagged
##lam
alumin
##agm
##adic
allerg
resident
grants
slice
dosing
texture
flask
transcriptomic
dedic
approximation
harb
c57bl
continues
prioriti
##apses
said
conservative
121
13c
turb
##tives
academ
myeloid
refined
poc
company
qrt
doped
parkinson
coval
##iff
##86
##ionic
achieves
aiming
##chem
##plos
##che
corro
gels
transformer
enroll
cascade
##si
unst
pink
optic
##imetric
card
falls
l−1
##wr
ch2
adolescent
##phosph
standing
##转化
##nutrition
##ji
covers
glycop
anthrop
nsclc
##ettes
##ocon
freedom
leth
displaying
augmentation
hh
notes
##posed
marine
sid
potentials
privacy
##吸附
##print
angular
birds
critically
condens
dehydrogenase
deline
rheum
ease
##key
a549
##ience
urgent
symmetry
stenosis
curcumin
obese
cochrane
docx
##awa
submission
##nv
noting
multimodal
##avir
saharan
##ius
endometr
excited
diffuse
wm
aster
lowering
helix
engaged
##cemia
ascertain
links
rupture
triplicate
aq
rl
semic
wise
##肿瘤
163
##dc
##ivation
utr
##nam
##soft
adjustments
heated
polysacchar
violence
pores
radicals
sul
encephal
embol
monomer
genera
excit
priority
leaving
fibroblast
serotypes
physi
unsu
##rotective
132
lac
##ivity
multidisciplinary
bonfer
biobank
agriculture
scaled
mounted
krusk
hippocampus
eps
χ2
expectations
##bir
upload
tang
gar
fly
jak
ri
##aved
155
##04
##tum
transmit
trade
##entin
constrained
catalog
##itol
lymphocyte
flexion
positives
##94
alkaline
pocket
##zyme
randomised
##inflammatory
attempt
pyl
perp
broadly
calls
bonferron
ferroptosis
##through
biotin
##osing
correlates
anticipated
350
missed
gem
133
2e
contextual
epitope
epidermal
legal
somewh
aven
##keletal
figure6
secret
gbm
##标准
anastom
wallis
scram
endpoint
thoroughly
interc
##tium
##agul
grains
plasticity
ling
dehydr
##forward
finite
fatal
vin
orthop
##5a
illumination
orbital
ile
##tiles
##tra
similarities
penicillin
anticancer
vertebr
chim
##agic
tandem
exhaus
3000
##环境
discrepancies
lobe
ofa
hypers
##feeding
concepts
##ml
##wid
programmes
game
##entists
preservation
##uling
dedicated
##itudes
utm
c6
##dd
utilizes
statistic
visualize
preserving
##bacter
peric
mism
tong
compute
apps
secure
operator
appreci
##pected
##tz
flies
004
llins
perovskite
##requ
her2
##aching
dielectric
bonferroni
ecl
##advant
nrf2
##产物
evap
paradigm
boxes
anaemia
##however
somatic
intestine
sufficiently
anatomy
generates
secondly
stabilization
practitioners
compact
imbalance
portal
##roscopic
fh
t4
inpatient
retrieval
corrobor
rules
rbd
tanzania
rainfall
igf
incision
platelets
rg
coagulation
timep
240
cbd
posts
request
##emat
aux
analyzer
renew
ranked
sized
##92
##tiers
kruskal
corneal
mah
disadvant
permit
emphasize
##ciences
dysregulation
inconsistent
stomach
##inator
played
ferr
atlas
hes
##su
##embrane
clients
serotype
##position
5000
concurrent
brom
##ikely
##gly
##plies
lumbar
##vas
##ostatic
say
reper
surpass
blind
##rontiers
personnel
##recip
fn
avoiding
##unk
##usal
shed
sweden
offrontiers
keratin
##related
acceptability
streptom
unexpected
wher
d2
##place
t2d
teachers
titan
##igenous
##ifiers
##illustr
##odem
##eno
##ozoites
conditional
buffered
going
messages
designing
retina
disapp
##chlor
denat
porosity
mitigating
histopathological
thym
##andfigure
nanocompos
vp
##ivirus
opioid
interactive
antenna
qiagen
ofl
##viral
contraction
##ectable
lysates
##usted
clock
exploratory
chance
clinician
##orf
capital
guang
##azol
damaged
##atr
mof
##width
contig
silencing
##o1
players
quer
dcs
##f4
##oses
##crna
mhc
agarose
stirred
exem
gives
labelled
acetonitrile
strept
##oms
publish
##cine
arc
deployment
##enin
propensity
##93
lock
htm
##ev
screw
g2
winter
delays
anis
walls
interferon
rigid
dy
##opr
likewise
reversible
hospitalized
##azine
verbal
##met
imagej
terr
obstruction
oce
##wan
##apol
mutated
##06
##show
answers
indigenous
dar
##ochrom
clarity
supportive
tcga
pollut
c18
researcher
fifth
##edicine
pren
shot
incorrect
breathing
h1
dialysis
glu
131
sgr
v3
touch
coatings
picture
##onymous
slide
##unting
packaging
rmse
synthase
topics
sas
##produc
##ogenicity
doctors
##mice
precursors
##field
##plates
m3
underestim
compatible
flavonoids
stigma
##adesh
classify
exceeds
topical
ner
f3
ch3
latency
wavelengths
##作用
##oder
impairments
stratification
##tricted
lifes
approximate
hygi
rising
dissociation
##idire
ocular
filling
##cing
##eq
nj
emt
denote
confirmation
persistence
cysteine
transporter
foreign
gau
mucosa
biased
arteries
##test
dear
##cherichia
ky
atmosphere
shrna
tetra
pill
##osure
comes
disrupt
surgeons
stimulate
novo
taxonomic
##alg
##idium
##ascul
antico
conclude
##idi
reaches
unlikely
indirectly
drainage
scaven
##ilateral
guideline
attributable
artemisinin
dft
##my
cues
compositions
alveolar
refinement
feat
esophageal
##plicity
schedule
mcc
stimulating
nearest
metastases
fv
relig
doubl
thrombosis
nos
escape
harv
aliqu
query
##rof
138
cattle
breastfeeding
gan
concom
ulcer
spanning
fire
##ignific
##aced
initiative
haplotype
immunosuppressive
meier
triggers
##h2
##aden
##openia
subpop
poorer
exceeded
##反应
confirms
dotted
tick
##otid
biocompatibility
##ibular
compan
conductive
##fulness
decade
transparent
cyst
##force
##illa
organism
engaging
births
dispersed
psychosocial
unchanged
periodic
plaus
saturated
spring
##05
surfact
grafts
##ui
##eptide
somewhat
g−1
##bp1
tai
scrna
homology
##diagn
detach
exercises
weakness
rectal
ankle
granul
aki
genotyping
prevented
sulfur
install
multil
multif
begin
##ploys
aort
##quin
leukemia
immunop
collects
##liers
iterations
concomitant
##trains
##eptive
evaporation
overweight
visually
maize
augmented
distinc
electrom
asymmetric
habitats
tal
glomer
distant
cure
server
nct
##auc
##irable
sav
##idase
exclude
update
##g1
sut
##nes
redund
boost
hela
##idemia
afford
ordered
d1
outliers
alginate
stresses
comprehensively
sociodem
projected
refract
transduction
scanner
−80
ink
style
hct
##omonas
##ona
##cline
advancing
bioavailability
unfort
220
undertaken
owners
alleviate
roch
trach
biodegrad
##angi
abscess
freeze
pak
pq
fault
remission
cott
d3
insection
##arded
yolov
##82
##质量
136
unrestricted
osm
saw
proc
une
parasitemia
lond
pcl
liposomes
sheep
das
diam
apical
170
##organic
snr
bund
immunological
idi
impr
trich
choices
fasc
trna
entirely
terminus
obstac
altering
droplet
stranded
ophthal
illustration
zika
fig3
regarded
ultrasonic
##acies
atrophy
##factor
caregiver
combines
routinely
134
##cherry
fi
##nm
exert
conscious
correc
supernatants
nich
contribut
1999
##ophyll
minority
##emporal
suicide
quantities
##ailand
##car
coinc
##plasia
145
london
vom
cpg
duplicate
ihc
combine
strengthening
##activation
##ulus
activates
severely
autonom
unless
translated
droplets
##yan
evolved
##othermal
##group
ging
##atology
allo
pyrethroid
##分离
modest
##luor
##oviruses
generalizability
##7a
thailand
inactive
##ibilities
euk
hin
137
initiatives
choose
microfluidic
g6
interacts
subunits
##entic
cros
pressures
##ignificant
##that
neurot
##mitt
tbl2
cin
dbs
alanine
##ticed
residence
clarify
kil
ok
##tude
tx
##2d
##qol
phe
physic
neonates
cloned
##thing
admissions
names
simplified
threatening
corrosion
selectively
zen
##ower
heavi
employs
introduces
##gse
registry
schol
ign
carot
explicitly
##ime
psori
hardware
diarrhea
##lines
leadership
##ingly
hyperparamet
reversed
streptomycin
compressive
originally
transverse
amph
dut
##arcoma
judg
##ll
carcin
therapeutics
joints
##cid
integral
900
seizures
##eto
extin
1α
##iled
salmon
cleaning
tended
##versely
unfortunately
##orp
atyp
aggregated
squam
biopsies
occasion
elucidated
dest
h3k
wol
illustrating
pellet
6c
nanot
ibm
##aphylococcus
enrollment
ku
califor
patches
##ender
music
hop
discom
diagnosing
easier
##bow
##coming
discrepancy
profound
alternatively
sociodemographic
##oar
anode
eukary
ccl
s10
remarkably
helped
##ais
ecmo
kaplan
##uous
linker
kappa
##pes
hepar
tracing
##ewhere
fist
merck
emphasized
##cemic
impacting
disturbances
distinguishing
cxcl
##oyl
sustainability
##分子网络
lies
##h2o
lysine
carbohydrate
institutes
sox
##elles
indications
prevents
stromal
##theast
−2
flight
pdms
nucleotides
##ja
coping
actually
satisfactory
holes
wellbeing
drafting
elsewhere
##ctional
arrangement
regulators
##dim
audio
echo
smartphone
feeling
adenocarcinoma
##onduc
toxin
frailty
omics
##idirectional
coast
##beit
cess
sides
##oin
##enn
defining
alexa
139
pulses
hpi
##tg
serine
navigation
imaged
glycolysis
pun
##istically
grav
flowering
pover
bases
cct
consumer
##omod
appropriately
glutamine
rum
ward
##mv
spacing
likert
rhiz
ptsd
inorganic
aerobic
photocatalytic
stabilized
bcl
##eld
necro
ofw
knowles
declined
μmol
px
ammonium
osteopor
lns
discomfort
kits
amin
poverty
encoder
##omeric
underscoring
144
laparoscopic
microwave
3e
##imb
playing
##than
mex
pulp
angiography
website
##actor
s9
##aid
emissions
hots
##物质
hygiene
guar
transcribed
thaw
learned
##bec
spp
invari
tow
##odic
##affin
mining
##07
##rc
summer
necessarily
pvdf
orthog
inspection
agnps
lenti
interfaces
hormones
##ipl
surgeries
icp
##osens
rounds
khz
rins
##inance
exposures
operated
hydrophilic
lane
efflu
consumed
##len
encountered
truncated
##haps
metagen
quen
deficit
fidel
lee
proteomics
231
##ony
weaker
##ulture
partition
confusion
phosphatase
lncrnas
##itization
gsh
##ucl
dividing
episode
symmetric
oxford
##upplement
##family
##uity
##book
eigen
##dp
##agers
amel
consor
abortion
quartile
durations
diastolic
##iotic
##activ
amongst
artifacts
##otr
##romycin
faces
faced
emphasis
seizure
fash
m6a
conjunction
agonist
lev
glutath
##agg
california
ontology
abcam
appra
driver
dominated
traffic
##实验
##ecal
##amming
ala
dcm
perhaps
collecting
microstructure
inqu
contour
withdrawal
hsv
##illustrates
smokers
##inine
coa
##iley
presum
realistic
##otemporal
kinematic
attempted
##angladesh
reinforcement
lamin
bangladesh
##esium
abuse
motiv
encounter
unstable
arising
##conn
entom
anaer
##cetin
api
fmri
meetings
skew
plateau
##不同
##isph
fashion
qc
microm
award
thous
##aster
employees
completing
bring
duplicates
gyr
##mod
##istan
solving
invent
motility
##ograft
texts
illnesses
ehr
##bridge
##ago
mening
rid
filament
currents
fourier
recipients
village
decided
segmented
metallic
mxene
accumulated
senior
##etable
##ados
##污染
micron
modifying
delivering
nlrp3
##so4
academy
ws
cessation
malnutrition
oft
##ela
intermed
##bur
##pred
prescribing
##arity
##opol
##ecept
roughly
##lipidemia
cotton
sug
keeping
##kit
epi
titer
##but
##eled
saliva
pum
pah
##erate
isot
reprogr
snap
##box
##omorph
conduction
mediate
vapor
orders
##eces
cip
##ications
β1
expensive
glutathione
modulated
recommendation
favour
electroc
lumen
microsoft
##umb
fidelity
deterioration
paul
##iao
manager
##ocytic
schemes
disclosure
gent
entit
galact
offset
##echanical
preparing
restored
santa
pathophysiology
aluminum
pir
andc
transmembrane
verification
##aze
segreg
veterinary
##tumor
magnesium
volumetric
ats
jiang
lh
serot
handle
addresses
ash
arbitr
ccs
7b
inability
tomato
rejection
adam
marital
sparse
silico
rings
volatile
immunobl
tradition
regularly
trib
hyd
arrhyth
alternatives
##vef
hope
##arith
villages
physicochemical
salivary
rescue
g4
##gfor
b2
multis
checkpoint
gestation
amr
specialist
japanese
palli
##agr
cohen
peroxidase
notch
microt
titr
##ional
restore
deletions
acetic
##partic
dermal
probiotics
adequately
liv
##reval
##umental
tablets
habits
##iac
apex
smallest
medicinal
deprivation
yl
administrative
transportation
escal
##fill
tric
intermitt
neighboring
autism
guarant
orf
1990
replace
uterine
sic
##gone
uninfected
differently
crops
proceed
##carb
weather
advice
4e
mend
degr
##yel
physiology
##tail
##结果
titles
lid
##aning
nitr
corticoster
prenatal
quasi
inverted
conce
solve
worksh
testosterone
##c3
slowly
disrupted
pep
##isson
postoperatively
architectures
push
##fur
albeit
aneurysm
bad
pls
constants
want
fragmentation
##du
monomers
bandwidth
withp
diameters
atypical
##appro
##fusion
##chart
flash
stands
gelatin
hypotheses
entries
mock
ald
triton
isoform
deion
incid
##ethylene
acryl
##pen
performs
##tisol
porcine
doping
attenuation
undergone
phenomena
circumst
phosphorylated
aur
latin
ngs
things
nanopore
ghz
payment
envelope
aligning
##ulum
price
came
calibrated
tro
aml
latest
gad
ssc
rts
logarith
intens
beliefs
tbs
##henyl
rigorous
percentile
rac
relating
discipl
mast
microbes
perin
strongest
geo
capsule
scramble
lvef
ofh
##ape
amplicon
roche
ecs
##istine
icm
##otide
trypsin
entered
documentation
replacing
narrative
han
##imaging
adopt
intersti
lifespan
palliative
##atil
formulated
centres
divergence
##处理
##abolic
normality
pacific
##hao
##oke
malariae
titanium
refractory
naoh
ambigu
ingredients
mcherry
instrumental
##revalence
280
senti
atcc
coal
mos2
echocardiography
vomiting
flank
predis
definitive
##wi
##timal
preprocessing
210
disappear
citrate
##ochrome
hrp
deplet
thanks
message
##jo
##ego
rhythm
repetitive
##ranial
prime
neuropsych
compromised
##ittal
habitat
suitability
debr
table4
lmics
immunoprecip
##300
inh
headache
quercetin
reticul
glycine
leuc
medline
friction
cultivated
reinforced
periodonti
von
##phr
cef
aorta
generations
circumference
##otropy
##bil
outd
initiate
adhesive
recipient
uniformly
##91
consolid
endometrial
hv
##ali
triggering
nick
straightforward
heparin
##3and
mdd
##opathic
sediment
##obacillus
necessity
##imp
corporation
superf
##uents
##opict
french
##ystall
ago
psa
##ococ
seetable
chromosomal
##ods
bior
heterozygous
chws
fluids
neb
##aches
##ubation
spir
dyst
fgf
##sch
estrogen
placental
antifung
##治疗
ventral
differs
##uloskeletal
knowlesi
bbb
noticeable
##formin
##rosophil
suppressing
stat3
ready
neutralization
##tia
declar
eliminated
disordered
distinguished
vm
connect
homozygous
originating
iterative
##centr
mrnas
biosciences
consultations
heavily
rose
erg
tuned
tunnel
chikv
assignment
pooling
tet
phospholip
sorting
cubic
catenin
albopict
kpa
swim
curv
regime
2f
hbs
tk
##esthe
##olecules
warning
##aki
arrays
projections
postn
pone
adulth
interested
responded
vulnerability
gw
templates
extinction
4f
##ayers
accelerate
wuhan
pregnancies
##dep
osteocl
2and
talk
psoriasis
welf
comment
grand
predicts
006
gcs
loops
##neys
dg
##idazole
inset
telem
##sd
russ
##inflammation
tween
148
cz
##n3
subtle
adulthood
midw
##avid
vegetation
musculoskeletal
boosting
welfare
cough
stopped
##oter
camp
translocation
##isal
alteration
malignancy
##birth
carotid
career
crystallization
spectrophotometer
sput
plausible
deionized
##aand
##level
ionization
##zu
potency
selen
documents
stirring
##ometri
hippocampal
fits
vascul
neglected
d6
abdomen
inhal
traces
canal
152
erk
dopamine
interpol
supplied
inactivated
##uker
exempl
autonomous
1st
pss
entities
coherence
aeruginosa
chor
deno
malignancies
voxel
gross
##eterm
endometri
performances
assemblies
c60
##metic
##ap1
metabolomics
143
scientists
flowchart
nanomaterials
ran
nh2
squamous
elemental
homolog
##unya
usability
phant
excision
mcf
coordinated
aedes
bim
poisson
##flav
cmv
amplitudes
chicken
metformin
responders
##atosis
advis
feelings
forecasting
sudden
##08
##pert
showc
facing
encapsulated
meg
##okines
fibrill
elution
breakdown
##kb
serological
integrates
circadian
##otoxicity
neurodevelop
kcl
nitro
##d4
ovale
##ults
glycosylation
iu
256
billion
dissemination
lymphoma
cd45
##cor
regards
histogram
avoidance
rectang
ranking
hemisph
neurotrans
detrim
##ava
suture
modify
sagittal
cureus
##nec
atherosclerosis
##isher
advoc
tyr
tends
##oo
slc
intermedi
##men
##operation
suffering
transparency
irrevers
##urface
ssa
maximize
ofcureus
anomalies
interfacial
retain
consortium
xi
cone
dropped
detrimental
era
nv
glioma
因此
##影响
##arin
html
traditionally
8a
tyg
##get
##burg
chron
mirror
moderately
emphasizes
##ios
capacitance
##物的
##urable
##tide
##elle
imputation
annually
attitude
mms
circuits
yu
##13c
suspended
intersection
extends
scheduled
polymorphisms
neighborhood
##omo
1500
##相关
suited
##arium
cortisol
identifies
attractive
compartments
haplotypes
pbmcs
iga
chel
141
moved
extracting
##otherapeu
digested
##aic
elicited
etiology
racial
##inded
inm
##aten
disabilities
immunoglob
##oxylin
nafld
soph
##bert
discarded
passage
temporary
##ensin
regulations
tablet
piezo
fus
srs
142
axes
foam
pick
scholars
jp
nin
antis
transfusion
bg
irb
1998
aeros
tibial
drivers
quarter
addiction
spheroids
cisplatin
covalent
afm
workplace
doing
ew
##uminescence
encodes
roy
##oic
##omnia
relief
febrile
monolayer
periodontitis
##aca
differing
radiological
waters
averaging
qub
tif
##lym
007
federal
medians
rif
bacteri
implanted
antitumor
paths
0000
opposed
##ried
competence
bent
l2
##ker
intraper
##时间
##技术
##imilar
##otting
preceding
ocean
intermittent
##2023
f4
ppar
hands
##acion
trp
soon
360
488
grafting
consumers
charges
cw
crow
captures
deployed
soybean
param
interconn
epoxy
hardness
confounders
concurrently
york
##500
bypass
modelled
proteome
tips
##ompl
chd
wc
stationary
interstitial
##osquito
##odo
ars
mcs
mabs
sanger
usd
backgrounds
intracranial
mammals
antifungal
hepes
sorted
hyster
geometr
tracked
tach
respiration
dair
regenerative
pneumoniae
filaments
digit
eliminating
##iffer
authentic
circumstances
mae
ampk
compensation
semiconduc
trem
##uvate
##ausal
exclusive
cryop
##pler
quantitatively
inquir
cm−2
wal
eluted
allergic
bruker
inducible
cambridge
ub
olive
cleaved
ia
##pal
osteoporosis
##ersonal
##have
ctrl
hek293t
##目标
##alam
1×
ire
##reative
usp
explaining
##ael
programming
gauge
##which
willingness
volunt
##ille
guiding
steroid
##ocortic
declaration
seasons
routes
seroprevalence
##var
##基质
146
covariate
postnatal
##orecept
leu
cities
##eters
worked
moh
packages
rdts
progressively
phenol
##mutant
cms
arginine
encourage
cup
surgeon
mk
colonization
inactivation
monocyte
##ophen
climatic
permission
##iling
hels
reliance
rpmi
activator
immunized
rotational
hk
##ffe
strugg
##aked
drift
drawing
turnover
viewed
##2022
reflex
ih
diego
convert
killing
##cu
##tip
accompl
zeiss
##vised
cutaneous
shrink
duc
s−1
vd
plur
##ishman
commission
exceptional
obstructive
kidneys
necessitating
lignin
insomnia
schist
seedlings
refractive
balloon
paral
operate
osteoar
cron
insects
matches
shaking
##bound
intercept
apc
alp
powered
bam
immunogenicity
epochs
proinflammatory
##essor
mip
nations
##±0
classic
masks
ended
worsening
catch
##osh
cours
abundances
salinity
conditioned
ligament
undergoes
##ysiological
##inki
expend
inspired
evolving
hips
##rowth
stressors
brought
cock
##apt
characterised
neuroinflammation
chatb
trypt
glauc
acquire
provinces
hallmark
prophylaxis
##benz
pathologies
scopus
##adjusted
##转化产物
paed
##ardia
wealth
##ungunya
cloning
pharmacokinetic
signed
desc
##jun
##jiang
156
rmsd
helsinki
cel
##rex
proxy
girls
aberrant
orthogonal
##olet
personality
advantageous
##eller
dispens
lysed
tfs
##cv
cdcl3
autonomy
diaph
##hed
##xr
##outs
indian
chikungunya
##vation
##iae
##oking
##ogenes
creates
steph
hill
1997
ethylene
oocytes
##opausal
buck
compatibility
termed
mandibular
adaptability
ay
##bas
th1
##izers
4h
##tian
##aturated
##vian
satellite
pigment
g6pd
citr
t0
gyn
wi
##iation
grass
4000
##emp
dimensionality
iptp
zeta
resnet
fuller
dilutions
stacking
immunohistochemistry
##americ
ensured
cage
t7
stems
neuropath
##ophore
vt
parasitic
sheets
dha
e3
biologically
sclerosis
##yph
physically
fellows
##s2
##ticular
apo
ebv
fetus
##rams
brains
discer
lesser
massive
leica
175
derive
encouraging
itn
matlab
sentence
amelior
broth
sarcop
##meth
##ulas
##atid
polyn
closest
##opoie
hind
stabilizing
fluoride
vortex
conve
licens
encapsulation
expendit
acl
covid19
pharmacy
stic
##omed
straw
irresp
6d
##inase
##pervised
immunoc
apparatus
bread
millip
##isations
connecting
polyphenols
pec
informative
embase
phr
##0000
subt
##encia
mindfulness
cronbach
sacr
##用于
etable
polymeric
acetone
plosone
dairy
##vd
thematic
##co3
ofb
congr
conflu
opinion
official
attending
germination
ancestry
nitrate
##h1
strik
noticed
revolution
preserve
##tanding
shaded
dsrna
gradients
aunps
nause
spatially
gmail
##otom
##atinib
sourced
##efined
nanofib
helping
gdm
rearr
dioxide
folding
transforming
sheath
##ander
pools
firing
outdoor
##oct
worker
waiting
perinatal
nested
transported
taste
phosphorus
citation
lacks
landmark
kel
qs
rho
no3
glycol
initiating
##d2
mutual
ecosystem
147
instant
contaminated
surprisingly
pollutants
prs
cxcr
taiwan
nausea
##ophy
organoid
##elve
staging
##accur
iran
rois
morning
ventricle
##atients
gapdh
allocated
crt
ut
##iet
##light
disulf
##l2
unaff
serotonin
kir
vh
elast
sweet
superficial
##谱图
##arab
descript
investment
hn
lute
##odia
corp
emg
incubator
recognizing
aper
glands
programmed
hazards
kan
##pre
##ylene
##afold
##anopheles
ofbm
jn
acyl
treg
microplate
paid
##elastic
arises
pda
##tech
##osom
##iles
schw
axon
lists
offic
spanish
##oblasts
##bt
quantifying
batteries
nip
rw
hyal
collective
cirrh
absorbed
suicidal
c5
##x4
inversion
##rogate
aspart
alloys
courses
rigor
dramatically
ipv
ofe
acup
pieces
aquatic
##ionine
##clonal
hcws
##bin
harmon
##optimal
##gestion
holding
##aceted
newborn
##fm
##b3
osteoarthritis
190
missense
ether
contamin
mec
intu
binomial
crisis
ao
oven
v4
##oxin
malays
agonists
cst
##iest
##atility
supers
planes
tear
##orn
##awi
##2021
partnership
##eras
##ipping
fig4
##omotor
equiv
macular
##eps
adduc
thereafter
immersion
multifaceted
cohes
tlr4
cylin
overlo
calor
##onv
singlet
sole
##flox
pollen
twelve
##ensional
pellets
dates
thermof
torque
johns
irrespective
atg
lethal
##uff
cha
flowers
constitute
inclusive
xg
##ichi
degraded
endocrine
recycling
##tidine
−20
mitogen
identifi
forecast
register
whereby
psychiat
melt
e1
rows
thz
facilitators
substituted
mang
##pping
149
##mb
metad
mirr
##compar
##fen
##ris
##ahed
converting
reprogramming
kw
oe
norms
nik
encode
025
synthesize
overexpressing
desorption
bw
##plus
electrolytes
##ospheric
fitc
pull
spreading
ja
r1
ova
incorporates
pcc
##生物
unw
cystic
forced
##aga
corn
154
dss
##extr
sensiti
interventional
graphical
##olymers
generalization
capacities
substitutions
beds
indones
proteomic
strategic
completeness
##ofs
mating
andn
info
relying
political
mendel
independence
adsorbed
gol
stool
unrelated
crystallinity
anthocyan
##plication
speeds
hfd
fuel
##ete
paraffin
anaerobic
campaigns
##ampling
irreversible
kj
##iders
ligation
gaze
##uy
accessing
din
##mp
##electro
gv
##iod
##asy
cathode
asymmetry
mtt
phages
determines
challenged
kinases
orcid
execution
b3
hen
##drug
logic
albopictus
homes
##cales
weighed
##house
hematoxylin
##asm
amaz
##rows
immunomod
magnet
hetero
searching
pyruvate
overexpressed
distinctive
##ums
151
starts
specialists
housed
##vac
##yb
metas
responding
##风险
comorbidity
franc
168
##ulent
ejection
david
##oints
invited
008
brazilian
drops
percutaneous
perforation
inventory
##pir
##eri
sequentially
digestive
unaffected
scd
biol
observing
predefined
intrigu
anopheles
desirable
vibrations
newborns
5e
##ubin
freely
theme
weighting
typh
prototype
##omyc
lysate
tv
##gfr
hong
##tx
##itary
##istrib
dsa
hps
zhao
cruz
cnns
thermofisher
infect
spatiotemporal
constructing
hepg2
depleted
##udi
ineff
destruction
census
gains
executive
syringe
optimum
swabs
##ocalization
splitting
ipt
subcl
martin
roughness
seropos
elbow
victim
enlarged
rinsed
append
aminotransferase
immature
bac
corresponded
polarity
zhou
functionalized
nitric
sgrna
##dy
places
maxillary
##vacc
inaccur
unip
2227
arbitrary
##ocin
coex
functionally
workload
supplements
passing
s11
ofd
ipsc
sgl
unadjusted
##formaldehyde
##via
sliding
hemodynamic
promoters
thrombocyt
##iax
investigators
muscular
unsupervised
##km
##ubes
crypt
od600
cac
thinking
caries
breaking
polarized
masld
pretreatment
aggl
topological
kras
polymorphism
quaran
curvature
oz
omit
evapor
overestim
facs
excre
huang
oscillations
##uron
mutagen
satisfied
plaques
friends
photographs
burnout
##作为
tubulin
responsibility
cytochrome
poland
characters
obstetric
tolerated
biotech
cooled
lem
yap
analyse
cow
begins
##enet
exons
valence
biting
acceptor
antagonist
outperformed
##cov
##09
paraformaldehyde
hydration
##使用
complain
vap
##atitude
floor
ultrason
tbl3
euthan
tone
italian
##boost
telehealth
entering
peritoneal
153
rbc
emerge
layered
paediatric
##鉴定
theories
collision
organizational
wnv
lep
contral
strengthen
##embles
hybridization
sab
scs
microbiology
tensor
immunost
foss
rapamycin
replicated
cnt
duplication
possesses
1x
##ilis
arranged
sarcopenia
aj
chmi
010
capsid
whisk
managers
australian
cigarette
sbp
undet
ais
trab
amide
157
uh
suboptimal
sett
##anyl
horizon
anesthe
##vasive
foci
prove
endometriosis
bite
##incial
bdnf
spraying
zenodo
telemedicine
tec
##202
gangl
conditioning
directional
hepatocytes
communications
phc
hydrochlor
hypot
caffe
generator
olfactory
gst
##role
ageing
##分别
cof
tregs
##atonin
physics
linearity
chips
peroxide
phon
tongue
pms
##dv
##agl
olym
tar
158
##arean
denaturation
hits
##ran
##under
blinded
##萃取
##ami
##ario
sophistic
2nd
##itter
formic
acknowledged
##fo
##k3
protecting
contract
radiology
sigm
contralateral
xu
copyr
##4b
##his
##these
marks
summarize
ui
pristine
coronal
raising
harvest
waist
ribosomal
civ
hus
mens
client
##nand
platin
brca
prima
freezing
aspartate
distortion
transporters
##otherapeutic
antenatal
photosynthetic
bib
##nary
##2r
##olone
colitis
conformations
entomological
ich
scavenging
##过程
##idia
##apsed
bilayer
topology
eleg
languages
##gap
itns
implying
immunohistochemical
320
bod
##ians
notion
##assay
monte
immunocomp
xr
releasing
hrs
splice
moiety
emulsion
colomb
anchor
femur
dul
##onts
essentially
alphafold
gingival
##obs
##细管
oxidized
ophthalm
n1
165
bidirectional
##ball
compromise
##bles
##s1
trunk
##alent
purs
haemat
platinum
interm
##exual
##kl
##oxic
smoke
##po4
##ollow
refine
cdr
interfere
merged
wireless
ecc
lactic
duod
traps
neurotransmit
asa
##avor
encompasses
pater
curing
sure
reass
viscer
##有限
##identif
palm
syt
##actin
##biosis
claims
##pathetic
intermediates
sacrific
dent
##arsh
mediator
commitment
descriptions
disagre
##fi
propr
##berry
analytes
230
adenosine
dislocation
glaucoma
2p
##可以
coul
##stud
occlud
tubular
ferritin
##cat
hsa
provincial
maintains
gyrus
plex
relied
253
backward
breakthrough
hormonal
cpr
##otensin
lacked
huvec
departments
stretch
warranted
bca
peru
ace2
affiliated
##plant
skull
southeast
attended
llm
outstanding
resolve
##hn
imply
reproducible
proliferative
livest
amine
him
##provid
##roteins
uniformity
jur
##species
##ht
injured
oligonucle
anion
##osition
thecreative
coff
fulfill
analyte
guine
##yrate
odor
nlm
hypothesize
1f
plated
explains
css
rbcs
crosslink
sj
sad
epic
ellip
uniqu
swiss
really
pm2
flavivirus
beams
##etrical
##graduate
livestock
qt
dependency
tumours
interpersonal
heads
attacks
750
overf
##116
stabilize
confined
extrusion
arrival
progenitor
electromagnetic
metadata
##xa
ing
chlorophyll
pathogenicity
insecticides
##tized
accumulate
sealed
nose
##fish
affective
volcan
ppv
##ilton
angiotensin
teacher
versatile
##ething
graded
durability
subpopulations
##x3
##board
chimeric
luminescence
##opoietic
tss
apoe
presentations
mitral
##iol
polyethylene
phylogen
migraine
irradiated
allergy
kp
mci
inten
potenti
melatonin
executed
plga
turned
ntd
##psia
msi
hypergly
contempor
sao
juven
wing
rnai
something
3f
##uctase
bacterium
diminish
magneti
##ostat
reliably
##uitary
disrupting
##oblastoma
ofbmc
limbs
biofilms
##appropr
fw
analogous
通过
##reen
##onstit
crs
neuroimaging
glucocortic
chloroform
perturbation
probiotic
voice
microtub
##q2
altit
##portion
glycoprotein
##icans
dispos
flo
dod
evoked
binder
caution
##ycardia
atmospheric
flavonoid
surfactant
##表明
linearly
nominal
troph
##ynaptic
cfu
pituitary
eat
##vo
dissol
balb
primaquine
tank
identifier
##2020
catalyzed
nickel
insert
chemokine
dmf
hdac
portug
##necess
micror
blend
176
cck
industries
additives
pestic
cafs
qds
tour
developments
navigate
gynec
q1
164
piper
permeabil
550
jack
generic
shifting
scarce
millipore
viet
##infections
##elin
##odontic
mismatch
jaw
divers
exit
accelerating
gated
##ocyst
extrapol
antioxidants
##mission
inappropr
esophag
gramm
##biotic
dendr
##fe3o4
vehicles
harvesting
chloroquine
##mu
cd11
flower
cigarettes
sms
ortholog
tga
unus
potato
hypoxic
oils
vegetables
consciousness
entity
##yx
##irubin
##yne
chemically
##h5
##lich
fertilization
immunoglobulin
lup
其中
##enem
overs
proteasome
hrqol
thirty
falling
synergy
aph
bioch
##itinib
##odial
probable
##iner
##itz
rearrang
sophisticated
bones
hun
ics
##ocular
prrs
diagrams
dissected
1995
quenching
bk
##there
shim
##flows
trimester
superoxide
transformations
reasoning
##ju
articular
microsph
historically
counseling
amazon
dispro
unnecess
vero
##aya
imposed
##vention
robots
adrenal
zr
simplicity
nerves
ofr
##ails
##onuclear
jose
andre
##room
readers
depicting
voluntary
humid
mosaic
aspiration
companies
##ocellular
swallow
operators
aba
abb
glomerular
##ample
estr
spermat
fibrillation
##plicated
pointed
phantom
##enton
individualized
##onn
gat
protr
glycemic
cyclin
tack
##herin
hamilton
fis
carlo
260
manufactured
batches
ti3
ban
adopting
umap
appraisal
dal
rita
##irc
cobal
micrograph
today
##imide
bead
endpoints
##alamus
##olding
##ipot
arid1b
carn
japonic
discontinuation
immobilized
s12
##qc
married
cultivars
chemokines
uncontrol
cardiomyopathy
##osquitoes
shrinkage
lor
vb
scanned
emuls
endoscopy
##functional
scalp
##amples
maturity
preparations
##plastic
syndrom
iteration
thrombocytopenia
erad
discrimin
getting
##axial
dynamically
broken
herb
immersed
crosslinking
perioperative
lux
##iqu
cloth
controller
log10
chromatographic
michael
##odef
fibrotic
mucin
intelligent
rendering
upr
##mrna
coarse
grip
167
probabil
##oscope
cleaned
fistula
sz
tms
thread
decoder
162
epidemics
reuse
vibrational
mz
##合成
decoding
opens
albicans
##aterial
csp
cameras
##gend
##izable
interrup
alkyl
chickens
cue
clonal
referring
spiked
##ulic
consul
authorities
rheumat
aic
eis
##毛细管
glial
planar
meticul
diagnose
luad
smith
analytic
##exhib
cmc
##质量浓度
pluripot
cocktail
##l4
meets
exacerbate
reactor
hur
##vive
geor
pharmacists
cca
pict
gpr
##ilation
islands
suggestions
3390
realized
instructed
imperative
##μm
##afts
##annon
biomechanical
zn2
reflectance
impression
thermodynamic
expectancy
fellowship
inhab
leverage
synapses
##artz
eukaryotic
##gia
##available
##yi
combat
autologous
th17
##opyr
159
##concentr
sie
bert
mold
##def
tnbc
funnel
dishes
malawi
swab
caud
lasso
##cein
concordance
##exin
classifications
helical
slip
salts
##onyl
##endicular
mm3
occupation
telephone
featuring
discern
visceral
##ubs
##amethas
nanob
photorecept
##137
adaptations
##amethasone
got
##wich
##array
ectopic
royal
##ells
##erson
bergh
caroten
##ophan
scalable
177
stata
##ivalent
hcp
##rology
sedent
##bachia
sport
successive
5g
##unct
raises
portable
perpendicular
##lass
coming
161
nh4
rationale
theta
theoretically
##kr
collapse
##ameth
##awas
nearby
silicone
##vari
figure7
histograms
##prot
hemorrhagic
fwh
##ragm
##yles
##qs
##oler
##itively
ec50
sto
structurally
screws
laun
business
osf
diagonal
kyoto
##isks
remin
cirrhosis
andm
dish
1200
##iciencies
beck
##2o4
rgb
pari
recap
grna
monotherapy
classifiers
mcp
appointments
equity
swedish
pakistan
etoh
flour
##itories
rubber
##bu
asm
speaking
##king
##效果
##esting
drawback
##gin
##irs
resultant
dropout
elicit
7c
cations
counties
continuity
differentiating
convenience
tables1
iodine
结果
##oac
##差异
conductance
pyrim
ultimate
electrosp
store
nonin
letter
rolling
##预后
interfering
vietnam
##paras
exactly
distinction
richness
polysaccharides
rit
surrogate
nlp
a3
cts
biole
ammonia
imposs
origins
hcps
##opropyl
##特征
##iana
book
shaping
pyram
inflammasome
cadherin
##denotes
hypertrophy
neuroprotective
gathered
ownership
coffee
biliary
classifying
##010
placing
rash
##iens
immunodef
problematic
−3
18f
oxidase
##t3
##at1
lean
antide
zhu
evenly
90°
hypertensive
cbt
##type
mendelian
olympus
dls
iot
wbc
workflows
constraint
nodules
thex
convenient
centrifuge
sweep
mexico
bare
theor
trif
transmiss
microglial
spikes
pci
##ido
1996
uncertainties
anomaly
homogeneity
bipolar
print
amplify
penal
quartiles
neighbour
informal
holistic
appointment
menstr
1r
bms
hon
##ap2
flor
fractional
septic
epidermis
##vie
270
indonesia
dtt
delt
carbonate
acetylation
authority
licensed
nanod
homo
disproportion
aus
##zi
meter
comprehension
grades
unnecessary
wgs
smear
2030
implicit
barcode
ancestral
syt6
##ogether
denmark
raise
neurodevelopmental
mets
mofs
investigator
century
mrs
granular
religious
cd20
infertility
ubiquitination
overfitting
##omere
succin
asterisks
##400
##terone
cracks
cryopres
mdr
pdi
##ups
encr
percept
scene
relatives
##brids
polyclonal
elasticity
tumorigen
alcoholic
governance
occupied
dehydration
##life
##inery
responsiveness
mm2
carbohydrates
##itish
methionine
observer
termination
dpph
attendance
antidepress
wit
##mn
inequalities
encephalitis
utilised
##osphate
ade
survive
validating
malaysia
wake
##uli
##angen
##ectral
suggestive
contrasting
shallow
##chen
originated
masses
osteogenic
uncommon
ina
166
009
heterozyg
024
machines
vestib
##iab
##有机
ema
standardised
patent
psychology
encouraged
anonym
proteases
##oplasmic
##trials
photograph
##meas
##fluor
rodent
shannon
mlp
##orbent
choosing
mitigation
explanations
quadratic
guinea
rpe
erythrocytes
tu
##rr
worst
svg
thein
##pseud
mrsa
mediates
symbols
inquiries
seemed
pdac
qubit
inos
thc
micr
exacerbated
accommodate
proline
pref
comparatively
margins
lg
##收率
##富集
multidim
bloodstream
lncrna
moc
##化学
##eme
##tructural
##ethylation
drinks
tls
intubation
retrosp
sphere
bax
dermat
##menting
##erex
repetition
hernia
omega
6000
cranial
2329
horses
triglycerides
cps
##estation
contro
fibre
##worth
branching
multicenter
##pn
workforce
priming
cdk
##cam
sevent
corpus
##tination
psi
persisted
possibilities
concerned
covariance
redundant
bot
##uppor
tightly
##ocys
residuals
corticosteroids
radiographic
mitotic
##erating
##arid1b
##imetry
##ocus
##indic
necessitates
baby
rays
refuge
aneurysms
fort
##tructured
dir
##prom
##keleton
histology
wrist
##gill
##isol
plantar
lasted
fuc
##cb
##得到
andfigure
mans
skeleton
ligase
##prints
nucleation
psychometric
fostering
controvers
heme
ultraf
folds
##chi
lymphatic
degrade
spirit
amd
twin
ceramic
dissip
colombia
sich
chiral
hypo
hospitalizations
##iculum
probabilistic
seeding
interl
##exp
sati
tors
applies
characterizing
tryptophan
sting
##wis
##ophores
sexes
distor
orientations
belongs
triglyceride
##001
0002
archae
cytosolic
sybr
vertebral
uneven
3rd
brack
adhered
hematopoietic
cpp
##相似
##enyl
ebs
labour
eif
##sum
defl
filler
lun
##urnal
deficiencies
fwhm
cen
ud
##urc
confid
##incre
hyperparameters
##asia
copolymer
aesthetic
mse
sectors
exos
sglt2
##rals
sequel
defective
crossing
procedural
biosystems
##vaccinated
##dynam
##vier
upward
8b
fate
koh
incenti
grate
inherited
song
##opy
modular
humoral
nomogram
##istering
##ometh
repeatability
##ometers
anastomosis
fruct
econom
attribute
herbal
##where
interpreting
ibs
standardization
##ompatible
overcoming
citiz
societal
piglets
##urgical
efficiencies
suppressor
strictly
biolegend
cooperation
##entricular
##ohex
contigs
v0
##osus
advers
reconstit
##pson
cesarean
multidimensional
lub
##ries
nuanced
weaning
veins
conjugation
excitatory
debris
disulfide
kat
##xs
##onium
thrombus
disturbance
icmje
##floxacin
inappropriate
##andc
pfc
sedation
fum
##emonstr
cd16
pfa
hexane
dexamethasone
conference
##igo
##abor
cec
oro
scalability
competent
mg2
eleven
llin
cardiop
ipscs
gambiae
bundle
sedentary
lad
transc
293
doppler
##adjuvant
diaphragm
c7
proges
##cfu
##edds
heterologous
cu2
cardiomyocytes
uncomplicated
elegans
##ensitivity
##ovir
transcriptomics
bites
jam
##a3
##ulmonary
plain
wherein
gating
ans
etching
este
macroscopic
simulating
brush
ecosystems
##6b
toll
unvaccinated
##aviolet
dyes
##ague
carl
intrav
##uistic
##lp
resembl
204
voltamm
prophylactic
obstacles
##手性
calling
avoided
omn
##jing
##nett
cationic
nag
microsat
hematological
rodents
tian
adhere
##磁性
seaw
smd
本研究
##dt
biosynthetic
acupuncture
188
##reek
##aun
tolu
malform
hypogly
hrms
##augh
na2
##rem
contrasts
tmb
hydroxide
puncture
##降解
##anas
chw
ultraviolet
leukocyte
sugars
chair
energe
##oreg
abiotic
173
ek
##v3
##har
modal
drives
biochar
relie
apple
else
999
inherently
##ococcal
impossible
##iseq
pyro
##atidyl
##antib
##iments
2430
mhealth
sers
##ocysts
clip
##ubicin
radar
grading
reinforcing
houses
prioritize
nanocomposite
##rosophila
thet
nois
intron
win
pars
poul
neuropathy
arabidopsis
municipalities
biosensor
firm
hepatocellular
parietal
g3
sonic
posed
radiographs
midg
plei
transducer
exported
min−1
carbonyl
##ethanol
pharmaceuticals
gametocytes
##syn
##ilia
explores
scholar
actu
dipole
##rist
##entral
chambers
disruptions
pest
##e1
##组织
considers
225
buff
breaks
##electron
pancreas
farmers
xgboost
retrospectively
junctions
使用
##克隆
##plays
seam
arthro
forp
##phi
obl
kinds
##uclide
contemporary
212
haemoglobin
cassette
vsv
179
hindered
##hm
##突变
isother
incremental
malarial
methylated
rotating
suspensions
manifestation
biodegradable
bibli
##5b
##fficiency
taq
immunoprecipitation
##arabidopsis
##tance
acuity
recr
ideas
nsp
machinery
palp
scattered
disagree
2g
aro
##escherichia
##itated
##rocal
ami
vesicle
##aro
concaten
171
curriculum
unexpl
##osomiasis
sna
fibrous
neoadjuvant
mist
##显示
myofib
##pots
##pyr
##jna
th2
wearing
ids
##arri
biodi
wheel
autistic
chew
192
184
submitting
ureth
tca
stations
psychosis
efflux
##agle
parenting
relate
referrals
3389
pmma
averages
##istribution
##ipt
pertain
benzene
##mir
flood
environmentally
subcellular
keratinocytes
##有限公司
##plots
reproduce
blockade
pour
inte
scc
proposes
immunostaining
##iand
##ename
rag
rcs
##west
##ostr
formally
smad
loadings
alignments
balancing
fuj
extremity
discontinued
descriptors
ineffective
##oad
outlet
negatives
giant
copyright
##aque
##产生
exerts
bun
##nx
ureter
click
169
##2024
denv2
##opolysacchar
gtp
##264
bilirubin
cag
##heets
breed
phospho
harmonic
laws
174
splenic
172
opened
stepwise
electronics
trabec
andr
365
icg
resonant
uploaded
symbol
neuroscience
registr
pedot
##ophysical
occasionally
##aind
5f
lumin
##core
spind
##ube
dhs
9a
andb
##iline
genital
mimicking
associate
assumes
egger
adipocytes
mandatory
##izz
pvp
##能力
cm3
fibres
##eptides
reflux
bubble
0°
uric
matern
##log
al2o3
cooperative
visited
##iterrane
organisation
containers
##onazole
belg
velocities
thousands
##employ
graphite
comprise
necrotic
zip
expectation
##aned
##obut
peers
normalised
automation
lymphoid
rh5
biodiversity
spill
mediterrane
british
singular
dum
went
##gp
##ket
prp
pylori
segregation
resusc
legs
hcs
##erals
##imeter
customized
##etical
##死亡
recon
prosthesis
##bilical
nab
yog
tot
orally
preferentially
cfa
explanatory
amplicons
##bing
adp
unilateral
sev
1640
1994
hed
hpa
solved
microvascular
accessions
violet
unfavor
script
hns
##dam
enanti
collections
patency
dysbiosis
##js
9999
granules
venn
contaminants
uncontrolled
shiel
foil
tnfα
paste
##qi
monke
wrap
dice
##ented
needing
container
nadh
encryp
mot
mtd
tic
##aks
wilk
stephens
gently
achievement
pbmc
nap
##liest
atc
volcano
aided
##elli
650
js
ton
##enib
##atric
dressing
alleviating
disparity
diamond
##rid
##ogel
herpes
stone
185
pathophysiological
rigorously
quarantine
dav
##econd
situated
empathy
tdp
timepoints
##ref
subscale
##yrene
##存在
##ila
compromising
##通路
##onder
prun
##ensor
##ccs
cannabis
poultry
##1r
##itan
isomer
resis
meoh
cerevis
##american
lake
##9a
##idade
motivated
lightweight
fmt
moments
##条件
thalian
adc
catalysis
mutagenesis
7d
##erts
scarc
camero
vitam
##odynamics
outperforms
hundreds
cargo
mutational
depths
gfap
##osyl
foram
asfv
clay
misclass
granted
bonded
##wo
##信号
##混合
##cripts
steroids
analogs
suppresses
embolization
##oly
mgcl2
guan
umbilical
prescriptions
bcs
k2
ors
##etermined
continuing
##iii
faecal
uniprot
cameroon
hear
reviewing
##heim
toxins
scripts
ahr
gill
maldi
promega
enhancer
bmp
thrombo
attracted
##eption
esc
moral
immigr
occupancy
##top
adds
deconv
histidine
unfavorable
##相色谱
##olith
##agonal
connective
cbct
renewable
ei
##125
valued
john
detachment
advised
observable
ppe
frontiersin
chondrocytes
hek293
##iper
clamp
phq
##icious
clinicaltrials
##105
##103
residing
costly
siblings
dichotom
milit
biore
shoot
peroxidation
intermolecular
tons
allelic
placenta
ofnature
immunomodulatory
##odend
##duction
deleter
psm
axons
##otoxin
foster
##eli
finland
s100
burd
petri
adolescence
gsea
funds
##eca
shelf
charts
nmol
ferro
restoring
suite
subscales
locate
##blast
pleural
deleterious
telomere
zoon
##otime
calcification
ordinary
nationwide
auxiliary
##icion
##thor
cfr
##umber
flip
inr
synapse
screens
milling
orthopedic
##fh
thp
cores
visco
determinant
015
dilation
ncs
##lips
urg
ideally
enlarg
anticoagul
##gfp
meals
measles
##opharm
##axel
##itaemia
cacl
wanted
##fan
##所示
##osidase
ascorb
6h
##osacchar
accr
indexes
aerosol
sis
##101
stents
##clic
##104
superiority
采用
##worm
##plat
189
filename
holder
cylindr
##abeled
transgen
##oresist
cephal
hotspots
##zn
imputed
morphologies
c3n4
descending
perceptual
ige
##arma
##ardial
depicts
rights
##imab
realize
##yrin
universities
altogether
guarantee
pge
sial
##采用
##anz
alternating
expenditure
##kp
translate
crani
214
beyotime
installed
zif
##vol
canine
indis
innovations
gag
##回收率
##碎片
offl
##amel
interconnected
npc
10th
lie
culturally
powders
intraperitoneal
##加入
stunting
fors
surveyed
reciprocal
512
gaining
##relation
abr
##oplastic
aeruginos
##oting
##urred
tags
flows
−mice
##onine
infectivity
##stand
##riage
nmd
appeti
underp
##as9
mete
##phos
##crt
testicular
doub
causative
reticulum
kle
outlier
181
usefulness
computationally
harboring
##further
3and
##h3
ons
##iber
therapists
callus
reversal
timepoint
micronutr
interpolation
##含量
##also
failures
ketamine
mediterranean
##rogenic
##encephal
archive
graduate
repeatedly
transduced
aneu
contacted
lowered
harness
sleeping
suffered
aperture
hyperglycemia
saving
interdisciplinary
synonymous
ascending
##integr
packed
sigmoid
h5
repr
weakly
homogenized
##污染物
##amers
assesses
pdt
hypn
vaccinations
llc
modulates
prosthetic
deduc
cows
thf
bees
agitation
duplex
sonication
coherent
##一种
##icidal
##ellum
idiopathic
ti3c2
compass
pelvis
johnson
nbs
toc
##ogels
##acetic
dsm
##cnts
dk
##analy
ecology
tpp
##结合
serocon
axonal
dealing
206
blo
belief
neurof
##orubicin
##olate
##atization
colonic
##idone
chitin
reductase
##arboxyl
compensate
##vr
inversely
saved
##ostomy
##drp
splen
attainment
logarithmic
wer
prompts
titration
readings
cosmetic
interviewed
iop
##uccess
cryp
insupplement
lysosomal
photosynthesis
1980
##oves
economy
distancing
qualitatively
tpbd
crosso
progesterone
deleted
legend
cerebro
rgo
tir
desire
acclim
subtil
eco
##otides
##ygd
neurodegeneration
5th
##lear
repell
fdg
unusual
recapit
controll
continuum
benj
threats
gbs
cheng
scot
switched
conjugate
##数据库
reperfusion
arrhythm
##pon
evaluates
electrophysiological
gum
tat
##ois
thed
catar
cylindrical
wp
scfas
strands
figure2a
spontaneously
##stem
guardi
selenium
asn
retaining
reflective
avenue
bcr
##anna
longest
superim
sitting
##aminergic
dab
sos
##增加
##基于
##adt
amygd
012
##analysis
chic
protons
presumably
ou
##uric
##urities
##108
versa
hypothetical
perceive
interpretability
divergent
danger
##maps
##uxim
##seq
legis
aneuploid
mari
##范围
afterwards
grouping
declines
stimulates
lactam
ofamerican
centred
brightness
vim
##vp
##athers
deposits
mj
##oxif
butyrate
auroc
returning
##thus
##otrophic
resorption
oxides
shapiro
bridging
phagocytosis
nct0
military
##一步
195
seesupplementary
kong
##pine
minerals
405
methylene
cysts
prompted
##upporting
##pls
psma
##rupt
constitutive
hemisphere
ahead
196
precipitate
bos
overd
##oupl
tolerant
constitutes
analogue
conflicting
games
bifurc
hybrids
willi
##rospinal
avenues
omitted
##provides
og
##模型
asexual
qualified
hydrocarb
casting
aliquots
lupus
##5c
preec
##posing
brach
dysp
mountain
fcs
dependencies
embeddings
till
vice
η2
alf
encl
ventil
charging
intramuscular
##iently
##amed
phy
versatility
parasitaemia
oxygenation
arboviruses
exhaustion
##bacterium
undes
freshly
dichlor
hung
##change
estud
dunn
mcm
cavities
dnase
paternal
buc
lighting
##prop
kg−1
saudi
bottlen
##identified
##提供
psd
uncovered
##ifferenti
burs
psc
ns3
lsm
obviously
chap
myopia
tracheal
##uximab
182
##acycline
##12a
insecticidal
uniquely
sax
##iant
thef
mononuclear
##ophils
helper
greenhouse
neighbors
judged
isotropic
##bsi
causality
macrom
jejun
crown
vanc
##inting
##itized
insignificant
radiomics
##osteric
myelin
momentum
cerebrospinal
benjamin
qd
thek
##apore
##regn
dmd
germline
##diagnosed
pictures
astr
alters
perox
accid
favored
evolve
unemploy
##rectomy
updates
sounds
dominance
sequelae
020
no2
178
1993
swimming
##low
##igel
##ocations
spi
##ailing
helic
residential
##aedes
##bia
##umann
leishman
constip
mechanics
thoughts
looked
polysaccharide
leucine
d4
ppp
shut
comparator
prednis
brad
quartz
catech
everyday
##represented
vitamins
pj
rrid
masked
savings
coastal
epp
afterward
2500
##biased
downward
spreads
longe
pointing
hoch
incon
striat
##ographically
discriminant
austria
opinions
fes
l3
tbi
186
##uclidean
taf
##nb
logis
insecurity
##figures
p450
e6
##growth
##reach
progressed
compensatory
nanocomposites
jet
ofplos
##amn
fees
affin
semiconductor
nonc
cuff
##borne
permutation
##dynamic
appetite
hfp
nest
##hu
##肺癌
sintering
lyophil
##iq
##esophageal
##iratory
effusion
mtb
ez
meant
chemo
xls
export
##me3
cpgs
nah
intim
tok
##uronic
isra
uncon
##achi
singapore
burst
dissimilar
simpler
##entistry
##showed
f0
##cis
bee
washes
codons
disrupts
rheumatoid
##wood
nasoph
geometries
swallowing
demonstration
chris
damaging
constituents
hosted
wish
##ionate
news
longevity
minimized
radiologists
##anthin
verb
averted
answered
unpre
aps
bell
q2
wards
##exper
epa
huge
stacked
nonspecific
underl
emerges
tps
vire
ito
requested
biomaterials
detectors
mobil
mitigated
fan
##体系
prefr
fried
contraind
hrv
perturbations
cannabin
rater
stably
concentrate
reconstruct
##lutide
dysregulated
huvecs
ins1
doxorubicin
metagenomic
dulbec
euclidean
ipf
##zin
declining
voxels
burdens
cages
jin
vo2
##hp
##重要
staphylococcus
##phase
bottle
washington
credible
tilt
immunodeficiency
ofv
##imetic
trav
prjna
##yme
endoplasmic
##123
trapping
##andp
trafficking
asyn
biogenesis
door
egf
hsd
dermis
fig5
ofwiley
disk
immunosuppression
belgium
sacc
205
glioblastoma
tibia
##acrylate
bottleneck
xl
##joy
burk
taxonomy
##appendix
boosted
nikon
econ
##co2
hematoma
slud
##vision
deuter
clades
##stat
midline
municipality
juvenile
lox
metam
depict
011
mesent
dulbecco
##好的
##asted
##obe
018
cnv
altitude
tma
vte
##gat
repress
##obi
seques
ulcers
originate
occip
autonomic
employee
atpase
hmg
volunteer
##dong
##titis
##align
##aba
workshop
viscoelastic
constipation
p21
pka
readout
photons
dyslipidemia
norway
suspicion
phylum
forecasts
prrsv
ik
pon
andl
##imus
nuclease
immobilization
osmotic
schistosomiasis
denti
##add
peptid
aggression
analgesia
dbp
lca
pom
pgs
−4
cerebrovascular
##isco
isr
187
bivariate
anisotropy
endoc
vocs
instantaneous
cobalt
avian
stern
##minth
stringent
pione
alarm
multin
thickening
viewing
##vable
alert
unified
posture
osa
credited
stainless
##acrylamide
tell
certified
reconstructions
antigenic
biosensors
##dig
##间的
unbiased
remed
sympathetic
infiltrating
corrections
shel
10x
contraceptive
menstrual
##wal
##ensitive
sirt1
ic50values
secretory
shedding
osteoclast
fov
conducive
222
nanjing
instruction
flavor
pulsed
sentinel
kol
分子
##信息
analysing
dress
affir
hospitalised
overlapped
##mutants
overlooked
##oded
earliest
##rocytic
dentistry
ramp
##itine
f12
##3c
sta
adapting
oligodend
contributor
scarcity
##ecyl
iliac
stakeholder
progenitors
attained
weighing
metasurface
tachycardia
prefrontal
310
##astically
pressing
wildtype
familial
sporozoites
electrocardi
kumar
##xx
##alamic
211
waveform
phytochemical
##lampsia
##roy
infin
##inescent
slopes
absor
##ba1
##溶剂
##omatic
overload
complexities
inequality
t6
stressed
empower
##细胞的
bz
##ador
plating
##phones
corners
operates
appearing
trapped
vestibular
adversarial
##kins
shin
enjoy
##选择
298
accomplished
preeclampsia
impurities
professor
pc1
pharmacokinetics
##sen
##itab
reinfection
##zzle
resuscitation
amygdala
figure1a
deterministic
anthropometric
spindle
##jected
evening
edible
repetitions
ica
p38
andt
agains
phosphatidyl
##yroidism
zoom
analgesic
complaints
##l3
##atical
immunology
014
sixth
ppd
gdp
euthanized
pier
##wf
##形成
elabor
defines
##tools
glasses
opioids
##主要
forests
##unate
##stre
##ortal
probing
snow
ssr
fibrinogen
carboxylic
nanoscale
##ican
bird
triplet
orthodontic
tgfβ
2s
ccc
fatality
conversations
intercellular
noisy
##构建
cd19
och
tent
xp
inception
##aglutide
multip
yan
tough
formats
discriminate
##viruses
rca
pri
amput
occurrences
furn
institut
src
garner
bost
##pergill
develops
##brain
ptfe
triage
sanitation
father
##actobacillus
frank
director
shortening
audit
pacbio
dre
eagle
qtl
##penes
someone
##ropol
lect
thel
inlet
chief
amend
soils
visibility
psychiatry
##h4
tracts
##grp
##eke
##whel
fluctuation
diph
hesit
syndromes
1g
measurable
oss
algae
ukr
##ophagy
##omplex
##aint
helices
broil
matrigel
gelma
phenotyping
adsorbent
sutures
##nar
##ibacter
##ieties
multifunctional
##ruption
hysteresis
##alanine
##ognitive
checking
policym
thinning
sludge
##enh
##throm
evasion
hypotension
##andb
hdv
ireland
##ivir
plug
##epatic
217
bins
dimers
readiness
clarified
suppl
##onuclease
micrographs
mant
##ny
##tinent
adjustedp
degenerative
imagery
aiding
gpa
allp
ems
fails
regularization
sporozoite
tactile
##agraph
ucs
spons
canadian
microarray
##vinyl
ridge
mmse
##may
anter
##abe
##flur
ctl
heteros
unsuccess
autoantib
##ocrit
fragmented
##fection
##vities
##为0
exo
##opathies
identities
dutch
cens
r0
x2
##稳定
imidazole
203
neuroc
mpp
yun
couple
##amination
chemil
sentences
exploited
##inearity
infecting
maze
turning
neurology
magenta
quadrant
kal
pem
tsh
##uti
timeline
labs
##heads
neuropathic
excretion
ards
##ashi
cheese
xenograft
bpa
bpm
ici
pdr
##inol
##iser
alive
diaz
glm
##ordant
administering
steatosis
480
gravity
nta
suv
adver
unve
relatedness
sarcoma
antipsych
poison
##come
deposit
mimics
##nels
##表面
##ulators
piece
oncogenic
利用
##vit
methane
mrc
farming
coumar
insol
terminated
virgin
jev
immunoblotting
6e
eph
##bits
try
phb
cnts
victor
yolov8
anesthetized
dong
garc
##aban
multifactor
fret
packing
##knock
benzyl
vial
##choline
esters
##heet
##eria
overwhel
grating
endovascular
rhod
dispersal
p65
##ca1
progresses
dialog
##particles
##iosis
parity
rsa
colocalization
integrin
carbox
internalization
checks
nihr
stoichi
264
dilated
spline
insufficiency
384
thirds
demanding
grammatical
##win
##inally
##apine
aryl
table5
compressed
wrong
pitch
philip
3g
tz
##hard
anhydro
simulator
receives
referenced
takara
unmod
pale
taz
polynomial
inhabit
wrote
##kes
##agene
variances
##ropathy
safely
tdt
microspheres
wax
##itum
##uri
reform
paragraph
abor
guo
##share
geriatric
intentions
toluene
meteor
##zes
##修饰
transpos
functionalization
##dl
andf
##stalk
corner
1991
fungus
##2019
grids
spheres
polymorphic
##uro
##jin
##itt
blockers
prioritized
ambiguous
uf
##astin
prok
confident
releases
polyvinyl
##arbonate
joining
advisory
rectangular
lan
shi
##critical
tape
retinopathy
##ahedral
jump
##onto
iner
exosome
unavailable
183
oligomer
eus
##fly
cooking
detox
increment
carries
nh3
adherent
lnp
wavelet
##izol
##echst
anything
cardiology
semen
dysph
gpu
recre
surviving
safer
dermatitis
thiol
anticoagulation
chatbot
ofg
wait
deeply
wildlife
figure3a
immunocomprom
ltr
##ims
##aseq
##anges
blots
synov
priori
crystallographic
##eda
##trate
193
command
hsct
shielding
striatum
garcia
pole
specifications
nsa
guangdong
hnscc
##flurane
dsdna
cured
##及其
##andm
recruiting
zoonotic
zir
##van
##y1
sts
follicle
accuracies
diffus
thesupplementary
funest
ebi
r01
##word
##olys
tcm
##hrin
erythrocyte
mfi
quit
pfizer
thicknesses
ubiquit
irrele
##uing
##escent
acp
maf
cus
−5
##urium
debrid
tried
##ando
integrative
boys
zheng
fertilizer
contributors
gases
money
rdrp
##afenib
therapist
excised
priorities
luminal
##oglyc
bubbles
q3
##aemia
##anus
glycan
2x
stays
##tiva
1992
niche
xlsx
erosion
hams
pma
corning
##omyces
certainty
##comb
prompting
##trid
culturing
swine
##205
texas
##phrine
crossover
vocal
##抑制
##inted
##atrol
##vern
regr
##ofacial
specify
microbiological
periphery
hydrophob
masking
hydrol
hollow
##atcc
shad
194
supervis
sandwich
comfortable
fuzz
b12
##ultim
specification
communicate
tunable
##yphilis
lfp
##ighter
outline
sensation
transplanted
supine
##mosquitoes
##制备
##pringer
##atisf
##130
##可能
##alis
reserve
##ammed
approached
bromide
exome
##achn
figure2b
##ovol
gametocyte
ordinal
disadvantages
deflection
gard
同时
##osarcoma
heterod
neoplasms
vasculature
tann
##f6
mettl
somat
synchronous
corroborated
ua
##atched
elite
butyl
013
maternity
nemat
rio
##oneg
##cope
influential
##usters
arbovirus
cylinder
midgut
arrhythmias
coi
follicles
##urrent
##uzumab
jum
##临床
##缺失
##hapl
##109
rescued
nationally
sob
##ocks
guides
µmol
counterpart
cci
compares
kur
##1d
prey
293t
##tillation
##itrap
aptamer
nis
pso
send
##wash
##106
lipopolysacchar
##iji
##endorf
grew
ptb
hoechst
prosper
sulph
ti3c2tx
cem
##hand
##ativity
##veratrol
chir
christ
manifested
biopro
vf
reproduced
encompassed
skewed
##ville
##ett
##idobacterium
strata
speculate
arres
egcg
restrict
golgi
mtdna
##not
##col
##las
degrading
atherosclerotic
##atas
tbl4
##itizing
synthesizing
groove
bj
mts
preclud
turkey
argue
xanth
elucidating
ofspringer
ipsilateral
##enchyma
multifactorial
##tera
endors
markov
gastroenter
histopathology
microsatellite
debridement
cgm
fap
hang
uav
##ck
multiplied
gout
vv
##had
##agia
cope
tracks
dag
ric
asphal
224
dysplasia
farms
complemented
accompanying
hct116
dib
vps
##ako
dece
colorimetric
##micutes
dopaminergic
##ulsive
##3d7
boston
eo
sns
ande
##etts
unin
##obenz
examines
hydrochloride
unpreced
##pectral
thigh
stan
univ
##thermal
organisations
voltages
fructose
8c
nci
pis
conception
mobilization
mentors
immunocompromised
##atable
enum
cauc
psycho
##eedback
egypt
linguistic
surpassing
##assays
analytics
##isolates
affinities
##idad
##terdam
escherichia
knn
cd14
3d7
adhering
tos
offigure
fundus
invariance
piezoelectric
magnetization
assim
paa
smoothing
proceeded
enlargement
##tran
resveratrol
decom
rbf
spiking
coexist
noc
##bf
##i2
95°c
##160
cuo
angiogenic
proactive
crf
dosages
ovary
##uchi
unmodified
hil
suff
allosteric
posit
##omyel
hrp2
##aminase
constantly
virtually
cfs
##4and
intercal
分别
##wol
multidrug
contrad
recycled
pals
thomas
traction
electricity
photothermal
##frame
synchronized
fullerene
1−
##atar
##ishment
inflation
spars
yearly
probed
affordable
phylogeny
##4s
statin
cmr
hyperlipidemia
csa
donation
##提高
##adium
helminth
tnfr
equivalents
##化合物的
settlement
irrelevant
##mid
##ext
mush
##odialysis
gun
rcc
oligo
shares
feces
ingredient
b7
ovid
pds
##fd
##ptic
##roids
emitting
ivw
transitioning
rabbits
korean
stroma
##gel
##anese
transist
discussing
alternate
audi
exerted
neuromuscular
eradication
unprecedented
theh
figshare
##entric
steep
excellence
seasonality
morbid
cytosol
##ophosphate
struggle
pluripotent
trehal
agn
##bra
##ullary
uro
197
immunisation
016
recognised
rheological
viremia
cid
gates
##cast
##utations
chemop
daniel
lubric
agro
##eptic
undergraduate
5h
f5
##onas
##omat
ita
obli
representatives
revascular
folder
hig
##ien
##活性
conting
asvs
neat
spiritual
fk
lw
##发生
multiplication
pmc
triangle
counselling
##ystalline
c0
##pene
thez
restrain
shortened
pancreatitis
spheroid
encounters
myofibro
doxy
lytic
tracer
endocytosis
moieties
crosses
categorised
phosphoryl
t5
ofk
sps
millions
ternary
confidential
incentives
unsuccessful
anhydrous
##iensis
forty
descent
cohesion
microbe
leukocytes
ild
pacing
bioinformatic
cep
dol
##fir
208
intoler
figure1b
##aceous
acquiring
israel
zircon
asphalt
lose
hereafter
disciplines
exud
incubating
goodness
cytoskeleton
uplc
##andr
regurg
jointly
##mutations
abol
organelles
learners
mammary
paralysis
##itabine
epr
##应用
##adas
clam
posing
floral
ccd
hook
familiarity
pemb
##orr
254
segmentations
electros
reperto
intuitive
seamless
5°
std
artes
##restr
combus
childbirth
flexural
nadph
synchronization
##marizes
oocyte
##k4
pertinent
parenchyma
mek
overt
slit
controversial
autocor
shortest
write
sterilized
mva
threonine
##urgery
##predict
##h7
antihy
##enger
##enegal
migrants
mesop
ampicillin
exploit
cyn
ipa
mers
ssp
gratitude
foi
unsaturated
multilayer
dq
hts
##aspp
blade
crossed
migratory
secrete
regimes
merely
vegetable
arthroplasty
anesthetic
##state
##obia
malt
pvc
metalloprotein
vigorous
ict
zeal
##acil
arte
mechanically
##airs
ecd
##114
ns5
ki67
senescent
##othermic
authorship
lc3
displaced
sibling
annexin
lda
nw
campus
##olarization
lactation
spectroscopic
fing
##mix
##固定
##una
207
mega
notif
cancerous
assistants
##毛细管柱
noninvasive
artesunate
##kh
##edema
nepal
clav
amps
##ourg
hscs
inheritance
terminology
gonad
##astric
diseased
glcn
bras
portions
nts
##osum
##ilt
appeal
340
airways
unlabeled
streams
formatting
symmetrical
pz
##owing
##tep
10a
##into
inoculum
embolism
hap
senegal
223
hyperm
assistant
obstacle
zur
##发现
prices
delir
ssdna
rainy
cacl2
entre
##entrif
shenz
motions
formaldehyde
destabil
6j
##计算
##药物
anci
democr
fillers
summarised
paw
unequ
##arians
transwell
daugh
fuzzy
##d3
toe
##dia
micelles
##msc
atlantic
boy
shunt
opted
indexed
ribosome
physiotherapy
##显著
chaper
##othor
subclinical
##cycline
veterans
invariant
zealand
pph
##mectin
utilisation
retard
sporadic
annealed
sphing
doubling
hesitancy
hydrophobicity
iver
diode
figure8
##119
##uki
astrocyte
killer
edition
##almon
isomers
curated
survived
plotting
grounded
prospectively
##phosphory
resembling
##anting
##olia
hev
proteolytic
overlay
mpox
2×
##ch2
seat
abl
hepatocyte
catchment
xin
##onge
##ectic
monoc
tailoring
igg1
promptly
snapsh
linc
tier
##iis
rearing
haw
##003
flora
##rological
enrolment
ifnγ
branched
mounting
ultrasonography
215
proficiency
separating
membership
figure4a
##targ
##靶向
calend
##artem
hrt
migrant
terrestr
nanocarri
rifamp
undetectable
##yric
ij
vip
orn
justif
paramount
andd
##etting
##quis
prere
lumo
sickness
zu
##hou
productive
autosomal
lasers
kt
compelling
pcdna
heteroj
theorem
trehalose
shenzhen
##ymb
##amethrin
pairing
folate
favourable
seroconversion
sii
tlc
##agger
coaching
hyperspectral
##iaxial
garnered
mst
deox
sams
follicular
##ografts
##csp
330
condensation
workshops
midwives
pax
elective
investigates
biomolecules
rhin
sirnas
capsules
leveraged
##zr
##vert
polys
antagonists
warming
bicarbonate
##olateral
ending
ptx
argon
debate
horse
policymakers
dorm
fim
bear
##adzu
cooper
017
pcos
novelty
entang
##ometabolic
striking
bps
mak
mbp
tis
##utively
biof
starvation
retracted
messaging
ancest
ticks
nal
wei
grained
revising
##conduc
permeation
asking
clara
penetrate
intriguing
tumorigenesis
jac
sri
sevs
confirmatory
enteric
phenylalanine
communicable
##oreal
loos
marking
belonged
105cells
progeny
dressings
4g
drastically
brand
msd
##axia
recommends
heatmaps
cyclohex
biorender
ancient
ivermectin
ey
ehealth
fad
compiled
didn
painful
colonoscopy
aggrav
hindering
ascorbic
tears
##oil
resected
extrud
restricting
skilled
iaa
##3s
##olor
reactivation
coat
scap
olds
preparedness
competencies
ahmed
resolving
dunnett
dsp
msm
gentle
delirium
hir
lita
pid
##aut
##sf
##repor
proms
singh
curved
naph
ppt
unco
##zymes
dispersive
rigidity
deltamethrin
mcl
tad
##识别
ofplasmodium
outreach
layout
scenes
infigures
hypersensitivity
arousal
cuc
zyg
##mas
theb
stratum
brit
cleared
ctd
##parametric
occipital
deceased
hnr
reared
pean
##111
pleased
fic
pacl
##以及
##rep
sei
hydrodynamic
laying
silk
nanofibers
hearts
##nets
##oes
icis
borders
htn
h3k27
ferm
##nh
##ulse
##owed
##mscs
effectors
slurr
cerebellar
asterisk
lentiviral
correlating
formalin
violin
ideation
sputum
gata
npv
##del
stressful
ingestion
##iflo
biochemistry
formulas
peo
##plasma
transformative
turns
substitute
crosstalk
eos
queries
##ucleotide
attrition
orbitals
kinematics
flanking
cpt
anions
prediab
edx
polyacrylamide
hochberg
hac
nile
##spp
aso
enamel
glycans
attraction
tinn
caco
elis
##eptid
hierarchy
offline
makers
zhe
##data
##enda
transferring
augment
echocardiographic
drawbacks
##hb
chemotherapeutic
immunosorbent
oscillation
disappeared
b6
pps
r3
v5
##洗脱
peaked
hyperactivity
genotyped
anthocyanin
sichuan
esteem
stones
consume
agencies
save
dizz
pbp
ship
meters
flair
circulatory
rhythms
chicago
##1−
rises
mmr
influx
functionalities
goats
csr
pipelines
mq
##多种
acn
##pray
ptc
exacerbating
nanostructures
neoplastic
##jug
##orh
##essors
shuff
worms
##burgh
shimadzu
heterozygosity
cbs
pta
stm
##atite
emitted
extrinsic
requests
basin
ceram
490
fermented
argued
supplies
haemorrh
otus
neuropsychiatric
##eman
bandgap
##articles
tables2
purchase
oligomers
bolus
redundancy
cic
tka
yam
##gic
##rofloxacin
pron
minus
respondent
elongated
##iazole
vigil
dehydrated
inaccurate
advertis
dust
mud
##功能
##training
##umn
fromfigure
governing
myocarditis
destructive
teng
thio
curative
trypan
cada
nrs
token
centrality
ligated
submissions
triangles
doctoral
jones
##培养
mont
##afs
pcv
##ocryst
perfectly
mca
nach
rpa
transgene
##ofol
hemolysis
ranks
transcriptase
surrounded
trimmed
hyperparameter
##avidin
dissipation
cand
sorption
##itaxel
capill
pcd
migrate
wavegu
myocardium
moves
popularity
benjamini
μs
neurotransmitter
neurocognitive
##amph
deacet
inductive
occlusal
##atches
caring
subclass
##flight
rooms
##eraquine
flasks
indispens
##iflozin
520
reflections
replicating
apparently
##healthy
whiskers
doxycycline
dup
fog
∗∗
colloidal
protects
goes
purchasing
##pic
##试剂
photonic
##ught
landmarks
##kat
290
educated
lnps
satisfy
quadru
##omorphic
insoluble
kun
indole
possessed
hcq
piperaquine
uterus
ascertained
##compared
##fit
##xia
anton
trizol
grap
stillbirth
cpb
cpu
##opathology
paradox
5x
bols
##lysis
##eping
cardiopulmonary
cryptic
cgi
l4
unbound
spacer
##neur
tuber
americas
cyp3a
isotope
jiangsu
photoreceptor
lanes
nes
##addition
obsc
participatory
glycogen
specialty
liquids
arrowheads
##ampled
percentiles
streptavidin
revascularization
len
mng
sink
steric
##stadt
flame
factorial
mdm2
player
issued
transfers
ovaries
##indicates
autocorrelation
850
jia
##ipe
emr
assayed
enterpr
municipal
##requires
guangzhou
cartrid
immersive
monolayers
##目标分析
##high
##129
assignments
septum
vancomycin
##osper
##atins
##pta
timet
gras
gondi
galactose
##bsiella
paclitaxel
1for
ale
ges
reacted
epist
##breeding
t1d
stopping
arabia
shrimp
##omotion
ein
##rig
##×gfor
endocardi
maximizing
alleviated
welch
##production
hotspot
beats
##ichen
smears
insertions
darm
##adox
benefici
pyroptosis
neurologic
mary
##ozyme
18s
##102
seefig
toolkit
credibility
precipitated
prospero
2θ
##case
##rp
##对照
##uma
##quan
multiplicity
hyperplasia
approximated
021
khan
cerebellum
cocaine
opto
gz
herm
##body
##提取
lept
191
ultrap
returns
iodide
witness
citizens
eppendorf
##andtable
emergent
thicker
pth
sne
thro
anticipate
mash
##inergic
resemble
ifr
repur
precon
keys
##otoxic
grateful
transiently
##engine
##drs
regressions
bridges
juice
fel
##most
##uin
infective
listening
inhalation
indispensable
andh
##icially
##clusive
pei
qualities
213
salv
papill
dwi
dor
unpredict
##ourse
drc
nicu
##dec
##bg
##ql
##alone
immunogenic
zhejiang
##pace
##pecified
folded
aspirin
electrocatal
dms
##lyl
prohib
carers
2100
##ahepatic
endothelium
leverages
fcr
maria
##水平
##acious
##ante
coils
##egfr
pharmacology
purely
intravenously
bioprin
##oxifen
meteorological
420
##lar
detects
setups
equitable
288
cnf
antihypert
niv
vent
##ithromycin
blends
##140
reservoirs
cct2
lis
nex
residency
##glut
faith
manufacturers
##rotection
telomer
presumed
##6p
##bel
##hows
leds
tune
disseminated
disadvantage
inhabitants
##ultimedia
2n
q4
sort
##f5
trying
s1a
dnam
fibrils
civil
##therefore
##0is
##jan
lewis
229
228
shortly
##dispers
##相似性
a4
n3
pfr
rim
como
crim
burns
burkina
raf
figures1
faso
tender
nsaids
##iy
##效应
refining
gelation
seedling
nasopharyngeal
regurgitation
pectin
##osel
fork
##amines
##arynx
valley
endurance
assigns
nodule
##蛋白质
##western
##etary
relates
relational
cave
##ethamine
380
rotor
websites
sorb
androgen
metabolomic
positional
camb
irritation
displacements
practitioner
dyspnea
c9
dj
##1α
209
canopy
dia
##oviral
vii
hsc
boron
##obacteri
street
caregiving
ksh
≥1
##oul
##astatin
microp
rabies
lamina
anisotropic
strips
login
atrium
subtilis
mesenteric
##rox
##plants
metropol
glun
segmental
glycolytic
unmet
1shows
nak
##fb
##mcs
##weg
valves
##rolif
##ctt
mucus
##oxygenase
106cells
stocks
subtracting
ix
xia
##trich
##anka
impairs
4th
pvalue
xy
breeds
gcn
stomatal
hsp90
pesticides
##碎片离子
##atg
repression
reimb
leader
axillary
bmc
028
odd
venom
thousand
trabecular
thromboemb
##phen
intranas
##133
##arring
thorac
##amento
hexagonal
underestimated
fps
##inators
##ibus
entrap
##stone
solids
conjunc
conjugates
fgd
##uates
##生存
##ublished
exped
375
silva
dilat
polyphenol
gift
β2
pharma
##uspid
breadth
fingers
dizziness
wed
##enna
##igan
monocyt
estimator
clearer
owner
##ureth
unhealthy
sof
randomisation
convergent
carnitine
bach
##cag
255
tee
sudan
densely
tinnitus
jc
rah
isothermal
pretreated
interpretable
ovip
necessitate
crosslinked
##promoter
legislation
分子网络
gle
##稀释
asb
bever
comparability
movie
circrnas
##mutation
darmstadt
##铁死亡
##icts
mol−1
lift
tubules
bpd
impressive
jackson
2−
fove
##zy
##adiol
ordering
steering
numerically
##2b2
mtorc1
welding
hinders
thawed
oblique
fathers
hay
tay
##oste
congo
##atial
adversely
##oxane
synt
218
vertex
saude
accelerates
equilibrated
viscous
caffeine
trifluor
overdose
aac
lbp
nio
##oflav
sexually
pc2
extremities
mdscs
ganglion
spending
##argo
argument
durable
phospholipid
bcc
fiji
lenses
rx
reorgan
biod
235
sno2
transferase
figure3b
vertebrate
funestus
bnt
syphilis
coagul
##illed
postural
ca1
categorization
ncm
relaxed
fst
##i1
increments
excitability
##121
inconsistencies
rumen
russia
ultrapure
ross
##pg
##online
##olab
isotype
##biotics
cta
##electronic
babies
rps
forear
speculated
019
prioritis
epidural
schwann
carotenoids
c8
ch4
232
thrombotic
##ifiable
mercury
supram
hq
peter
##700
##工作
##oradi
remot
216
aβ42
##ainees
221
daytime
showcasing
m9
##agland
##ibri
metab
fe2o3
hospitalisation
modulators
coloured
transmissibility
fight
##曲线
##uda
mics
cardiometabolic
##egu
substanti
##ophilia
vinyl
##penoids
tams
##cre
##itch
byproduc
optics
injectable
landing
diphenyl
gliomas
borderline
featured
##mium
trainees
##chann
sensitization
failing
rituximab
a0
kc
mam
##fenton
##atio
mev
##phy
gls
strengthened
closing
scanners
neuropsychological
caudal
2shows
hgs
wk
sth
##tri
paris
##quef
pani
paulo
denoising
palsy
##idem
approaching
pdgfr
photoper
experimentation
barcodes
tetrahydro
electrospinning
cet
efigure
discs
grape
knees
downs
ukb
anaesthesia
schedules
dese
subsid
akin
bcg
rhizosphere
asynchron
dysphagia
wires
##效率
##ande
##ungs
enhancers
shortage
veterin
interoper
drilling
optional
oliv
##nandez
microtubule
inconclusive
##asg
alum
wasting
##respons
injecting
cea
fouling
coverslips
surfactants
town
##pseudomonas
reimburs
##定量
diploid
flush
subdi
##otyping
compositional
##embourg
conversation
##imertinib
mount
nanotubes
tsp
##ycle
##ortical
spaced
##endocrine
responsibilities
##olean
##nsclc
marc
##capes
adenine
dict
tav
##r3
locomotor
delphi
##auer
embod
suppressive
submuc
##wd
##荧光
locomotion
cream
##bp2
rotated
chromatograms
##nanop
ggt
##urve
##uler
whene
shaker
##chain
##assemb
vertically
s13
worsened
portugal
harsh
##ammad
pyridine
pupil
meningitis
esophagus
bx
##mol
cholec
impregn
nozzle
expenses
023
catalase
##opathological
cfi
solvation
impede
jnk
hyaluronic
nls
sponge
##andin
amber
geographically
toolbox
biocompatible
compensated
vlps
luxembourg
brows
实验
##ondyl
medicaid
528
cannula
rounded
buildings
pyrimethamine
##uly
275
psychotic
predominance
scratch
nanodrop
poisoning
##uated
##优化
beat
0003
detailing
naming
couples
cholangi
bronchial
##model
##agliflozin
beckman
vials
##foli
inert
anonymous
##ip1
cellul
carol
##hips
intrap
empow
##cellulose
budget
subpopulation
oligonucleotides
##actam
contours
postmen
deformity
streptococcus
##rexate
herc
pere
zs
##lists
##rotic
##icum
##lyp
##id50
existed
relapses
##obium
calcd
ensembles
silent
broadening
pbst
analogues
hatching
biotinylated
judgment
从而
##gus
##mf
##otrexate
orbit
sparing
##acea
25°c
visu
abdul
fossil
##hex
##的影响
told
##omethyl
##uns
ours
multilevel
##orphic
cracking
##concentration
pipette
arrangements
antidepressant
rifampicin
nord
sra
thee
##andong
##aluable
labelling
snf
homogenous
passages
osteoblasts
eosinophils
sensitivities
##fin
##ews
crush
achievable
bacteroid
##complex
installation
monkeys
syl
##u1
##rous
##rev
ende
##obacterial
deprived
##algia
iptg
abbott
stars
twins
presch
proteintech
##uclear
addgene
lrr
##olipid
bion
tig
##inhib
heur
monot
regenerated
##ozoa
empirically
fifty
tcs
##adap
decomp
loud
marketing
dynamical
counteract
fifteen
cerevisiae
dies
orches
##0001
crl
methotrexate
ms2
kam
tech
##甲醇
##uman
biolog
stat1
intelligible
incidents
yb
##fast
anthr
proteinuria
17a
exposing
certainly
neglect
lobes
detached
economically
bact
mns
##diab
##pr1
blended
typographical
ctdna
synovial
eug
##wer
##增殖
forc
incis
amen
minimization
minimizes
thermally
propofol
cftr
constituted
##anoic
##yclop
consolidation
meticulously
florida
##pergillus
lil
nz
nice
theplos
##aris
##ticism
##verte
unload
spd
spc
subreg
confinement
microhapl
grafted
ciprofloxacin
##inet
##orum
##imumab
steadily
remainder
fairly
p5
ruled
##ationally
219
msa
centrom
##when
##transform
hematocrit
nicotin
registries
thaliana
decompression
postmenopausal
##front
heading
anticoagulant
##免疫
##ilin
spm
interior
slic
hydrothermal
assemble
lambd
−80°c
fen
259
226
seeks
consultant
epileptic
humidified
9b
berg
hox
blinding
feet
##oxicity
ifa
heritability
aliph
predetermined
skim
srt
tetracycline
oncological
foxp3
pumps
cite
eigh
eyel
ott
chl
carls
289
myb
encyclop
boolean
larvic
gsk
##ipr
opac
kev
##fluores
policyrequires
seropositive
seawater
mito
##−3
##q1
##enders
ira
ctx
##ompon
raw264
flatten
##iazol
seropositivity
qm
##itely
##isters
slab
adjuv
##138
safegu
depressed
hamper
vocab
pertaining
pruning
eut
tpa
dismut
##107
##126
reasonably
adiposity
aroma
toughness
ocr
##4c
##bad
quies
##retro
computations
sustaining
fabricate
k1
##iable
##ulous
##ige
advent
snvs
asympt
tackle
vimentin
throat
bats
natal
plt
notification
knowing
cnc
harbor
mnps
universit
##amicin
bony
gerd
pylor
citrus
sbs
##rost
arid
accident
##otypic
subtracted
autoantibodies
kis
mtm
##flex
##明显
##促进
stric
##ixed
quater
##enedi
subcutaneously
glucocorticoid
pyramidal
bifurcation
repertoire
gdna
nch
interacted
muller
ctla
erythemat
alkali
ost
##nl
spinning
serology
myd
summed
amplifier
##auter
divide
passes
tmem
chloroplast
c4d
biolabs
dpc
tert
ucl
invaluable
249
##ik3
topography
fcγ
dextran
hydra
aam
gins
##μl
##osoma
##versus
appl
delineated
bari
ung
##ylon
##aval
##afluor
cao
mtx
melanin
pkc
vgg
watch
##ambi
plastics
##132
terrestrial
mate
cld
timeframe
opportunistic
shoots
cilia
##cof
##idis
preferential
##displays
phyla
dwell
disclosed
orov
whenever
##eight
emit
brun
1988
mandible
happens
lipopolysaccharide
tfa
##进一步
##iba
##ogor
##002
monomeric
actors
convention
hydroxyp
isoflurane
floating
disproportionately
daughter
rop
vg
##rf
butter
##genome
synch
blocker
prokary
antihypertensive
mch
contractions
45°
siem
physiotherap
yunnan
ubiquitous
bap
##jet
##erves
congestion
##abr
scars
specialties
urbanization
gallbl
marginally
evaporated
##omyelitis
remotely
hpc
##yer
##indi
rew
##uction
##otopic
interruption
brainstem
hemostasis
propionate
prospects
confluence
##因子
inb
##adec
remn
##180
catast
plasmin
dodecyl
forearm
cina
##aac
##之间的
##omol
stew
284
bactericidal
##线性
##准确
sha
antiretro
##br3
horn
##利用
onwards
##actone
##allic
##epith
adapter
retraction
scheduling
unpublished
vaping
chewing
daw
eir
cooh
microl
desi
healthier
subfamily
loq
retail
paradigms
brackets
superimposed
bph
iou
##mat
##mine
##genesis
5281
embargo
##otoxins
##half
nanosheets
subtraction
aliphatic
##vg
beet
plc
amox
methoxy
polish
attentional
ultrac
alcohols
manganese
amputation
dess
p16
ofel
drs
##andsupplementary
##mean
boards
efficacious
duodenal
egr
rumin
##inges
##entation
fores
readmission
##pfc
unwanted
gq
foraging
demyel
244
mrd
035
partitioning
identifiable
calendar
encyclopedia
dismutase
bark
pvalues
##tb
ofan
##okes
cnvs
##glu
cd44
10−5
rectum
intramolecular
integer
qing
##ocol
serially
bounding
weakened
journey
crowns
cinahl
##响应
##enone
ori
perkin
illumin
##进行了
exacerbation
unfold
immunoblot
##h6
##odom
246
gao
smoked
pigments
baumann
smartphones
energetic
dams
##实现
unint
metac
apnea
postm
governments
puber
fbg
bure
yuan
##代谢
seb
typing
hemodialysis
rsd
permeabilized
##rb
stores
##actors
afl
diffract
pde
sang
##aud
##oquine
##orded
clad
clark
##afted
proliferating
claud
ank
##tests
figure4b
##oglycan
antisense
contradict
riv
zambia
##ocaine
shandong
10×
311
biomimetic
microstructural
enteral
ambulatory
repositories
curtis
socially
norweg
underweight
footprint
##ombic
escalation
osteoclasts
wl
##ulary
##ubated
populated
sls
persists
022
autoenc
citric
conceived
ambiguity
##ln
shop
php
25th
manifests
log2fc
logarithm
discernible
preschool
−6
##yo
reus
##ilicity
spend
interrog
carib
deterg
##ropical
optimizer
autoc
027
physiologically
arthrop
locked
carotene
8000
hcr
##aram
ascribed
perip
##sten
##stest
blu
waveforms
unexplored
##furthermore
##auterine
kon
kor
sock
interrupted
##opolymer
scin
capita
certif
rotary
quadrup
sonicated
guardians
bci
lec
mcr
##δct
##antage
##atheter
##ptococcus
accessory
##uke
mentioning
taxon
uhplc
peroxis
glcnac
##2α
##注释
flaps
greece
315
coulter
b16
chx
234
airflow
pseudomonas
##malaria
encephalopathy
eur
git
##oal
##orial
##achus
decor
034
accumulating
pharmacies
##2018
incoming
void
abts
moz
methyltransferase
vacancies
widths
incorrectly
electrospray
gallbladder
norwegian
svs
##elia
skip
540
stemness
rdna
hsp70
triplicates
##nanoparticles
zym
thea
##asian
prm
1970
vulgar
transgender
combustion
cse
wd
wo
yfv
enhancements
##uka
darker
narrowing
cdss
nanotechnology
infinite
6f
nasc
vene
##uez
indo
carp
##ieu
surgically
osimertinib
##128
chromium
532
switches
gallic
dimerization
unim
secured
303
rearrangement
ish
##ellulose
amni
##abolism
inferences
pigmentation
paf
pbo
outdo
endosomal
myosin
radiograph
##ilibrium
resolutions
orthologs
##145
tmd
warrants
hbsag
chatbots
##osaccharides
##inus
ano
##icc
signifies
choline
mineralization
refugees
fts
##jc
##reported
##thetic
bruc
cy5
producers
figure2c
gentamicin
##omatous
prediabetes
unintended
pns
wales
##urized
parath
outflow
estimations
029
unlock
tdcs
convex
cd11b
encryption
capillaries
##gest
##2n
##乙腈
##although
##osides
##une
binders
loose
##ofen
sunlight
photoelectron
figure5a
imperf
phospholipids
compassion
kshv
gor
kyn
##feld
##uel
seism
parp
arith
##ropylene
##neasy
rodrig
unsuitable
tremor
dendrites
cryopreservation
pleiotropy
##ifferentiated
proves
##tert
##agin
detr
decel
maybe
245
pc9
1989
uma
##astern
ist
##urement
elementary
awake
penetrating
hydraulic
hut
tut
γδ
fourteen
lambda
inl
shading
maneu
cyber
colis
autore
thrombin
identifiers
##150
##eses
polyst
newer
retest
logical
morphine
adopts
tiny
czech
dilatation
5×
sacchar
##etase
##apar
##ibl
mutually
ivc
pleas
polyps
iteratively
merging
congruent
typhoid
monocytogenes
outdoors
ced
##rob
pha
##argin
visiting
233
musical
copolymers
happen
rnaseq
##exhibited
bioproject
siv
##nov
##tn
##imal
##trine
studio
247
microv
##itorial
internalized
anatomic
##2017
stripping
hypoglycemia
aip
##urat
stalk
philos
pyrolysis
gpcr
punct
##mond
anesthes
##omide
isl
##005
characterisation
##annab
denom
septal
harvard
##opyran
hunting
##一个
blunt
informing
dsb
instrumentation
exceptionally
interlayer
dps
lying
##如图
orch
carbap
dissatisf
miscar
acknowledges
hipsc
##eb
##olutions
cher
esm
vienna
massachus
pcoa
dhf
pparγ
##分别为
voltammetry
c12
asl
chop
##ello
##heat
proposal
euro
ntds
normative
spillover
6g
##omogene
forth
amines
expands
276
pf3d7
duplicated
fhir
massachusetts
mace
vn
trache
shah
possessing
edds
salient
##170
cadmium
yolo
##azolam
cenp
##rooms
##ortem
fe3
237
intrad
pauc
inserts
bacillus
ηp2
##lv
##模式
hyperp
complicate
irrig
originates
aerial
arrhythmia
5l
##a4
##oned
##ilient
deoxy
##andf
corona
wolbachia
launched
reminders
##omethane
kary
forn
##quilibrium
livers
##otherapies
hypothalamus
##protein
laid
secreting
polypropylene
bart
fle
我们
##ique
coma
party
lactobacillus
danish
##lamy
renewal
##empfer
reconstituted
pge2
##zd
drag
endo
continent
gea
hcm
gpx4
constituent
sfts
dnn
neuromod
apl
ibr
##reb
##ecd
withn
disintegr
cd34
emergencies
robustly
mansoni
410
l5
##6c
##oen
##tone
390
neuroendocrine
scalar
gal4
##diagnosis
inmultimedia
underpinning
detoxification
bou
##1a1
##inos
anionic
##iesis
metaph
recessive
fluc
intrins
oxyt
##marked
##oresistance
cable
dying
##etine
resilient
##ogs
phas
grinding
observers
equil
2125
043
lysosomes
photocatalyst
bags
sarc
##6v1
258
transmitting
tails
halluc
##algae
abscesses
duty
bimodal
##iers
traced
disaster
##ista
241
lessons
##117
carboxy
medicare
fundament
fixing
artifact
deconvolution
##450
##lla
##kel
behalf
##ellites
enters
introns
fluorescein
cas12a
overlaps
##acetate
##osensory
berghei
pangen
±0
emd
lipof
herd
updating
vasod
concatenated
##ctg
carbam
sarcom
alkaloids
acrylic
positron
1°
##functions
ofj
reside
cofactor
cards
##gram
csv
wrink
varic
anchored
permittivity
malformations
cynomol
slurry
tpc
##ioc
##ilm
allograft
pedicle
1987
fgfr
micronutrient
##onegative
gus
pvs
##nano
##相对
##then
brings
auxin
convey
buccal
lyophilized
amendments
siemens
##ivial
266
practic
026
##owski
artificially
##information
duoden
flaviviruses
##additionally
polystyrene
##mad
assurance
indels
remember
teg
waals
converge
adren
peanut
iw
##5d
##κb
thalamus
285
polygenic
consequent
pmi
translating
pyrrol
multimorb
amylase
sidak
neurofeedback
##评估
##idene
plwh
corr
foundational
pea
cd31
histories
##blasts
pai
ripa
orthopa
arithmetic
laz
thev
subth
wellcome
repeating
everyone
americans
oleic
libitum
chemiluminescence
ofpf
##atide
spong
ell
265
electroporation
##theastern
sacrificed
catechol
##ositis
orfs
predictable
gmp
destroy
yf
acted
scf
stri
##former
decentral
realm
speaker
kernels
##odynamically
pcdna3
##roliferative
deseq2
centi
fent
##length
##inis
heights
licence
handled
simplify
imbalances
consulted
antiretroviral
vaz
##eff
##agt
button
plasmon
##ogeneic
sdm
hypothalamic
##eeism
counterst
recrystall
gce
m4
ncc
w2
adl
coinfection
receptive
normalize
cytometer
radiative
##ilden
textile
intriguingly
d2o
##bed
##μg
##alid
stam
testis
##letters
inspected
disaggreg
permitted
nmdar
nim
##相互
exceptions
1100
30°
explants
570
interpretations
fingerprint
luminance
parathyroid
cpm
htt
lds
xc
##测定
##构体
orr
spa
soaked
combinator
pcm
rankl
pediatrics
10−4
credit
beverages
efs
≥2
##去除
seurat
leis
facets
mcd
cfdna
slowing
chromatogram
berlin
disagreements
dass
α2
227
suggestion
##ospatial
roof
sumo
restrictive
homeostatic
dissolving
bioreactor
multiplying
##utely
miniat
brig
narrower
kum
##废水
##arth
##aterally
pots
##okin
thinner
10−6
diminishing
##castle
vocabulary
ffp
##检出
ingu
aside
333
centros
photod
quantifies
ivt
centralized
osteoblast
glutamic
consolidated
francisco
succinate
dtl
vpa
##纯水
##ar1
isoprop
spf
summaries
svd
hairpin
tamoxifen
drosophila
##dial
diurnal
frustr
autops
patterning
325
icam
##ophilus
aza
##acetam
cholera
jurkat
supramolecular
hw
nond
infrequ
sdoh
converts
unstructured
myeloma
anchoring
pericardial
correcting
m0
##e−
##120
##保留
##aspecies
braf
classroom
239
##azen
dlb
ascites
##amethyl
tokens
equilibration
nodal
细胞
##m3
biotic
##potential
vk
scarring
##oxetine
nonparametric
238
seminal
mitosis
miller
leaflet
bigger
resistivity
ets
rpl
研究
##alo
anh
conical
bean
aller
abrupt
crd4
530
045
##azolium
ceramics
##成功
proving
pretrained
intrauterine
hemolytic
##ravel
upregulating
refriger
effluent
subtropical
fentanyl
fig6
robotics
amplifying
ssd
npcs
trachea
sedimentation
##base
of1
resembles
##ronectin
##ilson
manifold
smoothed
exacerbates
williams
−10
##dic
shaft
elusive
##ylate
##dr1
progressing
370
##gluc
missingness
lsd
spotted
truncation
amsterdam
##现出
unravel
diary
biog
societies
rcd
freshwater
postsynaptic
neurotrophic
plexus
bys
w1
##etti
firmicutes
maxima
complicating
tp53
queens
cxcr4
hamiltonian
cash
forens
##etwe
wwi
ceo2
picked
oligonucleotide
isotherm
iav
sect
##其他
perine
1010
abduction
peel
correspondingly
wafer
headaches
repaired
novaseq
junior
##holder
synergistically
micrornas
intolerance
dce
ires
nms
vat
##配体
truly
lex
bland
##oneed
##aneurys
caribbean
ptr
uve
##rey
shield
##004
##ropo
maca
capacitive
quantitation
milli
##balanced
laminin
incidences
scholarship
diminishes
intrinsically
1n
cant
fenes
lind
p62
tbe
wes
##fad
##idol
periv
biophysical
##ymm
twist
figure1c
equality
shortages
tcn
triph
##levels
husband
##defined
##summarizes
omnibus
##empferol
7e
pess
##ser
##arms
retrogr
660
cosine
fastq
violent
exponentially
warrant
dihydroartem
hfpef
bnt16
ops
pests
##复杂
##icon
##iration
shen
swift
caught
##raft
diarrho
ignored
taylor
rfp
theg
unmarked
phi
transit
ivf
sulfide
outpatients
aliquot
bodily
buffers
ccl2
qq
##alb
##ungen
##encl
##acks
coordinating
##holding
##hlh
territory
fetuses
##parasites
photoperiod
kk
pym
story
cd2
needles
##ochlor
handed
bulb
blastocyst
intensified
mirrors
inguinal
a6
tq
##转移
assis
barr
cauti
dai
complicates
broadband
underscored
b3lyp
estradiol
##cons
spur
mep
cars
grays
snt
misalign
resonator
sharply
ganglia
phonon
retrograde
dkd
##war
rewards
prv
ils
optimisation
speakers
universally
ripening
homa
##erman
synucle
rotavirus
assigning
gonz
nylon
##uf
##iologic
##acers
resh
crest
commens
##afe
bioengine
75th
hered
attenuate
sip
sak
##hiv
##8a
rejected
##oxazole
upg
psp
photovol
lipop
underwater
tendons
##pfass
eukaryotes
discriminatory
confidentiality
4t1
wss
yo
##mgo
##uren
##urin
detections
248
deliveries
polyg
##2o5
objectively
strokes
synchrony
consulting
nem
wj
##doc
chances
diethyl
arv
30°c
s2a
catheters
clouds
covalently
unpredictable
1m
gpc
huc
##uine
anodes
##ativeness
newcastle
336
implementations
tmp
governed
##342
astro
ophthalmology
dentin
mart
nut
sbr
sga
carc
##rolizumab
decide
hads
seeing
tailor
hypertrophic
##comings
vac0
prostagland
inactiv
stacks
##diabetic
harr
mission
trou
##添加
##enberg
##urine
##apto
depar
preflight
fe2
1600
rhamn
electrocardiogram
##稳定性
fcc
exfoli
pragm
##andl
cornea
microbiomes
boxplots
omvs
tunel
ontario
tibet
appreciated
##orporeal
beneficiaries
##asgow
lax
oreg
##ifera
afp
##ills
##illon
equine
cd28
eras
covidence
bioactivity
temporarily
immunoassay
justified
##oupling
mesoporous
rin
##opause
pathologic
mss
swing
shortcomings
##contain
ophthalmic
inhomogene
officers
pembrolizumab
gil
gob
nfl
clot
virions
profit
litter
adipocyte
chondrocyte
triangular
repellent
postmortem
leisure
cvs
##分辨
inbreeding
parv
alliance
##manager
vitre
modulator
benchmarking
pacev2
apexcov
apexcovantage
cch
png
##ativ
relu
abnormality
cardiomyocyte
morbidities
##eremia
resins
impuls
##gr5
80°c
sectioned
647
vicinity
ductal
##method
empowerment
##ambique
##roton
##quant
recurs
idh
capped
grows
papillary
##includ
tubing
rnap
dislocations
amoxicillin
bnt162b2
##aculture
champ
rooted
establishes
neighbouring
isopropanol
3m
cing
gis
rfs
##800
##的研究
modifiable
calculates
##etra
##copies
lipase
##167
adhesions
circumfer
affiliations
corticosteroid
biv
##found
##纳米
##anil
11a
molars
ctv
damping
sulfoxide
derivation
##flower
10−3
entrance
outperforming
carlsbad
3shows
基于
##idel
rehydr
##adr
glasgow
quantile
##azone
polyc
spatio
slee
##fe2o4
figure3c
lagged
losing
delineate
ji
mib
pine
ry
δg
##aled
##ymethyl
practically
##290
kanamycin
whisker
hatch
##5y
##xm
inclined
##ght
pcb
impairing
overlaid
favoring
mettl3
prerequis
##epithelial
##iri
acne
preoperatively
smi
##iki
vertices
tolerability
kaz
##氨酸
##esp
isopropyl
intent
##acker
fru
adaptable
photocurrent
lentivirus
2m
##bro
enthal
lei
##entist
##acheal
##omeg
305
testes
##ophyl
morphometric
compartmental
dissociated
##upplemental
emulsions
james
cpa
fission
##xand
statins
technically
##awere
##space
gnrh
bedside
fulfilled
betwe
cog
##筛选
##acyl
corpor
pouch
2328
cleft
educators
raj
ncds
##hrp2
accelerometer
gabaergic
unexpectedly
dichotomous
scotland
univariable
mozambique
combinatorial
synuclein
由于
##nrt
##lic
##elong
tohttps
##etent
armon
underrepresented
soa
expose
##sevier
0005
visualizing
recovering
##toral
elevate
opposing
appreciate
pollutant
##vertebral
ofelsevier
##gy
##revention
##imurium
spans
grasp
##ounted
generalised
worry
krt
bern
leishmaniasis
dihydroartemisinin
dub
noct
buried
staffing
metropolitan
##adaptive
qa
aspar
implied
subn
236
##ospir
transforms
inpatients
##相互作用
wine
##oquin
##tu
##esia
##ulae
alfa
##ynch
##erged
turk
hsi
temporally
pipe
decomposed
multiplexed
040
##6g
##estr
chalc
##opus
succe
mortar
glucagon
pcp
##tinez
antimicrobials
rmsea
vasopr
fecund
landscapes
pce
##2000
##温度
trnas
cofs
outlines
brist
colic
receipt
temperate
##iateness
pmt
substituting
##lete
dnmt
arabiensis
accidents
##c5
##asions
strings
##ovic
basement
heterocy
creatine
kaempferol
anastomotic
vortexed
misclassification
hta
##拆分
##idic
incentive
##ongru
##uber
decid
bragg
##haem
lysozyme
summarizing
tbst
penalty
armonk
620
##mill
##能够
##部分
##iex
cape
radiologist
##cyt
rotator
builds
dwelling
predisposition
cambodia
grayscale
dma
dxa
##aj
calf
bioanaly
forceps
1986
bringing
rwanda
jbi
peng
##1g
##kis
##iga
##apatite
arteri
cpc
propagated
glycosylated
carcinogenesis
broiler
##omegaly
hod
##fu
postin
localize
advocate
anthocyanins
ultracentrif
8d
o1
−8
##held
enorm
suction
bounds
delaying
puromycin
orbitrap
pockets
hipscs
e7
k3
lume
##良好的
##迁移
##anic
deuts
cook
brick
##genus
basically
rotations
printer
hydrophilicity
nephropathy
troch
##过程中
bariatric
tether
##水样
sew
##ensen
clips
##standing
histamine
ctc
tmt
##itoneally
bronchi
cyanobacteria
cultivar
occasional
##rad
##hin
##面积
##有效
##icz
2050
brass
depolymer
pscs
explos
erk1
acquisitions
aquaculture
sprayed
##studio
chemoprevention
##neurons
thei
##atm
as1
##iltration
##otactic
charles
postulated
nanof
tmz
##domain
milest
pahs
adducts
accred
forensic
##educ
##atized
mali
##cription
slo
analyzes
autumn
minimise
isolating
globe
440
dmn
owned
##groups
##oplasts
##色谱柱
hinge
oat
##calc
##lining
##qing
##ald
police
cd40
##luad
jeol
motivational
kolm
hpm
nhe
ofae
conval
islets
##chematic
mechanistically
importation
utilising
attract
transmittance
vertebrae
cd206
bits
fats
mct
nude
wur
##策略
##activated
##imers
##umes
slr
pmol
biotechn
pseudoaneurys
neurotransmitters
##othorax
myd88
##nap
##cnt
##wick
##kg
##iden
##ucher
redcap
athlete
erythema
ccr2
undesirable
ipc
zm
##osm
brill
expiratory
myco
summing
northeast
appropriateness
zhong
lags
104cells
solarbio
davis
cataract
cornerstone
lx
qr
sister
##atech
microchann
quintile
exploiting
##ogorov
此外
##ocompatibility
incongru
##ollen
hyg
risky
exciton
ivig
columbia
discharg
cgas
##plantation
##fantrine
h9
oroph
untrans
alloc
polyureth
ivs
ppf
glutar
digestib
cm−1and
oer
retains
thirdly
arguments
morphologically
##acrine
madison
editorialmanager
##条件下
furnace
interoperability
s0
thy
##anate
de3
trail
notation
supposed
pef
microalgae
exciting
chrys
fluoresc
032
uncor
autophagic
multimorbidity
030
##gre
thing
##romic
hei
dipl
matth
centric
infiltrated
synchro
lumefantrine
4and
sfr
##kt
##降低
##pps
abut
finer
##ardo
1002
microstructures
parenthes
russian
quadrupole
brow
nail
ym
##体积
##tines
researched
polio
313
carriage
pupae
kolmogorov
parentheses
hart
纯度
##erent
tol
spiro
##obacill
osse
##eletion
##osterol
stabilizes
##cnn
1985
restorations
##患者的
boc
d0
wf
x1
##rα
##sr
##enoid
##arn
atfigures
##ultural
cdm
menopausal
revis
cosm
fractionation
pgc
withdrawn
disappearance
glucocorticoids
##muir
dangerous
nanocarriers
assistive
jh
lst
##∈r
##imotor
20°c
allogeneic
##avas
molten
acidosis
vegfr
altman
##enicol
locking
agglomer
unemployment
f8
beef
co3o4
aband
cytiva
anxious
ribonucle
kindly
homologs
intraperitoneally
leptin
sequestration
seismic
photovolta
##otrans
##uese
##金属
##esi
assisting
barb
reconstructive
gluten
exemplified
logistical
pragmatic
iat
mips
punc
ror
wilson
##etom
##unctional
malvern
contracting
fibronectin
sensorimotor
granulation
compliant
retrieve
perpet
piezo1
##信号通路
oviposition
feng
fft
mong
##tw
##sil
tod
##acg
##apyr
1800
primates
ecz
invasiveness
authorletters
azide
toronto
disposal
upright
asymptotic
ave
bug
rebound
scp
scru
microcr
##alez
nucleosome
preferable
feeds
eclip
tetraploid
heterojunction
indoors
cbp
pae
##alin
revisions
episodic
discipline
hpf
ofox
collateral
primed
linkers
pave
speak
mags
hitachi
##rofen
##measured
5and
cpl
##p5
##anmar
cls
afs
disconn
##requency
stick
510
latitude
sfs
atopic
coaches
apic
neutron
286
267
generalize
menopause
intraoral
##hasic
luteolin
oblig
philipp
entanglement
cvi
fiss
lights
≥3
##gas
##iar
anhydr
##ysiology
swarm
myanmar
semaglutide
thorax
overwhelming
conjunctiv
##note
##bn
inges
##itations
##tring
ap2
opc
pathologists
307
##124
##127
masson
burning
tertile
transcriptomes
adenovirus
constituting
sorafenib
congru
nbd
δt
##动相
##侵袭
##ipy
##bred
intraocular
llama
teen
verm
##p6
##sn
spiral
twe
multitude
##017
patterned
figures2
nao
immortal
substituents
fluctuating
chronological
portuguese
meticulous
intravascular
taqman
ancestor
ladder
imid
unet
##ophenol
pdgf
myx
osaka
460
consented
##hydrate
##imento
justice
carcinomas
denoting
asynchronous
mys
mbc
##atom
stz
incontin
genders
redistribution
295
eu3
halogen
gsk3
quenched
##风险组
lapse
informatics
##ospital
beneath
separator
midpoint
stephensi
##bw
coales
etoac
confers
ache
273
trimer
bial
pab
##imon
##rice
sofa
cd68
nguy
centrifugal
undifferentiated
sediments
inconsistency
weaknesses
awarded
##observed
berghe
astrazen
##adoxine
oxim
vet
##tii
##erad
##olon
##ulins
ase
##adays
##008
polishing
##ammonium
symbiotic
##10a
##ardship
eliminates
attempting
h2s
rendered
bak
##uters
esr
adjunc
mitophagy
cui
restricts
terat
mn2
equivalence
subcortical
contractile
bang
uti
##glycer
##c6
disequilibrium
initiates
##ika
345
640
converter
s3a
lactose
jak2
eigenvalues
saxs
dialogue
##kc
una
##ectamine
oxphos
facet
sinensis
blockchain
##within
##1a2
merge
proceeding
undetected
biologic
##ultured
everything
hydrolys
vertebrates
hercules
astrazeneca
##otyl
##andan
##roup
agcl
esp
mvpa
##character
inefficient
crohn
barcel
soccer
religion
##ennial
##ocystis
hereditary
lia
mpc
##qr
##广泛
particulate
##ograv
##moreover
holm
cascades
##物质的
gonzalez
dx
tort
styles
mainland
openly
transformants
troponin
oscillatory
wolf
tricuspid
##aliplatin
unfolded
ofoxford
pag
##5and
##inic
##itarian
##olis
asv
##hae
markets
##axy
magnified
puer
pericy
aerosols
digitally
democratic
ciliary
−7
##3p
##apy
mmps
combating
s1b
runx1
compress
pharmacist
bisphosph
competency
no3−
cary
d8
yi
##4e
##oluminescence
##ocene
undiagnosed
oxaliplatin
bounded
ppy
nowadays
ehrs
wheren
mohammed
distortions
tianjin
##ekeeping
dti
eric
α1
thom
##essional
485
packet
046
aka
mitigates
densit
tep
##丢失
##terase
finished
##ovar
keyword
pdx
##rophin
annular
configured
permiss
##itoneum
##ophosphamide
ukraine
aeti
iac
##因素
##未知
##ineral
##ulant
arrive
halo
##ulsions
hydrolyzed
sealing
adequacy
tdtom
oxytocin
ddr
pasc
##氧化
thumb
##oning
pressed
charls
virulent
equator
##loq
zirconia
f6
trough
##finder
##comp
##lers
##tier
##itre
byp
cll
overpotential
gln
extracorporeal
cuv
cd86
entails
eqs
##zh2
mercapto
carolina
519
##urge
incar
##andd
raav
049
catheps
mycelium
conferred
pesticide
abolished
cmax
##olines
##odel
##unted
spark
##inear
##vidia
##olla
##athan
desm
##012
humanized
misuse
pacem
manipulated
pelleted
acrylamide
dance
ltl
sider
##link
##xl
##qa
##tronic
destination
##ctc
252
exams
##ekt
metabolome
optimised
##atalyst
marriage
argenti
typhimurium
amniotic
macaques
##eradish
dyn
ftm
laryngeal
qrs
##kar
thepf
andg
prf
##ewas
##osex
##inae
neurogenesis
##profil
polypeptide
trimethyl
vegetative
disposable
rearrangements
priors
2°
6m
dca
ddh
paving
wg
##atia
##tinin
242
radiography
anomalous
horseradish
moca
##platelet
cannabinoids
##p53
##ras
forb
rech
desk
expense
thermograv
808
##usspecies
heterogenous
csc
nat10
homeless
037
cyclophosphamide
##roleum
##washing
pico
##matis
##样本
andv
anderson
stenting
monkey
barre
superfamily
angio
southwest
fluoroscopy
pni
bentham
urgently
phytochemicals
synchrotron
ya
##non
trivial
spaw
##phaly
variational
##asses
smr
solute
occasions
normalizing
##roscope
036
worsen
manipulate
communicating
prostheses
asparag
scrutin
incontinence
icr
anos
boiling
ferric
031
fragile
##peak
toxicities
glycosyl
occluded
ventilator
hint
ptt
##nish
##mel
##预测
amy
apcs
thirteen
fluorophore
aaa
golden
parenteral
inequities
supra
##opharmaceutical
victoria
inertial
athe
nvidia
##arials
stating
poli
neuroph
##ttest
59pm
plasmonic
dysfunctional
##488
zeol
condensed
bioprinting
tie
##jud
##科技
##usts
orph
figur
1400
##emsa
donkey
bioscience
tables3
absorbing
hazardous
dissolve
honor
hoff
rj
##wp
paraf
##tebr
1021
302
##exc
osteotomy
petroleum
leptosp
binge
cdi
##util
##异构体
islet
##nss
s14
pfas
##ogluc
happened
xylene
waveguide
barcelona
vot
美国
tocop
withstand
as01
10−1
nanow
316
co2and
satur
gemc
choroidal
cryopreserved
4shows
lakes
##demonstr
aca
##ogaster
abi
centroid
visualisation
##rograph
fascia
pwh
sage
##出现
##aric
intakes
##ancre
graz
diffusivity
contingent
submucosal
3j
jing
pten
##rected
ory
avoids
##113
anger
travelers
##plot2
lidocaine
lipofectamine
tocopher
dpa
tte
目前
##bon
##强度
##apping
infancy
evade
basket
liposome
colistin
xiao
zns
##liness
##omeration
10b
304
superconduc
prioritizing
##apsules
internally
manipulating
##omponent
nocturnal
dere
##acle
bei
##cl1
##develop
purine
angina
bottles
hfmd
gibbs
salmonella
aas
avid
##性能
##olo
##osil
ataxia
lowers
liang
251
circrna
huh7
hourly
threatened
thymus
mars
sba
##mus
##agc
inch
##athic
301
vsd
newton
278
giemsa
christian
vitr
这些
##plac
spores
##ectasis
##118
sixteen
038
milder
##gcna
partnerships
dendrite
phyto
mta
##nic
##获得
##enzyme
the1h
##anum
moham
excav
persisting
electroencephal
peaking
porph
chlorine
tolerate
unseen
occupations
payments
corroborate
##atrix
multiscale
sentiment
##corresp
dichloromethane
##ocrystals
bai
rtt
##opian
disp
seated
crust
il6
barley
waven
##aux
hcw
vasculitis
inhaled
##targeted
bcl2
hemic
l的
laryng
257
powers
homozyg
comprehens
##thetics
northwest
##oderma
allergies
7th
xs
##2is
overhead
antidiabetic
##yclic
gemcitabine
gca
gfr
sys
outlets
digest
##holm
unequal
bass
##otaxis
atac
seoul
desens
methacrylate
monitors
poi
adjustable
##gbt
remodelling
rhythmic
seventh
urethral
underlie
heuristic
withb
##ersen
embr
fev1
malon
immunore
mgso4
##othermia
belt
naa
preventable
collagenase
##oblastic
unfolding
procurement
##astig
##aple
lef
vascularization
mildly
exchanged
##ofilm
##works
distorted
biologics
polyurethane
nguyen
cte
c16
e4
u2
##code
##电子
##tina
ofx
##reve
##uretic
spore
intergenic
##ovs
inflamed
contras
logging
agrees
##adsorption
bull
protonation
underestimation
microrna
microneed
pbpk
bah
god
##hai
afforded
##capac
pumping
jaund
##ener
##leishman
trast
##quitos
##formed
cmd
essence
homod
ocd
npis
##ambigu
##odermal
underestimate
bundles
photographed
##eptidase
bore
f7
folic
kos
rut
##f7
##种目标分析
##包括
##∶1
##icated
stn
drg
commenced
oxidant
seriously
ketone
pangenome
dnt
fang
kins
xie
shaken
##igned
amsm
martinez
compete
hlh
multimedia
sy5y
territories
1990s
controllable
quaternary
incarcer
cun
saint
##will
##induc
##leading
##utant
##bsy
phthal
##reshold
depended
tnm
financing
##etomidine
stit
##a549
##inar
##aser
##ingual
##ulo
##ipro
sclc
dii
##ubiqu
presynaptic
glucoside
cpe
committees
gnn
investments
trout
coexistence
roth
forg
healed
neutr
ppc
ptms
aβ1
exertion
killed
##assembly
diction
lichen
##pk
##alt
contag
proteinase
seronegative
pd1
eqtl
sara
bronchoscopy
enormous
pik3
##上述
##amen
finds
monochrom
postdoc
470
removes
permeate
rods
mwcnts
companion
obstetrics
617
vwf
##hel
##方面
storm
##apa
##onald
knocked
traveling
juris
hydrolase
interim
amid
mao
fishing
pmr
planting
042
titre
financially
darkness
deformations
ebola
nomencl
yolk
strikingly
againsts
ltc
pim
##fol
##edics
chs
##cht
phones
medically
##timulation
grp
activators
associates
##oka
electrochem
continuation
mcmc
federated
hydroxyapatite
imbalanced
xylose
fvc
loudness
bivalent
rbm
##pbs
##isch
stride
amss
intric
263
synthesised
rads
##aughter
paucity
ej
fdm
gif
gct
rstudio
乙腈
##tite
##andt
algorithmic
mcg
inserting
jobs
schizont
schizonts
catalyze
helicase
dissimilarity
adjuvants
bum
##omass
leaching
heard
maladaptive
##fld
optimally
##quee
symptomatology
##bling
##159
##184
ferment
033
ceiling
arthroscopic
nacional
eclipse
mond
ron
##alic
anodic
##007
625
harms
srp
docked
generalizable
##concentrations
trastuzumab
c10
holog
tj
uw
wisc
##导致
##tica
##ysym
args
eluent
excip
##prote
externally
sulfadoxine
resonances
tagging
cartridge
a5
为了
加入
##fonts
##bul
##mh
##aturity
wasysym
imd
##quist
12pt
1960
setlength
lifting
errone
##190
##rsfs
69pt
cyclo
##ss2
rankings
documentclass
committed
oddsidem
mathrsfs
hydrated
figure5b
##acoes
amsbsy
amsfonts
agglomeration
##范围内
upgreek
amsmath
amssymb
oddsidemargin
401
uph
seaf
gru
submic
##rick
##ceptive
pulled
044
tcp
simplex
discriminating
laparoscopy
stanford
figuress
jaundice
udp
##etta
430
ns2b
packaged
cava
devised
isotherms
optoelectronic
reorganization
然后
表明
##ames
aldehyde
##abi
chile
plla
endoph
dmr
##151
041
##1and2
cube
exploitation
glycoproteins
delineation
tkis
dalys
intranasal
rodriguez
ots
ssh
inks
##andh
table6
268
sulfon
browser
##solution
##高的
ofin
##usarium
##plane
##ignal
##tention
ptv
titres
anthropogenic
ulcerative
bend
lining
##lec
undefined
##unders
msp
cme
guidew
048
falciparumin
##absorption
pyrethroids
eigenv
##blastoma
mngs
diarrhoea
hds
mre
##uh
##elo
stagn
unity
modifiers
replications
scientifically
srr
##dhfr
##olinium
disadvantaged
wald
vend
##2po4
##econds
##cr1
hash
inflated
boe
facilitator
fcn
##2015
ameliorate
hydrocarbons
contradictory
dick
hpd
##cel
##cus
##urus
##ocaps
ada
proteobacteria
cd56
##axanthin
admix
crystallography
telework
mannose
submerged
mismatches
carotenoid
fx
##联质谱
inexp
##agro
clp
##introduc
##ectoral
logit
robert
##opez
##ylem
galectin
appreciation
ultrafast
torsion
fundamentally
g0
hass
rer
##b5
##2h
##oric
stark
ari
##tiveness
##rolimus
cardio
handwashing
cvds
dfg
trustworth
detergent
jans
nca
tung
##det
##ifidobacterium
triter
doe
affairs
markup
s17
sprint
hematologic
rfm
answering
michigan
dystrophy
klebsiella
##amphenicol
vulgaris
contrastive
630
##的方法
##org
##oris
##ags
characterise
mainstream
worn
sterilization
summarizes
vena
pb2
melanogaster
sinusoidal
igf2
pillar
doubled
##entang
infinity
transitional
insensitive
subsample
cd27
lipophilic
fasta
trimeth
aggress
homogenization
poured
gear
≥0
##oub
##uish
##scs
##阳性
chow
##oprote
distillation
scfa
calves
##azo
triad
oncogene
housekeeping
fsh
±1
##facts
##lelic
##icula
##vided
relapsed
twofold
categorize
refres
pedv
accountability
tetramethyl
figure4c
invertebr
intestines
tenderness
gos
pst
##ente
withs
##otella
reluct
cd36
##roscopy
medias
##weighted
fastest
shells
fingerprints
hindr
electrospun
prednisolone
nicotinamide
tdtomato
dpf
tpm
aces
heel
hept
evac
##mse
hypothermia
##iatus
thresholding
##177
mnp
##2016
advocacy
triphosphate
720
cga
gms
xylem
##tur
##hv
whr
unig
meq
277
hypothyroidism
hardly
laparotomy
stoichiometric
cfp
eic
pant
uae
根据
##tand
anaphyl
preprint
##014
erp
60°c
radiol
##cnem
antagonistic
ggplot2
##ospores
striatal
fto
gans
pbc
##osamine
intersp
##star
cran
minds
cai
##115
magnitudes
migrated
groundwater
catalyzes
towns
oversight
urgency
aneuploidy
aag
lbd
lighter
pba
##机制
##owa
exosomal
##iravir
enforce
##144
##157
nhhr
infarct
##ocyanate
unevent
japonicum
##及其转化产物
m−2
pages
zol
##112
##β1
##tizing
inan
##omies
chao
imc
insulation
finance
solitary
inject
shortness
##155
divisions
file1
audience
pneumococcal
pbf
multicoll
yolov5
carbapenem
4°
eac
ffr
kif
lavage
##asomes
##ilon
spt
administer
silenced
##165
##ontally
distinctly
pm6
weakening
frontline
##enoquine
pierce
hamm
lloq
sdi
##pq
##峰面积
enz
phased
296
cs2
beamline
##variants
tafenoquine
vazyme
thermogravimetric
doll
gase
hpt
hilden
kang
thej
##trated
defence
slns
##away
focuss
bioassay
039
upregulate
exerting
totally
1in
≥10
prothrom
##uminescent
drastic
localisation
2023a
verifying
biphasic
hallmarks
nanofiber
prednisone
gj
xf
##前处理
##emics
seir
guest
roh
teer
photoluminescence
cspb
manufacture
inadequ
genotypic
##activeness
meningi
gtr
rog
##dx
env
poster
simpson
participates
epcam
287
##azan
millim
gastrocnem
adenoma
mathematics
antimalarials
inexpensive
withc
defor
developers
##arta
dominate
##203
ulnar
bait
clinicopathological
raters
biggest
hydrocarbon
artefacts
imperfect
oocysts
##lyc
reminder
pept
extractions
acidification
delib
mems
iris
cytology
cytometric
cov2
damages
recognizes
dispersions
azithromycin
tfh
preprocessed
escalating
diversification
nascent
gastrocnemius
stance
##urea
suz
##stones
antiplatelet
bray
mmv
nkt
terminals
benchmarks
aberrations
stl
recher
2126
##apsing
594
smoker
illuminated
luo
boltz
routines
clothing
antidepressants
mentorship
jr
##n0
##tetr
##essel
deer
disentang
decellular
nonr
swcnts
##plastics
gpx
##individual
miscarriage
circumferential
bss
dow
fso
worm
inactivity
andk
##tinence
calcified
##016
##018
guard
metabolized
gastr
transitioned
tracker
misinformation
arrowhead
nlc
antennas
mirrored
##混合标准
enclosed
mediastinal
mbs
rivers
wen
##4种
##strain
##titer
conges
meiotic
methan
##ggt
deproton
ecog
odont
pedig
projekt
##markable
bcva
nrt
containment
palate
prevailing
expresses
##graphy
extrapolated
macromolecules
myofibroblasts
bureau
enthalpy
multicollinearity
3×
ezh2
##eded
##arp
##roke
##abric
##etries
pubs
biotek
phagocytic
oligomerization
endeav
eyelid
glutaraldehyde
h7
##工具
##发展
##方式
##acon
clut
smir
502
patellar
synthetase
cholinergic
fgds
unremarkable
philippines
adjunctive
nomenclature
hib
p7
##atre
##aped
preex
pleth
##phys
repulsion
realization
dsbs
internationally
photosens
seemingly
gathering
lingual
sputtering
neighborhoods
wrapped
##profiler
thai
##equation
##iano
postgraduate
transformers
discusses
sharma
dialy
wetting
accommodation
calorie
pursuit
mack
squee
tied
##ww
##性和
##灵敏
chord
20th
polished
limon
auf
nmp
297
retroper
discriminative
endocarditis
quiescent
sier
vp1
计算
##小鼠
##am1
##agog
trpm
##predic
mgo
annulus
ptm
transfusions
reposition
artemether
##apolis
spreadsheet
kre
xx
##din
##建立
ofz
anda
##station
mmt
creep
##plasmic
hcg
dpbs
navigating
nitrite
mitogenome
##increases
repurposing
ottawa
biallelic
bout
mine
nil
sst
compaction
dio
##akh
collapsed
##oleuc
##011
schiff
292
oscc
hemp
feedst
walker
dermatology
oscillator
buds
authentication
duodenum
4s
780
c14
dentists
pus
pads
ted
wgcna
##骨架
##arone
##othi
crime
pathologist
workup
##afety
depolarization
pdm
##206
attractiveness
aspirated
bootstrapping
infiltrate
ileum
judgement
geometrical
disagreement
autoencoder
pbe
##oprotective
froms
heidel
intel
##tained
cd25
centri
perfused
surpassed
thawing
1p
yin
##nac
##类型
##问题
##aturation
traf
coach
cd38
flowjo
accumulates
erythroid
budding
gvhd
khal
p30
saus
soma
tym
##could
##mt1
##扫描
##cephaly
##iva
allied
monov
quino
schro
318
buy
lifetimes
hyperint
psychotherapy
laterally
governmental
expenditures
ureteral
orthopaedic
ultracentrifug
fgm
hans
o3
##bis
##urfaces
##opos
##psc
##akis
syncy
##ophene
minima
dmi
##factors
costa
unpairedt
##wrky
fermi
cuts
fut
isg
##prss2
arima
predator
mmc
##cii
adaptor
glucan
lysosome
milten
boxplot
downregulating
vesicular
conferring
noticeably
shadow
unloading
dfs
n4
nig
y6
##based
##vular
##xp
##分布
##agglu
unidirectional
##encer
##ghum
coral
560
figure2d
h3k4
gynecology
notifications
mpi
ned
nect
rk
rox
##情况
dext
neovascular
infestation
mait
282
travers
biomaterial
##15n
professions
interviewees
mpo
dexmed
##ibrio
##osexual
hain
hifi
jane
kas
tere
za
##iologists
##液相色谱
##olus
##ulted
sct
scfv
##earing
274
halide
illustrative
walled
stemming
##562
pnp
narratives
overestimation
reimbursement
cingulate
eczema
byst
duck
forget
##andibular
##msm
apolip
##oxys
concentric
graphics
coloration
igg4
duplications
fluxes
pallid
dispensing
hydrochloric
physiotherapists
bioengineering
ears
vp2
computers
scm
idt
calm
sintered
carbons
neurite
adscs
##结构的
##ophytes
gsk3β
het
##alled
amar
glua
collector
##gener
##oleic
cd9
ers
casein
organelle
stip
cavitation
arabin
protonated
claimed
anonymized
plasminogen
bid
fal
lir
pgl
##bour
##己烷
##系统
##imi
##emoglobin
relay
##antst
smm
##atsu
osteosarcoma
tsc
##2s−1
deduced
amenable
erythematosus
dexmedetomidine
arose
eine
##cod
chimer
prur
##chez
cmos
262
279
framesh
maxill
lifestyles
##odiaquine
prerequisite
postdoctoral
lopez
m−
##gis
##hh
##embry
leon
##grna
disorgan
pcn
##loads
preventative
candida
stretched
manipulations
arabic
##olipids
palladium
photoreceptors
photovoltaic
heidelberg
quinoa
9c
tall
##nut
##odextr
spme
spondyl
transcr
transaminase
##aware
269
319
visualizations
pcps
hematology
inaccess
contractility
cabg
salvage
mbd
pav
##anet
##tract
modifier
evans
erc
adjunct
pc3
actuation
specialised
orthologous
pyrid
tetramer
acetylcholine
unmatched
cassava
lethality
gadolinium
##thoracic
intimate
pioneering
guidewire
##vt
##hole
##糖蛋白
##rod
##osecond
##uba
oxo
272
rutin
fischer
marie
bristol
5°c
qia
tki
##6r
##0and
##hist
##rogens
##uline
##umatic
##staphylococcus
instruct
sla
##ospec
##ospace
271
chloramphenicol
federation
rmsf
recrudes
antipsychotics
cyp3a4
cili
##同时
resum
fromc
scl
hav
##avalent
cups
cbf
svr
bullying
btk
dummy
dme
##f9
disinfection
##pores
desicc
2022a
##ussis
csd
##oplasm
penetrance
##transferases
cochlear
streamline
retire
unreli
ultrafiltration
economics
censored
caucasian
irrigated
##strains
##xin
todd
stear
pdl
317
323
radii
##istinguish
980
galvan
berber
etiologies
intercalation
boltzmann
dbm
nup
yr
##ithin
resurg
meh
bra
soaking
organis
edent
grounds
inclination
xenografts
doubt
ota
##hospital
##jima
##esters
##elmer
##utest
##chaft
decipher
##flag
nucleocaps
##iatr
pfm
vitroandin
bilaterally
rnn
berry
appealing
mercaptoethanol
ltp
mpr
nrx
##anch
##arious
flox
improper
confron
edna
electrodep
##aska
harder
deformities
neoplasm
oligodendrocytes
sparsity
pseudoaneurysm
sae
然而
##zom
stokes
intervertebral
invalid
colocal
abstinence
050
splits
capsids
joined
cropped
cytoscape
preserves
##piration
tourism
wedge
bup
mph
rsp
##900
##esus
##acute
##image
shade
introgr
invade
##berries
underlined
##arching
hyperther
sali
sixty
##torch
occupy
carboxylate
ofwol
atsb
endocrin
prokaryotic
akaike
1k
ning
sell
##abwe
##anto
figure6a
##ylic
308
##ospheres
##135
replen
definite
tendencies
tsb
collaborations
##ubiquitin
miltenyi
gep
##1000
##固相
##eland
##lys
##aman
##emes
parenchymal
##orexia
##otho
schmid
##188
facebook
horizontally
##opoiesis
accomplish
recapitulate
bont
oocyst
##gun
##仪器
##领域
##esc
itt
bri
myot
##134
clearing
pandas
047
dropping
telec
sorghum
wett
btv
ruptured
superscript
bibliographic
recherche
mall
zp
zimb
##amino
##itim
esbl
1700
##iazep
dissatisfaction
bog
iba1
r5
##xb
##oval
virion
##ophobia
inducer
ensembl
hyperch
cu2o
translates
lett
frontier
muh
##ataset
sierra
gets
kf
opls
具有
##lock
##onectin
##oco
##athi
processor
glove
##ovo
##anne
facilitation
excessively
hypothesised
km2
eosinophil
formerly
dyads
uveitis
mycoplasma
mog
rq
##相比
##aciens
asf
exhal
##ird
constric
##gressive
capping
epo
contracted
dimeric
bdc
ethylenedi
devoid
hydroxylase
hopkins
haptic
outgrowth
##posure
cy3
steat
oxidizing
##factual
herni
##compos
acceptors
adipogenic
reinforces
adsorbents
ductility
permeabilization
puberty
hms
zw
##between
##tree
##成分
##评分
assets
apba
sert
glc
950
acidity
326
icbt
##131
si3
granule
devast
imaginary
filamentous
alumina
egress
admixture
ios
lanka
rack
ttp
##oft
##uptake
##非靶向
##urization
storing
##amid
##agi
##opa
enfor
envision
##andra
1024
biost
##obo
delivers
intrahepatic
00001
neuroblastoma
##226
permeable
zein
dashboard
pertussis
coculture
ozone
microtubules
fcγri
smirnov
##应用于
toy
cooked
arts
apoa
extensions
##uprofen
immense
luminescent
rpn
metalloproteinase
remnant
dunc
naked
tamp
ys
##wave
##apro
##chair
impurity
responds
osteogenesis
transloc
entail
movies
ch2cl2
fatalities
##rofessional
tetanus
lactamase
contraindications
counterstained
autopsy
iatrogenic
cathepsin
dad
ftd
fenton
iba
mav
xbb
##eon
##uis
##关键
##atc
##ilumab
##opter
suit
interneurons
tread
##ylobacter
predators
##ormally
2228
supercapac
morphogenesis
pvd
##ethylated
overcrow
biodistribution
ail
avi
ipd
jar
tid
##atars
fei
concordant
##inda
##asticity
constitutively
##rogram
ellipso
##kan
##快速
disabled
impulse
ercp
standardize
viii
314
##154
osteomyelitis
sweat
oropharyngeal
d5
dda
##lt
stell
imu
clc
crises
##308
pandemics
recurrences
thesupporting
stereo
neurotoxicity
fecundity
argentina
fak
gtex
lati
nore
qe
##两种
unidentified
sp3
##timulated
grams
299
##ethods
##ussion
ssim
koa
fuels
cytoskeletal
ibuprofen
mitogenomes
banana
transcatheter
wettability
zimbabwe
dpv
gba
r21
结合
##调控
##考察
##elor
prion
indistinguish
##rosy
gravid
formate
endosomes
261
csi
##shan
emphys
slowed
conformers
bulky
hmm
actinomyc
cubes
lutein
cholecyst
neuromodulation
lpa
xiang
≥5
##g3
##hang
##at2
cra
crrna
escs
molding
cd137
394
mentions
langmuir
##orrhiz
mannitol
rarity
somatosensory
microhaplotype
##acetamol
allergen
pymol
##next
##kii
##ocs
##opulation
mafld
synapt
basidi
72°c
figures3
headings
neurosurgery
lemma
propriet
tlss
shiny
assimilation
ffpe
6th
cim
tonic
##aemic
##wat
##ulu
##trip
untargeted
itc
selects
##iciting
##ultures
microparticles
eda
tumoral
mortem
polydispers
rtx
##175
viewer
##glob
inevit
##enoic
mexican
hunan
##increased
inevitably
dph
##yces
##×g
##oro
##olizumab
##cris
cfx
##iscus
##aunps
hangzhou
naphth
##opyranoside
bdi
marm
tmax
vae
##aicin
staged
##uto
bevac
paracetamol
cart
serr
breakfast
electrophysiology
##penoid
revolutionized
bevacizumab
b4
c19
mig
pang
##×2
##增强
condom
adni
apob
inflection
proto
nucleoside
nsc
pfu
join
##presentative
##材料的
gingivalis
pleiotropic
baumannii
sftsv
3β
##olymph
whey
##open
erα
425
dopa
lycop
imprinted
tunneling
rectangle
yoga
antipsychotic
##固定相
convalescent
hgf
##uer
##需要
##artis
##omically
chb
overarching
grch
opaque
technicians
calcination
digits
bioassays
##146
nssi
underex
impressions
##arboxylic
denominator
transcranial
nucleocapsid
##rm
##新型
##urring
numbered
309
optima
434
linearized
figure5c
tremend
chaotic
tfe
##dles
inel
##ithi
uniaxial
nothing
##venous
reportedly
microf
messenger
preceded
neurodevelopment
actuator
haemorrhage
mohamed
hfs
iia
zap
##ulants
##igm
##orse
1950
nonp
totaling
underserved
radiomic
t2w
dhis
##dehydes
spliced
acetylated
otu
hbss
##electrode
##fluorescent
##保留时间
##overs
##生长
##ystic
spo2
spanned
##andial
##ensory
primate
##tegration
##207
muslim
dmt
intraoperatively
favors
blindness
udca
cadaver
rud
v6
##vm
refs
periton
opn
molds
ilm
swollen
discoveries
chinensis
surpasses
deforestation
proprietary
bthe
∼1
reset
percep
parti
smell
soap
commence
equals
love
unspecified
gesture
quadric
prominence
immunoprecipitated
arsenic
motors
grasping
witnessed
digestibility
hindrance
unreliable
h19
rbp
##fed
##新污染物
##thi
onward
preprints
##ethrin
accepting
disturbed
forehead
distinctions
s100a
socket
3°
##tosis
##®and
##得克隆
##omavirus
##amides
##otroph
imager
sco
amodiaquine
sket
pulling
529
lao
misleading
biodegradation
lidar
brca1
dictionary
##omassie
##agrobacterium
2r
pbr
rns
##关系
anov
##utz
sprou
clus
##vix
##ace2
specificities
curricula
contradic
preca
lips
campb
##embled
balf
eventual
capsaicin
quinine
necrotizing
immunocompetent
retirement
h2b
ome
v7
##nu
##eper
acd
chlamy
##opro
unambigu
paracrine
10°
recalc
indentation
endolys
mats
lifelong
338
instar
lymphaden
biosafety
s4a
senps
##prednis
tanks
unexplained
##streptococcus
font
iz
##erver
##oshi
##odiazep
amir
##atergic
glia
collisions
intratum
##neg
handheld
perturbed
exemplary
refugee
rav
×gfor
随着
##filling
##ch3
arach
##herence
brook
interprofessional
actionable
barcoding
skewness
pyramid
faecalis
indistinguishable
lfa
uas
分析
##cas
prebiotics
registers
##ostatin
esd
frap
24h
algal
macs
bhk
entitled
resurgence
7f
dans
##pool
##yang
inward
anin
##ports
dieti
##stage
##anca
##acking
eru
learns
mixer
photochemical
framing
recoveries
metastable
pufas
taught
warf
rheumatic
1980s
##experiments
##odomain
##hz
##arter
##reatment
##ilies
coomassie
genec
approx
ribose
inev
tapered
vigor
fujian
hmgb1
bacteroidetes
cine
fles
rug
≤0
##abd
spo
##gev
##rowing
humor
lowercase
0004
elevations
##17b
##boo
tmprss2
##dmd
begun
ribos
hydrate
histologically
gallstones
biopolymers
georgia
flooding
chaperone
practicing
photodet
bpp
hcy
hnc
jim
mced
##lm
##用量
##anter
##osc
##ouracil
probnp
lof
necroptosis
methylprednis
hss
suspicious
projecting
persistently
aucs
substitutes
semiconductors
forestry
3s
dob
hamb
pct
##lib
##验证
##anian
cl−
##alloid
multiplic
nmda
gui
ca3
logs
hcd
aerogel
1981
glutamatergic
whitneyutest
sesqu
rheumatology
malformation
transistors
3t3
b0
gk
ied
##转录
##测试
##催化
eluting
insula
smiles
peek
erl
edin
oc43
hexa
traveled
##plasmodiumspecies
amphib
recreational
psychoeduc
organisational
##1in
##健康
##inia
##amoto
##umi
unic
##eyer
representativeness
281
glucone
stimulatory
intraclass
reversibility
figure3d
fpg
fpga
wmh
##piratory
multinomial
absorber
gondii
briggs
pacemaker
p6
##zv
rever
##tedly
parcell
##006
gra
312
biomechan
##tiss
##187
pufa
ddpcr
philips
precipitates
amphoter
adduct
demyelination
##cofs
##vc
##ecan
##oconstr
antip
mais
edit
396
prolapse
midbrain
##22a
##brella
pyrrole
##ycinfo
permethrin
queen
elastography
##irculation
##knockout
settlements
byproducts
veterinarians
preexisting
mons
##during
##agasc
comprehend
proliferate
epidemiologic
sunflower
unexposed
extruded
sleeve
##zomib
6h2o
euc
lectin
pome
随后
##家族
beer
transthoracic
collinearity
psnr
324
initialization
novartis
draws
smoother
gambiaes
condensates
confluent
repressor
perkinelmer
##oposterior
peritonitis
ogd
##zc
##ocarb
chan
##dermal
##craft
##grip
drill
lime
parametr
photodynamic
dilute
cf3
undoub
deformed
propagate
h1n1
grande
nitrocellulose
launch
##pinephrine
pfrh5
entrapment
bhlh
wiley
##onis
prod
acros
fromp
signifying
activations
montre
braun
cole
psycinfo
inductively
ecu
flowing
##oxidation
tbl5
abbreviation
contraception
unemployed
nahco3
arrested
seafood
monovalent
moss
tpr
##dk
##cidin
##hua
##表现出
##oron
##according
periodically
##ldl
screenings
fragility
athle
merozoite
sante
aptamers
calorimetry
splenocytes
unveiled
##oglycans
stewardship
gaseous
jord
##n5
##nup
##的基因
eliciting
servers
quiet
342
radiosens
mdt
psychopathology
recurring
janus
hardening
umbrella
adjacency
absenteeism
##studies
honest
relieve
bloom
fluorescently
methylprednisolone
h6
wis
##eni
##chil
##009
filtrate
294
hemodynamics
macrocy
neurovascular
packets
merozoites
stayed
blastocysts
bitter
##families
assembling
slc7a
norepinephrine
dbd
dhea
gin
lanc
##hf
tha
clotting
##phenol
methicillin
commands
376
phenols
525
suspect
kerat
cx43
collaborators
procured
catastrophic
nectar
##bourne
yt
##pis
##chr
clicking
synonym
primitive
sales
##spac
##152
broaden
prostatic
harbour
endometrium
##phosphorylation
bacteremia
##灵敏度
apolipoprotein
pend
picking
wan
µs
##initi
##andard
##dialdehyde
outward
##oba
##obarb
306
knew
hyphae
##indo
418
ssrs
terminally
keratinocyte
talking
endorsed
hgb
lmic
renders
yak
##4d
##mers
##vastatin
##开发
##iflor
##adh
##apo
deaf
##quet
##obio
##flies
liposomal
refusal
ssi
implication
transporting
denser
xt
yah
##x7
##anoid
##uta
adrs
asser
pdna
hyperuric
critic
##hybrid
lc3b
neutralize
satisfying
autofluorescence
##dhps
nonsignificant
catalogue
##subs
talent
cd11c
##w1
##酸铵
conidia
fullness
291
mrm
seman
europ
solidification
misdiagnosis
horizons
1984
homogenate
analgesics
coverslip
tecn
prostaglandin
mth
##xyn
##ecia
shame
metap
finnish
subsection
##generation
informants
supercritical
crucially
544
##181
terpenoids
adiponectin
sanchez
ic50value
fte
lcs
ndh
≥99
##b4
##layer
##alate
chong
##ogo
##rospor
suppose
##ventional
glmm
283
behave
papain
##orbital
##ozapine
t1dm
convinc
fossa
criminal
cil
opr
anoph
meyer
finish
##overex
microd
guanine
nucleosomes
reconstructing
execute
haploid
sox2
strawberry
maneuver
devastating
sine
vect
##tls
##human
##accept
##union
##ached
flaw
discordant
mra
geological
s2b
cathodic
munich
quintiles
deuterium
instituto
mushroom
malondialdehyde
8th
ahi
tds
##beck
andx
alber
##trim
leone
intercepts
##ivo
nox
extravas
contrasted
diffic
map2
capacitor
pfass
##agenet
ppis
listen
gastrectomy
vitality
prematurity
##x6
##潜在
##ogenetics
polyester
ccm
##ulfate
authorized
##lessness
rotate
aβpp
vacuole
honeycomb
exhaustive
inevitable
sttest
fortified
resampling
##encias
samplet
hadv
defenses
##inks
implantable
mappings
inadvert
##2d6
dispensed
brittle
dupilumab
campbell
cbc
fq
##ratio
##达到
alerts
##arius
brine
moon
superposition
linkages
##163
##174
benin
turbo
680
computerized
alexander
cutoffs
tertiles
##ococci
interruptions
palpation
diffractometer
treadmill
##rer
##110
##y3
##位点
##atz
cd69
runtime
kinet
##conv
cxr
exacerbations
h2so4
joseph
transistor
snapshots
dac
kα
包括
##参数
##ro2
##opar
##andn
delve
2023b
approximations
clostr
predictability
textures
baical
fluorine
counterfactual
benzodiazep
bovis
##avian
cko
nonsense
pupils
coronaviruses
##atrans
biodegradability
telomerase
miseq
ookin
##aat
##zp
##olumab
unmeasured
parties
apd
popl
##ussp
hepcidin
childcare
ncd
hdx
knocking
ventilated
reactors
acknowledging
alphafold2
anteroposterior
lettuce
billing
gcc
jm
kstest
oes
##c12
twisted
irt
readability
psychologists
panor
holders
fsc
chi3
dropwise
thrive
##cheme
vitreous
##bled
##xd
##xv
##的吸附
##actical
aldehydes
comply
1016
plr
337
##ca2
s15
summation
saes
arboviral
voting
abbreviated
glandular
cylinders
intentional
hacat
commensal
nid
nuts
##optera
##oxone
standalone
discol
negoti
fluency
##aza
homework
manuscripts
palatal
meaningfully
joanna
payload
cytosine
encapsulating
fibril
singleton
actuators
##unsaturated
2k
tils
yosh
##due
##表征
thal
##opent
diseng
##pren
aga
fred
captive
##otyped
##pii
conclusive
deacetyl
kstest2
515
5shows
g12
i1
mere
tiff
##rine
##2e
##的分析
##esses
##opher
##antes
phs
contacting
arena
agenda
1300
335
visualised
azim
encourages
nonlinearity
rectus
profoundly
##差异表达
decentralized
hodg
iec
oud
yod
##icit
##rection
reacting
alspac
coerc
clum
##istar
delicate
openness
moderating
ivd
discovering
##orphine
uvb
surroundings
diffractive
lockdowns
extrapolation
sialic
cannabinoid
virginia
tibetan
hainan
h−1
tek
##wig
##ype
proteolysis
apix
molnup
dysfunctions
denv1
##605
directionality
tsa
vegan
inclusions
aliquoted
shelter
nchs
pericytes
amphotericin
molnupiravir
cbm
voids
##后的
##类化合物
withd
##optic
infused
##statis
presently
##019
intrath
##ychlor
circu
silence
polyunsaturated
airborne
passaged
augmenting
proceeds
predisposing
subdivided
hamburg
dall
ober
##gag
##mis
##jis
##atem
##icine
##among
imprec
etched
##icked
cardiotoxicity
##indole
realizing
gef
colorless
melbourne
colonized
rrt
aei
##otracheal
george
rhodamine
pomegr
hyperuricemia
hens
nash
nymph
##uu
##文献
weaned
interdep
brs
tempo
vaccinees
ssb
hdm
longitudinally
rainbow
openings
monoter
xylan
pillars
##基质效应
sorbitol
fluconazole
##固相萃取
undoubtedly
montreal
bbs
buch
gbd
jian
##胆汁
thrice
##tians
##erin
20×
pldh
##ologia
##athe
twas
apico
##013
biomedicine
icos
rao
cyclization
figure1d
foramen
perivascular
spurious
untranslated
edinburgh
4o
nyst
oac
pter
wats
##gcn
##inin
##imod
intero
##porter
cd63
0009
##istrains
##ibrill
compounded
connects
534
omop
uncovering
niches
judgments
##achnoid
aad
fellow
##lat
##j1
##超纯水
##ulla
styrene
ims
unclass
colibl
##annot
##ofur
##usspp
##136
catabolism
milan
milieu
dhaka
abstraction
1983
lamellar
happy
romania
##环境中
suturing
##wolbach
hampered
##inositol
aggressiveness
apixaban
4n
hdr
##uo
##lan
##中性
##复合物
##软件
##veld
##oxaban
pepper
initiator
snrna
444
strengthens
poorest
germplasm
mno2
mimo
##anoate
doublet
unwilling
pluripotency
archaea
chapter
accidental
nematode
eutectic
endophytic
fuse
gavage
paus
ryan
waning
##nk
##u2
##iosity
##途径
alge
microcephaly
cdai
cm−
##iko
332
321
##denote
prolifer
benzo
diverticul
incidental
seaweed
incongruent
urology
##erus
##omad
prox
spun
carto
apis
378
3500
denitr
blockage
cpd
converged
coordinator
hubs
##pfu
maxilla
echin
madagasc
undertake
microcapsules
##extract
hallucinations
ultracentrifugation
gang
iad
zer
##pons
##cx
##run
##enan
anhed
##ticle
prnt
##parallel
scikit
##122
incubate
inferring
disruptive
multicellular
gynecological
perez
ingested
berberine
n6
vign
wonder
##zel
##wire
##大茶
##aspergillus
##entanil
##imen
notified
numeric
temp
endonuclease
nucleophilic
connector
unsafe
stories
exchanges
monolith
heterodimer
dbl
rand
##mx
##上的
##iso
##amiliar
indel
overly
formulate
characterizations
505
extensor
crystallized
quarters
fsi
subcateg
quicker
enveloped
sox9
dinucleotide
victims
wheelchair
micronutrients
terephthal
quadriceps
sesquiter
colibl21
g5
lgbt
yas
℃下
##pvalues
##rv
##otin
##labs
##水溶液
##tigraphy
forcing
unbalanced
##enstein
##illes
intox
mlr
so2
endoscop
calculator
##etrically
transferrin
doesn
##251
practicality
prominently
arctic
logistics
##almonella
zymo
jmir
lamb
xai
ال
forum
asi
prodrug
coms
monod
cypr
rss
intentionally
##protectin
prefect
naloxone
##mac
##s3
theith
isometric
isopr
##oped
pric
colours
multipl
nanog
##oflex
prioritization
laa
thermoelectric
pseudok
satisfies
neutrop
trimming
pinch
syring
titrated
ceftr
bamboo
nivolumab
##811
##text
valgus
desal
upcoming
quest
calprotectin
il1
##full
epine
normalisation
357
segmenting
cfd
mammography
cxcl10
snail
acclimation
∗∗∗
recursive
##1gene
##oq
##的分子
crick
##dsc
12a
upgrad
ifg
##ouns
volatility
2022b
timescale
snv
moderated
##149
millis
##375
pacient
##xyfen
ttf
##cephalus
affiliation
adamts
officer
suffers
recrystallization
2i
jhl
ports
rome
δc
##rnas
##tie
acutely
cancell
##00000
##015
##ofrequency
snake
##incter
birthweight
personalised
hematuria
ineq
muac
gaming
echocardiogram
cqds
p300
inquiry
palmito
verbati
equatorial
##iproxyfen
fgr
nigr
r9
sx
stis
αs
##6and
##tan
##连接
##inarily
android
isoleuc
##dinger
monetary
##204
344
adapters
##224
580
replay
annotate
pyriproxyfen
occupying
putting
neoplasia
books
carlos
bibliometric
snapshot
boh
ncr
得到
##bot
##oise
andtable
##aping
clozapine
commod
certification
macrol
convolutions
northwestern
unfamiliar
vlp
sickle
##iaxone
supervisors
e8
vos
wand
##qd
##emann
##ellosis
interchange
##grams
vaccinate
351
6084
##139
bilayers
mvp
reversing
addic
attenuating
denatured
reconstitution
elaborate
ceftriaxone
lpm
##一致
##opancre
responder
founder
postpr
intronic
353
categorizing
ligaments
renin
discriminator
moduli
dbt
nasa
biotec
dpp4
unresolved
mentoring
turbulence
##addin
homelessness
p8
pfor
##2g
##变化
beans
##ostability
352
60°
322
specifying
##itry
substituent
pairedt
spleens
partitioned
leprosy
qtls
justify
autocla
h12
mia
ttc
δf
##oons
##空间
##ypox
##ugu
cyano
skipping
stressor
localised
migrating
merit
lactis
##oupled
tmao
mushrooms
hrtem
autoregressive
iacuc
5s
holl
sight
##vep
impar
microplastics
##oken
slot
networking
operatively
##195
082
cbg
epithelialization
complementation
immobil
metagenomics
−20°c
bkpy
cd163
diaphragmatic
immigrants
zurich
cherry
u87
##arum
##itate
##icide
beating
byc
##ellation
incompatible
##prs
dilem
mea
undernutrition
endnote
##etron
##micro
squat
##lotinib
##domains
fabricating
cryos
elaborated
honoraria
warfarin
vcs
##2vec
impose
##yness
glue
qualification
ols
nanocrystals
chemoresistance
angel
392
##2014
confluency
##almonell
frameshift
uio
##anical
##oluted
reop
##plored
##ibe
##itil
plank
reception
specially
##ympathetic
micelle
tester
distribute
355
proposing
##197
##tible
strobe
##occup
alleviates
quinquef
sapon
coincides
muciniph
estudo
jug
pch
r4
sre
xj
##氨基
##aml
reserved
diodes
eto
##na1
##arget
organizing
deriving
334
radiofrequency
s16
cncs
##179
expansions
streamlined
provisional
perovskites
##表达量
##etooth
galactosidase
inaccuracies
tecan
brasil
d7
fond
fusions
lacc
lae
tli
β3
##around
usable
trem2
##obase
serp
##artum
muse
heterochrom
refused
phenylprop
##populations
wherec
sutured
gratefully
nematodes
##reporting
dextrose
si3n4
##prenorphine
412
823
dou
marsh
anx
##aming
##ibs
##therapy
opg
##tigo
integrins
helium
##11b
ctls
contracep
radioactive
##ignificantly
sativa
citizen
craniofacial
nocic
enterprises
cynomolgi
asparagine
gluconeogenesis
m5
mpro
rrs
##gcc
##bv
##oi
##新的
##romagnetic
genuine
asset
##anga
monophosphate
producer
##inski
##reduc
constructive
choi
derivatization
violation
ddd
directing
piloted
endemicity
propagating
marginalized
degran
##质量浓度为
bluetooth
lgr5
xn
tofigure
##acillin
##usand
##emi
pervasive
##itious
phec
lifec
536
arrived
##author
pytorch
omission
richer
stratifying
universidad
##ozoin
ducks
mantel
vigilance
740
aap
eri
nai
p14
最终
##mail
##urt
##amy
craw
vss
##havi
##asco
realiz
433
glyca
chlorfen
permutations
pups
punch
herbiv
precondition
##odextrin
contraceptives
##报道
##揭示
anr
imi
sciss
plugin
1979
535
haemolysis
sgrnas
##quinoline
diphther
subclasses
retroperitoneal
aec
lund
sending
##恢复
##along
##olism
##oretic
insuline
patel
354
##11a
neurobi
glucuron
hern
transcriptionally
nova
hmo
pseudotime
tabulated
aunp
pills
trophoblast
slc7a11
madagascar
dating
moll
nuc
yao
##oacetic
##h9
tru
clsm
valle
##results
optimizes
scientist
abnormally
nrf
clarification
tdf
##otropin
inspiration
eosinophilic
perpetr
impractical
grassland
reconc
hypnozoite
ofjmir
anhedonia
isoleucine
java
##rah
amh
simon
quoti
495
wtp
##cycl
fao
ko细胞
lbw
ecuador
vif
##g12
##质粒
##atoms
##astr
##access
##udies
coq
meiosis
surf
escc
##leds
nanor
##fring
passively
##oplasma
fractal
mbq
hairy
fairness
##representation
trophozoite
oregon
3r
7g
fake
##los
##性的
##模拟
##thy
##anco
avatar
initio
barely
cleave
##ofi
damp
divor
passivation
aerogels
climbing
fluorophores
lsdv
vasoconstr
tryptic
multiplexing
motivations
guaranteed
restraint
orphan
chi3l1
fip
flying
jay
kend
padi
vpt
色谱
##igil
##atine
peeling
knife
memrist
ert
379
sinc
##ashows
##225
raft
meso
legends
etiological
interpolated
##electroly
##ostridium
sponsored
adrenergic
pomegranate
2π
mω
mik
yth
ε4
##aer
##这些
coin
1001
##ox2
##onstruct
##cribing
fluoxetine
361
thermoplastic
mcn
##2010
contaminant
amphiph
complaint
pursue
elispot
ginseng
cladding
uneventful
apicoplast
lrs
##2f
aldh
##abc
isogenic
medtronic
##ancers
underpin
informant
editors
##ikacin
court
ns4b
milled
##lington
callosum
tnt
##andida
rayyan
pseudoc
debilit
nyquist
hysterectomy
eighteen
jl
npi
##裂解
spines
##ppa
##onsin
decis
perioste
##artan
centrally
fernandez
gaug
ldlr
incompletely
##ucker
sphincter
##污染物的
subclavian
cowork
friedman
cuvette
ineligible
n2o
##µm
##串联质谱
##orresp
##idian
resta
amikacin
flakes
##oidosis
delamination
sirt
umi
##amente
inspiratory
circumvent
figure4d
tapping
gnps
turbidity
sglt2i
misalignment
excipients
wool
##tf
##监测
ani
##imoto
##irt
##ellers
prebiotic
##ophor
gupta
myrist
paint
nss
##302
590
larva
pollination
180°
ic50of
sulfuric
loosening
##obacteriaceae
frustration
[...]
